{"version":"1.0","truncation":null,"padding":null,"added_tokens":[{"id":0,"special":true,"content":"[PAD]","single_word":false,"lstrip":false,"rstrip":false,"normalized":false},{"id":1,"special":true,"content":"[UNK]","single_word":false,"lstrip":false,"rstrip":false,"normalized":false},{"id":2,"special":true,"content":"[CLS]","single_word":false,"lstrip":false,"rstrip":false,"normalized":false},{"id":3,"special":true,"content":"[SEP]","single_word":false,"lstrip":false,"rstrip":false,"normalized":false}],"normalizer":{"type":"NFKC"},"pre_tokenizer":{"type":"Sequence","pretokenizers":[{"type":"Whitespace"},{"type":"ByteLevel","add_prefix_space":true,"trim_offsets":true}]},"post_processor":null,"decoder":null,"model":{"type":"Unigram","unk_id":1,"vocab":[["[PAD]",0.0],["[UNK]",0.0],["[CLS]",0.0],["[SEP]",0.0],["Ġ",-1.817644236326558],["Ġthe",-3.27475503248127],["s",-3.3206108447784306],[",",-3.383047378383228],[".",-3.6115223540721093],["a",-4.002585867939407],["Ġof",-4.008420708000337],["Ġand",-4.102032306814936],["@",-4.150221083833728],["ed",-4.207240182320952],["Ġto",-4.316183706211175],["Ġin",-4.362057574423586],["d",-4.58664457026768],["=",-4.633464623535241],["\"",-4.724726391336333],["Ġwas",-4.938698083239203],["y",-4.954630369538977],["ing",-5.043834360926336],["t",-5.060259829830773],["'",-5.067277193493098],["-",-5.122340593752371],["on",-5.148120221596578],["ĠThe",-5.157451977865453],["e",-5.256368583519029],["ly",-5.306069923409503],["Ġfor",-5.387084598303586],["Ġthat",-5.402218709608535],["Ġas",-5.414751183132108],["Ġwith",-5.47343196277153],["is",-5.5267440878951355],["Ġby",-5.529985758343425],[")",-5.554460758379063],["(",-5.555068937116694],["o",-5.706199382708229],["Ġhis",-5.844361381198555],["Ġfrom",-5.855944964273059],["n",-5.889400471662059],["it",-5.922954542992198],["Ġwere",-6.051308015910163],["he",-6.0773387873798566],["i",-6.095415631511317],["Ġan",-6.208121175527619],["ĠIn",-6.212585619699311],["Ġhad",-6.244602178353407],["ĠâĢ",-6.294348712130748],["Ġwhich",-6.304752623355439],["Ġbe",-6.411854462091316],["or",-6.50128734790737],["Ġare",-6.590402665328259],["Ġbut",-6.605823291966228],["Ġnot",-6.606282402068656],["er",-6.666882813291952],[";",-6.671594655801625],["Ġfirst",-6.6764848678227136],["Ġtheir",-6.694864990647014],["ĵ",-6.695056159614932],["m",-6.697423703034712],["Ġher",-6.709562767819095],[":",-6.7242338625716265],["Ġalso",-6.732719602796669],["one",-6.7337198330860915],["2",-6.7471172210394315],["r",-6.774968000993807],["1",-6.815949622965027],["its",-6.818289403368107],["ĠA",-6.8195161957441695],["Ġhave",-6.823837615710481],["Ġwho",-6.831574181728813],["ĠHe",-6.862997959665826],["Ġtwo",-6.868672769310949],["h",-6.869333491401433],["Ġbeen",-6.899582322576091],["Ġhas",-6.901288457369009],["ĠI",-6.91077986008527],["Ġthis",-6.9433166415916325],["f",-6.976867108645848],["l",-7.008263658327062],["th",-7.017739550502242],["5",-7.0294380166548525],["Ġother",-7.042293901080297],["Ġafter",-7.05298694086421],["3",-7.056299310686402],["Ġtime",-7.062568695630079],["Ġwould",-7.076119394378079],["ĠIt",-7.087188132407455],["Ġinto",-7.109573140749367],["ies",-7.112609447204473],["4",-7.200230388404066],["Ġover",-7.221848562496197],["Ġmore",-7.229640453900242],["Ġwhen",-7.2896511869068075],["9",-7.29086937719881],["Ġshe",-7.312150857945552],["Ġup",-7.314624025139562],["Ġall",-7.321169921046156],["Ġhim",-7.321718488684702],["Ġduring",-7.356740197032275],["c",-7.365501717747335],["Ġthey",-7.365917526988355],["in",-7.369708655542121],["Ġmost",-7.385852579517321],["Ġgame",-7.3891007230537085],["Ġonly",-7.391261929621228],["ever",-7.394067722501269],["Ġfilm",-7.403101044451191],["Ġnew",-7.419134641934363],["Ġabout",-7.422943860887049],["Ġthan",-7.4231568605701295],["Ġout",-7.426154529830889],["Ġinclud",-7.42935638362785],["6",-7.439530009799002],["Ġbetween",-7.4434233156398975],["ĠOn",-7.4455515578473435],["Ġlater",-7.452307544197598],["Ġthree",-7.455514065346762],["Ġthrough",-7.481078127043364],["an",-7.492114269909942],["Ġwhile",-7.513829825068953],["8",-7.522973048276686],["Ġseason",-7.529660761690836],["g",-7.545531643602915],["u",-7.548220397379019],["ĠS",-7.552855983075537],["7",-7.554905930636346],["Ġrelease",-7.555113430846278],["Ġwhere",-7.560297991094243],["Ġmade",-7.568590455172227],["ĠNew",-7.585026743159178],["Ġ000",-7.593127225210122],["Ġyear",-7.603098409303778],["Ġsuch",-7.603790783058901],["Ġsome",-7.604942108492219],["Ġsecond",-7.610161815937378],["Ġnumber",-7.62199452300376],["Ġbefore",-7.622824603715509],["k",-7.633767800773468],["Ġwork",-7.656459855313532],["ĠThis",-7.656906620947826],["/",-7.658149720494897],["Ġhigh",-7.659382474825016],["Ġalbum",-7.663075106784111],["b",-7.665822830842016],["Ġpart",-7.6682646562231245],["0",-7.679001866462709],["Ġunder",-7.684463892495675],["Ġyears",-7.6868429817328465],["Ġbeing",-7.710989272978983],["Ġepisode",-7.7144072569033835],["used",-7.717745648276457],["Ġthere",-7.724623417881151],["Ġsong",-7.729029334409148],["Ġstate",-7.729189717780216],["Ġagainst",-7.731248858194972],["though",-7.741447047102559],["Ķ",-7.765429408111846],["al",-7.766561358680239],["Ġbecame",-7.768341812502699],["Ġthem",-7.773026572057553],["p",-7.774127572896941],["Ġcan",-7.774745299024142],["ĠUnited",-7.792473921038887],["us",-7.797179811158445],["Ġboth",-7.799653784977494],["ĠAfter",-7.801640384307973],["ĠAmerican",-7.802186154086725],["Ġseries",-7.811652413101061],["Ġwell",-7.813760395626003],["Ġcall",-7.827834416290308],["Ġteam",-7.828477603820993],["able",-7.8553268196406325],["ĠB",-7.857385912502741],["Ġfour",-7.861244536245884],["Ġlike",-7.865949552832683],["Ġsaid",-7.896286732195337],["Ġmany",-7.902934680069492],["Ġrecord",-7.903934353319219],["Ġarea",-7.905888952168404],["Ġforce",-7.91142649712064],["Ġseveral",-7.914288889308272],["Ġplace",-7.920707643783624],["Ġfound",-7.921391940820461],["w",-7.92169452253796],["Ġ10",-7.931101124659106],["Ġknown",-7.933424780950471],["Ġcould",-7.933545535314019],["Ġdid",-7.940004482794983],["Ġform",-7.952583303208375],["Ġuse",-7.956262289538907],["Ġreturn",-7.959126830662054],["Ġbegan",-7.961373847959635],["early",-7.970117937134313],["ĠAs",-7.9797474152164725],["man",-7.980677651993025],["est",-7.984038817396625],["Ġnear",-7.986749405429233],["Ġend",-7.991134883137889],["ĠShe",-7.996477510330516],["Ġuntil",-8.006085263502165],["Ġbase",-8.009515247887549],["ĠC",-8.016146596374949],["ĠU",-8.020622710728215],["Ġday",-8.028604579929144],["Ġmillion",-8.035029038363016],["Ġremain",-8.037513783350635],["Ġhow",-8.039826246224075],["Ġshow",-8.040115195267607],["Ġalong",-8.052893167113321],["ĠBritish",-8.06157803312679],["ĠAt",-8.063368743059728],["Ġgroup",-8.06538732458553],["$",-8.079707833385317],["Ġlong",-8.082101264696256],["Ġlarge",-8.086508355056933],["Ġfinal",-8.089141061096948],["ĠWar",-8.09175298273041],["Ġback",-8.092474939050522],["Ġoriginal",-8.095689964150605],["Ġthese",-8.096081754505121],["Ġpeople",-8.096780326420845],["z",-8.110231766808482],["ĠSeptember",-8.111535569461768],["ĠHow",-8.115528165253918],["ĠWorld",-8.11825878550792],["Ġsame",-8.122812461772792],["Ġmusic",-8.129979312183725],["Ġbecause",-8.132124852681809],["ĠMay",-8.132911383121536],["ĠStates",-8.13618319794028],["Ġattack",-8.139177728027787],["Ġplayer",-8.139992834159804],["Ġ200",-8.141758706155978],["Ġ20",-8.14416287549221],["ĠAugust",-8.14880265416697],["Ġaround",-8.152282646181721],["Ġmay",-8.152787026677858],["Ġkm",-8.15678124516215],["ĠM",-8.166469235523632],["Ġtook",-8.17159834052369],["ĠJohn",-8.175208832060765],["Ġ201",-8.175212103469464],["ĠAl",-8.179917374388053],["Ġfollowing",-8.182197750606454],["Ġorder",-8.183619190401025],["Ġsupport",-8.186758730391121],["Ġany",-8.192284289222572],["ĠOctober",-8.200296592500639],["Ġset",-8.204905678397283],["Ġsystem",-8.211966137393391],["Ġeach",-8.22246254239795],["Ġfive",-8.225814378840195],["Ġinclude",-8.226339667855365],["Ġmain",-8.230287786130317],["Ġcentury",-8.231858063577901],["Ġsmall",-8.236883183226496],["um",-8.239012094673555],["Ġlife",-8.239012582764431],["Ġ12",-8.240690060646504],["Ġsingle",-8.242125465599033],["ĠUS",-8.243602267579845],["]",-8.246211559224228],["[",-8.248286222519347],["ĠJune",-8.253681002477341],["Ġoff",-8.256390280642368],["Ġwar",-8.259247053908547],["Ġcity",-8.262016353734813],["ĠR",-8.26453574878457],["ity",-8.264771491770667],["%",-8.27357578151568],["ĠJuly",-8.273830578156987],["ĠNovember",-8.280378529384251],["Ġsince",-8.287256303134336],["Ġre",-8.287305229965876],["Ġdown",-8.288057575309532],["ĠMarch",-8.296780422382218],["ĠYork",-8.298784694939982],["Ġworld",-8.298833355989446],["ĠApril",-8.299255024609415],["ĠE",-8.305375384028673],["led",-8.308072660774574],["v",-8.308885738939708],["Ġ15",-8.309707221335847],["Ġwill",-8.31058048711728],["Ġname",-8.318626488356266],["own",-8.323099164087294],["Ġstart",-8.33235573104364],["Ġallow",-8.336521882066783],["Ġresult",-8.33934128146023],["ĠNorth",-8.340014765467185],["Ġleft",-8.344634718406068],["Ġcharacter",-8.345043168355607],["ĠD",-8.346836167141705],["ĠDuring",-8.349910352769612],["Ġgovernment",-8.351751829300296],["Ġdue",-8.355847614711926],["Ġlast",-8.356378454649853],["Ġhome",-8.356730141898513],["Ġwhat",-8.357819569070228],["ĠDecember",-8.359309338041136],["Ġthird",-8.359961087074312],["Ġconsider",-8.360470714803782],["Ġ30",-8.361734922163025],["Ġ...",-8.363818107111683],["Ġline",-8.364183800990878],["Ġschool",-8.367961035170387],["Ġmuch",-8.370250197878937],["ĠAn",-8.371298191018651],["Ġanother",-8.373624408775415],["ĠJanuary",-8.375313487795962],["Ġmonth",-8.375796763409681],["ĠF",-8.376363519347947],["Ġplay",-8.376524775594694],["Ġun",-8.37869333316972],["Ġal",-8.384620846166941],["out",-8.390226741991592],["Ġband",-8.392377569708298],["Ġrole",-8.39267233672591],["ĠWhen",-8.39281155378813],["Ġwrote",-8.393024830275191],["Ġchange",-8.396704332388207],["Ġopen",-8.397036525311261],["ĠSouth",-8.401596406450198],["ĠThey",-8.402016668534886],["Ġcontinue",-8.402450431806727],["Ġdeath",-8.40831309553806],["Ġwon",-8.40849448108336],["Ġ11",-8.40853848220881],["Ġgeneral",-8.418153576485324],["ĠDe",-8.425575860790342],["Ġposition",-8.427795158330916],["Ġ18",-8.428552637797605],["ĠO",-8.435215686088842],["Ġprevious",-8.437819000429908],["Ġfamily",-8.440117626403554],["Ġtitle",-8.444742577244021],["Ġbecome",-8.446644804389406],["Ġshort",-8.446644847374023],["Ġjust",-8.447590001473166],["Ġmake",-8.44968062304896],["Ġvideo",-8.450338098975003],["played",-8.450460371254481],["Ġdevelop",-8.45325869144859],["Ġnow",-8.457439892224212],["Ġservice",-8.458438157576905],["Ġsix",-8.460853682563615],["Ġbuilding",-8.462842231818009],["Ġnamed",-8.463025298936426],["Ġgreat",-8.46904674066645],["Ġship",-8.47073611734192],["Ġcomplete",-8.472133871047705],["Ġversion",-8.473091000650296],["ĠBy",-8.473410041329224],["Ġnorth",-8.4778714453108],["age",-8.482197632299501],["Ġmajor",-8.489802720999661],["Ġvery",-8.490172304660401],["those",-8.491509325055741],["Ġpublic",-8.493105756231175],["ĠP",-8.4953056349141],["ĠGerman",-8.495319334051855],["ĠFebruar",-8.49813276407998],["Ġ16",-8.498493315992977],["ĠT",-8.49967169128688],["Ġstill",-8.500113238091869],["next",-8.504113717356272],["Ġperform",-8.506371644030576],["Ġspecies",-8.50660518959729],["Ġ13",-8.50854467821219],["Ġbest",-8.510590240593237],["ĠSt",-8.511416446629523],["Ġperformance",-8.513405094400833],["Ġmatch",-8.520644348830867],["Ġevent",-8.521545221034861],["ĠNo",-8.52212261143221],["Ġ14",-8.522971764674239],["Ġdirect",-8.524974480140697],["ĠNational",-8.529283801405265],["Ġ100",-8.533848202559444],["ĠHis",-8.536215366038327],["Ġbuilt",-8.537797746462799],["ĠFrench",-8.538274824315943],["Ġ2010",-8.541978600434186],["ĠThere",-8.543995942492717],["Ġwithin",-8.54597065826174],["Ġheld",-8.546035334335388],["Ġformer",-8.546506775475185],["Ġ19",-8.546932026334826],["Ġpower",-8.548123012144039],["Ġlocal",-8.549302978159504],["ic",-8.55047792831728],["Ġlate",-8.550921231524805],["Ġissue",-8.555411733771756],["Ġagain",-8.559636466034226],["old",-8.561442693477693],["Ġweek",-8.566936092048616],["Ġattempt",-8.570907617381215],["Â",-8.576565888971952],["Ġ25",-8.578035873357818],["Ġsouth",-8.578244274787048],["ĠL",-8.586150779262555],["Ġproduction",-8.588643012029406],["Ġhelp",-8.591146681403602],["Ġgames",-8.593183825177862],["Ġeven",-8.593751350338351],["Ġperiod",-8.59522461293549],["Ġ2008",-8.595479388596573],["Ġpresent",-8.600628264793896],["ĠAll",-8.60065475481602],["Ġfew",-8.601459645079238],["Ġyou",-8.603402457026114],["Ġside",-8.605399913965998],["Ġwater",-8.606202891045122],["Ġway",-8.60654581807549],["Ġ17",-8.607282524011966],["Ġmen",-8.617058944511987],["Ġ2011",-8.618642723992984],["Ġamong",-8.619978916551618],["Ġcareer",-8.620713154575197],["Ġbook",-8.622197561582414],["Ġoften",-8.622932716023069],["Ġfollow",-8.626018705228873],["Ġcame",-8.627133592027356],["Ġstorm",-8.629282964639618],["ĠFor",-8.630114227557701],["Ġwe",-8.63042659222948],["Ġreview",-8.631503737337951],["Ġtop",-8.632626050396453],["Ġreceive",-8.634332752720816],["Ġmembers",-8.63490804102589],["&",-8.635002565122667],["ĠEngland",-8.635117766484232],["Ġtake",-8.635282841355785],["Ġreceiv",-8.637205756114016],["Ġdays",-8.640311859778372],["Ġfurther",-8.643024037976767],["Ġlevel",-8.643578190347261],["ĠG",-8.643635092451666],["Ġreach",-8.648313969060773],["ĠWest",-8.655921267049516],["Ġpoint",-8.657470461612911],["Ġ2007",-8.658809651802821],["Ġwant",-8.659372198572218],["Ġturn",-8.661444439682567],["Ġofficial",-8.662446277508591],["Ġstory",-8.663782516791795],["ĠOne",-8.663791535350777],["having",-8.66464537866764],["Ġdamage",-8.665046083572543],["Ġdifferent",-8.668479570729248],["Ġdescribe",-8.668504196890558],["x",-8.670365985432722],["ĠCity",-8.673554132121225],["Ġhalf",-8.674252788538695],["Ġtotal",-8.674319921093762],["ĠRiver",-8.677499782157422],["ĠEnglish",-8.678592999792704],["Ġjoin",-8.687567507902473],["Ġwithout",-8.695907349837782],["Ġhistory",-8.699153129019107],["ĠII",-8.699941858912279],["ĠKing",-8.704315095126063],["Ġlead",-8.705829488434917],["ĠLondon",-8.707596366219926],["Ġincrease",-8.708558590136635],["Ġsimilar",-8.710549595310699],["re",-8.717138409147777],["Ġclub",-8.718034619258479],["moved",-8.718235348772705],["Ġestablish",-8.720224110005638],["ĠH",-8.721480662459019],["Ġdie",-8.72194340424632],["Ġkill",-8.724405709296901],["Ġ24",-8.725020809930754],["Ġdesign",-8.732648226982738],["ĠUniversit",-8.732767263893823],["ar",-8.736405772345261],["Ġfull",-8.737543593196643],["Ġcontain",-8.740590633927436],["Ġtrack",-8.745371158414246],["Ġstrong",-8.75144275541304],["Ġper",-8.752356340289172],["Ġgiven",-8.752631051835234],["Ġgave",-8.756019516899071],["mm",-8.760647885670595],["ĠTo",-8.761125909855977],["Ġcontrol",-8.761318417448988],["Ġ21",-8.76336006907154],["Ġeast",-8.764523314069603],["ĠWhile",-8.764673349482484],["Ġcover",-8.765076913588562],["Ġdefeat",-8.766339233995682],["Ġget",-8.767198141914028],["Ġaction",-8.767897228715546],["Ġcompany",-8.778616959398168],["Ġreal",-8.781781340095584],["Ġinitial",-8.78312100641674],["Ġcase",-8.78553944199199],["ĠK",-8.790018539654854],["Ġwent",-8.79725241028741],["Ġlost",-8.797493414533584],["Ġaward",-8.798621950209677],["Ġwest",-8.80054457779678],["2006",-8.80177129019909],["Ġparticular",-8.803422187110872],["Ġreported",-8.80378912069494],["Ġyoung",-8.803989508121457],["Ġterm",-8.806422306343778],["stead",-8.807495833476999],["Ġadd",-8.810084689672134],["Ġproduce",-8.810329021102929],["ĠState",-8.810624846138905],["ĠAccording",-8.811096421587992],["Ġcommon",-8.811407027054194],["Ġclose",-8.812349825345493],["Ġcause",-8.81351720503225],["Ġdevelopment",-8.817998954147678],["Ġlist",-8.81886278246577],["Ġnever",-8.820321403160449],["ĠGeneral",-8.825681748673961],["Ġcountry",-8.826059870489157],["Ġtour",-8.82627451009675],["Ġstage",-8.827776386764958],["Ġscore",-8.828560144618416],["Ġpass",-8.830352821933893],["Ġusing",-8.832884063496179],["Ġtown",-8.834111589899424],["Ġsuggest",-8.834264630000119],["Ġfather",-8.838962951575503],["Ġfire",-8.840845892182312],["Ġrun",-8.841593576401598],["by",-8.842401064851469],["ĠThese",-8.844202603299285],["Ġ50",-8.844376478089151],["Ġaircraft",-8.845334483571333],["Ġland",-8.845727183699944],["Ġright",-8.846341724236584],["Ġhimself",-8.847037184087405],["ĠAustralia",-8.847795784516743],["Ġneed",-8.848508255446072],["Ġmaking",-8.848776977041561],["Ġmilitary",-8.848934654733377],["Ġ2013",-8.849092311055383],["Ġlow",-8.85402988071055],["ism",-8.857317347667173],["Ġcreate",-8.859338332035636],["Ġrace",-8.859402392817785],["ĠWilliam",-8.864055326291352],["ĠW",-8.868646981431894],["ten",-8.871548582565984],["Ġpopular",-8.872345386195246],["ĠJames",-8.873105989671426],["to",-8.873197875797374],["ation",-8.873340322135373],["Ġsite",-8.878408299926749],["Ġplan",-8.882717394258176],["Ġships",-8.883068462393933],["Ġtoward",-8.883646483901474],["Ġ22",-8.888742510348797],["Ġair",-8.889851136649504],["Ġeffect",-8.89210470532813],["Ġgood",-8.89247913178342],["ĠArmy",-8.896550353467182],["across",-8.89696734537345],["ĠAustralian",-8.898618054396492],["ĠDivision",-8.899736288347121],["Ġproject",-8.900006789481113],["ĠAmerica",-8.900405527786546],["Ġrange",-8.901126775248835],["Ġclass",-8.902872762814196],["ĠLeague",-8.906406810148392],["ĠN",-8.906810724708844],["Ġwin",-8.90723237125635],["Ġpolitical",-8.910765286136899],["ĠGeorge",-8.911589736971962],["Ġcampaign",-8.913031190486725],["Ġ196",-8.913988505801964],["Ġpopulation",-8.920335085057397],["Ġinfluence",-8.921516242541752],["Ġchildren",-8.922371336777426],["Ļ",-8.923760862296632],["ĠPark",-8.927022973238882],["Ġstyle",-8.931353247345701],["ĠStreet",-8.931898423106334],["ĠJ",-8.93287576900877],["Ġregion",-8.934154261130205],["ally",-8.939911411847834],["Ġwide",-8.940911165211844],["Ġaway",-8.94168083931857],["Ġfelt",-8.943692113472379],["men",-8.944494029035498],["Ġhouse",-8.944594559875716],["Ġ28",-8.947305436655254],["Ġwriting",-8.94757239897469],["ness",-8.949629035139095],["Ġtelevision",-8.953062586514772],["Ġnational",-8.954692182959905],["Ġchart",-8.95487019476682],["Ġappearance",-8.955382110782057],["Ġstation",-8.955642637106337],["taken",-8.956754129360586],["ĠCounty",-8.958538537460607],["Ġroute",-8.959145298047872],["Ġcharacters",-8.959857636904097],["Ġsent",-8.960039760879614],["Ġ23",-8.96241652435182],["Ġ27",-8.964879601547736],["ĠJapanes",-8.96505926713559],["Ġshould",-8.965926387563462],["Ġ2005",-8.966469972226493],["Ġsuccessful",-8.967708617948013],["Ġeight",-8.967913577309448],["ĠWith",-8.968077331462043],["Ġoffer",-8.968493482718388],["Ġeventual",-8.970933629823014],["ĠRoad",-8.973064920871401],["Ġhead",-8.973217869704833],["Ġvarious",-8.974194173748668],["Ġsongs",-8.97528752747978],["Ġseen",-8.979670491553202],["Ġcommand",-8.980967293485637],["Ġbattle",-8.981466951938849],["Ġ2014",-8.98814623893236],["ĠV",-8.988942556880238],["Ġseven",-8.994311236025279],["Ġthought",-8.995530086962896],["Ġdescrib",-8.996707832878311],["Ġroad",-8.998265823431485],["Ġmi",-8.99895014713476],["Ġ40",-9.00119790024407],["Ġ26",-9.004287539760027],["ĠX",-9.004759088233374],["Ġlive",-9.00791652443739],["Ġaddition",-9.008762082043893],["Ġmember",-9.011830446795958],["served",-9.012898480487198],["Ġless",-9.01716716752977],["Ġoperation",-9.018773145481003],["Ġwhite",-9.018993660152017],["Ġlook",-9.01959453062492],["Ġdiscover",-9.020698895192934],["Ġtropical",-9.02157018718397],["Ġlittle",-9.024390107532872],["Ġsignificant",-9.024754999662143],["Ġfight",-9.026728903108088],["Ġdebut",-9.02757347032031],["Ġbelieve",-9.031543820363208],["Ġpost",-9.032323924229031],["Ġpeak",-9.032486264299168],["Ġsuccess",-9.034880618267703],["Ġearlie",-9.036972041453764],["ĠAir",-9.037287495822401],["Ġdoes",-9.038121108920913],["Ġlight",-9.03884792753769],["land",-9.03924479070697],["Ġnight",-9.03982674953533],["!",-9.041017776899341],["ĠEast",-9.041254818492217],["ch",-9.04137908703543],["Ġhuman",-9.041522140577678],["Ġexample",-9.045392589994385],["Ġblack",-9.046334259976339],["Ġface",-9.050865583785061],["ĠRoyal",-9.050923966305833],["ĠIsland",-9.051433479526317],["Ġwomen",-9.052102992095929],["Ġappeared",-9.052121800770886],["Ġmiles",-9.054131741537416],["ĠMan",-9.055507477897079],["ĠSan",-9.06058645092046],["Ġdecided",-9.060968621675007],["ritten",-9.063303975309509],["Ġ29",-9.06336957567362],["Ġexperience",-9.065228278085048],["Ġaverage",-9.065260355445657],["Ġappear",-9.06592679896819],["Ġfeature",-9.069074275913364],["ĠWe",-9.072169881578473],["ĠHouse",-9.074323942077454],["ĠDavid",-9.077355719340153],["Ġentire",-9.079517264806592],["Ġfeet",-9.080351998583348],["Ġevery",-9.080583303069531],["signed",-9.082059287667832],["Ġco",-9.08316551802543],["Ġonce",-9.08435146765619],["Ġbody",-9.08639533429106],["Ġgive",-9.086700876310935],["Ġelement",-9.086817955594999],["ĠMichael",-9.08866923245344],["Ġsold",-9.0897286504811],["ĠFrance",-9.090124996228404],["Ġlaw",-9.091351288533518],["Ġreport",-9.092172387342007],["her",-9.092349653072786],["Ġtogether",-9.09266742900607],["Ġnon",-9.093756763918837],["Ġvisit",-9.097187211262527],["Ġpoints",-9.097400949522653],["Ġfeatures",-9.097439789792684],["Ġimportant",-9.099967513875109],["Ġask",-9.100059219530474],["Ġcrew",-9.102385644243562],["ĠStar",-9.10267802011781],["Ġdestroy",-9.111472577443498],["Ġnoted",-9.113313349865955],["Ġfront",-9.114298182093261],["Ġsee",-9.115335326144967],["Ġ2004",-9.118774392817059],["Ġtimes",-9.120475001167456],["rather",-9.12106193914232],["spite",-9.121459010620399],["Ġlove",-9.12476687443105],["Ġplaying",-9.124948543223061],["Ġground",-9.12573755407302],["Ġbehind",-9.128932625455304],["Ġmy",-9.129499220925476],["ĠRobert",-9.132899436899871],["Ġbrother",-9.133157685162988],["less",-9.135424062505825],["Ġgo",-9.135548326584615],["ĠIndian",-9.138916639013495],["Ġclaim",-9.13939453901936],["Ġfree",-9.140137832624006],["Ġconstruction",-9.14099620550229],["Ġten",-9.142513265885832],["Ġrepresent",-9.144974264300735],["Ġsection",-9.145889288666885],["Ġscene",-9.148759602494087],["ĠSchool",-9.149302571033726],["Ġman",-9.149409209879027],["Ġsaw",-9.150641158704099],["ĠSome",-9.152726580807009],["Ġsubsequent",-9.153488432467983],["Ġhighway",-9.154003053955961],["Ġdifficult",-9.154867008366418],["Ġrest",-9.155149718062955],["ĠYou",-9.156221765932496],["Ġstructure",-9.158070172690046],["ve",-9.158536667865548],["Ġrelationship",-9.158767897609717],["Ġrock",-9.159609840804693],["Ġheavy",-9.160331981199805],["Ġput",-9.162219782320959],["Ġinterest",-9.165471355937822],["ĠHenry",-9.16747546199378],["mph",-9.171029569292143],["ĠBattle",-9.171572622291201],["Ġguns",-9.17161827137813],["self",-9.17252402219995],["Ġoffice",-9.17395499469833],["Ġlack",-9.174765160983927],["Ġparty",-9.176067473398088],["Ġ2000",-9.178125539036204],["Ġprogram",-9.17826311136936],["Ġme",-9.178281005347685],["ĠBest",-9.179094564098223],["Ġfourth",-9.179337823038761],["Ġprocess",-9.180603566636648],["Ġborn",-9.180674549913668],["ĠOther",-9.182396868478525],["Ġhit",-9.183163567612171],["Ġleave",-9.184153423805665],["Ġcurrent",-9.18544037075405],["Ġcreat",-9.187620699653076],["Ġspecial",-9.18951092607976],["brought",-9.190121657571039],["Ġview",-9.19083918694968],["Ġprovided",-9.191860332827364],["Ġmodern",-9.192290834112855],["Ġrank",-9.193740516290505],["Ġindividual",-9.194390008921905],["Ġextend",-9.194879205347195],["Ġmother",-9.19578342237431],["ĠMusic",-9.196138395389683],["Ġfeatur",-9.196212742279803],["ĠBlack",-9.197587216991229],["Ġleast",-9.19759508785416],["Ġeffort",-9.197811767712684],["Ġact",-9.19888903780877],["Ġcost",-9.19928680961487],["Ġfemale",-9.200606493434083],["Ġproblem",-9.202642153089734],["ous",-9.203349000302321],["ĠWashington",-9.203960776726474],["Ġbusiness",-9.204358729370833],["Ġnovel",-9.205438599777521],["Ġcaus",-9.205504229334911],["Ġ500",-9.206345485064897],["ĠLa",-9.206692317630926],["Ġworking",-9.208971279255767],["Ġquick",-9.20975791987509],["Ġvictor",-9.211485705520245],["Ġmid",-9.211872622998047],["Ġscor",-9.215213535256822],["our",-9.218021706511902],["ĠPaul",-9.219534383979243],["ĠEuropean",-9.21967722734165],["Ġwife",-9.220428482891899],["Ġartist",-9.220512738617911],["Ġfield",-9.22174204140751],["ĠEurope",-9.221985140789222],["Ġlocate",-9.223221507172974],["Ġstudio",-9.224460885483076],["Ġrecording",-9.224525502541624],["°",-9.224775515715654],["Ġcritics",-9.225561016012023],["leading",-9.225861505997335],["Ġtroops",-9.225974196089924],["Ġcomment",-9.226206791688387],["Ġ31",-9.227026942782745],["Ġarmy",-9.22895919971028],["Ġisland",-9.23123519628443],["ĠFollow",-9.231876667198497],["Ġelection",-9.23419392848318],["side",-9.235061021069667],["Ġproduc",-9.237637444485138],["Ġcondition",-9.238467547968815],["ĠPresident",-9.24182307628401],["Ġmaterial",-9.242416083986685],["Ġcommunit",-9.243798580291505],["2003",-9.244987373308797],["Ġagree",-9.24522763841768],["Ġson",-9.246234866303212],["Ġmet",-9.246283508840133],["ĠCup",-9.247507268231745],["Ġhurricane",-9.248883151959143],["ĠForce",-9.24929679238786],["Ġsound",-9.251198909310473],["ĠFirst",-9.253100534143961],["Ġsea",-9.255539330115573],["Ġplann",-9.256145816748193],["ĠJapan",-9.257981712923547],["ĠGreat",-9.259833153806118],["Ġmove",-9.260281040656741],["Ġlocation",-9.261607624440575],["Ġvoice",-9.26199117797435],["I",-9.262465423496444],["Ġpositive",-9.263048195145956],["Ġopening",-9.264042399820063],["ĠTwo",-9.26539587387101],["Ġsoon",-9.266406401948597],["Ġgun",-9.267661051798697],["Ġreveal",-9.26872869184621],["ĠHer",-9.270315883159626],["Ġeither",-9.270497512890069],["Ġruns",-9.27063355536226],["Ġfar",-9.273870486678314],["ves",-9.275262956056789],["Ġaccept",-9.275834690047084],["Ġdirector",-9.278271253994044],["Ġcar",-9.279430968388533],["Ġmodel",-9.280225711767725],["ĠChampionship",-9.280309416243746],["head",-9.281697898773539],["ĠRoute",-9.284154310508624],["Ġusual",-9.285162399884406],["Ġsaying",-9.285287121783284],["Ġgoal",-9.285965045236745],["Ġperson",-9.28707720416764],["almos",-9.287180730609212],["Ġdivision",-9.287866950150882],["Ġdesigned",-9.288270305962728],["Ġlaunch",-9.290618543804072],["Ġregular",-9.291597053407294],["Ġfail",-9.291868904732997],["Ġhand",-9.292501092973925],["Ġshot",-9.293009914750991],["Ġhours",-9.293435054052399],["Ġlength",-9.295178285453],["A",-9.30017127327677],["Ġpossible",-9.300479234764019],["Ġsouthern",-9.301067672544157],["Ġpublish",-9.302664867244081],["Ġthough",-9.303381562379757],["Ġmovement",-9.304780228867102],["ĠWhite",-9.30516822476815],["ĠFrom",-9.306792786421722],["ĠInternational",-9.307686557822205],["Ġroom",-9.308699441320282],["ĠCharles",-9.310304249848633],["Ġ2001",-9.3103381040366],["Ġcapture",-9.310867469324316],["Ġavailabl",-9.310964151573387],["finished",-9.313185357872085],["Ġinvolv",-9.314405933160778],["Ġtraining",-9.314537829800798],["Ġgain",-9.31636675545356],["Ġvocal",-9.316639687669603],["Ġcourt",-9.318700076303966],["ĠThomas",-9.318750746500935],["ĠKingdom",-9.319889643719183],["Ġfigure",-9.320042234440217],["£",-9.320765826606458],["Ġworks",-9.321123401140124],["ĠNavy",-9.321591122312412],["Ġdecision",-9.32544813937574],["Ġminutes",-9.326362923537046],["Ġunit",-9.326472171510957],["Ġwriter",-9.3273042068009],["ĠHall",-9.329353133341394],["Ġmagazine",-9.329474237597267],["Ġlower",-9.332716875503952],["Ġmaintain",-9.33404214848075],["ought",-9.334815713754928],["Ġcontract",-9.335108711615156],["Ġcontinu",-9.335262540393991],["Ġcast",-9.338538909737766],["Ġapproach",-9.342097359863939],["ĠMe",-9.342754531102699],["Ġnorthern",-9.34286329921419],["Ġinternational",-9.34406711067574],["Ġmix",-9.347848713540943],["ĠCanada",-9.349234548687575],["Ġsurface",-9.349415568673866],["Ġexplain",-9.34945982185535],["Ġ2002",-9.349528139933623],["Ġleague",-9.350355182767924],["Ġlanguage",-9.351976793756767],["ter",-9.35225097407829],["Ġcentral",-9.35270244587291],["Ġraise",-9.353894424272811],["Ġmust",-9.355853300710004],["Ġstudy",-9.35717897992835],["Ġround",-9.35724782697179],["Ġcarrie",-9.357817836226133],["Ġfind",-9.358657045057987],["ĠPeter",-9.3588988848742],["Ġpiece",-9.359076210273036],["Ġletter",-9.359777942928265],["Ġshare",-9.360525915154707],["ĠCalifornia",-9.363521828485712],["Ġregard",-9.365435072023937],["Ġcome",-9.366947096152078],["Ġimmediate",-9.367445777005393],["Ġfriend",-9.368726230276826],["ĠAward",-9.36903341825677],["upon",-9.369164476622183],["Ġtaking",-9.369267453989366],["Ġsize",-9.371165182812657],["Ġrequire",-9.375005072786074],["ĠCourt",-9.37511069793009],["Ġsocial",-9.376123938256491],["Ġclear",-9.378215643903658],["ĠRed",-9.378560005905696],["Ġactivit",-9.379368957680452],["Ġbetter",-9.37956986340801],["Ġpre",-9.381989054009019],["ĠGame",-9.383504104359288],["Ġended",-9.385815084451021],["Ġart",-9.385911813041819],["Ġpersonal",-9.38686536493852],["Ġadvance",-9.386997410654661],["Ġenter",-9.3878597737254],["ĠUnion",-9.390257234895167],["Ġcommercial",-9.39035764498963],["Ġenough",-9.390553906557418],["Ġchurch",-9.392888394311088],["ĠIndia",-9.394351800759127],["Ġaccording",-9.395249695669623],["Ġ191",-9.396257639130674],["Ġabove",-9.397441350984456],["Ġstar",-9.398084601909767],["Ġoutside",-9.399120478724539],["ĠSmith",-9.399308950351413],["told",-9.399533304971179],["Ġslow",-9.400685004110585],["ĠAct",-9.401583310709684],["Ġbeginning",-9.401630172524458],["ley",-9.40205837646781],["Ġrelative",-9.40426740053221],["Ġadditional",-9.404808224409306],["Ġannounce",-9.405474375814647],["Ġtest",-9.406631786524278],["Ġgoing",-9.406771559496681],["Ġcut",-9.407416621813638],["Ġdaughter",-9.408046584876166],["Ġ1990",-9.408177836793662],["other",-9.408838780592639],["Ġnine",-9.409288167659994],["ĠSea",-9.410241734162117],["Ġanti",-9.410460886031883],["Ġanimal",-9.411283671716154],["Ġconduct",-9.412689817799265],["Ġfocus",-9.413383459605058],["elected",-9.414596381087515],["ĠCompany",-9.41485471964803],["Ġwinds",-9.4154150312813],["Ġresponse",-9.416889584804512],["Ġ60",-9.41787502348561],["ĠCollege",-9.422938087012744],["Ġinterview",-9.42318735968132],["Ġexist",-9.423387595097527],["ment",-9.425009990989478],["Ġevidence",-9.4257294247062],["Ġpressure",-9.425782123791672],["Ġlarges",-9.426298599583943],["Ġsometime",-9.426860431538477],["abilit",-9.427675155451176],["ĠChurch",-9.427718078012731],["Ġspace",-9.429572018325405],["Ġcoast",-9.42973438540249],["Ġtheme",-9.43111970053418],["Ġdespite",-9.431430346367534],["Ġkeep",-9.431509554907358],["Ġidea",-9.433229844422252],["ĠHigh",-9.434502647313234],["?",-9.436640874883434],["D",-9.43665920329553],["Ġprevent",-9.437149029912396],["ĠGermany",-9.438677151169802],["Ġvillage",-9.438822078613168],["Ġsubject",-9.44190191990848],["Ġmusical",-9.44193994168745],["Ġconsist",-9.44298725893578],["ĠHill",-9.443335959439047],["Ġspeed",-9.44339097932338],["Ġsoldier",-9.444479387224193],["ĠUK",-9.447233505157712],["Ġpoor",-9.448347362033244],["ĠUp",-9.448873085910007],["j",-9.449262227662999],["ĠRichard",-9.452137421402535],["Ġ198",-9.452824856368098],["ĠWestern",-9.453756869714038],["Ġfuture",-9.454164598114893],["ĠFinal",-9.454453943084738],["ĠNY",-9.456859506791847],["Ġrecent",-9.457498869042643],["Ġhost",-9.461984417416101],["Ġcenter",-9.462479341852642],["ĠTimes",-9.462743820616742],["Ġreplace",-9.463671381122664],["Ġrule",-9.464402302973522],["ĠLos",-9.467777934253062],["Ġfootball",-9.468673654093376],["Ġengine",-9.469931473635384],["Ġking",-9.4707458006203],["Ġflight",-9.470823279792725],["Ġinjur",-9.472081072179186],["Ġpolice",-9.473094851878054],["ĠThat",-9.473373356701776],["Ġsuffer",-9.476093545140788],["Ġattend",-9.477375967147076],["Ġloss",-9.47754108522915],["Ġwhom",-9.478580805491342],["Ġalread",-9.479181161536852],["field",-9.479790620681491],["ĠRoman",-9.482858583743377],["Ġtravel",-9.483212311129646],["Ġ35",-9.48525691740194],["ĠMost",-9.485495675281387],["Ġ1970",-9.485999317138596],["Ġwestern",-9.490520599378751],["Ġmeeting",-9.491269656468555],["Ġfund",-9.4923787546314],["ĠBritain",-9.492883949822136],["1980",-9.493055883497805],["Ġprotect",-9.49346371871737],["day",-9.495860155706678],["Ġpresident",-9.496497190871741],["Ġmoney",-9.497226603269054],["Ġpast",-9.503959654360006],["Ġespeciall",-9.504289965812422],["Ġaccount",-9.504329112628428],["ĠVirginia",-9.50607913742314],["Ġsummer",-9.50632495213945],["ĠLater",-9.507109527443149],["ary",-9.508675623590296],["ĠAwards",-9.509061903014073],["ĠBay",-9.509720876038603],["Ġfood",-9.512236689639291],["ĠAnd",-9.512893309391716],["Ġsell",-9.513499582266022],["Ġpark",-9.515773329193404],["Ġdate",-9.516159891040953],["Ġtrade",-9.516681654903467],["Ġfleet",-9.516939690548694],["Ġprovide",-9.516997994242296],["Ġmedia",-9.51764086402117],["ĠBrown",-9.51840862731009],["Ġmight",-9.518627345937903],["Ġaudience",-9.518711654587458],["Ġwrite",-9.518999249034245],["Ġestimated",-9.519362736211702],["Ġ1999",-9.519658864482908],["Ġeastern",-9.51976844540996],["Ġbridge",-9.519889514955333],["Ġradio",-9.52284925441915],["Ġpractice",-9.524115873177452],["Ġactual",-9.524436107978596],["Ġbecoming",-9.526471998733104],["ĠEarly",-9.52737181271666],["ĠGod",-9.528086098588254],["Ġlarger",-9.52935791592805],["ive",-9.529515936285176],["Ġrespective",-9.530181524225618],["Ġtype",-9.530799643274852],["Ġfact",-9.53141842833114],["Ġpercent",-9.531490355427284],["Ġpublishe",-9.531818209947696],["Ġriver",-9.531954438680069],["Ġmarket",-9.532174690421465],["Ġred",-9.533745110558153],["Ġresearch",-9.53509257302223],["ĠChristian",-9.536203217467374],["Ġlatter",-9.537385031500508],["Ġspecific",-9.537592447928793],["ĠSoviet",-9.538603130147939],["Ġpraise",-9.539498347320452],["ĠRock",-9.539781293612798],["ĠJackson",-9.540590347730165],["Ġdeep",-9.541144862745695],["Ġreason",-9.541250192782098],["Ġhard",-9.54157964339753],["Ġoperate",-9.542084977003654],["Ġwinning",-9.54212919096766],["Ġcertain",-9.544484072291823],["be",-9.545120076650038],["Ġreference",-9.54565663033444],["Ġserve",-9.545915836898661],["ĠGrand",-9.54764887371863],["Ġcredit",-9.548014649561615],["appointed",-9.549883443448355],["Ġreferr",-9.55061840708481],["Ġflood",-9.551520159267744],["Ġauthorit",-9.551917285904784],["Ġconcert",-9.552104574599689],["Ġmission",-9.552257865559985],["Ġhold",-9.552584240801501],["rate",-9.55410575874473],["Ġamount",-9.554333411890335],["ĠIf",-9.555352944893734],["Ġtry",-9.555553517259773],["ĠDr",-9.556910337451242],["Ġstay",-9.557410249237284],["Ġbrief",-9.557807509853497],["Ġleaving",-9.558562280737025],["claimed",-9.558747281389296],["Ġlyric",-9.560699832461157],["ĠClub",-9.56086152202963],["Ġstudents",-9.562402407891202],["Ġstaff",-9.562728500233925],["ĠSpanis",-9.564084508702656],["Ġcross",-9.565442007282815],["Ġmarrie",-9.565849225596258],["ĠEdward",-9.565891411147902],["Ġseem",-9.566772968813808],["ĠLove",-9.567693498241836],["Ġapproximate",-9.567711527247067],["ĠAssociation",-9.569323665634073],["Ġ80",-9.569886180518331],["Ġquestion",-9.572221139794973],["ĠMy",-9.572247543074502],["Ġoverall",-9.574381102594822],["ance",-9.575355573701888],["Ġoccurr",-9.575618601418192],["ĠParty",-9.57583410758512],["Ġ1960",-9.576717108326863],["Ġlimited",-9.576911632245055],["Ġcourse",-9.57858928423985],["ĠDay",-9.581704985763249],["Ġprivate",-9.581710729809805],["Ġ45",-9.58355744652954],["ham",-9.58397889937889],["ĠChicago",-9.584818538252721],["Ġprofessional",-9.584971454031466],["ĠLake",-9.586012717671474],["Ġbroadcast",-9.58731377887415],["Ġintended",-9.587521238506076],["Ġrunning",-9.588099989438097],["Ġstudie",-9.589210236274994],["Ġnatural",-9.590361106379572],["Ġlines",-9.591389374466607],["Ġtell",-9.592612856469874],["B",-9.593932996513486],["Ġproducer",-9.594332816059941],["ill",-9.59442926455557],["Ġrating",-9.594534269819025],["Ġcharge",-9.594758349966622],["Ġport",-9.595258666555926],["ĠChinese",-9.59577015151293],["Ġ1998",-9.595978099297206],["ĠCouncil",-9.596938799957478],["Ġdetail",-9.59781952388097],["Ġknow",-9.599846717830824],["ĠSecond",-9.600220386150982],["Ġimage",-9.600285362116141],["Ġcommander",-9.600680562743799],["ĠMany",-9.601177096682422],["ĠLe",-9.603583385887168],["Ġforward",-9.60423880512438],["Ġdisplay",-9.604892390826182],["Ġtraditional",-9.606049434538406],["ĠRussian",-9.606776687007924],["C",-9.608240949176821],["ĠMary",-9.609481070619697],["Ġcritical",-9.61185217341933],["Ġscenes",-9.61355806084868],["Ġtrial",-9.614206545538217],["Ġfall",-9.61562654718554],["ville",-9.616194755545504],["Ġthink",-9.616696003630986],["Ġincreasing",-9.618139929939344],["way",-9.618838221377006],["Ġlonger",-9.619039070721781],["Ġmeet",-9.619426272491935],["Ġannual",-9.619636878799032],["Ġeffective",-9.619786024059339],["Ġleader",-9.619835773741725],["ĠJohnson",-9.620137360351015],["Ġshape",-9.620435742884478],["Ġliving",-9.622420270069876],["ĠPacific",-9.622768701403047],["ĠRe",-9.62331314400015],["Ġguitar",-9.624225143167193],["Ġfifth",-9.624638657278123],["Ġassociate",-9.624689126173855],["Ġsinger",-9.626073928575053],["ĠHistory",-9.626483684766983],["Ġrelated",-9.626675169304345],["Ġthemsel",-9.631076796232366],["ĠBillboard",-9.632003230774103],["Ġ300",-9.632078638744696],["Ġgold",-9.632156555074603],["Ġpair",-9.633830783053888],["Ġmanager",-9.634664010143315],["Ġgrant",-9.635128724125607],["entered",-9.635423705073153],["Ġactive",-9.635583544642275],["un",-9.635651075557638],["Ġthus",-9.636044409792438],["ĠCanadian",-9.637156225817904],["units",-9.637434838744875],["Ġcompetition",-9.637764288064664],["Ġarrive",-9.638479455806962],["Ġfans",-9.639782749568873],["Ġwhet",-9.64119254516354],["Ġpay",-9.641213860975618],["ĠEl",-9.642476972370758],["Ġprobabl",-9.643313226756412],["Ġrights",-9.644050781760512],["ĠLord",-9.64424705588293],["ĠRecord",-9.645007864127384],["Ġfast",-9.645046091479395],["Ġbreak",-9.645212769448754],["Ġcoach",-9.645944953967131],["Ġdeal",-9.647525102343522],["Ġscript",-9.64839962459574],["Ġreplac",-9.650367689858086],["Ġchild",-9.650730554998594],["ĠSince",-9.651072197705552],["Ġseparate",-9.65201042220977],["Ġtypical",-9.652714984548298],["ĠSquadron",-9.65281726491353],["ĠQueen",-9.652959473438184],["Ġcopies",-9.653502652059482],["ĠAtlantic",-9.6539522526369],["Ġwoman",-9.654076348315446],["Ġ1997",-9.654156120729889],["Ġ70",-9.654334359832411],["Ġvalue",-9.655507788982316],["ĠMark",-9.655757593786742],["Ġparts",-9.657568298100884],["Ġdouble",-9.658711173789099],["Ġdone",-9.658889269497896],["wide",-9.660051253303472],["ĠFlorida",-9.662562311398101],["ĠCo",-9.662810283693075],["ĠBoth",-9.663599797607343],["Ġstates",-9.663965621783435],["weeks",-9.665927231056799],["ĠHighway",-9.667668717153463],["Ġ192",-9.66806001498705],["ĠBut",-9.66820327291332],["Ġpilot",-9.668834667015206],["Ġminute",-9.67100884014817],["Ġfell",-9.671091060151094],["Ġrequest",-9.671159350238069],["Ã©",-9.673042058753861],["Ġedition",-9.673235600003546],["Ġ199",-9.673588789471598],["Ġdrive",-9.674213743828384],["time",-9.674607221966632],["Ġtarget",-9.675037556668483],["wood",-9.675926131832531],["Ġstop",-9.676067224847294],["ĠItalian",-9.676916386941773],["ĠTexas",-9.679179539414793],["Ġexpand",-9.679266186891475],["Ġshows",-9.681624223375087],["Ġportion",-9.68238319295985],["and",-9.682435271753052],["Ġhealth",-9.682743771443507],["ling",-9.682956176739118],["Ġhistorian",-9.683725653695411],["Ġcyclone",-9.683739587837128],["ĠChina",-9.684113363637262],["ĠMr",-9.684798592787647],["Ġalway",-9.685680799794856],["Ġnetwork",-9.685855892907895],["Ġremoved",-9.685981820912659],["Ġstatus",-9.686618508131104],["Ġstars",-9.686651593915375],["Ġprior",-9.6880922996917],["ĠCenter",-9.688300483128492],["Ġvia",-9.688410306274568],["Ġassist",-9.688510648999916],["Ġparent",-9.688930390878843],["Ġcommission",-9.690316958595314],["ĠSo",-9.691098995051396],["ĠOlympic",-9.692393519907991],["Ġwatch",-9.694962416226744],["ĠZ",-9.695594027691609],["Ġwrit",-9.696712398597244],["ĠAfrica",-9.697461803335614],["Ġsomething",-9.69791868827147],["Ġavoid",-9.702306098294658],["ĠTour",-9.703041047328819],["ĠMartin",-9.704673010680171],["N",-9.704864742209637],["Ġreduce",-9.705839450450814],["Ġofficers",-9.705897748934978],["Ġhour",-9.70612644382289],["ĠYear",-9.706770164245327],["Ġfilms",-9.706823466128196],["Ġ32",-9.707752849126189],["ĠJack",-9.709551544754786],["Ġboard",-9.710945602337834],["Ġminor",-9.711891799457657],["ĠGreen",-9.71195853139257],["Ġannounc",-9.714398839604556],["Ġnation",-9.714744404526499],["ĠEarth",-9.714808885269221],["ate",-9.71511951429209],["Ġescape",-9.717483425289853],["Ġnature",-9.71793197495108],["Ġorganization",-9.71836508481524],["Ġfrequent",-9.719362215082832],["Ġtracks",-9.72029459224908],["Ġcomposed",-9.721216390107108],["Ġcentre",-9.723006367649257],["Ġpotential",-9.723564196752651],["ĠEmpire",-9.723672092181634],["ring",-9.72503717877544],["Ġtons",-9.725918546583499],["Ġcell",-9.72670258776829],["ĠCentral",-9.727000110141844],["Ġaccess",-9.727903229589913],["Ġpress",-9.729250053237369],["Ġnumerous",-9.729893977825112],["Ġculture",-9.730956819498125],["Ġexpress",-9.731061834440682],["Ġimpact",-9.731679365628125],["ĠBig",-9.733122919885338],["ler",-9.733463205550114],["ĠIII",-9.733539088363855],["ĠAngele",-9.733684161796733],["Ġinspired",-9.73453255068303],["Ġterritor",-9.734653557619485],["Ġplot",-9.734676648544204],["Ġ00",-9.735146352196592],["Ġcountri",-9.735860774927886],["ĠSir",-9.735990598110803],["Ġseat",-9.73687865591169],["Ġyet",-9.737466759629275],["Ġwhole",-9.737722502954364],["Ġgot",-9.737836223852087],["Ġ90",-9.738922520732705],["ĠTest",-9.73940866448342],["ĠCongress",-9.74154809455694],["Ġupper",-9.742017635254935],["Ġmoving",-9.743406817403846],["ĠBe",-9.74428417310394],["ĠTom",-9.745521799847825],["Ġactor",-9.745702370391323],["ĠGroup",-9.748570918488578],["Ġqualit",-9.748836051788698],["Ġoccur",-9.748867560435693],["Ġcapital",-9.748972339334694],["Ġtreat",-9.75040146572065],["Ġinformation",-9.750811173550249],["Ġtransport",-9.750821756796828],["Ġcollege",-9.751180281628622],["Ġ75",-9.752902087335716],["Ġteams",-9.754100810952417],["Ġmeasure",-9.754176339753927],["Ġ1950",-9.754851463982286],["Ġdepression",-9.75506366454862],["Ġslight",-9.75508549229432],["Ġcollection",-9.755555340270341],["ĠGreek",-9.75608917270175],["1996",-9.756588521591679],["Ġlegal",-9.757040789771073],["Ġshown",-9.75710776360187],["Ġarriv",-9.757151688794183],["Ġlived",-9.757724243077595],["Ġvehicle",-9.758492510871354],["Ġsister",-9.75849367652493],["ĠSun",-9.75934569819089],["Ġmale",-9.75941827290673],["Ġprimar",-9.761284642893678],["ĠDon",-9.761711795127066],["ĠMinister",-9.764708462439277],["Ġdirection",-9.764897030934875],["Ġofficer",-9.765159129126108],["S",-9.76537909490897],["Ġcastle",-9.76613753205844],["Ġdefend",-9.766196820399301],["Ġdark",-9.767652715113947],["2016",-9.768235687078885],["Ġpop",-9.768334638054544],["Ġindependent",-9.770025997469968],["Ġsevere",-9.770132126351603],["ĠFilm",-9.770213718605516],["Ġborder",-9.770722385258196],["Ġgoals",-9.771573637193775],["Ġindustry",-9.771883781422071],["Ġwind",-9.771937608612392],["Ġstandard",-9.772528996483963],["Ġ1994",-9.772708524434965],["Ġvariet",-9.772768043933569],["Ġsession",-9.77311012435231],["Ġsituation",-9.773167912462046],["Ġword",-9.773883358958974],["ĠCorps",-9.774033550444397],["ĠTV",-9.775170739731571],["Ġfeel",-9.77595091368681],["Ġheavi",-9.777013113880626],["Ġ195",-9.77746419035662],["ur",-9.777553530671453],["Ġattention",-9.778179325190932],["Ġwound",-9.778179408475198],["Ġauthor",-9.778504872674274],["ĠOld",-9.778731179414397],["ĠTeam",-9.779237785174017],["Ġeconomic",-9.780349912042466],["ĠDVD",-9.781233577673808],["Ġmatter",-9.783387612565528],["Ġball",-9.78358927356819],["Ġdegree",-9.784161755423959],["Ġexpected",-9.784376566539642],["earned",-9.785783161741746],["Ġmoment",-9.785930561042601],["Ġeducation",-9.787495890611758],["giving",-9.788005293796969],["Ġ33",-9.788420372260102],["Ġyards",-9.789516333772887],["ĠUnder",-9.790548028059655],["ĠStone",-9.793233380482782],["aid",-9.793326858595753],["Ġrecover",-9.793525349907279],["Ġnewspaper",-9.794688159947318],["Ġsales",-9.794988996119026],["Ġlearn",-9.796130713822722],["ĠMichigan",-9.79659314396249],["Ġlink",-9.796608755040893],["ĠBridge",-9.799296961142067],["Ġconfirm",-9.800945323383068],["ĠTime",-9.801417442386047],["Ġbelow",-9.801600868577136],["Ġretain",-9.801972316675968],["Ġdemand",-9.80247269529892],["ĠKa",-9.803459723625087],["ĠWales",-9.803965330036842],["Ġkey",-9.80459992801488],["Ġsequence",-9.804689977531055],["Ġadult",-9.804800928147282],["Ġran",-9.804878264680042],["Ġdead",-9.805557161882682],["ĠGo",-9.806026627366695],["Ġengineer",-9.806175146358752],["Ġdistance",-9.806288447701013],["Ġconcept",-9.808354599742167],["Ġsign",-9.809716177602906],["Ġobject",-9.81075059510315],["Ġmarriage",-9.81171597330753],["Ġmiddle",-9.81184189072057],["Ġreligious",-9.813047207762002],["ĠAfrican",-9.813506854425952],["Ġprais",-9.813711999310508],["Ġproduct",-9.814690822199932],["Ġscale",-9.816076694913606],["ĠChris",-9.817182298704466],["Ġmatche",-9.817210515445245],["Ġpromote",-9.818142672407749],["Ġnormal",-9.818594830893042],["ĠMajor",-9.818846107143353],["Ġclosed",-9.81997549576246],["Ġdraft",-9.820035872012268],["Ġrapid",-9.820589877515287],["ner",-9.821161133282933],["ĠOver",-9.821162003401016],["ĠScott",-9.821734290583962],["Ġmajorit",-9.823792748103351],["Ġfacilit",-9.82450059612382],["ĠHot",-9.824984402483484],["Ġscience",-9.825264698523318],["Ġdecade",-9.825600323353271],["Ġserious",-9.827442926663984],["Ġ194",-9.830699952585043],["Ġcomplex",-9.830831794391994],["Ġdistrict",-9.831132913024389],["ĠSeveral",-9.831505547018335],["Ġpurpose",-9.831646155495067],["Ġcaptain",-9.831855321634917],["Ġmass",-9.83245360250904],["Ġ1992",-9.833622361658843],["Ġsave",-9.834146502823437],["Ġmovie",-9.834318052089172],["Ġfinancial",-9.83434413855876],["Ġ36",-9.834751625256553],["Ġmethod",-9.83543295723694],["Ġenergy",-9.836252200161958],["ĠMa",-9.83751849612426],["Ġconflict",-9.83881992136227],["Ġschedule",-9.839429117032255],["Ġintroduce",-9.839729131594668],["Ġadopt",-9.840401820235872],["while",-9.840534551952448],["Ġpurchase",-9.841027993200145],["Ġread",-9.841886076868668],["ent",-9.844036050143634],["ĠFort",-9.844244210201373],["Ġscreen",-9.844551056699203],["Ġcontact",-9.844665938592136],["Ġimprove",-9.844765862654736],["Ġplant",-9.84504996481126],["Ġenjoy",-9.845333946181597],["Ġtakes",-9.846817221638743],["Ġbring",-9.847220628322628],["Ġfriends",-9.847657148238286],["Ġhorse",-9.84775154666869],["Ġmetal",-9.84796925975514],["der",-9.84849970333545],["Ġconstructed",-9.848950284475578],["Ġheart",-9.849231564771468],["ĠFox",-9.849951406581326],["Ġtemperature",-9.85395752825658],["Ġsource",-9.854636417550253],["Ġchief",-9.855361514688301],["ĠMexico",-9.856104517449182],["ĠLike",-9.858049447133313],["ll",-9.858763829563982],["Ġsociet",-9.8601550786491],["ĠSuper",-9.862287755170406],["Ġbill",-9.862411455762956],["Ġbeliev",-9.86265032394245],["Ġabandon",-9.863004567854984],["Ġtrain",-9.863636520316714],["Ġ1930",-9.863725532758723],["Ġrare",-9.863941172901718],["Ġdefense",-9.864228966805356],["stating",-9.864411971764282],["ĠBill",-9.865149012197879],["Ġdeliver",-9.865598741307593],["Ġfunction",-9.8659210045713],["Ġkind",-9.865934325620078],["ier",-9.866713017041652],["Ġtransferr",-9.867404022928525],["Ġphysical",-9.86838096305903],["Ġpropose",-9.86853967874149],["Ġcombat",-9.868691271667323],["ĠService",-9.870243822440813],["ĠMadonna",-9.87036604568196],["Ġwave",-9.871015235022647],["Ġ37",-9.871224097221734],["Ġtwenty",-9.871266408014927],["ĠJones",-9.876235984136706],["1993",-9.878410300703532],["ĠScotland",-9.879129028111745],["Ġchallenge",-9.880566259568877],["ized",-9.8811204441529],["1991",-9.8825143580149],["tried",-9.882651189147618],["ĠDepartment",-9.883923259756134],["Ġself",-9.88450204840713],["ĠTheir",-9.885562643959384],["Ġcompar",-9.885668107070483],["ĠFrank",-9.887050563766337],["ĠHurricane",-9.887961297925008],["Ġmorning",-9.889269273656373],["well",-9.889295528254953],["Ġexecutive",-9.89007122010995],["+",-9.890967836126462],["ĠThree",-9.89149461673819],["Ġselect",-9.89156504519777],["Ġmeans",-9.891669256260487],["Ġinside",-9.89172120287858],["town",-9.893370541993317],["Ġdance",-9.893372225744232],["Ġ188",-9.893753012158626],["Ġ400",-9.89388280276126],["ĠZealand",-9.894548282375823],["where",-9.89460049491355],["Ġguest",-9.895985349661451],["Ġforest",-9.896389129195006],["Ġ38",-9.896617766919256],["Ġoil",-9.896950838006061],["Ġbuild",-9.897007864177185],["Ġyard",-9.897300936772702],["ĠPrince",-9.897444723924075],["Ġuniversit",-9.897667335324636],["Ġarticle",-9.897675210778873],["Ġdroppe",-9.898239053312505],["Ġintroduc",-9.89878139711154],["Ġresponsible",-9.89914083397383],["ĠInfantry",-9.900042420275158],["ĠCreek",-9.900440702513784],["Ġfish",-9.901576926535654],["T",-9.902004159494147],["inches",-9.902015518603566],["Ġkept",-9.902025694193828],["ĠCatholic",-9.902422874038598],["Ġfoot",-9.906571959942244],["Ġpaper",-9.907051532155029],["ĠSociet",-9.908399773118598],["Ġdepict",-9.909151843737522],["Ġchampionship",-9.910423778137986],["Ġmakes",-9.910800079366995],["Ġmachine",-9.911122753094318],["Ġarrest",-9.911869714598925],["all",-9.914642460872027],["ĠCommittee",-9.914948847512932],["Ġsquare",-9.916022650112748],["Ġspeak",-9.917538621614751],["tic",-9.917632959385475],["Ġagent",-9.918780526356821],["Ġbad",-9.919449797449216],["Ġsquadron",-9.920599487022736],["Ġmeant",-9.921338709808646],["up",-9.921708454725106],["Ġcolor",-9.921712701278485],["Ġmarked",-9.922151541481485],["Ġdecline",-9.922779102423025],["Ġbattalion",-9.922891924054047],["ĠBattalion",-9.923838405412203],["ĠLatin",-9.924246051751297],["ĠBo",-9.925942874334584],["Ġresulting",-9.926469610945079],["han",-9.927297859047373],["Ġinvolve",-9.927442744084336],["Ġformation",-9.927496156870482],["Ġmanage",-9.927497994622223],["Ġstone",-9.928540913561205],["ĠMore",-9.92939323787303],["Ġhundred",-9.929536806291138],["Ġtower",-9.930746172655889],["Ġ49",-9.931815962336222],["Ġportray",-9.931857195519495],["line",-9.932163361655986],["Ġmultiple",-9.933162838876571],["ĠPost",-9.934216419288212],["Ġpresence",-9.934311758191528],["ĠLouis",-9.934842629655375],["Ġcamp",-9.93520247391885],["Ġengage",-9.936150356882916],["ĠLine",-9.936154354938877],["ĠSaint",-9.937014558671084],["Ġ1942",-9.937816849709272],["Ġcontent",-9.937947484216206],["Ġfederal",-9.938145845772306],["Ġbegins",-9.938261281381667],["ĠLive",-9.939298273784104],["ĠSouthern",-9.939817583873207],["Ġdefence",-9.94048157512099],["Ġ34",-9.940664126055266],["Ġmount",-9.940833436770047],["Ġwall",-9.942145696699031],["Ġspeech",-9.943236585245186],["Ġpainting",-9.943307742293944],["Ġindicate",-9.943799364489639],["Ġviewers",-9.943808032154973],["ver",-9.944064166931438],["Ġbeat",-9.94446991647723],["Ġidentifie",-9.946275893966515],["ĠLife",-9.94648315092187],["Ġblood",-9.946592367499694],["Ġsearch",-9.947693955188917],["Ġconcern",-9.948349726191312],["Ġstorie",-9.948820208947513],["ĠOxford",-9.948915574099056],["Ġwing",-9.949244988126745],["Ġextreme",-9.949463254095463],["ĠCaptain",-9.950296558392147],["Ġtraffic",-9.950594527366691],["Ġpitch",-9.95139636689811],["Ġenemy",-9.951825680953451],["Ġdelay",-9.952596664862826],["lin",-9.953596254223838],["Ġobtain",-9.954054252113531],["Ġbooks",-9.954472434079811],["Ġargue",-9.954641799890071],["Ġwords",-9.955431148089819],["Ġquarter",-9.955552332684219],["Ġwinter",-9.956026334606277],["Ġspen",-9.956503445205932],["Ġlot",-9.956767384000992],["ĠRepublican",-9.95696515348571],["ĠLee",-9.957555969801176],["ĠChief",-9.957714801187853],["Ġcontemporar",-9.957966232531504],["ĠBoston",-9.959284364832763],["Ġhonor",-9.960040584412642],["Ġproperty",-9.961215907009683],["ĠWilliams",-9.961730267608171],["Ġencounter",-9.961753053393995],["ĠHarrison",-9.962112021026861],["Ġmeaning",-9.962415565622626],["ĠManchester",-9.962753522615005],["Ġjob",-9.96329112010569],["Ġrisk",-9.963309547801718],["Ġcouple",-9.963678120838278],["Ġsetting",-9.963964775512757],["Ġroyal",-9.96422928518519],["Ġprimarily",-9.964440097476968],["Ġstarting",-9.964499332379333],["Ġprominent",-9.964567380221052],["ium",-9.965555805435118],["ecause",-9.965620145949357],["Ġblock",-9.96562346228616],["Ġthreat",-9.96751658772324],["ĠBrigade",-9.967533092244098],["Ġweaken",-9.967542291798845],["Ġextensive",-9.967813678141543],["ĠBefore",-9.969359800503755],["Ġrefuse",-9.969755138405079],["Ġonto",-9.97108282976587],["Ġworker",-9.971775578091107],["older",-9.971891728794876],["companie",-9.972030466732205],["notes",-9.972139973084069],["ĠVietnam",-9.97225348279143],["Ġdesignate",-9.97362674895942],["ran",-9.974135730816322],["ĠLittle",-9.97434392384506],["era",-9.97573200320832],["ĠRegiment",-9.975762082318177],["Ġtournament",-9.976760076475006],["Ġ1944",-9.97677462961922],["Ġsense",-9.978864161013693],["Ġreception",-9.979515860555862],["Ġfill",-9.979605592936839],["Ġmurder",-9.979908425538849],["ĠCross",-9.979970721698573],["Ġpaid",-9.980338996035796],["ending",-9.980695192299967],["Ġstrength",-9.981012711352271],["Ġthings",-9.982284344368157],["Ġhospital",-9.982502860948916],["Ġinvasion",-9.98291260625308],["Ġpassenger",-9.983347459543733],["gen",-9.98595547991392],["ĠJim",-9.986105510160131],["ĠGames",-9.986427206615486],["Ġconvert",-9.986939511284469],["ĠAcadem",-9.988214562139547],["Ġhistorical",-9.988929538498061],["Ġtradition",-9.989256391043998],["Ġbroke",-9.992326210771637],["Ġpowerful",-9.99347132673969],["Ġreflect",-9.994981690688098],["Ġvolume",-9.99504193791513],["Ġrough",-9.995787519034657],["ĠBBC",-9.995980662611421],["Ġpoem",-9.996351467670804],["Ġcandidate",-9.996355369394568],["ell",-9.996557451240232],["ĠPort",-9.997095441854709],["metres",-9.997228983551215],["Ġreject",-9.99862322024528],["ĠSam",-9.998677263972672],["Ġsay",-9.999330335848773],["Series",-10.000493451785568],["Ġmaximum",-10.001474159440892],["ship",-10.003070977857274],["ĠLong",-10.00344431152051],["ĠVan",-10.003512636889017],["ĠBen",-10.003813900955375],["H",-10.004683442863634],["ĠDi",-10.00488930523078],["Ġblue",-10.005815069099615],["ĠJoseph",-10.005847507606617],["ĠParis",-10.00593946171296],["Ġinch",-10.006475225891096],["Ġlabel",-10.006517021659741],["Ġ55",-10.006882988773025],["Ġdisease",-10.007761335290807],["ĠEntertainment",-10.009970768338247],["Ġpolicy",-10.010419823267485],["ĠMuseum",-10.01042578126649],["1920",-10.011126089515784],["Ġ48",-10.011997066849467],["ĠHome",-10.012380753384681],["Ġemploy",-10.013016810152655],["1945",-10.01360389870778],["Ġstruck",-10.013966070088443],["Ġ150",-10.0143227855495],["Ġhouses",-10.014606172491757],["Ġachieve",-10.014771007194959],["Ġpick",-10.015233627790728],["F",-10.016179000718903],["wise",-10.016650919313133],["owned",-10.016681197822962],["Ġtask",-10.016744639758318],["Ġopportunit",-10.017668238052837],["house",-10.017908362124446],["Ġvessel",-10.018415886993608],["Ġthousand",-10.019453046469069],["ĠCar",-10.020282726272502],["1941",-10.020524937216589],["Ġbattleship",-10.025254140681207],["Ġ42",-10.02560902353032],["Ġsexual",-10.026308474976561],["Ġbackground",-10.026599457258403],["mer",-10.026717275613091],["Ġcontrast",-10.028141490224218],["ĠAvenue",-10.028425048518272],["Ġrailway",-10.028789370401052],["ĠProduction",-10.02903567476832],["Ġgirl",-10.029144377974488],["Ġplatform",-10.031585801424791],["Ġ39",-10.031593756959946],["Ġnaval",-10.0317446595067],["Ġrepair",-10.033424386752353],["ĠStephen",-10.033869286970623],["Ġsex",-10.033953979172127],["Ġyour",-10.034680231896015],["Ġsucceed",-10.035057077395345],["Ġforeign",-10.035754595664882],["Ġtreatment",-10.036980429117477],["Ġelectric",-10.03731617171402],["ĠIreland",-10.037327195345284],["Ġweather",-10.03741769325785],["Ġhusband",-10.038085098261728],["Ġtheory",-10.038188807977003],["ĠArt",-10.038970606447007],["Ġincident",-10.039860606897621],["ĠShow",-10.040902475219768],["Ġpush",-10.041941302214703],["Ġsub",-10.042290156452726],["Ġproved",-10.042374908542383],["acting",-10.044163468681372],["Ġbegin",-10.046327089326473],["Ġfloor",-10.046531703087068],["ĠVictoria",-10.04662142344447],["Ġvisual",-10.047073384725907],["ĠRepublic",-10.047709277532505],["ard",-10.048449221234264],["Ġnative",-10.048798145729458],["Ġsurrounding",-10.04904886619541],["Ġdifference",-10.049283303184541],["Ġraid",-10.05030298582415],["Ġstudent",-10.050632116212254],["pent",-10.051639095623411],["Ġrespond",-10.051685726020882],["Ġrequir",-10.051945019250939],["Ġcomic",-10.052182701751057],["Ġsixth",-10.052585734990911],["Ġdocument",-10.052668296246358],["1989",-10.053165831149288],["Ġ1943",-10.053221205664567],["ĠRo",-10.055159805784076],["Ġcruiser",-10.056885918672798],["Ġcount",-10.057241057194192],["Ġcounty",-10.05755293312852],["Ġlanding",-10.058216850380884],["Ġceremon",-10.058414966936736],["Ġreaction",-10.059626776887587],["more",-10.060280441350985],["Ġwebsite",-10.060787404913656],["Ġpassing",-10.061445253635904],["Ġseek",-10.061528718505839],["ĠTropical",-10.061885568568572],["Ġsoundtrack",-10.062495109759016],["Ġtrue",-10.063257171935106],["M",-10.063346376083146],["Ġcitie",-10.063888963643453],["ĠValley",-10.06403772911087],["Ġsecret",-10.064484568102591],["dependence",-10.064989515085053],["Ġattract",-10.065374170401135],["innings",-10.065710880911025],["ĠParliament",-10.065764417084537],["Ġsustain",-10.066699978003822],["Ġsources",-10.068205885934097],["Ġtax",-10.06872064803468],["Ġfactor",-10.06951902510171],["per",-10.069828118576888],["Ġnames",-10.070348585051182],["Ġvote",-10.070821232939611],["Ġfuel",-10.070943892988886],["Ġagreement",-10.071421880769979],["ĠDutch",-10.071737161140693],["Ġweight",-10.072486667997826],["Ġ41",-10.073090941937227],["Ġnomination",-10.073648497868797],["Ġreign",-10.075735020278549],["Ġarmor",-10.076125262309573],["Ġkg",-10.076137405981877],["Ġartillery",-10.077526945339367],["Ġeye",-10.077597807457721],["Ġ64",-10.07780780993454],["Ġcalling",-10.077950849896734],["Ġsecure",-10.078531736602104],["Ġice",-10.079637330150817],["ĠFootball",-10.080533076025864],["ĠThrough",-10.080689797297614],["Ġreform",-10.08172566433789],["Ġparticipate",-10.082009830997261],["Ġ44",-10.082067763472045],["Ġsupplie",-10.083342488947398],["ĠCarolina",-10.083860488972057],["Ġ52",-10.084443991833147],["Ġfailure",-10.087090767926915],["Ġnegative",-10.08767528461709],["Ġcoin",-10.08821232646774],["ĠGovernor",-10.088870363408294],["ĠWeek",-10.089018327093616],["Ġappeal",-10.089372035126678],["ial",-10.089404712306635],["Ġsenior",-10.089429957164995],["Ġapparent",-10.089909032806972],["ĠWhat",-10.08999808281202],["ĠDo",-10.090743611915329],["ĠTop",-10.091455601395722],["ĠMar",-10.091845689941778],["ĠFleet",-10.093531892068954],["Ġdiscuss",-10.093566456793756],["Ġ65",-10.09388232822069],["Ġsays",-10.094141678397394],["Ġgreen",-10.094686944826636],["Ġequal",-10.094982724624856],["Ġdeclar",-10.095633791443035],["Ġedge",-10.095919940208733],["Ġ46",-10.09597142737867],["Ġkilometre",-10.096051348389603],["Ġalone",-10.096408068897599],["O",-10.097375696660892],["Ġequipment",-10.097807188400141],["Ġlimit",-10.097938780728645],["Ġrecords",-10.09870220124535],["Ġsides",-10.099447007636064],["Ġstrike",-10.099453634204504],["ĠKorean",-10.099884372597034],["Ġweapons",-10.100189000816309],["Ġsurviv",-10.100231006235392],["ĠThough",-10.100651523006556],["ĠCan",-10.100664752207106],["Ġstand",-10.100929814851604],["Ġreviewer",-10.101211937120022],["Ġpattern",-10.101316150748518],["P",-10.101579005525318],["passes",-10.102038633301044],["Ġ47",-10.102261533793426],["Ġtechnique",-10.102931723757775],["ĠYoung",-10.103359748332487],["Ġdoing",-10.103498444871889],["Ġgrowth",-10.105507375626939],["ĠBond",-10.106505025727595],["ĠHomer",-10.10806658327902],["Ġwicket",-10.108125357791206],["ĠDuke",-10.108497142802387],["Ġmedical",-10.108653378312425],["Ġthick",-10.109501971691387],["Ġexcept",-10.109803530828508],["ĠCastle",-10.10993544879918],["Ġfeeling",-10.110311256269812],["Ġbirth",-10.110883143598535],["ĠMean",-10.11157987857567],["Ġformal",-10.111732402618003],["ĠNorthern",-10.112060405476543],["Ġ600",-10.112890539087099],["Ġlaid",-10.112920374873056],["Ġ43",-10.113774511639134],["L",-10.114641399006343],["Ġfighter",-10.114710809831548],["ĠPrime",-10.11510084829193],["ul",-10.115538583414054],["Ġbig",-10.115575135760583],["ĠGovernment",-10.11580251285401],["Ġgovernor",-10.117187866126788],["ĠStorm",-10.117885516382529],["Ġcapacit",-10.118546040880641],["Ġcomputer",-10.119230208307895],["ĠHo",-10.120023805228692],["Ġcommittee",-10.120582588795537],["U",-10.121178333821062],["ĠDistrict",-10.121222452247986],["ful",-10.121349756032266],["ki",-10.121455912945663],["Ġaffected",-10.12146083642984],["Ġoffensive",-10.12254180149759],["grew",-10.122718397681139],["Ġwhos",-10.123961605661044],["Ġrecall",-10.124032217640003],["Ġ51",-10.12481376963381],["ĠOperation",-10.125217382235611],["Ġprisoner",-10.125263448018252],["Ġmind",-10.125991135220017],["Ġoppos",-10.126446843838032],["Ġmeter",-10.127823595293505],["ĠAdmiral",-10.12882551943694],["Ġspring",-10.128825765064805],["Ġpro",-10.131400849021068],["ĠScottish",-10.131832222076019],["ĠShort",-10.1318467023586],["Ġcare",-10.132111134940875],["ĠSa",-10.132221515552432],["ĠBlue",-10.13227919298368],["Ġelse",-10.132739249103686],["ĠMen",-10.133520895269358],["Ġsettlement",-10.133564921443801],["Ġaspect",-10.133831259073729],["ĠSystem",-10.13466236148771],["rated",-10.136115261528047],["Ġbox",-10.136691886216695],["Ġstatement",-10.137238099882964],["ĠTech",-10.137251470074265],["Ġfired",-10.137442861944304],["1987",-10.137689561342137],["Ġinterchange",-10.138651924999005],["ĠFantasy",-10.139025265486346],["Ġchance",-10.139730710152744],["Ġproposal",-10.139771300602307],["Ĵ",-10.14035116761684],["ĠSong",-10.140352072648337],["Ġpremiere",-10.140385664014627],["Ġintersection",-10.140423143371427],["ĠBackground",-10.14070528329289],["Ġcontroll",-10.140923728063424],["residents",-10.141809512544869],["Ġconnect",-10.141892683896346],["Ġgas",-10.142216776720222],["shi",-10.143039894890654],["Ġfamous",-10.143891961164739],["Ġrainfall",-10.144071717352524],["Ġsail",-10.144158400235845],["Ġdrama",-10.144295606917193],["Ġtherefore",-10.146088252052337],["Ġcomposition",-10.147742897282876],["Ġextra",-10.1488422147047],["ĠChart",-10.148968970162972],["Ġtwice",-10.149471196271717],["ĠPolish",-10.149646985965775],["Ġkilling",-10.149666436008411],["Ġchosen",-10.149804739234893],["losing",-10.150104703297933],["Ġsupply",-10.150319063748121],["ĠQ",-10.150675575331485],["Ġ193",-10.151469266025297],["ĠMiddle",-10.151993679648882],["ĠSenate",-10.153912066568612],["ĠChristmas",-10.156276201394846],["kin",-10.156374369545192],["Ġconsecutive",-10.156616928921682],["Ġboat",-10.15663951902257],["Ġbillion",-10.156815518403013],["ĠEastern",-10.157528048097358],["ĠFestival",-10.157641960898829],["ĠMike",-10.158122453722713],["Ġopinion",-10.158191944238558],["Ġcom",-10.15836053948964],["ĠCon",-10.161245469712492],["Ġestate",-10.161666371147138],["Ġheadquarter",-10.161924257245674],["ĠStudios",-10.162209592316918],["que",-10.162406243939392],["ĠLight",-10.162433367271966],["ĠJoe",-10.162614264431792],["ĠWilson",-10.163249009787664],["Ġpage",-10.163575305043548],["Ġorigin",-10.163811263399035],["Ġbirds",-10.164378503777098],["Ġflag",-10.164843434053612],["Ġtrees",-10.164996937025858],["ĠPennsylvania",-10.165191104724915],["Ġexpansion",-10.166569821029187],["heard",-10.166835033903311],["ĠTaylor",-10.167259901829944],["Ġherself",-10.167510593204453],["Ġcivil",-10.167717936769101],["Ġtail",-10.167879669957658],["bodies",-10.16841371914172],["Ġgenre",-10.16919141409321],["Ġsimply",-10.169509003891138],["ĠAllied",-10.170605428039593],["Ġcomplet",-10.170625316287868],["Ġwalk",-10.172536050785645],["ĠMount",-10.17268172908358],["Ġcoming",-10.172996962511453],["K",-10.173238375770147],["Ġserving",-10.174013476074691],["Ġchose",-10.174043820954706],["Ġleaders",-10.174438790101085],["Ġcrime",-10.174538449395554],["Ġstoryline",-10.174978409913757],["most",-10.175299906923257],["Ġbrown",-10.175681128113794],["Ġ1986",-10.175917585198192],["ĠAlexander",-10.176100425102678],["Ġnothing",-10.176338440087248],["ĠUn",-10.177119459813408],["Ġfirm",-10.177431967730627],["ĠDue",-10.178009182907537],["Ġassault",-10.178064598971945],["Ġcamera",-10.178173522812761],["ĠOf",-10.178319789200248],["ger",-10.179751135199195],["ĠEach",-10.179753138786227],["Ġdeck",-10.180962750779516],["Ġconnection",-10.181163979164477],["Ġunknown",-10.181687422707347],["ĠOr",-10.182751954201013],["Ġleg",-10.183697957398161],["Ġsimple",-10.183943454502058],["ĠNe",-10.18469889134302],["Ġmean",-10.185782570253643],["ĠNight",-10.186644246103166],["Ġnortheast",-10.186714102141632],["ĠBar",-10.186836043491638],["Ġopposition",-10.186954059294901],["bound",-10.187455053995295],["ĠCivil",-10.187799115053217],["Ġenvironment",-10.188578434748566],["Ġfiction",-10.188864253368825],["Ġgrowing",-10.188893885975059],["Ġsilver",-10.189454960512274],["ji",-10.189966401167469],["Ġcouncil",-10.191185633828109],["ization",-10.191474910390987],["Ġopponent",-10.192248087861456],["Ġfellow",-10.193268497422919],["ng",-10.193579396213956],["Ġreleas",-10.194110795825356],["Ġcanno",-10.194625188465224],["Ġmiss",-10.195228634511883],["G",-10.195818810611874],["Ġbasis",-10.196192673117825],["reaching",-10.196278527781839],["Ġreserve",-10.196845614462376],["Ġexpedition",-10.198121179385975],["Ġplays",-10.198242335790088],["ĠReception",-10.198294676869697],["ĠRailway",-10.198658345087242],["Ġcrossing",-10.199202912225688],["Ġbudget",-10.19935108478675],["Ġarms",-10.200148092505497],["Ġcomes",-10.200373647210029],["Ġfinish",-10.200989585532657],["Ġbowl",-10.20148442230082],["ĠIrish",-10.202392376437913],["ĠFurther",-10.20256689579371],["ĠInstitute",-10.203471051675788],["Ġwinner",-10.20348970911818],["Ġfear",-10.204002142992016],["Ġfavor",-10.204020618878143],["ĠDoctor",-10.204899605865476],["Ġstore",-10.20519553563882],["Ġreduc",-10.20526716239281],["Ġtree",-10.205375684069049],["Ġoccupie",-10.205621508271502],["Ġpull",-10.205992292953697],["Ġprogress",-10.206276677518161],["Ġwalls",-10.207269572840545],["Ġstarr",-10.207459051796823],["ĠOcean",-10.208582112433124],["ĠHarry",-10.208848513108048],["Ġmessage",-10.20888952401662],["ĠMac",-10.209318005171438],["Ġadministration",-10.210461250701407],["ĠJersey",-10.210461422352273],["ĠSpain",-10.21073965276187],["ĠY",-10.211539092261495],["Ġtrip",-10.211846952881611],["Ġflying",-10.212418702018658],["Ġexchange",-10.213412986953676],["Ġrespect",-10.214319785999823],["Ġcriticism",-10.214401846412683],["Ġstanding",-10.214754522390527],["Ġcarrier",-10.21518151094842],["Ġcritic",-10.215541951157837],["Ġbeyond",-10.21572014134893],["ĠCoast",-10.21751530335541],["Ġsegment",-10.217695244906459],["Ġsplit",-10.218630317715547],["ĠFour",-10.219206279990408],["Ġconvince",-10.219330087377392],["ĠWood",-10.219681449054054],["Ġspread",-10.220222527105197],["Ġunique",-10.220703574545084],["wa",-10.222224446029026],["Ġprotest",-10.222792929087994],["Ġchoice",-10.222895332532328],["ĠTown",-10.222966137584764],["Ġcreation",-10.2230875691741],["Ġassume",-10.223389941862632],["Ġmile",-10.22340501027988],["berg",-10.223542962146857],["possibly",-10.223884248583994],["Ġnarrow",-10.225470412987132],["Ġfan",-10.228680649975152],["ĠElizabeth",-10.229341592769561],["Ġretreat",-10.229930596893405],["Ã¡",-10.230596392658038],["ĠBob",-10.23105982877181],["Ġprovince",-10.231217572086688],["ĠLaw",-10.232299787382686],["Ġgrow",-10.233175089248588],["Ġdraw",-10.233442965520327],["Ġdebate",-10.233985789668463],["Ġdata",-10.234305865655799],["Ġhands",-10.235274166724064],["Ġhop",-10.236057477888895],["Ġadvantage",-10.23665016459267],["either",-10.23685461449422],["ĠCommission",-10.236951060614734],["Ġwarning",-10.23787854183691],["Ġinform",-10.23874076934371],["Ġtext",-10.240197270045021],["ĠCambridge",-10.240649866700744],["Ġhire",-10.240704515046056],["Ġnecessar",-10.241823793448496],["Ġselection",-10.241842860747347],["ĠBoard",-10.24256388424681],["Ġitem",-10.242768495917394],["Ġ1985",-10.244082811500213],["Ġcultural",-10.245276602393263],["Ġpersonnel",-10.245485033438449],["ĠItal",-10.245669919830496],["Ġapprove",-10.245673700756603],["Ġdon",-10.245945448231458],["Ġtwelve",-10.247539942684408],["Ġconclude",-10.248713396109226],["Ġyellow",-10.24922525206726],["Ġarrangement",-10.24965975375428],["Ġmedal",-10.250011615424416],["Ġstruggle",-10.250502562077141],["ĠTen",-10.250552978230376],["Ġsurrender",-10.250724042934648],["Ġrepeated",-10.250752899371916],["ĠAlbum",-10.25079585229967],["Ġleadership",-10.250811558075325],["Ġrear",-10.251058951519127],["Ġ54",-10.251230003704817],["Ġtorpedo",-10.251268166940564],["ĠAlso",-10.251409498191727],["Ġcounter",-10.25143165575365],["Ġhorses",-10.2514882357439],["Ġcharacteristic",-10.252531846315911],["ja",-10.252936204497137],["ĠPoint",-10.252981099407098],["ĠOhio",-10.25316852349024],["Ġproducers",-10.253214200079046],["appears",-10.253387161539912],["ĠSingle",-10.254039671663834],["Ġarmed",-10.254075162877257],["Ġmanagement",-10.254298183020424],["Ġoccasion",-10.255209460454003],["ĠSu",-10.255303912547221],["Ġinfantry",-10.255616086322481],["Ġthreaten",-10.255971947163824],["Ġparallel",-10.255990686933217],["Ġrescue",-10.256508643744278],["ĠOrder",-10.256985065284532],["Ġconference",-10.257879768467289],["Ġdescription",-10.258445360862174],["Ġwait",-10.258748831249642],["Ġformula",-10.258884558830239],["ĠSecretary",-10.259044174090224],["Ġheight",-10.259680880085],["ĠArthur",-10.259964799327983],["Ġnorthwest",-10.259988786128135],["E",-10.260043168122335],["Ġstations",-10.261277454090179],["Ġcomposer",-10.26137302887484],["ware",-10.26165908030297],["Ġrival",-10.261699477926165],["Ġnewly",-10.262095692274642],["Ġancient",-10.262614238469814],["Ġpeace",-10.263097829967311],["Ġsettle",-10.263233847197084],["ĠWill",-10.26335955250676],["Ġbenefit",-10.264704496030257],["Ġaccompanie",-10.265277097044413],["theles",-10.265604339535605],["Ġsemi",-10.265715886235544],["Ġdivide",-10.26574612906764],["Ġ197",-10.265789536779543],["Ġpermanent",-10.266417393541653],["Ġcaught",-10.266434503009954],["ĠPhiladelphia",-10.267370600354242],["Ġmotion",-10.267752565245718],["Ġfinding",-10.267765761007961],["Ġ800",-10.267813025492686],["Ġ95",-10.268389739733557],["Ġ189",-10.268428568122262],["Ġdesire",-10.268615859411607],["Ġperfect",-10.269089386995],["ĠGeorgia",-10.26922132565348],["Ġfranchise",-10.269853425471748],["ĠAndrew",-10.270085769786787],["Ġsecurit",-10.270394033652309],["Ġholding",-10.270456949795934],["Ġarrival",-10.270535281533418],["Ġalternative",-10.270618636984478],["ĠScience",-10.270815079004965],["1984",-10.271822553880542],["Ġcontest",-10.272108598420619],["Ġfine",-10.27299041905223],["Ġbroken",-10.273270696714341],["Ġcenturi",-10.273335066691368],["Ġbroad",-10.273731875900234],["ĠNever",-10.274030312488172],["Ġcrash",-10.274753982730836],["Ġdriver",-10.275162705227093],["Ġbatt",-10.276224656742633],["Ġcomedy",-10.276499873853037],["Ġ53",-10.277218002546755],["ĠBC",-10.277807297483903],["ang",-10.278188703498275],["ĠGrant",-10.279143045894822],["ĠWalter",-10.279448008253382],["Ġzone",-10.279622332879617],["Ġinvestigation",-10.279695835713783],["Ġseventh",-10.279777742080945],["Ġsports",-10.279972153879358],["Ġ120",-10.280340155694027],["Ġcrowd",-10.28092108282217],["Ġsolo",-10.281231532507432],["Ġ85",-10.28145187087815],["Ġ56",-10.282036321807801],["Ġaffair",-10.2821671833751],["Ġnuclear",-10.282510955839369],["ĠRussia",-10.282689185260548],["Ġplanet",-10.282744385415679],["ĠEarl",-10.282994759351824],["Ġdefensive",-10.28468705031237],["q",-10.285431906295054],["Ġgenu",-10.285578246414225],["ĠPeople",-10.285861218277862],["Ġ1967",-10.286750215698666],["Ġrecommend",-10.287268260817914],["Ġencourage",-10.288300064776253],["ĠDevelopment",-10.288385985426713],["Ġoccasional",-10.288604275298432],["Ġhair",-10.289410855970578],["Ġrise",-10.289876906759348],["Ġdidn",-10.291278939824831],["ĠSquare",-10.291698506664126],["Ġfamilie",-10.292285058877626],["ĠOttoman",-10.292577151957527],["ĠAmong",-10.292704562855187],["Ġobserve",-10.292746558907961],["Ġhope",-10.292746998350921],["Ġbit",-10.292832067447037],["Ġregiment",-10.29284707234981],["ĠLiverpoo",-10.292884552416554],["chi",-10.293345957346501],["Ġbomb",-10.293577829053543],["ĠPop",-10.293767906271535],["ĠMD",-10.294415539954787],["Ġhousehold",-10.295450650050787],["Ġdetermined",-10.295490854436991],["ĠTa",-10.295628577920645],["Ġ180",-10.29569951890562],["ĠNintendo",-10.295811286810315],["ĠLewis",-10.296371656334234],["Ġlives",-10.296859164827222],["ĠLi",-10.29705024895404],["ĠColumbia",-10.297563090802566],["Ġbreed",-10.298720014357016],["Ġeconom",-10.29911084209164],["Ġturret",-10.299153208632458],["Ġtemple",-10.300138222175159],["ĠTe",-10.300389448976844],["ĠRadio",-10.300995772281885],["Ġsurvive",-10.301085051751677],["Ġcasualt",-10.301235785420062],["ĠAsia",-10.30162426807552],["Ġprison",-10.302025899380995],["Ġdollar",-10.302341557689457],["Ġbar",-10.302382851422026],["ĠLieutenant",-10.30250620198128],["ĠOffice",-10.302747330044308],["Ġprotection",-10.302974523866661],["ĠAdditional",-10.30298009515179],["ĠWall",-10.303914694027595],["Ġaddress",-10.304241111403174],["pp",-10.304402957471224],["for",-10.305030541372673],["Ġshooting",-10.305191831321237],["Ġsupporter",-10.30558746893822],["Ġpiano",-10.306103021521194],["Ġinstrument",-10.306192527259634],["Ġsinging",-10.30621466710665],["Ġmountain",-10.306856058170242],["ical",-10.307030053599602],["ĠLincoln",-10.307656268885065],["Ġnominate",-10.308154631664724],["Ġtouchdown",-10.308261990207068],["Ġstreet",-10.308985891192611],["Ġgradual",-10.309645034410478],["ius",-10.309943232985827],["Ġthing",-10.310308223351964],["Ġspecimen",-10.311835400948842],["Ġsteam",-10.312104042146997],["Ġdevice",-10.312435241155839],["Ġplants",-10.31244050804705],["ĠNot",-10.312526974242306],["ĠGulf",-10.312619478723352],["Ġcolour",-10.313011261106185],["Ġbranch",-10.313141135002581],["R",-10.31318669136673],["Ġiron",-10.313678610021885],["Ġfarm",-10.314033536693941],["ĠJean",-10.314357523401052],["Ġwild",-10.31438822648269],["Ġpaint",-10.314811074888953],["Ġrefer",-10.315027657998622],["Ġbrigade",-10.315031371320401],["ĠJewish",-10.315432028124501],["ĠGood",-10.317004328362113],["ĠFrancisco",-10.317437248070252],["box",-10.317474193194148],["Ġideas",-10.317536085340421],["ĠField",-10.3181308983859],["ĠAnderson",-10.318340249531536],["Ġcompare",-10.318582096726374],["ĠMiller",-10.318947193777353],["ĠPro",-10.319628791233576],["Ġintensit",-10.31976278007799],["Ġvictim",-10.319844659967044],["ľ",-10.320029119977953],["Ġfair",-10.32027096858818],["Ġquite",-10.321289865061493],["Ġinvite",-10.321404971167576],["ĠMatt",-10.321623573403722],["Ġpartial",-10.32234386589712],["Ġrain",-10.322699517959594],["ĠCD",-10.323290601036872],["ĠCa",-10.324135586421537],["ĠBell",-10.324772542113523],["ĠCarey",-10.325213518164363],["Ġdedicated",-10.325663699707857],["ĠBrian",-10.325707078064939],["Ġassign",-10.3261269341044],["ĠDavis",-10.326274286875995],["Ġcarry",-10.326756501549381],["ĠDisney",-10.326904980515847],["ĠâĪ",-10.328932692663313],["ĠDu",-10.329360836460303],["ĠEmperor",-10.329743317437767],["Ġwhy",-10.330772956008508],["ĠConference",-10.33157218873341],["Ġcombine",-10.331739379922121],["ĠSteve",-10.331754819625923],["ĠPlayStation",-10.331979065217993],["Ġreache",-10.332841206563527],["ĠCarl",-10.332883123761382],["ĠHMS",-10.3332572299863],["Ġsoft",-10.333589627971413],["Ġ1918",-10.333609369897049],["Ġprovid",-10.334109894028417],["Ġpromise",-10.335448534303902],["Ġcollapse",-10.336079368621471],["shire",-10.336124406902345],["ĠDan",-10.337187425578302],["Ġdepend",-10.33908077424179],["ex",-10.339332458447895],["Ġfollows",-10.340396509849784],["ĠSR",-10.340830751282688],["1914",-10.341132683496888],["Ġrepresentative",-10.341239263884809],["Ġ1972",-10.341625074689244],["Ġpromotion",-10.342609213950237],["Ġpublication",-10.343859114013524],["1971",-10.343996173353737],["Ġhappen",-10.344456430200848],["Ġrecognize",-10.344655629068207],["Ġinstall",-10.34480454693698],["Ġshift",-10.345291478563235],["Ġconstant",-10.345499755463878],["Ġprincipal",-10.34571763602044],["1979",-10.345724788741425],["port",-10.346725116709887],["Ġgeneration",-10.346771607675318],["Ġweak",-10.347267091542271],["Ġdrawn",-10.347780684693195],["Ġexperiment",-10.347847322891775],["Ġsuit",-10.348253836183327],["Ġescort",-10.348391381807433],["Ġaccident",-10.348393998833384],["Ġdepartment",-10.349090180693674],["Ġgreates",-10.349585910564512],["Ġprint",-10.349610055900122],["Ġ57",-10.349653229489437],["Ġdeclare",-10.35014768375114],["Ġnotable",-10.350252352345159],["ĠGold",-10.35083001951175],["ĠOut",-10.351309963422745],["Ġflow",-10.351866919560463],["ĠBank",-10.352045015245558],["Ġsubmarine",-10.352123390336255],["1982",-10.352457537438786],["ĠNHL",-10.353196587572572],["#",-10.353575955252381],["1966",-10.353848021274121],["Ġtypes",-10.353986509140624],["Ġunusual",-10.353991924254093],["ĠAm",-10.354916354212248],["Ġ1965",-10.355234368299183],["mentioned",-10.356241055881176],["Ġapplie",-10.356304222380658],["ĠOnc",-10.356626848303573],["Ġsteel",-10.356908582046318],["Ġanalysis",-10.357117821907925],["ĠEnd",-10.357533419976884],["Ġsurprise",-10.35774308397561],["ĠChrist",-10.358031034991832],["Ġ250",-10.35865148291021],["Ġ66",-10.359041915444694],["Ġcombination",-10.359319363492975],["Ġrail",-10.359422710908103],["Ġmanag",-10.359670195375053],["Ġstrengthen",-10.359854419231082],["ĠOriginal",-10.359881004774168],["ĠBowl",-10.360605053177139],["Ġcold",-10.361216839676718],["ĠJo",-10.361549911652903],["Ġdisc",-10.361593770545781],["1975",-10.362069034350196],["Ġreligion",-10.362976491309622],["ĠHollywood",-10.363620219680243],["Ġargu",-10.364135708844717],["Ġcaptur",-10.364371523003312],["Ġtable",-10.365494406740002],["ĠJr",-10.365512268094982],["Ġdestroyer",-10.365554578129425],["Ġlane",-10.36768426066402],["Ġhotel",-10.368454008277523],["Ġentrance",-10.369504218376042],["Ġroads",-10.370246010615205],["Ġassistant",-10.370449008045584],["Ġeditor",-10.371079416505083],["Ġflat",-10.37108024536469],["ĠStation",-10.37115122534246],["ĠSe",-10.371323414291348],["spread",-10.371643748542954],["ĠLand",-10.372068991329972],["after",-10.372617162668908],["ĠDemocratic",-10.372807532113741],["Ġcricket",-10.373097038671908],["ĠSingapore",-10.373785904654483],["Ġdigital",-10.375652782198916],["Ġtechnolog",-10.376021231668327],["Ĺ",-10.376068177376],["Ġlap",-10.376442373428855],["1973",-10.377334735865238],["Ġclimb",-10.377566080256301],["Ġ61",-10.377793175095137],["Ġthrow",-10.377925765946538],["ĠBetween",-10.377990511038849],["ĠPress",-10.378454420216773],["ĠLady",-10.37889144500941],["Ġhighlight",-10.37905349082463],["ĠSupreme",-10.379056382219298],["Ġfit",-10.379250848771347],["Ġ58",-10.379383324333995],["W",-10.37950502634488],["Ġdecide",-10.381186255640289],["Ġ1976",-10.381638018419052],["Ġtalk",-10.382277635796893],["Ġdomestic",-10.38303376168232],["Ġconclud",-10.383701584954832],["Ġcriticiz",-10.384639282561375],["Ġcore",-10.384779903588655],["Ġload",-10.38486453279926],["Ġrename",-10.387127888739212],["Ġjournalist",-10.387685687283172],["Ġhonour",-10.38891924586195],["Ġfinds",-10.389130159874714],["Ġdepart",-10.38924392288932],["ĠColonel",-10.389353425506654],["Ġ76",-10.389547982440234],["ĠBook",-10.389905049684414],["Ġbasic",-10.390014403417215],["cited",-10.390031969184545],["ck",-10.390225492829133],["Ġhall",-10.390573295156996],["ĠCape",-10.39122267554336],["Ġprogramme",-10.39139129562243],["Ġsoutheast",-10.392560810682536],["Ġbelief",-10.392801496955673],["coming",-10.392831609551086],["Ġboats",-10.393149235324854],["Ġprovides",-10.393545328247592],["ber",-10.394095090905957],["Ġislands",-10.394095595939202],["ĠWomen",-10.394136862319936],["ĠDaily",-10.394203773339246],["Ġhabitat",-10.394225450474382],["Ġliterature",-10.395182314727792],["knew",-10.395486707083501],["ĠRose",-10.39550799617285],["ĠDa",-10.395599215828367],["ĠSummer",-10.395624982894011],["ĠMuslim",-10.396486653387214],["Ġexact",-10.396622457093404],["Ġkick",-10.397195475187074],["Ġpound",-10.39803769133396],["Ġvon",-10.398147818550571],["ĠIts",-10.398344287150241],["Ġurban",-10.398880288322996],["Ġnor",-10.399646164068757],["ĠAr",-10.39993386857237],["ĠWay",-10.400044982797453],["ĠBeyoncÃ©",-10.400835252980261],["Ġunlike",-10.40090850835421],["Ġsingles",-10.400932109407478],["Ġgoes",-10.401502659367672],["V",-10.401550867849474],["Ġunsuccessful",-10.401924382948309],["Ġeyes",-10.401940220907942],["ists",-10.403034298404844],["Ġactress",-10.403059413823499],["Ġindustrial",-10.404234856072444],["Ġlosse",-10.404545784792472],["Ġresistance",-10.404595627697166],["Ġprepared",-10.405067397123798],["X",-10.405597815161757],["Ġreputation",-10.405860111867455],["Ġintroduction",-10.405890925335436],["Ġtrains",-10.406086611649789],["ĠBart",-10.407287087380901],["Ġinter",-10.407661676128269],["Ġanything",-10.408296331966902],["Ġresponsibilit",-10.408931966616972],["ĠClark",-10.409114729043766],["Ġjoint",-10.409494511376629],["Ġphase",-10.409562515758632],["Ġadaptation",-10.409639627240042],["Ġgameplay",-10.410448741058048],["Ġha",-10.41076498942377],["Ġgarden",-10.410834790570656],["Ġsequel",-10.411572558946808],["Ġbass",-10.411687302839185],["Ġfashion",-10.412233773635233],["Ġattach",-10.413035130425051],["Ġbank",-10.413534018124475],["ĠKentuck",-10.414229667236636],["Ġdaily",-10.415119413160618],["Ġgrade",-10.416179920858532],["Ġstraight",-10.416187987263065],["Ġprice",-10.416275406445175],["Ġobserv",-10.41637437525762],["Ġ1946",-10.416387665094472],["ĠEd",-10.416392320225757],["Ġcoal",-10.417306711612312],["ĠNa",-10.417701679285114],["Ġscientific",-10.417781800202562],["mar",-10.418276177326902],["Ġindicat",-10.418594045930748],["ĠAirport",-10.418996706294813],["Ġcampus",-10.419011849427692],["Ġdress",-10.419155249671633],["Ġfreeway",-10.420024254454505],["Ŀ",-10.420314873284255],["Ġperhap",-10.420647440942718],["Ġcompete",-10.421109429735449],["ĠDaniel",-10.422004223134687],["aired",-10.422098101595507],["ĠNorway",-10.422903960277223],["ĠIV",-10.422937150575784],["Ġnote",-10.423954300967537],["Ġextension",-10.42443443687445],["ĠBoy",-10.42533980607709],["Ġchannel",-10.426092555142006],["Ġsurvey",-10.426503856212232],["ĠGolden",-10.426678531967617],["Ġultimate",-10.427664419490684],["Ġdrew",-10.427937583879602],["Ġ1917",-10.429039092311305],["ĠPre",-10.429138835247537],["jo",-10.429153392851118],["asily",-10.429255630164734],["Ġpassage",-10.429269891356073],["Ġ72",-10.429353574685903],["com",-10.429387803375441],["Ġfruit",-10.429436023714292],["Ġ62",-10.429596292599912],["ĠWho",-10.430155474725934],["Ġconsists",-10.430880425032443],["ĠLo",-10.43100212771095],["capable",-10.431041134503285],["operating",-10.431106210800694],["end",-10.431552172003578],["Ġturns",-10.431995155284389],["Ġmuseum",-10.432023818050155],["Ġdistinguish",-10.432276734977336],["ĠMassachusetts",-10.432726729357563],["ĠPublic",-10.433040292769101],["Ġboy",-10.433101461881694],["1981",-10.433358226198683],["ĠRay",-10.433927639645129],["ĠSpecial",-10.43421487018221],["Ġguard",-10.434287341692036],["Ġstrateg",-10.43452849946983],["Ġcontribution",-10.434546412520929],["Ġcontrovers",-10.434933457492708],["Ġjourney",-10.434979743739552],["Ġmention",-10.435129587528959],["Ġlet",-10.435325608891524],["ĠAge",-10.435435068679785],["Ġrefus",-10.43555691048417],["Ġdepth",-10.435882485982368],["ĠPart",-10.43649985181072],["Ġremark",-10.437436380417077],["Ġinternal",-10.43792660807157],["ĠNi",-10.438729880587566],["Ġslave",-10.439020949259442],["Ġtransfer",-10.439316866324209],["Ġcap",-10.439614331095774],["Ġstadium",-10.439727672835431],["Ġgraphic",-10.439733464465904],["Ġbomber",-10.440093368387576],["ĠDark",-10.440928502185546],["Ġdistribution",-10.441567538604824],["ĠVideo",-10.441830992799417],["Ġpolitic",-10.442614893038773],["Ġknowledge",-10.442693445811512],["Ġpossibilit",-10.443132888818104],["Ġroof",-10.443254616622653],["ĠVi",-10.444290871780888],["Ġ1948",-10.44460457093871],["Ġregister",-10.445637489698779],["Ġcompound",-10.446093489356462],["Ġmulti",-10.4460987913151],["Ġsafet",-10.446443221186966],["Ġpromot",-10.446507429934433],["ĠBand",-10.447057380945528],["ĠAbout",-10.447231566515207],["Ġdistinct",-10.44754157143958],["ated",-10.44761704437259],["Ġexistence",-10.44916900177904],["ĠÃ",-10.44977903516578],["Ġburie",-10.449798015612386],["Ġoption",-10.449829763834387],["Ġwish",-10.450236514473495],["Ġex",-10.450545777992808],["Ġ59",-10.450675886953382],["Ġ700",-10.450732084157277],["Ġtube",-10.450874625483657],["Ġassociation",-10.452070486247726],["Ġfavour",-10.452135458707863],["Ġmouth",-10.452202576470432],["Ġpropos",-10.45373915579461],["ung",-10.454308094653701],["ĠMoore",-10.454545793244389],["Ġcombin",-10.455052075241598],["Ġtheatre",-10.455058171817209],["Ġchapter",-10.455718869925292],["Ġknot",-10.456335399147857],["gan",-10.456485287066855],["ĠByzantine",-10.456642083780796],["Ġensure",-10.456781924337028],["Ġconnected",-10.45683835190455],["Ġdismiss",-10.456913429834186],["Ġreading",-10.45696660408948],["Ġ1978",-10.457064925664024],["Ġtravell",-10.457733704721617],["Ġbaseball",-10.458025077210332],["ĠEven",-10.458587128932368],["Ġincorporate",-10.459165141389724],["Ġcollected",-10.459280826585887],["Ġsurround",-10.459665377518318],["ĠImperial",-10.460335158878529],["ĠSS",-10.46089109069616],["Ġ63",-10.461005701689661],["Ġverse",-10.461201125672275],["ski",-10.461353680292872],["Ġmap",-10.461751599448888],["Ġfestival",-10.462651303514566],["Ġdry",-10.462760427958004],["Ġmoderate",-10.462832387590039],["Ġopera",-10.463512395154112],["ĠJustice",-10.463597428113353],["Ġcommunication",-10.463604082326395],["ĠVa",-10.463884566313874],["Ġpenalt",-10.464567885477734],["Ġcommitt",-10.465112337286724],["Ġcontribut",-10.465117562180676],["ĠDirector",-10.465514912306869],["Ġinstitution",-10.46557386403378],["Ġrecruit",-10.465589019324707],["Ġcarrying",-10.465638622537904],["ĠSunday",-10.465825922654139],["ĠArab",-10.466116062854638],["Ġentitle",-10.466858180672657],["Ġjudge",-10.468502522756761],["ĠNaval",-10.46942258786305],["ĠPoland",-10.469537547679902],["ĠSydney",-10.470099267029147],["Ġsignal",-10.470278096551658],["Ġdrink",-10.470333671017618],["ĠMaryland",-10.470658179860472],["Ġshoot",-10.471033727897023],["Ġlandfall",-10.471341977449923],["ĠJay",-10.47143940553989],["Ġaccuse",-10.472234940206203],["Ġtechnical",-10.472438174593805],["Ġfresh",-10.472571420655592],["Ġexhibit",-10.472803066363797],["Ġbrand",-10.473241834022339],["uk",-10.47378729208635],["1977",-10.474066531516206],["Ġwithdraw",-10.474486799005991],["ĠMTV",-10.475353906929776],["Ġscheme",-10.475969329726164],["ĠHan",-10.476148907665511],["Ġturning",-10.476726415263494],["writers",-10.47698735808587],["Ġheat",-10.477862100535187],["Ġplayoff",-10.478979632180089],["Ġsouthwest",-10.479769540658092],["Ġafterward",-10.479795321482763],["ĠSimpsons",-10.47979578836145],["Ġretir",-10.480089650614214],["Ġsymbol",-10.481340055179897],["Ġhomes",-10.481378377107196],["Ġlearned",-10.481877714621227],["Ġresource",-10.482085306201693],["missing",-10.482432034969431],["Ġapplication",-10.483268213763573],["ĠRecording",-10.483978189527335],["Ġcoastal",-10.484015133666093],["ĠAlan",-10.48447361092294],["Ġviolence",-10.4847436944065],["Ġstoppe",-10.485150172720083],["war",-10.485172269355772],["Ġ1963",-10.48551968861693],["Ġorbit",-10.485537018742884],["Ġcrosse",-10.485554212570081],["ĠTheatre",-10.48564203204894],["ĠSimon",-10.48616996977351],["Ġbattery",-10.488027696072542],["Ġ67",-10.489816156029331],["Ġshowing",-10.490180432234068],["ĠMain",-10.490283242238723],["Ġevening",-10.490435236674102],["Ġdenie",-10.491455535246049],["Ġfun",-10.493224417222589],["ĠMulder",-10.493275798137496],["ĠGordon",-10.493287832947786],["Ġdispute",-10.49352893577037],["Ġmemor",-10.495197105845808],["Ġskin",-10.495256889997473],["lies",-10.496474835623804],["ĠNews",-10.497653794632678],["Ġimprovement",-10.499182591980079],["Ġbigge",-10.49922963285236],["Ġtransition",-10.499364539858197],["Ġsend",-10.499691963247404],["Ġclassic",-10.50004881661751],["Ġderive",-10.500384787269997],["Ġrestore",-10.501248534015843],["ĠCommand",-10.501576921152136],["ĠStadium",-10.50166340810948],["Ġboundar",-10.501924380385113],["ven",-10.503167192445787],["Ġwealth",-10.50333022072447],["Ġupgrade",-10.503836849080908],["Ġprompt",-10.503910051210449],["Ġ1919",-10.504497752064449],["Ġowner",-10.50480959256557],["Ġemployee",-10.505333012782623],["Ġtall",-10.505344304497893],["ĠYour",-10.505944386845247],["Ġbottom",-10.506200833234095],["Ġacquire",-10.506514764247893],["ĠSongs",-10.506689341619218],["Ġheaded",-10.507378913272664],["ĠFire",-10.509066530107964],["Ġscientist",-10.509651769103623],["Ġcivilian",-10.509653616342304],["online",-10.510190278743693],["Ġobservation",-10.51027473515713],["ĠSpace",-10.510824239711637],["Ġrules",-10.51092971736856],["Ġequipp",-10.511042758445772],["ĠPrior",-10.51166069025382],["Ġnone",-10.511879278402422],["Ġpredict",-10.511890322391563],["Ġphotograph",-10.512288432005077],["rat",-10.512584037446286],["Ġ82",-10.51272498428379],["ĠJust",-10.512871360673097],["Ġsentence",-10.513181800989047],["ĠRoss",-10.513285278476328],["ĠPower",-10.514270051160548],["Ġargument",-10.514370423319663],["ĠJan",-10.514562662803806],["Ġ1938",-10.514840155203913],["ĠAlbert",-10.515539319925173],["Ġ183",-10.515607356288644],["ĠEgypt",-10.515980511421159],["water",-10.516026716738239],["lan",-10.516299405571242],["ĠCritical",-10.516414063218685],["Ġparticipat",-10.51711400207763],["what",-10.517126139263299],["Ġburn",-10.518560960223917],["Ġflank",-10.518685155797659],["ĠCol",-10.5187241809133],["ĠWater",-10.518958083489048],["van",-10.519038889396965],["Ġexercise",-10.519060261202423],["Ġessential",-10.519666512234139],["Ġexclusive",-10.519828759724957],["Ġconsiderabl",-10.520661671595965],["Ġbird",-10.520707760610838],["Ġdownload",-10.520930434639366],["Ġreplacement",-10.521413172981676],["Ġ87",-10.521561940812798],["Ġadapted",-10.521874312898277],["Ġexit",-10.522165662165929],["Ġrelief",-10.522251970298546],["les",-10.522358783578017],["ĠCap",-10.522451166936456],["Ġsubstantial",-10.52286296443238],["Ġago",-10.522941227722598],["Ġprotein",-10.523033349315297],["ĠLu",-10.523588510836795],["Ġ160",-10.524918929038064],["Ġpartner",-10.525501362503935],["ĠPo",-10.525648631171727],["Ġcrown",-10.525978642803834],["Ġsample",-10.526256730789926],["Ġkingdom",-10.526565992439828],["stone",-10.52660294166056],["ĠGu",-10.526638639837833],["duty",-10.527329146652114],["Ġdeploy",-10.528957597010717],["ĠGar",-10.529378630935188],["ĠBeach",-10.529689985318027],["Ġspirit",-10.530169438089057],["ĠTony",-10.530264807223636],["Ġequivalent",-10.530278646471354],["ĠKent",-10.530336636053361],["ĠRome",-10.530887784180976],["Ġcomponent",-10.531023247264232],["ĠMemorial",-10.531280803120982],["ari",-10.53148083393032],["ĠFree",-10.531557853525989],["Ġcars",-10.531587845831972],["Ġspot",-10.531778371939444],["Ġ68",-10.532508727026041],["ĠAdam",-10.532926047497172],["ĠForest",-10.533945735981355],["ĠPer",-10.533949458438698],["Ġacademic",-10.534069491793375],["Ġ1956",-10.534513855960368],["visible",-10.535736655580832],["Ġ130",-10.535904505994818],["ĠGarden",-10.536168031587694],["Ġteacher",-10.536273809177715],["Ġeveryth",-10.536403521193089],["ĠNorman",-10.536859838397278],["Ġglobal",-10.537592468948036],["ĠSound",-10.538240597402874],["Ġ190",-10.53881849950063],["Ġmode",-10.53900936408417],["Ġsufficient",-10.539250668113132],["Ġ78",-10.539266183473764],["ez",-10.539868037503025],["Ġpath",-10.540319841944232],["ĠArts",-10.54053911768228],["ĠHungarian",-10.541005598953774],["Ġestablishment",-10.541255826651746],["je",-10.541421558880405],["Ġdeparture",-10.542036393667024],["ker",-10.542731248847545],["Ġhandle",-10.542739507899961],["Ġremainder",-10.543056206591412],["Ġmanner",-10.543167270798792],["Ġmaster",-10.543228395395886],["Ġadmitted",-10.543424744443962],["ĠPlot",-10.54349957380686],["che",-10.543989716015325],["Ġ1936",-10.54413682637817],["Ġlibrar",-10.54426921049722],["ĠMilitar",-10.544534171122233],["ĠDouglas",-10.544779088516709],["Ġimportanc",-10.544835412022284],["Ġnest",-10.545024173977575],["Ġ99",-10.545141623386021],["ĠHamilton",-10.545277068076917],["Ġrelations",-10.545826482638157],["Ġairport",-10.54595196703879],["ĠMo",-10.546027276727811],["ĠAdams",-10.546117795614927],["ĠIGN",-10.546375009319858],["ette",-10.547284115689203],["mouth",-10.547495038147874],["Ġheads",-10.547591073342973],["ĠPlay",-10.547695928933576],["ĠPhilip",-10.548439526573034],["Ġclassification",-10.548682541535925],["Ġentry",-10.548725763893353],["ĠMoon",-10.548991699209854],["Ġconvoy",-10.549062071879474],["Ġbough",-10.54906908995179],["Ġbreeding",-10.549260835800773],["Ġnotice",-10.550147485200794],["Ġsecondar",-10.550805648517082],["ĠBush",-10.55121226812322],["ĠKennedy",-10.552366419820894],["Ġtank",-10.55238974481662],["Ġ94",-10.552444966938536],["ĠSky",-10.55268254753647],["ĠUTC",-10.552959395749678],["Ġ74",-10.553283469482864],["Ġpreparation",-10.553437199778804],["Ġincome",-10.553471056084737],["Ġproper",-10.55407337908071],["over",-10.55459852197955],["ĠRevolution",-10.554801643729032],["Ġwarm",-10.554908955785983],["Ġchorus",-10.555171283570543],["Ġcontribute",-10.555442644098006],["ington",-10.555503552294152],["Ġformat",-10.555678873213],["ĠGiant",-10.555990748551944],["ĠMountain",-10.556389997559775],["Ġpowers",-10.556446819106199],["Ġemotional",-10.556821283471622],["Ġ185",-10.557253169582365],["Ġdesigner",-10.557952372119985],["ĠHead",-10.558738711438163],["Ġ77",-10.558862014834306],["Ġtunnel",-10.559206502708788],["ĠHoward",-10.559519866325319],["Ġpicture",-10.559710778418026],["Ġintention",-10.559797476228615],["ĠDeath",-10.560069839423154],["Ġinstance",-10.560512064459397],["ĠVer",-10.56085527392169],["ĠTransport",-10.561030089673457],["ĠNBA",-10.561338423101079],["AAF",-10.561657692640521],["Ġflower",-10.561791941893514],["ram",-10.562073397341276],["Ġplate",-10.562136086400267],["Ġ96",-10.562204315736908],["Ġpoet",-10.562751246004872],["Ġacid",-10.56285422040022],["ong",-10.562976244924357],["Ġviews",-10.563221859873996],["ĠTi",-10.56325074815266],["Ġyouth",-10.563536251913783],["Ġattain",-10.56588932411896],["Ġbuy",-10.566645625672969],["Ġdutie",-10.567114714455524],["ĠToday",-10.567128471548411],["Ġemerg",-10.567143092597103],["ĠMagazine",-10.568205094232175],["Ġrural",-10.56901971223873],["Ġremember",-10.569752498425649],["Ġdrug",-10.570010834707322],["Ġdecrease",-10.570527065144988],["ĠInitial",-10.57054554175285],["ĠRu",-10.570636620638735],["sky",-10.571125337352441],["Ġ91",-10.571244264589545],["ĠProject",-10.571560852033867],["ĠFive",-10.57219042875789],["ĠMedia",-10.572351135745501],["Ġ186",-10.572632914616195],["Ġidentity",-10.573373242369577],["Ġexception",-10.573373626304353],["ĠRoger",-10.57347543777569],["bury",-10.573536338797838],["ĠScully",-10.573634430766342],["Ġattribute",-10.574101097237154],[">",-10.574409046470734],["ĠNorwegian",-10.575446794648608],["ĠHitler",-10.575473387323829],["1953",-10.575584284014004],["Ġtanks",-10.575705921885037],["Ġeighth",-10.57595343285327],["Ġcatch",-10.576429073954584],["ĠKo",-10.576660578189156],["Ġchampion",-10.57677194986688],["Ġarmour",-10.577107789615608],["ating",-10.577571611029693],["Ġdrop",-10.577868424109438],["Ġrealize",-10.578445051817557],["Ġ71",-10.578454162050297],["Ġfreedom",-10.578567589445397],["Ġspin",-10.578749818456552],["Ġrecognition",-10.578826933052097],["acres",-10.578953896944373],["Ġagenc",-10.580426124200034],["actors",-10.580566244339103],["Ġconclusion",-10.580651751064217],["Ġclimate",-10.580651913102649],["Ġshell",-10.58070666168157],["Ġ73",-10.581113181135695],["Ġlose",-10.581113203007273],["Ġdetermine",-10.581174833718292],["Ġregional",-10.581299090522638],["ĠMax",-10.58138883394343],["ĠRyan",-10.581536776319059],["ĠDesign",-10.581660085665584],["Ġcurve",-10.581912149949092],["ĠMi",-10.582055481663971],["Ġpatrol",-10.582318245857651],["Ġconvention",-10.582779994480864],["ĠResearch",-10.583295677703926],["ĠBack",-10.583653524734558],["tri",-10.58392383503475],["Ġcorner",-10.584028655378928],["ĠKen",-10.584505030053222],["1937",-10.58453828326507],["ĠWWE",-10.584845928244736],["Ġunion",-10.58507767433935],["Ġaim",-10.585246920913377],["Ġarm",-10.585525646100338],["ĠMexican",-10.585621680379555],["Ġlocat",-10.585649494993744],["1947",-10.58571333376124],["Ġdrawing",-10.58613956592719],["Ġstock",-10.586555613155866],["ĠEric",-10.586568273945304],["ĠTu",-10.586924699655404],["Ġsoul",-10.587947453628336],["1958",-10.588120936218841],["Ġbelt",-10.588658542907503],["Ġenemie",-10.588773374735533],["Ġticket",-10.589303194870874],["Ġ98",-10.589628812980383],["Ġgraduate",-10.589818346174175],["ĠAssembly",-10.590182685925067],["ĠGirl",-10.590481717093569],["Ġpanel",-10.590846302715486],["sistance",-10.591522058565175],["ĠBi",-10.59152449358447],["1961",-10.591609362882256],["Ġ110",-10.591723663983048],["var",-10.592263681589287],["Ġsomeone",-10.592284392419193],["ĠCleveland",-10.593530966814274],["mann",-10.593840373089815],["Ġcertifie",-10.594312928131602],["ĠRolling",-10.59433178930073],["Ġfile",-10.594657495639341],["ju",-10.595013296015734],["Ġridge",-10.595200375203875],["ĠIllinois",-10.595371432911172],["Ġsafe",-10.59622006174625],["Ġrestaurant",-10.596431171785746],["gate",-10.597720485930253],["Ġvisitor",-10.597882442253901],["off",-10.598028945609316],["ĠHar",-10.598260066546025],["Ġdriv",-10.598321536654185],["Ġalter",-10.598567755692969],["Ġends",-10.599597621459285],["ĠArsenal",-10.600681410174493],["Ġmemorial",-10.600729077915583],["ĠMaster",-10.600882516458913],["<",-10.601480344675865],["ĠSi",-10.601831246042506],["Ġprofit",-10.60241830043955],["Ġfly",-10.602709784249173],["Ġcycle",-10.60275530817824],["Ġlift",-10.602767495080668],["Ġmales",-10.602862562892975],["Ġdeem",-10.603084714185615],["Ġ88",-10.603723397181444],["ĠKong",-10.603869904381279],["Ġatmosphere",-10.604148083680276],["Ġcorrect",-10.6043314471177],["har",-10.604627305134589],["ĠPe",-10.605563084660346],["Ġfounder",-10.60574061060675],["Ġcool",-10.605925701534588],["Ġbehavior",-10.606004723408569],["ĠFA",-10.606535385254299],["car",-10.606555476418134],["ĠStanley",-10.60687197130541],["Ġorgan",-10.607080016829268],["back",-10.607382976108237],["Ġfoundation",-10.607534612765102],["Ġacclaim",-10.607771311602905],["Ġcirculation",-10.607903611728558],["ĠBruce",-10.60802253147446],["ĠKe",-10.608312935742658],["Ġclasse",-10.608378892273128],["Ġfavorite",-10.609045205032677],["Ġinterested",-10.609424268768308],["Ġhip",-10.609459518029121],["Ġultimatel",-10.609653096511682],["ĠThird",-10.609778511214593],["Ġwearing",-10.61028671140082],["Ġvalley",-10.611398366965556],["Ġ79",-10.61158903028099],["Ġchemical",-10.611839263247619],["ĠReview",-10.61204028656577],["ĠFamily",-10.612464391527556],["Ġglass",-10.612560223720648],["Ġliterar",-10.612786819819526],["ĠAllen",-10.612877497733102],["Ġinspiration",-10.613075230213445],["ĠInter",-10.613332711042824],["Ã¡n",-10.613413418535716],["Ġdated",-10.613577982991913],["ĠKevin",-10.613811600097714],["Ġterminus",-10.613882670517329],["ĠDean",-10.613900308293625],["ĠIron",-10.614131669811854],["Ġprinciple",-10.614354111401317],["Ġopposite",-10.614654591337318],["ĠMediterranean",-10.615430939722092],["Ġinsist",-10.615611699834771],["1959",-10.615700559216396],["Ġ69",-10.616196907710085],["ĠMorgan",-10.616536882787281],["Ġstring",-10.616563387655123],["ĠBeatles",-10.61693196416318],["ĠBristol",-10.617323999846944],["ĠChannel",-10.617337602742179],["Ġcode",-10.617441325711699],["Ġsupposed",-10.617469241675401],["ĠPlayer",-10.617596182408596],["SBN",-10.618419637058459],["ĠRelease",-10.61867855271635],["voted",-10.618725365220017],["Ġintelligence",-10.618780634804574],["Ġcitizens",-10.61878090862299],["Ġtowns",-10.619302228985871],["Ġcriminal",-10.619762881006025],["cha",-10.620173308835534],["Ġdocumentar",-10.620477983457587],["Ġsuccessor",-10.621154586857868],["ĠPremier",-10.621351882061377],["Åį",-10.622355506994982],["Ġcompletion",-10.623066407424693],["Ġdoctor",-10.623187126657596],["ification",-10.624453863907629],["ĠEn",-10.624586335420075],["Ġtend",-10.625041704180173],["ĠBishop",-10.62520496259081],["Ġrose",-10.625367293867914],["Ġconcerned",-10.625894234994016],["Ġsole",-10.627374792377982],["Ġthirty",-10.627662705341898],["Ġpossession",-10.627760480277555],["1955",-10.627858394983793],["ĠPi",-10.628092987147513],["Ġmerchant",-10.628209890946247],["ĠBad",-10.62826876625065],["Ġprey",-10.628421229532224],["Ġsort",-10.628490152762243],["ĠGermans",-10.628594944153264],["Ġdowntown",-10.628759043334547],["Ġanswer",-10.629057938535832],["Ġ97",-10.629121229479845],["ĠJeff",-10.629925347529559],["adding",-10.630034188055314],["ĠFame",-10.630748243606739],["tied",-10.631067708619288],["Ġobjective",-10.631943181209381],["Ġlaws",-10.632121566448323],["ĠTim",-10.632368323439175],["Ġdestruction",-10.632873092401578],["ĠKorea",-10.632878995285258],["Ġtalent",-10.632884526675145],["Ġlayer",-10.632938826056751],["Ġouter",-10.633030471955086],["borough",-10.63321589507456],["Ġinterior",-10.63323507170533],["Ġ81",-10.634072942036573],["Ġbegun",-10.634149018725925],["Ġhits",-10.6342307785922],["Ġbrain",-10.635031844357876],["Ġpursue",-10.635035797362583],["Ġdefine",-10.63514725899946],["Ġpreferr",-10.635434102086991],["ĠLisa",-10.636555570942672],["Ġgrand",-10.636695834486764],["ĠTemple",-10.636788242936289],["ĠRobinson",-10.637655679781284],["ĠAnn",-10.637979613808136],["Ġelectronic",-10.638056537814391],["ĠAnne",-10.638114030045738],["Ġsport",-10.638542737377923],["gar",-10.638630525530663],["Ġhearing",-10.639411921313043],["Ġpropertie",-10.639854881934916],["ĠCh",-10.640074339547953],["Ġvenue",-10.640323324875176],["ĠWithin",-10.641950730111393],["Ġdog",-10.642145971666654],["Ġdoor",-10.643180099150365],["Ġrow",-10.644510776675125],["ĠNick",-10.644580930844723],["Ġalleged",-10.644697617476368],["Ġorganiz",-10.644952360690686],["ĠNow",-10.645649438369883],["Ġcreator",-10.645684821948999],["Ġimpress",-10.645987650419066],["ĠHorse",-10.647988462391572],["Ġpreserve",-10.648624536863666],["ĠPhilippine",-10.649225871818585],["ĠIndiana",-10.649296418079269],["Ġgather",-10.64949032131865],["ĠAD",-10.650254342324661],["Ġwaters",-10.65046659127194],["ĠFrancis",-10.650847081764402],["Ġgarrison",-10.650903458110468],["Ġfinishing",-10.65118223973784],["Ġmassive",-10.651829212141365],["Ġdiffer",-10.652498773126176],["ĠOregon",-10.652863807993096],["Ġcavalry",-10.652864786033549],["Ġnarrative",-10.652864786045727],["Ġ93",-10.653349871050942],["Ġcircle",-10.653361988456732],["ĠUnlike",-10.653441191433009],["ĠWinter",-10.653480505249549],["Ġmoral",-10.653726172159864],["Ġalien",-10.65462514307426],["Ġorganize",-10.654762536787503],["ĠTelevision",-10.654830721382456],["ĠMarine",-10.654977256677899],["ĠConstruction",-10.655392952008715],["Ġrich",-10.655830385425551],["Ġromantic",-10.655957407244669],["Ġminister",-10.655961130505059],["ĠSimilar",-10.656236061608128],["Ġ1933",-10.656263132150688],["Ġmarch",-10.656363908800131],["ĠSix",-10.656457703851366],["Ġweapon",-10.65735483741031],["ĠAround",-10.657417504839428],["vi",-10.657980211176657],["ĠPan",-10.658077592180879],["ĠNelson",-10.658772692143861],["bar",-10.658950058602013],["Ġranking",-10.659226737175189],["Ġspoke",-10.660931134001949],["1952",-10.661028456385312],["Ġdefin",-10.663491263685062],["ure",-10.664333110019664],["ĠSweden",-10.66499817406506],["Ġgross",-10.665217085803011],["Ġimprov",-10.666269284716183],["Ġeleven",-10.666937159867901],["Ġ1935",-10.667053573742692],["ĠPatrick",-10.667569453463939],["Ġsolution",-10.668126933164888],["Ġsuper",-10.668392526458932],["ĠTower",-10.668753136764668],["Ġ89",-10.669192574759743],["ĠToronto",-10.669836616454866],["Ġ86",-10.670444390374584],["Ġaboard",-10.670587880907503],["Ġclassified",-10.670948992175724],["Ġdates",-10.671436377065884],["Ġcent",-10.671748941300686],["Ġ84",-10.672166795858198],["ĠWelsh",-10.6724136361059],["Ġinner",-10.67263282509143],["ĠMu",-10.672668573961372],["Ġpatient",-10.67326722560576],["ĠJas",-10.674252112869935],["Ġ1951",-10.674810572892605],["å",-10.67525316300888],["ĠKi",-10.67544687513493],["Ġanimation",-10.67576320256225],["Ġoutbreak",-10.675844523094979],["ĠJane",-10.676118954358211],["Ġprotagonist",-10.676705846843566],["Ġpredecessor",-10.677567915839205],["cal",-10.677850455808036],["ĠHav",-10.678151139270442],["und",-10.678765293224707],["Ġanniversar",-10.679294293882093],["Ġready",-10.679327183828512],["ĠJordan",-10.680446358325447],["Ġlake",-10.680567473509775],["Ġfictional",-10.680901272455351],["Ġsale",-10.681403726729034],["1949",-10.681406247793905],["ĠTri",-10.681572857283506],["ĠMatthew",-10.682757273228347],["Ġbasketball",-10.683337469808613],["Ġroll",-10.683711200699038],["Ġride",-10.684553517135036],["ĠNetherlands",-10.68460789999337],["ĠEvery",-10.685357003639595],["ĠHospital",-10.68536016315517],["Ġpack",-10.68587905595213],["Ġcollect",-10.686432333994652],["life",-10.68695126274471],["Ġworth",-10.687136769462803],["ĠEngineer",-10.687324833891566],["ĠHere",-10.688177986901643],["J",-10.688446113364266],["Ġlands",-10.688885796935459],["ĠMorris",-10.689248124838787],["Ġcontroversial",-10.689484319751132],["Ġclassical",-10.69015956132076],["bu",-10.690380791862157],["Ġmonument",-10.69159538254506],["ĠNations",-10.692159211562473],["Ġorganisation",-10.69273022491235],["Ġappointment",-10.693824457698845],["Ġcompet",-10.694262194120803],["ĠUN",-10.694366186849596],["Ġarchitecture",-10.694983546219866],["ĠAnna",-10.695872353553945],["Ġarrange",-10.696068249505977],["ldest",-10.696197020873235],["Ġsoil",-10.69629216292055],["ĠJews",-10.697030266573492],["Ġretire",-10.697342173291606],["Ġteaching",-10.697997125086049],["Ġ1900",-10.698779409636026],["ĠCentre",-10.699092988978432],["ĠLibrar",-10.699230233218717],["ÃŃ",-10.699264507531193],["ĠRussell",-10.699696106322602],["breaking",-10.700151229469903],["ĠWright",-10.700310796982366],["ĠCroatian",-10.7004491998127],["Ġdiscussion",-10.700578128367964],["ĠWild",-10.700696310500769],["Ġconsistent",-10.7010115150635],["Ġapart",-10.701556024641624],["ĠSha",-10.701609442683528],["Ġabsence",-10.701718103678695],["SA",-10.70308597086376],["Ġcancer",-10.703502414678894],["Ġgiant",-10.7036527267832],["Ġ92",-10.703691646401113],["Ġchain",-10.703728297063412],["Ġthrone",-10.703791618853682],["ĠHam",-10.704087187204179],["Ġcomparison",-10.7041251272657],["Ġcloth",-10.704296729145632],["Ġsolid",-10.704580613921815],["Ġtries",-10.705033915971192],["Ġswitch",-10.70510763998995],["Ġlay",-10.705259462410467],["ĠCha",-10.706570907032981],["Ġseparated",-10.707403939360898],["Ġinvolvement",-10.708156875682294],["Ġworst",-10.70821926565847],["Ġroutes",-10.70831135383016],["ĠClass",-10.708637539531756],["Ġtemporar",-10.708952173281121],["ĠSports",-10.709087764694752],["Ġcarbon",-10.709096295098735],["ĠThompson",-10.709404733291409],["ĠCat",-10.70941201173719],["Ġstrip",-10.709648356897308],["Ġrebel",-10.709960320810245],["ĠKnight",-10.710302882921852],["Ġfossil",-10.711065057850224],["Ġbands",-10.712188171557102],["ĠRa",-10.712455266056995],["Ġtwin",-10.712823892601062],["ĠYa",-10.713344922257564],["Ġcategory",-10.713568291372793],["ĠPuerto",-10.713866542107535],["val",-10.714121809495023],["Ġstep",-10.714616484759333],["ĠCole",-10.71480485297872],["Ġgovern",-10.71509153764935],["Ġremnant",-10.715358015900328],["ĠCarter",-10.715720971970493],["ĠKelly",-10.716077951656603],["Ġathlete",-10.716254070271255],["ĠPersian",-10.71647710233477],["ĠLast",-10.717535259372648],["Ġweekend",-10.717699042745874],["Ġintense",-10.717754427727497],["ĠFederal",-10.717998104862383],["ĠMad",-10.718013810022983],["ĠNFL",-10.718084046495008],["cho",-10.718996978960933],["ach",-10.719005617641587],["ĠMaria",-10.719097895999855],["Ġdissipat",-10.719526808312152],["Ġdemonstrate",-10.719637646917167],["ĠLate",-10.7196953612386],["of",-10.720203504566546],["Ġpresidential",-10.720952261778486],["Ġrequirement",-10.72109114405392],["ĠCommander",-10.721151032620517],["Ġresidence",-10.721174869670028],["ĠAlex",-10.721185642369061],["Ġmedieval",-10.721346941653254],["Ġcharges",-10.721389381041142],["iÄĩ",-10.721794977693458],["Ġdivid",-10.722241701520323],["ĠModern",-10.722253543802475],["Ġfitte",-10.72229615980682],["Ġchamber",-10.722850944424986],["ĠDE",-10.72348068027756],["ĠBase",-10.72354464671064],["bringing",-10.724387882823947],["work",-10.726178626773164],["Ġpolitician",-10.726467638889538],["Ġretirement",-10.726570070153366],["ĠConstitution",-10.726695237968034],["ĠVictor",-10.727101673023878],["Ġgrounds",-10.72734403024568],["ĠAlong",-10.727579650792945],["Ġninth",-10.727685632214497],["ĠSimpson",-10.727884200475527],["ĠRon",-10.72822919205774],["Ġcolonial",-10.728470146511214],["ĠChi",-10.728753539015148],["ĠSanta",-10.728821272261971],["ĠNetwork",-10.728894312353118],["Ġmark",-10.728993555982823],["Ġrestrict",-10.729053380089645],["ide",-10.729587138975742],["Ġfolk",-10.730040285189235],["ĠMill",-10.73006316650458],["Ġmusicians",-10.730389372110572],["Ġsiege",-10.731307792824552],["ĠKu",-10.731701328296287],["Ġestimate",-10.731829170191139],["ĠHarris",-10.732982225188124],["Ġplane",-10.734458830745181],["ĠPolice",-10.73497038573924],["ence",-10.735500450965324],["Ġrevenue",-10.735563755574216],["Ġexplore",-10.735685918833475],["Ġstretch",-10.735862475757651],["ĠBerlin",-10.736137736730889],["ĠBatman",-10.736145962079238],["Ġpure",-10.736663710658203],["ĠParker",-10.736979974377485],["Ġemergenc",-10.73725056632283],["Ġhill",-10.737250834912274],["ric",-10.738026433960318],["Ġ1913",-10.738313109660387],["Ġsharp",-10.738914255313976],["ĠWa",-10.739849802615549],["ĠThus",-10.740902478878692],["ĠSilver",-10.741486274212557],["Ġsnow",-10.741529294609549],["ĠDown",-10.741571680616172],["ĠSee",-10.741673821662747],["ĠKim",-10.741770187775654],["ĠFord",-10.741964035648163],["Ġremove",-10.74223570397556],["Ġnegotiation",-10.742756261391632],["rates",-10.742899905146581],["ĠPalace",-10.742915265639061],["Ġdating",-10.743057181965527],["Ġshark",-10.743394605468227],["ĠDream",-10.74424773306825],["ĠJesu",-10.744344449153324],["ĠPar",-10.744676436544207],["Ġlisting",-10.745003096613983],["Ġfalling",-10.745442609369388],["Ġstands",-10.746121943075321],["ĠMel",-10.746146252396182],["Ġacquir",-10.746261278279965],["Ġvotes",-10.746414014960214],["Ġconvection",-10.746591589798648],["Ġcolony",-10.746595544060913],["power",-10.747361291742497],["Ġlegislation",-10.747824445436027],["â",-10.748411062079665],["ĠBall",-10.748672586892267],["ĠMurray",-10.749000359927212],["Ġ900",-10.749608244141502],["Ġmodified",-10.75028697989283],["Ġ1934",-10.750435763721665],["ĠEducation",-10.750577483861974],["Ġmental",-10.751005380933849],["Ġ1921",-10.751071199213577],["1926",-10.751396604950772],["ĠAsian",-10.751681887992438],["ĠHouston",-10.7518686919001],["ĠFar",-10.752055004596182],["Ġdialogue",-10.752461419080948],["Ġframe",-10.753687407116749],["Ġeveryone",-10.753751424373391],["tenance",-10.754894119398237],["Ġengagement",-10.755127351728188],["Ġ08",-10.755546554843026],["ĠCorporation",-10.755564426509121],["Ġvision",-10.755602724216338],["Ġsponsor",-10.75614140026561],["Ġ83",-10.756795677627743],["low",-10.756867428938246],["Ġsuffering",-10.756991160405834],["Ġpersonalit",-10.757021624261915],["ĠFair",-10.758308808428334],["Ġmonarch",-10.758367353184223],["ĠWarner",-10.758657634690085],["ĠGi",-10.759070598666836],["Ġgay",-10.759102805120282],["half",-10.760060538910329],["ĠDNA",-10.761870611616141],["Ġdesignation",-10.76192192060554],["Ġsudden",-10.762113254485515],["ĠHeart",-10.762272011352426],["ĠSwedis",-10.762426094606246],["ĠSamuel",-10.762438272480612],["Ġ1912",-10.762778389679578],["ĠCommonwealth",-10.763051587559607],["Ġadvanc",-10.763142607582864],["ĠTrack",-10.763218852970386],["Ġchairman",-10.763645274019412],["here",-10.763885342772555],["Ġhuge",-10.764647287523193],["ĠCamp",-10.765009790474641],["Ġachiev",-10.765273032959916],["Ġeggs",-10.76542088636007],["Ġreverse",-10.765578195486876],["Ġdeveloper",-10.766845572996015],["ĠTreat",-10.767123018566597],["Ġcolleague",-10.767130664431713],["Ġpit",-10.767400595310072],["Ġrailroad",-10.767447884023051],["Ġearth",-10.767759661403558],["Ġ1932",-10.768685467598598],["Ġuniverse",-10.769019482996887],["Ġseeing",-10.769335754736398],["ĠGaga",-10.769593323796801],["ĠMedal",-10.76991858370282],["Ġbelong",-10.770022247989761],["Ġshots",-10.770681434723503],["ĠâĤ",-10.77091187962906],["saw",-10.771582573713953],["ĠAnthon",-10.77191680085417],["ĠGuy",-10.772186784269106],["Ġsector",-10.772446736894533],["Ġnickname",-10.773439209784842],["Ġinjurie",-10.773799424084237],["Ġpreced",-10.774080104767059],["ĠPhil",-10.77418086734263],["ĠPope",-10.774686166455536],["Ġimplement",-10.774883096420718],["ĠPlan",-10.77525444764031],["Ġconsole",-10.775339692936956],["Ġhistoric",-10.775404751414172],["Ġintersect",-10.77553278087626],["Ġinsect",-10.776449083933667],["ĠCritic",-10.77655701271302],["ĠNBC",-10.77667755635063],["hood",-10.77778817739003],["ster",-10.777822082980471],["Ġbeautiful",-10.777878413484629],["ĠBa",-10.777900762829006],["Ġunderstand",-10.778747295341034],["ĠHoly",-10.779235708040751],["ĠGen",-10.779508588415704],["Ġcloser",-10.780051012001802],["Ġexplosion",-10.780424102711564],["ĠPat",-10.78076613936299],["Ġray",-10.781024095541312],["Ġinfluential",-10.78171115991499],["ĠCroatia",-10.782767311625477],["ĠRick",-10.783077833202178],["ĠDemocrat",-10.783101022646827],["Ġemperor",-10.783295963841944],["ĠGilbert",-10.783303583488586],["ĠUSA",-10.783686416458815],["Ġcostume",-10.784028514008176],["Ġpolic",-10.784378059408509],["Ġdynast",-10.784771072067011],["Ġcheck",-10.784895709014052],["ĠDetroit",-10.785214914140951],["Ġedit",-10.785347955772961],["Ġwrong",-10.785534995189236],["Ġoccupation",-10.785855425874702],["Ġfur",-10.785871054473379],["hat",-10.786455764434365],["Ġdoubt",-10.786456604801545],["ĠWriting",-10.78681710655027],["ble",-10.786844791062688],["ĠCooper",-10.787110709124299],["ĠFrederick",-10.787197679926985],["can",-10.787288394534094],["ĠIsrael",-10.787536935024212],["ĠHu",-10.787562299162033],["Ġvan",-10.787645179574012],["ĠRAF",-10.787866616771367],["Ġstreets",-10.788505268475799],["tion",-10.788537677837711],["ĠMars",-10.78888294340468],["Ġmoves",-10.789058265630779],["Ġqualify",-10.789064212541842],["Ġgenerate",-10.789789054500494],["ĠVal",-10.790093638355415],["Ġguilt",-10.790350938078475],["Ġaffect",-10.791020517429576],["Ġsquad",-10.791042457239556],["Ġenvironmental",-10.791413563970142],["Ġ1929",-10.791486445281524],["Ġtransform",-10.791521303016468],["ĠMal",-10.792598687897792],["craft",-10.792679195026952],["Ġchildhood",-10.79267972156984],["Ġgone",-10.793183823190846],["ĠCategor",-10.794219642685665],["ĠVice",-10.794535995832383],["wan",-10.795180101569656],["ĠJournal",-10.795309505408936],["qui",-10.795372152267094],["ĠClinton",-10.795579061020767],["ries",-10.795705544925198],["ize",-10.796100986693734],["Ġtrouble",-10.796118410298321],["Ġinteraction",-10.796938168561894],["ĠPrincess",-10.797418038082675],["Ġstood",-10.797630324886406],["ĠMor",-10.797695520117761],["ĠLane",-10.797711406244058],["ĠEgyptian",-10.797781256611028],["ice",-10.797887974871204],["Ġconcentration",-10.798482308532668],["ĠSpears",-10.798983008414387],["ball",-10.799360349304234],["ology",-10.799479361854699],["Ġgap",-10.799972553839245],["Ġcomprise",-10.800051856994399],["Ġ140",-10.800313001711139],["Ġ1931",-10.80054858826594],["Ġpoll",-10.800610483098115],["maker",-10.800673887736655],["Ġcriticise",-10.800823106366877],["Ġfiring",-10.801306842239915],["ĠEvans",-10.801418056079008],["aged",-10.801471801267112],["Ġfin",-10.80224524239459],["ĠNielsen",-10.802328666822769],["Ġdiameter",-10.802328692197486],["Ġwooden",-10.80235016149135],["ĠRace",-10.802393715463205],["ĠStewart",-10.802654528719334],["Ġ1922",-10.802734079616622],["ĠMid",-10.803089246851517],["Ġstable",-10.803192200375078],["ĠMelbourn",-10.80347441254628],["Ġaudio",-10.804115519374987],["ĠBuilding",-10.804266125266306],["Ġtension",-10.804338176293001],["Ġhunting",-10.807552630140965],["Ġtribute",-10.807880641552835],["Ġtrust",-10.807983987741911],["ĠAnglo",-10.807995115246984],["air",-10.80820279469338],["bridge",-10.808412437239427],["Ġuniform",-10.808536901643366],["isation",-10.80855222602381],["Ġprovision",-10.808755562394433],["Ġsounds",-10.809602762722013],["dale",-10.81069314969655],["ken",-10.811070959895309],["Ġfacing",-10.811490097035158],["ĠLennon",-10.81210121946335],["Ġafternoon",-10.81247837259964],["Ġsuperior",-10.812540368406921],["Ġearning",-10.813092978221144],["Ġattempting",-10.813577552361238],["Ġcelebrate",-10.813579944675311],["Ġchair",-10.814200616666382],["board",-10.814286853493032],["Ġresigned",-10.815348642468102],["ĠDance",-10.815631098787938],["Ġradar",-10.815771808182305],["1911",-10.815959494273093],["ĠIan",-10.816258164875785],["Ġfootage",-10.816299200543352],["Ġnotabl",-10.817594684063385],["Ġlawyer",-10.817805316384758],["Ġflew",-10.818113842035494],["Ġtrail",-10.818701401863256],["art",-10.818719906189548],["ix",-10.818860783829251],["izing",-10.818903763634252],["ĠColorado",-10.819409277970173],["Ġcease",-10.819743217683866],["Ġmere",-10.819906555337328],["Ġdeposit",-10.819919921422956],["ĠGuard",-10.820067197725583],["Ġideal",-10.820518719012531],["Ġbow",-10.820643856662908],["ĠTurkish",-10.820735921842981],["Ġextent",-10.821400970764389],["Ġwood",-10.821900711496248],["ĠFoundation",-10.822120762779498],["Ġcircuit",-10.822727495988937],["ĠSarah",-10.823276647084121],["ĠAustria",-10.82327850571188],["ĠBrazil",-10.823725170251604],["Ġjunior",-10.824058064475132],["ĠWind",-10.82426991117562],["Ã¶",-10.824380674353725],["Ġwindow",-10.82464860820795],["Ġviolent",-10.824723806532177],["Ġresolution",-10.825390141914733],["Ġinvestigate",-10.825510258326968],["Ġcon",-10.825727213530335],["ĠBaltimore",-10.826056917926103],["ĠNazi",-10.826254621038931],["ĠGreec",-10.826726450881322],["Ġcopy",-10.826736853836621],["Ġcharter",-10.827021852865098],["Ġdebt",-10.827059239667026],["Ġcoat",-10.828022119771234],["Ġaccompany",-10.82805992256194],["ĠMario",-10.828158626288102],["ĠDel",-10.828588206935432],["let",-10.829114855924766],["Ġdesert",-10.829250153307784],["Ġconfront",-10.829265990699245],["Ġmilitia",-10.829732172464254],["ava",-10.829939097004074],["ĠWing",-10.82996653280342],["burn",-10.829968273948785],["Ġspend",-10.830488792778945],["Ġways",-10.831647492538051],["citing",-10.831666414520091],["Ġsuspend",-10.83208110581106],["Ġpoetr",-10.832255441208014],["ĠStory",-10.832385391003958],["Ġexhibition",-10.83256193162512],["Ġwatching",-10.832593428160068],["Ġrealit",-10.833548165121496],["ĠGuardian",-10.83376425195896],["Ġdisaster",-10.834767046791447],["Ġprofessor",-10.834971406557578],["residential",-10.835358163043283],["Ġenlist",-10.835358595257473],["Ġowners",-10.836245822736405],["Ġvice",-10.836560144534353],["ĠSullivan",-10.83678627575253],["Ġteeth",-10.837462237698038],["ile",-10.838002541036946],["ĠIowa",-10.83817647165949],["Ġcollaboration",-10.838273812342898],["ĠHa",-10.8387585037518],["ĠSomerset",-10.83881119059319],["Ġshear",-10.838811435057194],["Ġvolunteer",-10.839735900796931],["ĠMarshall",-10.840239827467872],["Ġinterpret",-10.84043754184881],["Ġclean",-10.840908189518512],["Ġdetect",-10.841260335551585],["Ġskills",-10.8414717125273],["Ġtouch",-10.841538449414776],["Ġhull",-10.84264531828667],["ĠAustrian",-10.842649680392778],["Ġresemble",-10.843027702126497],["pol",-10.843082856140851],["ĠArea",-10.84308615318396],["Ġocean",-10.843271730893543],["Ġcontinuous",-10.843290235862685],["Ġeasy",-10.843752231028041],["Ġerror",-10.843927743884766],["taught",-10.844109551642914],["Ġwear",-10.84420923224533],["Ġ06",-10.844496707654017],["changing",-10.844503949566674],["racing",-10.844977812043206],["Ġerect",-10.846923393349535],["ĠWrestling",-10.847291284522546],["Ġhappy",-10.8472916871076],["Ġfields",-10.847807260605276],["Ġdrums",-10.848378003605095],["Ġneck",-10.848691680662839],["Ġcolumn",-10.849383207982223],["Ġdu",-10.849549784812993],["Ġjournal",-10.84992310986739],["Ġalliance",-10.850102150341733],["ĠCanal",-10.850728807971954],["ĠCal",-10.850829931744713],["Ġbright",-10.850953278978476],["Ġidentify",-10.8513875539053],["Ġprize",-10.851393726078818],["lock",-10.851699148182401],["Ġcreative",-10.851759548387534],["Ġballad",-10.852038346290772],["Ġpublisher",-10.852340142187611],["Ġcreature",-10.852536631299426],["idae",-10.852808938938756],["ĠMiami",-10.853121911871604],["ĠSenator",-10.853185513786821],["ĠSal",-10.853213767816737],["Ġoffering",-10.853548825799837],["Ġ09",-10.854165214901045],["Ġalternate",-10.854545764324527],["Ġtrace",-10.854646152735114],["ĠEx",-10.855128662689248],["Ġdangerous",-10.855251434764725],["ĠOpen",-10.85525910281212],["Ġsalt",-10.855483822992198],["Ġwithdrew",-10.855859024919821],["Ġalignment",-10.855877648759838],["Ġjunction",-10.856532061312159],["borne",-10.856721270908338],["1928",-10.85716083214555],["Ġteammate",-10.857437912825585],["ura",-10.857465829922216],["Ġauthors",-10.85762776411421],["ĠConfederate",-10.85790782230685],["Ġwedding",-10.857917623831622],["Ġstandards",-10.858198643670908],["Ġpain",-10.858288303453083],["ĠPlace",-10.858338542585352],["ĠBan",-10.858671693033013],["ĠKhan",-10.858977666955923],["Ġnorthward",-10.859160528791456],["ĠPeninsula",-10.859975729176256],["Ġprime",-10.859991216879],["ĠHungar",-10.860191252228905],["ious",-10.861140288870295],["Ġshock",-10.861444089680237],["Ġsure",-10.86148249351225],["Ġsimultaneous",-10.861702238655763],["Ġpace",-10.8618172380847],["Ġchoose",-10.86195231758183],["ĠMinistr",-10.86207043584848],["Ġinterpretation",-10.8621905384359],["ĠSeattle",-10.862427771913374],["Ġpermission",-10.862432848828528],["Ġmedium",-10.862749524739854],["Ġresume",-10.862770693118225],["Ġshore",-10.863254342176353],["wall",-10.863312369556681],["Ġtourist",-10.863739325826492],["ĠDave",-10.864192861344932],["Ġsatellite",-10.864470888747196],["ore",-10.864589960775092],["ĠWal",-10.864667384226571],["Ġbus",-10.864851832114194],["Ġlegs",-10.865111642508339],["Ġphone",-10.865341635423594],["Ġboiler",-10.866054327678174],["Ġsons",-10.866124795388387],["Ġtoll",-10.866129598007419],["Ġ1924",-10.866255585971187],["ĠSoon",-10.866346034834482],["Ġstem",-10.866357625874432],["Ġexpression",-10.866551138057087],["Ġconservative",-10.866583075886068],["ĠTrek",-10.866600607839473],["ick",-10.867719755424922],["Ġremix",-10.867819391643721],["Ġbeach",-10.869011779430934],["Ġshelter",-10.869337821782215],["anyone",-10.869477863103505],["ĠJon",-10.870111774590558],["ĠRam",-10.870655399459446],["Ġhear",-10.870712212684827],["Ġveteran",-10.870728561529766],["Ġapartment",-10.871522724836797],["Ġthirteen",-10.871775270838217],["Ġ07",-10.87210287806916],["ĠRaw",-10.872377721056356],["lat",-10.872509785425153],["ĠReal",-10.872671469213604],["Ġimport",-10.872743293326565],["Ġadvice",-10.872823201008728],["Ġtesting",-10.872920731632949],["Ġmelod",-10.873513717593994],["Ġappropriate",-10.873915596732484],["gu",-10.874971075860511],["Ġloop",-10.87525980153606],["ĠAlabama",-10.875272385630572],["Ġplatinum",-10.875272422374822],["Ġmainstream",-10.87608549723521],["ĠFront",-10.876178985011885],["ĠKey",-10.876612185244268],["Ġbalance",-10.876764997812742],["ĠPA",-10.876935688075527],["ĠCaribbean",-10.877025540241107],["Ġbear",-10.878405677176973],["Ġfactors",-10.878981431438518],["ĠCharlie",-10.880915158195656],["Ġspending",-10.881128206603428],["ĠBelgi",-10.88144272477576],["bel",-10.881699880731961],["Ġillegal",-10.88195195481916],["Ġsubmitt",-10.88201229406689],["Ġgenetic",-10.882033445605046],["ĠLawrence",-10.882303577876742],["Ġpredator",-10.882309814826463],["Ġshoulder",-10.882511455120696],["Ġstream",-10.883132670718812],["Ġlicense",-10.883223408534864],["Ġpossess",-10.883859666936782],["ĠYankee",-10.885130282449538],["Ġelder",-10.885635883601488],["Ġloan",-10.88647630798977],["Ġsuicide",-10.88654606513521],["ĠMinnesota",-10.887254913711706],["Ġdream",-10.887599195054385],["rich",-10.887720874165538],["ģĦ",-10.887966597844475],["ative",-10.888134153774676],["Ġachievement",-10.888175783745712],["Ġlandscape",-10.888766107108644],["ica",-10.88888122589168],["trained",-10.889236715945],["¹",-10.889476267795924],["Ġforcing",-10.889680527834766],["Ġapproval",-10.88973982193786],["Ġsmooth",-10.88974377873176],["Ġlocomotive",-10.889843860061575],["ĠCrown",-10.890145491440563],["Ġattitude",-10.890450951342956],["Ġhanded",-10.890587266977313],["Ġjump",-10.891460179935821],["ĠDead",-10.89165013324129],["Ġvertical",-10.891911039265835],["Ġsigning",-10.892310602147152],["Ġcompilation",-10.892339392937174],["Ġfaith",-10.892530171688751],["Ġhockey",-10.892588237574921],["Ġsymptom",-10.892942880760744],["ĠFi",-10.89297529308638],["Ġscholars",-10.893330721995785],["ĠBre",-10.893449322251193],["Ġmargin",-10.893530060770608],["Ġspiritual",-10.894026950008087],["ĠHero",-10.894054698999351],["Ġfavorabl",-10.894218821740246],["ĠHuman",-10.894531543655003],["Ġperspective",-10.89472825054171],["Ġfalse",-10.894728335965024],["Ġminimum",-10.89544318262974],["ĠHart",-10.895522211337664],["wore",-10.896727234237087],["Ġtenth",-10.897023514255187],["Ġ170",-10.89704129089435],["ĠHotel",-10.897287913888544],["ĠTownship",-10.897320098514916],["Ġneighborhood",-10.897607643861445],["ĠGrammy",-10.89795051223981],["ĠJa",-10.89859895879005],["Ġprepare",-10.89878706164145],["Ġhousing",-10.899042596217054],["ĠHealth",-10.899045677807512],["Ġsleep",-10.899503419882635],["Ġtriple",-10.899685834115356],["Ġmine",-10.89998229011861],["ĠMuch",-10.900508078577227],["Ġconsequence",-10.90081927611518],["Ġethnic",-10.901344833291652],["Ġjustice",-10.902011860811243],["Ġadjacent",-10.902381623282398],["ĠJu",-10.903300323732775],["ĠStaff",-10.903315923425183],["ĠCountry",-10.903409956230984],["Ġspan",-10.903465760793857],["Ġmonitor",-10.904456041218904],["ĠDieg",-10.904489734128404],["ĠFlight",-10.904601486313112],["ĠReturn",-10.904780647778672],["Ġdominate",-10.904845274120412],["Ġfinance",-10.905218557822318],["ĠCho",-10.905649485209556],["Ġfuneral",-10.906306631126428],["ĠChristopher",-10.907848093238147],["Ġpartnership",-10.908100009810251],["Ġpalace",-10.908399391939378],["lam",-10.908586566918373],["ĠGuide",-10.908607077591967],["ĠUSS",-10.909401438052809],["Ġinstrumental",-10.90940897789372],["ĠLet",-10.909853605458121],["ĠVo",-10.910771666807506],["Ġknock",-10.91081636944655],["ĠWalker",-10.911545488120403],["ĠNative",-10.911832899533533],["*",-10.91238636682321],["ĠPu",-10.91273637359364],["ear",-10.912874886521418],["ĠRun",-10.913059818194029],["Ġgrown",-10.913491492691783],["Ġclock",-10.913584678285055],["Ġaware",-10.913619939769998],["ĠInterstate",-10.913846656723083],["ĠAli",-10.913900837043801],["ĠChildren",-10.914570502990541],["ĠRi",-10.91517826601046],["Ġemphasis",-10.91541217214527],["ĠBu",-10.915661443710254],["Ġattendance",-10.915957347200926],["Ġdefinition",-10.916394076439454],["ĠSch",-10.916399990636425],["ĠHalo",-10.916606043311074],["ĠSaxon",-10.916876199512284],["ĠFall",-10.917368691104095],["ĠSeven",-10.917475608762597],["Ġcalls",-10.917629626979396],["Ġevil",-10.917951460957006],["Ġsteal",-10.91805080063022],["Ġdisappear",-10.91821393011666],["Ġ1908",-10.918661317571146],["Ġ1905",-10.918787320505373],["Ġvirus",-10.919196169473835],["Ġorchestra",-10.919221811541743],["Ġ05",-10.919235175672874],["ĠBenjamin",-10.919318183309658],["Ġexpert",-10.919663863396341],["Ġelevation",-10.919689367049429],["ground",-10.920092584312362],["Ġ1909",-10.920319348687002],["ĠHay",-10.92035218323739],["Ġchurche",-10.921045453123032],["ĠLegacy",-10.921150378089333],["ĠEdge",-10.921742628253522],["Ġmotor",-10.921856701579692],["Ġlieutenant",-10.92225126232822],["row",-10.922321242988403],["Ġpercentage",-10.922407716225273],["Ġsun",-10.92291304723743],["ĠHockey",-10.922988568753096],["Ġtruck",-10.922999058455229],["Ġwindows",-10.923462427102855],["Ġscholar",-10.923642237127417],["Ġpriest",-10.923723151238582],["Ġevolution",-10.923837352354443],["ĠIce",-10.924186808852998],["ĠPara",-10.925044074490733],["ĠRoosevelt",-10.92556130564876],["Ġabuse",-10.925814101641041],["hoped",-10.925994767269376],["ĠKansa",-10.926092108899415],["Ġentertainment",-10.92632078128377],["Y",-10.92667098788949],["Ġstress",-10.927462619815902],["ĠAlfred",-10.927774374599194],["Ġskill",-10.928362590390133],["Ġaggressive",-10.92851279272127],["ator",-10.928600866264036],["Ġintensifie",-10.92915026078428],["Ġimpossibl",-10.929311985313639],["ĠChronicle",-10.929321980125737],["Ġthin",-10.929621290815636],["qua",-10.930105329656158],["ĠManhattan",-10.930361906170337],["Ġcontext",-10.930361907038167],["ĠCold",-10.930457832274655],["ĠAre",-10.93080439284855],["ĠFranklin",-10.930867418552594],["ĠUSD",-10.931368452962534],["Ġoperational",-10.93150503322875],["Ġmanuscript",-10.9322144654132],["Ġabsorb",-10.93258536827964],["Ġdiet",-10.932824317948182],["bra",-10.932835324994432],["Ġdanger",-10.932860911384235],["Ġcriticize",-10.933168302599967],["Ġwings",-10.933579770366809],["Ġmarry",-10.933705548370213],["Ġbeam",-10.934429546079327],["ĠMiss",-10.936047995079864],["burg",-10.936120533273915],["Ġwarn",-10.936277391109979],["Ġconcrete",-10.936674589011485],["ston",-10.937150221096546],["ĠSteven",-10.93738804365395],["Ġfinale",-10.937593031215219],["ĠHard",-10.937690302237176],["Ġaudition",-10.937804012746444],["Ġconstruct",-10.938352662221154],["ĠDigital",-10.938539336129317],["Ġadvisor",-10.938742634293845],["ĠMargaret",-10.939285586929477],["ĠSh",-10.939565494304212],["Ġ1907",-10.940069331369262],["Ġupdate",-10.94028530099062],["ĠHi",-10.940485357211934],["ĠWolf",-10.941146024944429],["Ġ04",-10.941174458712673],["Ġguide",-10.942203198603071],["Ġregain",-10.942652809531198],["ĠHong",-10.943285852000553],["Ġwestward",-10.943382870185207],["hill",-10.944162331822664],["Ġinstruction",-10.944398147943946],["Ġtelling",-10.944477851523853],["Ġcharacterize",-10.944738738560568],["Ġmanufactur",-10.944911021772505],["ĠApple",-10.944962431415219],["Ġincorporat",-10.945266813625778],["del",-10.945321249205975],["Ġcard",-10.945652580708028],["pur",-10.945948614948916],["ĠAngel",-10.94602915702882],["ĠIndustry",-10.946030953931015],["Ġprofile",-10.946408571841022],["hrew",-10.946482051970786],["ĠSand",-10.946500695600328],["Ġpointed",-10.946720087494274],["Ġaccurate",-10.946783255794916],["ĠPC",-10.946992863277085],["Ġsculpture",-10.947165019301124],["Ġinvestment",-10.947964494714867],["ĠRanger",-10.948074559784617],["Ġagricultural",-10.948394589726213],["ĠMississippi",-10.948666488236135],["ĠPortland",-10.949368215825116],["Ġphrase",-10.949420778441056],["ula",-10.949488028292642],["Ġunderstanding",-10.949710533884641],["ĠBorn",-10.950730057001344],["ĠFe",-10.951718859364512],["Ġsurvivors",-10.952110195978674],["ĠIndependent",-10.952824478523084],["Ġwrestl",-10.953099250760708],["Ġhelicopter",-10.953200786547594],["rian",-10.953459895609296],["Ġtruth",-10.953529840628072],["Ġexport",-10.953643378230662],["ĠSaturday",-10.953958521641503],["Ġtranslation",-10.954203201467344],["Ġadvocate",-10.954300561947798],["ĠCampbell",-10.954348645923275],["Ġhorror",-10.954716824913046],["Ġeliminate",-10.95490295283285],["Ġbypass",-10.955067476482608],["ĠSp",-10.955421425721973],["Ġstatue",-10.955481824544883],["ĠMarie",-10.955915369706027],["Ġstick",-10.955948298899571],["Ġcovering",-10.956086257348456],["Ġsituate",-10.956935573340234],["Ġoxygen",-10.957379343183842],["Ġbombing",-10.959044119090025],["Ġboys",-10.95909425615433],["Ġrestoration",-10.959382955663187],["Ġcanal",-10.959390383632037],["Ġfifteen",-10.95951823839808],["ĠYo",-10.959570175858648],["Ġ125",-10.960378076129837],["ĠCredit",-10.960471999740582],["Ġcommunist",-10.960556407030596],["stra",-10.960938601109728],["Ġclosing",-10.961050597376357],["nce",-10.961151736371743],["istic",-10.961156854195664],["Ġ105",-10.961297395864655],["Ġdivorce",-10.961303270942938],["Ġdemolish",-10.961570152172978],["rac",-10.961616226999592],["Ġdistinctive",-10.961688704458506],["Ġguy",-10.96170794928944],["Ġabilitie",-10.962534030257565],["Ġtornado",-10.962714069928392],["Ġvirtual",-10.964244318748118],["Ġarmament",-10.964562963911948],["Ġwitness",-10.964919964341812],["Äģ",-10.965170569113903],["stock",-10.965734203917366],["Ġsank",-10.965933350123635],["ĠDie",-10.966431072256011],["cat",-10.96665830056659],["Ġammunition",-10.966928361331338],["Ġreinforce",-10.966987264195414],["ĠLiberal",-10.967377655757547],["Ġdancer",-10.967998887528632],["Ġangle",-10.968381013108562],["Ġexecution",-10.968917057435595],["ku",-10.969627175481126],["Ġcancell",-10.96968448786317],["Ġlabor",-10.970051331368772],["Ġemerge",-10.97019190096459],["Ġ360",-10.970337891764203],["ĠWarren",-10.970829625017807],["Ġillness",-10.971634552247817],["Ġcourts",-10.972752053870657],["Ġtactic",-10.972830899922606],["Ġcelebration",-10.973210050610893],["Ġproceed",-10.973652210323166],["Ġrhythm",-10.973673424263394],["ĠEnterprise",-10.973863469391846],["ĠSmall",-10.973889161284351],["Ġfourteen",-10.974005056237097],["Ġphilosoph",-10.974099244010773],["ban",-10.974725295499312],["ĠTh",-10.974881042325404],["ĠHistoric",-10.975794468383889],["Ġpartie",-10.976251761616712],["Ġfaction",-10.976444834562727],["Ġscatter",-10.976574075283263],["ĠGraham",-10.976993319941599],["Ġenable",-10.977320738841538],["Ġarc",-10.977338052398249],["ĠEr",-10.97746115662077],["ĠVe",-10.977500697106382],["Ġcargo",-10.978145981342875],["ĠTennessee",-10.978513746182077],["Ġexile",-10.978586533082856],["stood",-10.978590279295107],["ĠGa",-10.978612297727505],["ĠPa",-10.978816088992291],["ĠLouisiana",-10.978902311999247],["Ġskull",-10.978904915592645],["Ġartistic",-10.978924200915328],["pan",-10.979057524793639],["Ġforty",-10.979264659583178],["ĠCall",-10.9793641506044],["Ġunderground",-10.979383501318956],["Ġpersuade",-10.97983589083484],["ella",-10.97999484704533],["Ġregulation",-10.980124230155461],["ĠHonor",-10.980441651544599],["Ġdramatic",-10.98047595174333],["ika",-10.980531581998665],["mp",-10.981048616987099],["Ġresolve",-10.981055329146868],["Ġrang",-10.981621109265568],["Ġbonus",-10.981644924764577],["ĠHell",-10.98232280444774],["Ġportrait",-10.982407296421266],["ants",-10.983154389025646],["Ġgrey",-10.98423116776591],["ĠMissouri",-10.984357449209329],["ĠLabour",-10.984782079732295],["Ġearthquake",-10.985138861380666],["ĠTamil",-10.985243970302381],["ĠBros",-10.985369001168515],["ĠMontreal",-10.985535239242504],["Ġqueen",-10.98553724011494],["Ġinteresting",-10.985810787349816],["ich",-10.985918347670545],["ĠGe",-10.98687372630932],["ĠRob",-10.987468954032675],["ĠNu",-10.987557848051898],["ĠPass",-10.98756780767096],["Ġlegend",-10.988013410405678],["fish",-10.988834363702972],["ami",-10.989093365008356],["Ġpool",-10.989224095274981],["Ġfeed",-10.989454483582794],["Ġseal",-10.989778515277806],["ĠDepression",-10.989841986523583],["1906",-10.990031716378038],["Ġloose",-10.990235125159504],["Ġplus",-10.991361840963034],["ĠSeason",-10.992065786087585],["Ġhelping",-10.992378185492964],["ĠDragon",-10.99245931039054],["Ġdrum",-10.992751576748883],["1870",-10.992787267849438],["Ġcult",-10.992979947737766],["las",-10.993602388919186],["ĠMitchell",-10.994185827480104],["Ġguitarist",-10.99422180529696],["ĠBull",-10.99442968401683],["Ġevacuate",-10.99483514491719],["ĠHarvey",-10.99575326869137],["Ġjazz",-10.995757127412935],["ions",-10.996102847774328],["Ġsees",-10.996117921962497],["Ġtemporari",-10.996759749840406],["Ġ01",-10.996961453753462],["ĠRidge",-10.997006031262952],["pin",-10.99778286182395],["Ġexpensive",-10.998145962204052],["ĠSin",-10.998681711548699],["Ń",-10.998878644724787],["went",-10.999142070617678],["fifty",-10.999315121770321],["Ġwreck",-11.000108787083963],["Ġradical",-11.000506748152183],["body",-11.000877124709273],["Ġparticle",-11.00103660808374],["rag",-11.00120431080242],["ĠCook",-11.001416394961831],["ĠJimm",-11.001698610000611],["ĠTake",-11.001771967758437],["Ġdonate",-11.001798403198542],["Ġadministrative",-11.002095102444342],["Ġoffices",-11.002210792316655],["Ġartwork",-11.003086914727369],["Ġcraft",-11.003446814329125],["Ġdozen",-11.004088964426575],["Ġdefender",-11.004504482087526],["Ġfamiliar",-11.004882838534428],["Ġcircumstance",-11.004882840308413],["ĠBusiness",-11.00489790101319],["len",-11.004950555686449],["Ġdrove",-11.00531058634444],["ĠReport",-11.00533162886871],["ĠGet",-11.005618114708533],["Ġnominat",-11.00612984951281],["Ġbasin",-11.00818756825212],["Ġmeat",-11.008189607880691],["ĠRepresentative",-11.008879624920791],["cher",-11.008956197311502],["ĠMint",-11.008976489349951],["Ġbronze",-11.00927991264354],["Ġbridges",-11.009441750165958],["Ġprocedure",-11.009679969617155],["lus",-11.010020619061017],["ĠDC",-11.010675199296198],["ward",-11.010748259257753],["Ġpermitt",-11.010866597628317],["qu",-11.010984481432327],["Ġchase",-11.01170434813801],["Ġstrict",-11.01213923873495],["ĠTan",-11.012298256898351],["Ġdisorder",-11.012890930141618],["ĠHindu",-11.013066385592069],["Ġreplie",-11.01336921387654],["Ġregime",-11.01367759638434],["Ġrebuilt",-11.013695232601604],["mining",-11.013810595975372],["Z",-11.013853678911186],["ĠCi",-11.013963441678033],["Ġfled",-11.013985485327467],["Ġhalt",-11.014295152280747],["Ġinhabitant",-11.014498034143767],["WC",-11.014798612059689],["Ġalcohol",-11.015113016432903],["ĠCuba",-11.015664723057117],["Ġcoverage",-11.015676715576948],["Ġrunner",-11.015810801945658],["Ġrevolt",-11.016113367306065],["Ġ03",-11.016124087401199],["sco",-11.016622263719452],["ĠQu",-11.016733389491804],["Ġminimal",-11.017466113753796],["ĠTag",-11.017648631691458],["Ġallie",-11.017672708463197],["avi",-11.019278933389288],["ĠBilly",-11.019729747049993],["Ġbehaviour",-11.020153378117444],["Ġsurger",-11.020557471876025],["Ġseize",-11.020959701862036],["Ġearn",-11.02113159903534],["ĠFiles",-11.021306221005899],["ĠSar",-11.021610831474955],["Ġmechanism",-11.02186470066814],["Ġpractical",-11.022406476047841],["ĠArizona",-11.022586014501083],["Ġownership",-11.022664696202263],["ĠArm",-11.022799084488884],["pen",-11.022908190994102],["mel",-11.022911322367397],["Ġrender",-11.023608652323961],["Ġcousin",-11.023807624223899],["Ġcolonie",-11.023829845916623],["ĠDylan",-11.024620666616556],["ĠRoy",-11.025149016167797],["ĠBureau",-11.025467458324066],["Ġrebellion",-11.02585823211993],["ĠCR",-11.026027872069275],["ĠUr",-11.02636929432545],["Ġruling",-11.02650851461351],["Ġabsolute",-11.027061166335713],["Ġmature",-11.027088053887043],["ĠTokyo",-11.027473038025606],["Ġsongwriter",-11.028565745528844],["ĠAthletic",-11.029101984408815],["ĠSnow",-11.029129996063649],["Ġsubstitute",-11.029613747504605],["Ã¼",-11.029775889035303],["hipping",-11.030400228189242],["ĠNine",-11.030514694641528],["Ġca",-11.030523770435401],["Ġdense",-11.030541419405118],["Ġadventure",-11.030577917773972],["Ġreward",-11.030852534078107],["Ġsuitabl",-11.030901143270032],["ĠPen",-11.031404552017676],["ĠMont",-11.03142657538191],["Ġfrequenc",-11.03196614233772],["Ġsignature",-11.031966738788736],["Ġrepresentation",-11.03206788638197],["ĠSony",-11.032077786978737],["ĠSuch",-11.032083937064824],["ĠIndies",-11.032438458055628],["Ġbound",-11.032582683058354],["Ġconversion",-11.032790552023432],["Ġtyphoon",-11.033196157936526],["Ġmayor",-11.034105192027894],["Ġbat",-11.034348601017676],["Ġmissile",-11.034884356036429],["ĠKarl",-11.035406233648313],["Ġparish",-11.035562561214713],["ĠLy",-11.035687672516518],["æ",-11.036009118855343],["Ġ115",-11.036028659828208],["rid",-11.036188550442079],["Ġwins",-11.03699745817339],["ties",-11.038167365674834],["Ġflagship",-11.038239690044843],["Ġ179",-11.03842288926929],["ĠWell",-11.038616707792038],["Ġdensit",-11.038961162061842],["worth",-11.039806743256058],["kar",-11.04007609070009],["Ġfallen",-11.040670465474971],["Ġstyles",-11.040930274619209],["ĠOklahoma",-11.041021565265616],["ĠMurphy",-11.041030937322333],["Ġflee",-11.041288960022229],["Ġtribes",-11.041510132037173],["ĠOfficer",-11.041775630250427],["Ġreinforcement",-11.041941502178785],["ĠVol",-11.042181870284864],["ĠDelaware",-11.042677663500672],["Ġairline",-11.042842034476083],["Ġbid",-11.043125968940027],["lot",-11.043413372831736],["ĠSoul",-11.0434213468098],["Ġperformer",-11.043460898942717],["Ġquiet",-11.04406569896343],["ĠVII",-11.044576619432952],["Ġlegislature",-11.045164931399388],["ole",-11.045432138155359],["ĠFederation",-11.045580277024436],["Ġembark",-11.04558062287721],["Ġmusician",-11.04686484232634],["Ġshall",-11.04703031785084],["ĠkW",-11.047392566541241],["ĠJuan",-11.047532483043245],["ĠPrize",-11.04768151384577],["ĠIraq",-11.047693407777608],["ĠBlues",-11.047932302590418],["Ġdominant",-11.048075540501292],["ĠSwitzerland",-11.04849202948725],["Ġuniversal",-11.048492326909862],["ĠBroadway",-11.048520446978639],["stein",-11.048523218109908],["Ġexpos",-11.048554547090163],["Ġdeclin",-11.048869278955614],["Ġgenerat",-11.049044295694873],["Ġobvious",-11.04932553657054],["Ġmaneuver",-11.049325539213942],["ĠBat",-11.050223264222526],["ĠInc",-11.050547850080038],["ĠFred",-11.050578810449098],["Ġcomplain",-11.050654648411992],["Ġsettler",-11.051025159953868],["Ġspotted",-11.051151136592583],["Ġexcellent",-11.051420968914574],["Ġdel",-11.051555464455728],["ĠWi",-11.051899563528732],["ĠRico",-11.052236269560124],["ĠGreg",-11.052328929246789],["Ġfrigate",-11.052666552985295],["Ġelaborate",-11.053141378071338],["Ġvictorie",-11.053194533008478],["Ġ1901",-11.053679836697729],["ĠPersonal",-11.05374805223094],["Ġoppose",-11.054184506076648],["lip",-11.054475349544873],["Ġannouncement",-11.055276979281572],["Ġquarterback",-11.056929891414828],["ĠBaby",-11.05790987098775],["cul",-11.058836673225713],["Ġsuggestion",-11.058913363140004],["Ġstorage",-11.058961895988563],["rus",-11.059008579865516],["ĠBaker",-11.059219094317687],["Ġspore",-11.059249383812858],["Ġwider",-11.059467566477407],["Ġshells",-11.059484306793623],["Ġmarking",-11.059877884643821],["Ġmarine",-11.059908364446786],["Ġsight",-11.06018281522849],["Ġimpression",-11.060377610745402],["Ġreporter",-11.060926603304672],["ĠAmy",-11.06095372373522],["Ġgod",-11.061463973767943],["Ġrush",-11.061568188885143],["Ġrising",-11.061770856460042],["ĠABC",-11.06181650887443],["ĠFu",-11.061858613448923],["ĠOwen",-11.062001148477416],["ĠDam",-11.062444537843223],["Ġwarship",-11.062666430224645],["Ġlegac",-11.062786248512026],["Ġ1903",-11.062965768086032],["ĠShakespeare",-11.063332007336362],["Ġchapel",-11.06365446792535],["Ġriders",-11.063804054965324],["ĠLeslie",-11.064461957055146],["Ġapply",-11.064733782134162],["Ġstriking",-11.064872204410289],["Ġvast",-11.064895255736879],["ĠBach",-11.064945278007993],["Ġblame",-11.065010370782263],["Ġbaby",-11.065379155198086],["Ġ1902",-11.065595776937243],["Ġshop",-11.06591783918586],["Ġneighbor",-11.066122365262613],["rib",-11.066573297261549],["Ġuseful",-11.06682712315462],["ĠPerry",-11.067068906232919],["mus",-11.067324973029844],["Ġleads",-11.06744026037416],["ĠMP",-11.0680618872384],["ign",-11.068625439044386],["ĠKurt",-11.06889002685352],["rie",-11.068970670994755],["Ġshield",-11.068994397595839],["Ġtheatrical",-11.069116608666022],["Ġvariant",-11.069127960511278],["ĠTar",-11.069313803894895],["ĠKirk",-11.069358111248896],["Ġstole",-11.069393314904252],["Ġfarmer",-11.069557117719736],["Ġcable",-11.07006979618781],["Ġaltitude",-11.07039263935103],["Ġyield",-11.070392726113461],["ĠNixon",-11.07039511772545],["Ġliquid",-11.071244226411622],["ĠShi",-11.071300416321993],["Ġfeud",-11.07200840775579],["hol",-11.072076979568045],["ĠAtlanta",-11.072097065818479],["sburg",-11.072187339849727],["Ġski",-11.07219121842703],["Ġbiographer",-11.072356221588242],["Ġarrang",-11.072511954223145],["Ġ02",-11.072621965023389],["ĠGray",-11.072892616810858],["took",-11.07292775428218],["ĠKnow",-11.07302342070301],["Ġpretty",-11.073378945088137],["ĠBel",-11.073751343172258],["Ġjet",-11.074606177455014],["Ġapproache",-11.07466305100056],["lay",-11.07505986271862],["ĠJonathan",-11.075515150274477],["ĠDenmark",-11.075524684329563],["ĠGate",-11.075529723219947],["Ġwaste",-11.075733683028743],["ĠGun",-11.075925245611984],["Ġfixed",-11.075987070956266],["Ġemotion",-11.076126008188982],["ĠGlen",-11.07644064432199],["ĠMother",-11.07684898856066],["ĠTrust",-11.076881439568186],["ĠExpress",-11.07716697288937],["Ġportrayal",-11.077277315733685],["ĠRihanna",-11.077657252404922],["ĠBaseball",-11.077687699818377],["Ġmarks",-11.077808255012018],["Ġbacking",-11.078463309821048],["Ġreconnaissance",-11.078550273957465],["ĠFriday",-11.079406931325515],["Ġcustomer",-11.079809334040398],["Ġritual",-11.080234289029786],["ĠJohnny",-11.080591806650006],["ĠAbbey",-11.08067168896045],["Ġhunt",-11.080736116779134],["Ġphoto",-11.080843940626776],["ĠAsh",-11.081180122676265],["Ġtheater",-11.081398640703636],["ĠActor",-11.081884383749323],["Ġknee",-11.082320889347566],["ĠHudson",-11.082389285472132],["Ġwhils",-11.082826166721347],["down",-11.082871379853515],["ãĤ",-11.08294624513396],["ĠFighter",-11.083345977488962],["Ã³",-11.083524301602402],["Ġelectron",-11.084173819372293],["Ġintercept",-11.084475444892991],["Ġtune",-11.08462232143831],["Ġsimilarit",-11.084731916657823],["Q",-11.08481212464088],["Ġsunk",-11.084859985505862],["Ġtrans",-11.084938581777653],["ĠCardinal",-11.084975590927172],["Ġfriendship",-11.08523426780463],["Ġconventional",-11.085361948959573],["Ġanimate",-11.085593168684383],["ĠFinn",-11.085976143026567],["Ġtissue",-11.0862724403297],["Ġholiday",-11.08627244207796],["ĠCampaign",-11.086272784582771],["apolis",-11.086312742746257],["Ġexpect",-11.08640380818729],["kov",-11.086444903476824],["Ġarchitect",-11.086532468348938],["ĠVI",-11.087130320591331],["Ġconcentrate",-11.08715157171163],["ĠBus",-11.08715310329599],["Ġsubspeci",-11.087220400466634],["Ġoffense",-11.087235473991049],["Ġmountains",-11.087606908779279],["Ġsecur",-11.087615624727649],["ĠMon",-11.08841542171942],["ĠShaw",-11.088440215453927],["Ġprove",-11.088486833771888],["ĠArnold",-11.088963659223221],["Ġlemur",-11.089174939053773],["ack",-11.089563874233164],["AR",-11.089592712403839],["ĠDor",-11.08962175762807],["uff",-11.08984978092431],["rum",-11.08994213550379],["Ġpurchas",-11.090239455190382],["Ġpayment",-11.090520188465746],["ĠHal",-11.09053863930341],["ĠSub",-11.090861491883484],["ĠCommunist",-11.09244881032442],["Ġalive",-11.092519874328154],["Ġrevolution",-11.092531029467112],["Ġ184",-11.092574779663135],["Ġruin",-11.093340181188086],["Ġproportion",-11.093419117758838],["light",-11.093714423465961],["ĠRailroad",-11.094091030673953],["Ġcancel",-11.094164968305508],["Ġresearcher",-11.094492024437479],["ĠObama",-11.094526695856018],["Ġdelegate",-11.094527051762693],["ĠPotter",-11.09461517162318],["ĠWayne",-11.095929197694254],["Ġeighteen",-11.09594484636451],["ĠKeith",-11.096079192944828],["Ġrecognise",-11.096219075535656],["ĠJe",-11.096394894062868],["qualified",-11.096531115257854],["Ġresident",-11.09696502864086],["ĠTam",-11.097379781278896],["Ġcat",-11.097429067070145],["Ġcook",-11.097529478383883],["ĠInternet",-11.097584488362024],["Ġtopic",-11.097747266914084],["Ġtight",-11.097873216635268],["lic",-11.098436062678338],["ĠRachel",-11.098645077098393],["Ġbattles",-11.098657147175725],["Ġexecut",-11.098762279545177],["ĠNatural",-11.098900739900806],["Ġorganism",-11.099400157187599],["Ġrebound",-11.099606889619757],["gle",-11.09970713107375],["ĠReserve",-11.09994451955313],["Ġcasting",-11.1000236611615],["Ġsuburb",-11.100058693701495],["Ġcinema",-11.100154183938942],["Ġexposure",-11.101114045768114],["Ġcloud",-11.101490077296752],["ĠPearl",-11.101530952843202],["hir",-11.10180262729586],["ĠJam",-11.101942293959198],["Ġpioneer",-11.101969901008722],["ĠMadagasca",-11.102408844392027],["Ġmainland",-11.102504744437386],["Ġexternal",-11.10372874167966],["Ġcommentar",-11.103826208575475],["Ġreaders",-11.10414504464195],["ĠHugh",-11.104220129949278],["ĠPeace",-11.10463256580439],["Ġcutting",-11.104842642447093],["Ġarts",-11.105607119422675],["Ġ101",-11.106021448049193],["ĠNear",-11.106341636818192],["ĠTracy",-11.106379205794134],["Ġtaste",-11.106791313721779],["ĠImpact",-11.10688357842345],["ĠDrive",-11.107336656107504],["ĠBox",-11.107428465778879],["Ġrounds",-11.107705871865978],["ĠUniversal",-11.108140772069351],["ĠZa",-11.108192747402821],["Ġempire",-11.10858412764602],["ĠEventual",-11.108592787014388],["ĠBirmingham",-11.109025533696606],["Ġplain",-11.109059988938135],["Ġminorit",-11.109658214079062],["Ġroutine",-11.109911085155183],["Ġdancing",-11.109918265533635],["ĠOur",-11.110692400835518],["aimed",-11.110836420224334],["Ġsq",-11.11108220868932],["Ġconversation",-11.111240858905207],["Ġconstitutional",-11.111376654478121],["elle",-11.11185587455665],["dvertising",-11.112174449159339],["Ġreduction",-11.112212088158621],["Ġexpense",-11.112572428884992],["ĠLeonard",-11.112604478161774],["ĠBelgian",-11.112874084613766],["Ġmeasur",-11.113009213924137],["Ġ177",-11.113226244110253],["Ġconstitution",-11.11333416950045],["Ġuncle",-11.11348767242152],["Ġassembl",-11.11367614464241],["ĠDefence",-11.11391662397004],["ĠBlood",-11.113987426986558],["ĠSen",-11.11421529137969],["Ġexperimental",-11.114330782787569],["iness",-11.114406247960291],["Ġartificial",-11.114795628781483],["Ġfeather",-11.114857559273302],["ĠSocial",-11.114926614441186],["ĠMcCartney",-11.11524204098907],["ĠSpring",-11.115276641166398],["ĠOff",-11.115930693470371],["Ġmines",-11.116021317182511],["Ġattraction",-11.116152124897793],["Ġbearing",-11.116957814685328],["ĠClassic",-11.117351050965045],["ĠPhoenix",-11.117470035123947],["ĠRain",-11.118297164669535],["Ġcoup",-11.11836301434371],["ĠBoat",-11.118734730867775],["ĠSecret",-11.118735413436044],["ale",-11.11889819812782],["ĠTroph",-11.119677296840756],["Ġroots",-11.119973150174452],["Ġreact",-11.12016772736059],["ĠAngelo",-11.121033894265254],["Ġfragment",-11.121158729161852],["ĠWars",-11.12256583245022],["Ġhole",-11.122610400680706],["gel",-11.122627697372259],["long",-11.122668878259018],["ĠBobby",-11.12275140546367],["Ġsitting",-11.12289032750057],["Ġdepiction",-11.123000476133246],["Ġacoustic",-11.123289199262056],["Ġpunk",-11.123303927465019],["ĠTor",-11.12334015295589],["Ġrenew",-11.123448313248343],["ĠChampion",-11.123477668933713],["ĠConnecticut",-11.123738231479496],["Ġdeliberate",-11.12378507107065],["Ġoversea",-11.123912543258932],["ĠTodd",-11.12401839071573],["ĠType",-11.12416915997694],["Ġinfection",-11.12429310514672],["Ġfavourite",-11.124358155763769],["uri",-11.124784150197595],["Ġsecretary",-11.12485173651148],["ĠMorrison",-11.125093197233802],["ique",-11.125259647301725],["Ġlock",-11.125687432160355],["Ġprototype",-11.125988355117787],["mat",-11.127180575799247],["ĠEP",-11.127553237678502],["ĠStan",-11.128325868008353],["ĠOntari",-11.128634914479797],["ĠEuro",-11.128880635205746],["Ġblow",-11.12908821778919],["Ġelectrical",-11.130118382919134],["Ġinherit",-11.130804396772296],["ĠStill",-11.130818786966856],["ĠAnti",-11.132002473042139],["aria",-11.132186296754746],["ĠBor",-11.13219736681419],["Ġ109",-11.1325598962083],["Ġmagic",-11.132616656055605],["par",-11.132709038451061],["ĠCanterbury",-11.132761533948901],["Ġbone",-11.132769299264446],["Ġaerial",-11.132774866584842],["Ġwithdrawal",-11.133128703776958],["Ġ175",-11.133317334364083],["Ġdescend",-11.133511602289733],["master",-11.133999299306893],["Ġrecogniz",-11.134008196690601],["Ġplacing",-11.13412278189347],["aki",-11.134265972175665],["Ġremoval",-11.134452104287675],["Ġmobile",-11.134550564123144],["ĠJupiter",-11.13503013441101],["ĠFleming",-11.135051495152512],["Ġstrategic",-11.135141550402167],["ĠSol",-11.135250596356748],["ĠCommunity",-11.135484472144302],["EFA",-11.135565581316499],["Ġimperial",-11.135743146765162],["Ġconvict",-11.135807547020526],["Ġdiamond",-11.135939048556832],["Ġraising",-11.135963409298025],["Ġdistribute",-11.136548358551929],["ĠCarlo",-11.137007187983492],["Ġhook",-11.137047230785182],["Ġeliminat",-11.137054750529009],["ĠNapoleon",-11.137111173269108],["ĠSay",-11.137431605054012],["Ġaftermath",-11.137761338551675],["ĠConvention",-11.137776546991258],["Ġpitcher",-11.138746131318808],["Ġ350",-11.1388787610629],["Ġsmoke",-11.139402776675809],["Ġvillain",-11.139589546454642],["Ġquote",-11.139863998967733],["Ġdrugs",-11.139947401810568],["Ġprohibit",-11.139968785842179],["Ġduo",-11.14004925966275],["pro",-11.140314889907874],["ĠForeign",-11.140496822684733],["ĠUltimate",-11.140500595233714],["ĠPri",-11.140806028353328],["Ġcomplaint",-11.141038696415084],["form",-11.141430804994846],["Ġdelivery",-11.141536649068255],["Ġinland",-11.141660495215639],["Ġgray",-11.142114862287304],["Ġprospect",-11.142251840918544],["ĠDog",-11.14356995637942],["ĠRoll",-11.143873717028505],["ĠCr",-11.143920628639265],["enberg",-11.143955542732465],["ĠLiz",-11.144359019412816],["Ġcompil",-11.144497075733376],["til",-11.144508594958957],["ĠKar",-11.145038237849413],["Ġmechanical",-11.14678807300563],["Ġinhabit",-11.14692732987265],["ĠWindows",-11.147423041838358],["Ġarmie",-11.147538777450794],["ĠLost",-11.147744847582436],["Ġamateur",-11.148290701172396],["Ġacknowledged",-11.148644134515967],["Ġresist",-11.14868264131438],["Ġdecay",-11.148789116801868],["Ġtale",-11.148792109878219],["ĠTrail",-11.149114727338407],["Ġauthoriz",-11.149566698574965],["ĠMc",-11.149630347223376],["girls",-11.149915372133083],["Ġliberal",-11.14998540044656],["ĠVictorian",-11.15019685467277],["ĠUnit",-11.150544605741189],["chen",-11.150552076047227],["Ġparticipant",-11.150594647126404],["ĠVancouver",-11.150594647686741],["ĠRights",-11.15101606331328],["Ġjurisdiction",-11.151056114589355],["Ġgarner",-11.151071552056994],["Ġgoods",-11.15131131391839],["mont",-11.151672096236958],["Ġcave",-11.151936011078583],["ĠVilla",-11.152254817194386],["Ġfame",-11.152619380102003],["ĠOak",-11.153767763942616],["nic",-11.153771794428161],["ĠIsraeli",-11.153913757292619],["thinking",-11.154124231413228],["Ġmembership",-11.154245651443704],["Ġsteps",-11.15454584335657],["saurus",-11.154561840312653],["Ġtrailer",-11.154689646432075],["Ġbishop",-11.155152938036505],["Ġsolar",-11.155717254369716],["ĠRos",-11.156093430598979],["Ġserial",-11.156294035178949],["Ġdemo",-11.156319847752105],["ĠBernard",-11.157097573852987],["Ġstores",-11.157459747004266],["ible",-11.157466736706418],["Ġanchor",-11.157570117736732],["ĠMarvel",-11.157682281998234],["Ġcluster",-11.158003813224568],["Ġfantasy",-11.1580038783783],["ĠDeep",-11.158374762018676],["Ġexecute",-11.158462659740245],["Ġventure",-11.158476017757652],["putting",-11.158665946653441],["ĠAdministration",-11.15893381969197],["ĠTriple",-11.158995486140864],["ĠMur",-11.159123742617432],["Ġsacrifice",-11.159153983361248],["mes",-11.159417488093819],["ĠTNA",-11.159544552198524],["fire",-11.159844209409059],["Ġheading",-11.160276596571979],["Ġextratropical",-11.160341037164706],["ĠBradman",-11.16063663128694],["Ġinning",-11.16095107893088],["ĠAlice",-11.161113844968462],["Ġlover",-11.161144601177382],["ĠPortuguese",-11.161262651641906],["Ġoperator",-11.161282218649987],["Ã¤",-11.16154746839096],["Ġtenure",-11.161969846159352],["ĠVillage",-11.162230417548194],["Ġcrest",-11.16273612668947],["ĠNeil",-11.16276393712597],["Ġplease",-11.162768054200228],["ĠGary",-11.16278012615641],["Ġongoing",-11.162832506619651],["ĠSk",-11.162953311708414],["Ġparliament",-11.163366337070782],["ĠCu",-11.163438766945244],["Ġeruption",-11.163701570532593],["ĠLocal",-11.163930045246964],["Ġrevise",-11.163952796945406],["Ġlisten",-11.16397361435938],["asking",-11.164035219499944],["Ġfunny",-11.164133167196054],["ĠWorks",-11.16457342109516],["Ġpetition",-11.165468464952017],["Ġorganis",-11.166812951526293],["Ġbattlecruiser",-11.166874076118116],["ĠHardy",-11.166976653876645],["ĠGrey",-11.167668137727357],["Ġexploit",-11.168142395372646],["Ġ1860",-11.168753685401512],["Ġworship",-11.168823425398894],["Ġwatershed",-11.169306794625964],["ĠDwight",-11.169691715944083],["Ġcompetitive",-11.169691949433258],["Ġexceed",-11.169824461154644],["ĠLang",-11.170487219917124],["Ġkeyboard",-11.170620025828153],["ĠMarge",-11.171005614327314],["Ġaccomplish",-11.171022092915017],["Ġrivalr",-11.17104508149805],["ĠPakistan",-11.17120574400099],["Ġmushroom",-11.171574439067172],["Ġtrigger",-11.171574899268734],["Ġplanets",-11.17176468230728],["ç",-11.172045690645438],["AS",-11.172301040985985],["ĠOliver",-11.172340942550626],["Ġintellectual",-11.17251823622011],["Ġarchitectural",-11.172523450883702],["ĠList",-11.172680169224252],["10",-11.172680641145254],["20",-11.172705103603487],["ĠHampshire",-11.172995036822954],["Ġprovincial",-11.174405295385675],["Ġsupplement",-11.174405295402881],["Ġintervention",-11.174410402332933],["Ġhydrogen",-11.17442047777892],["Ġ1896",-11.175395744316077],["Ġfault",-11.175411829856493],["Ġbirthday",-11.175575796575659],["Ġdisturbance",-11.175860154831849],["Ġguarantee",-11.176296996363433],["ĠAlaska",-11.176302140347172],["ĠEdinburgh",-11.176770490666904],["ĠNCAA",-11.176782518468178],["ĠSide",-11.176890944070621],["ĠCollins",-11.17725665982478],["Ġbombs",-11.177577634415876],["ĠProfessor",-11.177718125678354],["Ġdubbe",-11.177899632441044],["ĠShin",-11.17811411824878],["Ġexplosive",-11.178192282145481],["Ġwalking",-11.178842778958073],["Ġeducational",-11.179010707204316],["Ġidentical",-11.179141274533617],["Ġdispatch",-11.179141278706286],["ĠArmenian",-11.17933611168756],["Ġrivers",-11.179402022753912],["Ġfeeding",-11.179411433332572],["Ġratio",-11.179473727796253],["Ġshallow",-11.179624502440795],["Ġcannon",-11.179729281893449],["Ġassess",-11.180009323885372],["Ġanticipat",-11.180072542163355],["ĠHor",-11.180858647077022],["Ġmuscle",-11.18104452903431],["Ġrestriction",-11.181138241392322],["ĠKan",-11.181163363212377],["ray",-11.181507951716483],["Ġracial",-11.181647762092151],["ĠDar",-11.181741658134143],["Ġpublishing",-11.182375436108801],["Ġvoyage",-11.182470415612991],["Ġcreek",-11.18247087905891],["ĠChar",-11.182696379748577],["ĠTrade",-11.183091812334041],["broad",-11.183753483942365],["Ã³n",-11.184173746660672],["Ġneighbour",-11.184355984384561],["Ġexamination",-11.184466209091017],["Ġlease",-11.184676945064204],["Ġparody",-11.185332035169672],["Ġblocks",-11.185458803343414],["ĠBal",-11.185507399424203],["Ġduration",-11.18582971384281],["Ġwheel",-11.185873428944305],["ĠThos",-11.18612519650004],["ĠBeck",-11.186199184194443],["Ġ1898",-11.186214735458801],["ĠFlying",-11.186258609490213],["Ġgraduat",-11.186284797500637],["crisi",-11.187142016103714],["ĠNor",-11.18726177916776],["Ġterrain",-11.187341293691468],["Ġautomatic",-11.187928678230836],["ĠProvince",-11.18820190874623],["navy",-11.188829779172494],["Ġcondemn",-11.189020673763189],["Ġstreak",-11.189640062948452],["Ġmedicine",-11.18964039485261],["ĠHills",-11.189865986282472],["ĠDen",-11.189913419320012],["Ġbare",-11.190135508834341],["Ġtrend",-11.190550465157543],["ome",-11.190718342281745],["Ġbranche",-11.190830504010467],["Ġsisters",-11.190832776743955],["Ġdistribut",-11.19095645529512],["bal",-11.190988354974222],["ĠHistorical",-11.191085365899985],["ĠCraig",-11.191570435698278],["ĠVirgin",-11.191993778120889],["ST",-11.192302540064503],["Ġassembly",-11.192448086888668],["Ġpromotional",-11.192673650350919],["Ġanime",-11.192689854631663],["Ġtrough",-11.192915747789314],["ĠRalph",-11.193003832402605],["Ġaccommodate",-11.19361218743811],["ĠWii",-11.193775497669822],["ĠArgentina",-11.193969169614597],["Ġsung",-11.194052747308216],["zer",-11.194372523697396],["Ġbanks",-11.194504105853747],["Ġbones",-11.194604178851495],["Ġmistake",-11.19505358459175],["ĠChampions",-11.195170035553073],["ĠYorkshire",-11.195518946609017],["Ġ176",-11.195528963641394],["ĠDick",-11.195895269744122],["pra",-11.1964500012186],["ĠJohnston",-11.196608723236919],["Ġjury",-11.196749595201391],["ĠPerformance",-11.196882527029981],["Ġblind",-11.197832157087547],["Ġtoppe",-11.197842809361138],["Ġ104",-11.197992507238748],["Ġunclear",-11.198022186927005],["Ġhabit",-11.198390243630872],["Ġbrick",-11.19861801297509],["Ġaccidental",-11.198790602895642],["ĠLloyd",-11.19879675119476],["Ġfortification",-11.199332680728133],["Ġmagnitude",-11.199765506654852],["hitting",-11.199827429579273],["Ġrestor",-11.200147309020753],["ĠEve",-11.200151478639773],["ace",-11.20023963755871],["ĠHelen",-11.20064821140471],["Ġcapabilit",-11.20091809293471],["Ġrepeat",-11.20163641647597],["lie",-11.20165212561222],["ĠYe",-11.201768061412906],["Ġpale",-11.202318696376379],["Ġ111",-11.202322177272542],["ĠGlobe",-11.202697195946048],["ĠLucas",-11.202737587136586],["Ġwake",-11.202857191310013],["ĠWin",-11.203117890219868],["ĠJerry",-11.203212852495085],["Ġslaver",-11.203304645050519],["ĠOverall",-11.203394992662695],["ĠTurner",-11.20362736634092],["Ġoutput",-11.2036916023925],["Ġsuccession",-11.203829513058476],["Ġprogressive",-11.203846377408235],["Ġfailing",-11.204113865374225],["ĠWork",-11.204203094101752],["Ġsang",-11.204237971002607],["rÃ©",-11.204521004004897],["Ġdistant",-11.204626698227068],["Ġfocuse",-11.204673283744722],["ima",-11.204801226686154],["Ġdrummer",-11.204940468119077],["ĠSwift",-11.205598065069825],["Ġseed",-11.205714201543264],["Ġpredominant",-11.205810918027284],["ĠAu",-11.206255602718011],["Ġexplanation",-11.207068060650279],["Ġwage",-11.207228240038162],["ĠCeltic",-11.207565898826925],["talking",-11.2077217654463],["Ġswimm",-11.207802803781878],["ĠJT",-11.207950997124033],["ĠBennett",-11.208042277047948],["Ġcommitment",-11.208087301242784],["tur",-11.20818897596434],["Ġban",-11.208625397175673],["¬",-11.20900085529371],["ĠSubsequent",-11.20901581487383],["ĠBird",-11.209451698920155],["aging",-11.209539547082903],["ĠBlu",-11.209706157688842],["Ġmirror",-11.20999473134988],["ĠSur",-11.210080748403378],["Ġcup",-11.210376256853415],["Ġbiograph",-11.210722723802673],["ĠFinland",-11.211012650705023],["Ġimager",-11.211228190073994],["ĠGrace",-11.211488985797406],["ĠDann",-11.211742201534559],["Ġmonaster",-11.211956884989691],["Ġruler",-11.211976733295604],["ĠPenn",-11.212235858260264],["Ġwire",-11.212301974403083],["wick",-11.212492469065273],["Ġreluctant",-11.212916976372096],["Ġstatistic",-11.213252456041564],["Ġlawsuit",-11.213481531301953],["ĠVoice",-11.213965982850002],["ĠWard",-11.21398768104213],["ĠMission",-11.21403591966737],["cu",-11.214376824305358],["Ġundergo",-11.214435122562747],["ĠJacob",-11.214469339148506],["Ġwarfar",-11.21467772327241],["Ġvary",-11.215208252962913],["ĠRio",-11.215217117418035],["ĠHowe",-11.215222938464457],["Ġstructural",-11.21539464267078],["1899",-11.21594543288007],["Ġperceive",-11.216299217666457],["Ġisolate",-11.216639975630196],["use",-11.216736422355805],["ĠNorfolk",-11.216874351454045],["Ġacre",-11.217564986030123],["ĠDin",-11.217640862513845],["Ġburial",-11.217862993005083],["ĠBrothers",-11.21798636623611],["utstanding",-11.218270108965417],["trading",-11.218555851070718],["ĠJudge",-11.21889313585103],["ĠBer",-11.218987826693471],["ĠTra",-11.219183055438942],["ĠOfficial",-11.21934042316106],["Ġcabinet",-11.219371488054596],["ĠKate",-11.21943789058759],["Ġdam",-11.21944530845221],["Ġattending",-11.219588086847775],["ĠQueensland",-11.220410877231505],["Ġ155",-11.220555128676235],["ĠBurton",-11.220633111760794],["ĠBoys",-11.220737965156689],["are",-11.221068177847172],["Ġproclaim",-11.221091960659614],["Ġeagle",-11.221831562872994],["Ġsack",-11.22204220556231],["Ġriot",-11.222157370145869],["ĠHawaii",-11.22221661877862],["Ġpresentation",-11.222246992482898],["ĠNar",-11.222646904391418],["ĠAg",-11.222687201285652],["Ġactivist",-11.222835194445057],["ĠCor",-11.22292025560702],["ĠPin",-11.223120832711146],["Ġmask",-11.223252874130408],["ĠSalt",-11.223268996619002],["Ġbay",-11.223637925492316],["ĠArtist",-11.22370042299691],["ĠNicholas",-11.223798050611965],["Ġfloat",-11.22380700710936],["Ġradiation",-11.22381504538469],["ĠBarry",-11.22387217876976],["ritage",-11.22446862768634],["Ġcompliment",-11.224720482112579],["Ġturbine",-11.224791345310448],["ĠAb",-11.224820869763718],["Ġjobs",-11.225604619047115],["Ġlie",-11.22597466531846],["ĠBrazilian",-11.22628510964017],["ĠRat",-11.22701962036431],["ĠBroadcast",-11.227336094448553],["ĠMountains",-11.227358273376735],["tter",-11.22741592609503],["Ġmetre",-11.227548914914095],["ĠKane",-11.227759496975757],["Ġprecipitation",-11.227778612401984],["Ġessay",-11.227787826144564],["Ġ1850",-11.22881229394917],["Ġgender",-11.228851633350942],["ĠVincent",-11.229287223326928],["ĠSyria",-11.229500715228166],["ĠDavies",-11.229559242393153],["Ġwitnesse",-11.229939611760772],["ĠChild",-11.230165658083713],["Ġathletic",-11.230272178753104],["ĠCatherine",-11.230272289602803],["ĠEmmy",-11.230302646351786],["ĠMedical",-11.230871048056589],["ĠGuinea",-11.231289400304087],["ska",-11.23129369895424],["Ġfate",-11.231293879446842],["ĠCommon",-11.231933449868635],["ĠEm",-11.231985778471431],["Ġsending",-11.232246336263799],["ĠSweet",-11.232272682700316],["Ġpublications",-11.232408743389762],["Ġeastward",-11.232451931398575],["ĠHarbor",-11.232506675017962],["ĠNext",-11.232756580149672],["ĠSc",-11.233316601552218],["Ġrent",-11.233501622598196],["ĠHunt",-11.233694357839326],["Ġwilling",-11.234006088788625],["hidde",-11.234398844680245],["Ġinscription",-11.234780169932769],["ĠYellow",-11.234784115443926],["Ġsheet",-11.234983775717293],["bro",-11.235503154574221],["ĠGirls",-11.235758882544914],["Ġvoter",-11.235986126659819],["ĠChe",-11.236169951266522],["ĠHughes",-11.236537941362826],["gal",-11.236560444987951],["Ġpursuit",-11.237420188409668],["ĠDarwin",-11.237845273212734],["Ġbanne",-11.237858525342128],["Ġstruggl",-11.237885779326643],["Ġinstruct",-11.237992187064519],["ĠYu",-11.238087986779751],["Ġbeaut",-11.238159255555042],["Ġfee",-11.23877727967253],["Ġhybrid",-11.239306126326976],["Ġcruise",-11.23956262260418],["ĠSega",-11.23968291569581],["Ġcopper",-11.239828420806646],["Ġancestor",-11.240820103150984],["ĠGer",-11.241065845375612],["ĠAbu",-11.241478548264997],["mount",-11.241543994410186],["Ġ1897",-11.241708006214802],["Ġdealing",-11.241750407649452],["Ġmini",-11.241786257186954],["ĠAthen",-11.241969615025546],["Ġvolcano",-11.242336133131507],["ĠBra",-11.242425775840196],["ĠMer",-11.242745284890681],["Ġdirectors",-11.242810266146378],["ĠHarvard",-11.242841981848255],["ĠHans",-11.243113797810654],["Ġdive",-11.243195564468838],["ĠOslo",-11.243350134494818],["ĠBeginning",-11.243373351277288],["ĠFarm",-11.243408658975948],["RA",-11.243415824603264],["Ġvaried",-11.243458916201549],["ĠTraining",-11.243630399833354],["ĠAntonio",-11.243661033506896],["Ġanger",-11.24381902243374],["fall",-11.243940240355991],["ãģ",-11.24435251937556],["ĠAffair",-11.244367531668853],["Ġsurvival",-11.244718887691558],["ĠCameron",-11.244916078995704],["IFA",-11.245192126436244],["ãĥ",-11.245780110954296],["Ġ127",-11.245824701281977],["Ġatomic",-11.246244758507842],["ĠWalt",-11.247002082717117],["Ġlegislative",-11.2474053738143],["Ġvaluable",-11.247405436151286],["ĠPal",-11.247571024415238],["ĠSwiss",-11.247671121672628],["Ġconquer",-11.247913923046475],["Ġcollective",-11.248040952126498],["ĠMayor",-11.248692755264049],["Ġfollower",-11.249178911158467],["Ġchord",-11.249580947050358],["Ġadvised",-11.249645381378901],["Ġsixteen",-11.249664738896989],["Ġdislike",-11.249959564210638],["Ġshut",-11.250076639459547],["Ġsuspect",-11.250090118471562],["ĠMoscow",-11.250459601601364],["Ġliner",-11.25066562854413],["Ġcrystal",-11.25068544032966],["Ġexamine",-11.250765648828125],["ĠSymphon",-11.250767818690772],["ĠPittsburgh",-11.250969725816024],["ĠMagic",-11.25100177806053],["Ġupset",-11.251162780410187],["ĠIndonesia",-11.251255933026998],["ĠOrange",-11.251995535139478],["Ġdogs",-11.252234269680137],["ĠLuke",-11.252282521191855],["ĠGallery",-11.252508838578862],["Ġnineteen",-11.252544911546444],["Ġinitiative",-11.252550103199255],["Ġcommentator",-11.252637866561034],["Ġvoting",-11.253024590332284],["MA",-11.253155593429966],["Ġairfield",-11.253330811859083],["hall",-11.253333347195415],["Ġchampions",-11.253380631294256],["ĠBath",-11.253453422093457],["ĠProtestant",-11.254044102664512],["une",-11.254215262950048],["ĠOp",-11.254288351555283],["Ġcharity",-11.254369194142136],["ĠGil",-11.255306039965248],["ĠFemale",-11.25557089465353],["Ġservant",-11.255570900335927],["Ġmammal",-11.255723078609616],["eating",-11.25615237427586],["Ġtape",-11.256179256115807],["ĠSusan",-11.25667626022366],["rig",-11.257276348509606],["Ġdiscipline",-11.257419154102827],["Ġsummit",-11.25780421885117],["Ġweb",-11.258000738065899],["Ġlaborator",-11.258711165991858],["cle",-11.259281569499816],["ĠIndonesian",-11.259389813587799],["ĠJunior",-11.259681150318823],["Ġtackle",-11.259904420336184],["Ġautumn",-11.260193271926493],["Ġconfidence",-11.260196064742523],["ĠTerry",-11.260278974518986],["ĠUpper",-11.260444555878909],["Ġcelebrit",-11.2607082045105],["lar",-11.260760411009564],["Ġtip",-11.2607808278207],["ĠBryan",-11.261316139108851],["ĠDun",-11.261378125517854],["Ġshaft",-11.261428360236856],["Ġspoken",-11.261642810852232],["Ġpuzzle",-11.261739091375793],["Ġproceeded",-11.262185069146753],["ĠSte",-11.262569608286402],["Ġmanga",-11.2627475778243],["Ġnautical",-11.262772327618908],["Ġstuff",-11.262814476793956],["Ġspell",-11.263250055791291],["ĠWallace",-11.263332956960648],["Ġrecommendation",-11.263657452944518],["ule",-11.263735782390931],["Ġhumor",-11.263773516676622],["ĠConstantin",-11.263790763337566],["ĠEdition",-11.263901230297503],["ĠMarket",-11.263972122790008],["Ġpatron",-11.264635439318589],["ĠSection",-11.26486488715696],["ĠOl",-11.264883490340878],["ĠHope",-11.264896221860422],["Ġattorney",-11.265354573029184],["een",-11.26600313069898],["ĠStudio",-11.266059265101163],["ĠRing",-11.266701750408444],["ĠVen",-11.267219419327265],["Ġevacuation",-11.267462884382269],["lac",-11.267636705180493],["Ġexplicit",-11.267945248058396],["ĠMicrosoft",-11.267946629740052],["ĠCast",-11.268134159063091],["Ġinclusion",-11.268983400510475],["ĠFormation",-11.269073086859624],["Ġlyrical",-11.269197036799794],["ĠSet",-11.269304925892186],["Ġjaw",-11.269725465545946],["Ġroadway",-11.269925712840948],["ĠDefense",-11.270025783134052],["ĠCarr",-11.270727794258475],["Ġsweet",-11.271059976301581],["LA",-11.271091158290357],["Ġprepar",-11.271121266696113],["Ġcareful",-11.27119575311889],["ĠEdwards",-11.271234318870185],["Ġtaxe",-11.271350468611601],["Ġphotography",-11.271557344106682],["ĠProgram",-11.271727689427259],["Ġindeed",-11.271870205332208],["ĠDescription",-11.272104342334941],["ĠJefferson",-11.272124152266908],["ĠHol",-11.272316242764784],["ĠAftermat",-11.272657840487962],["Ġ168",-11.273283106714068],["Ġemployment",-11.2735890618485],["bus",-11.273757084060623],["PA",-11.274260540904697],["Ġ106",-11.274801499625042],["night",-11.275605583729188],["Ġoccupy",-11.275757788079385],["Ġwine",-11.27580893232745],["Ġharbour",-11.276280817063183],["tonnes",-11.276454968026759],["grossing",-11.276488278414357],["ĠStyle",-11.276572775156069],["Ġconservation",-11.276764654202779],["Ġprogramming",-11.276868848033525],["Ġmill",-11.27705805427753],["ĠSheffield",-11.27732953891832],["Ġtough",-11.277464619161957],["Ġconsideration",-11.277816645953928],["Ġdemonstration",-11.277991056093814],["Ġimmigrant",-11.27837559003681],["Ġpoly",-11.278676685476512],["ĠGay",-11.27873249291209],["Ġmechanic",-11.279416936685944],["ĠLarry",-11.279461129789123],["Ġfisher",-11.279687689321026],["Ġfundamental",-11.27994961374451],["rom",-11.280135483327546],["uck",-11.2801454990129],["ĠNone",-11.280302740495593],["Ġ187",-11.280335188058574],["ĠSecurity",-11.280474782703852],["Ãł",-11.280512397590769],["Ġtear",-11.281125594482084],["ĠChan",-11.28133539166867],["Ġgrave",-11.281590338643625],["Ġforecast",-11.281833786866269],["ĠZero",-11.282322815517317],["ĠHalf",-11.282441275403498],["ĠNova",-11.282676638655854],["40",-11.282926909431325],["Ġ1895",-11.282929933167235],["tory",-11.283106180953908],["Ġpackage",-11.283291183207105],["ĠNan",-11.2837586912926],["Ġburning",-11.283810710880685],["Ġriding",-11.283847694413158],["log",-11.28388354912288],["ĠOh",-11.284020861925882],["ĠBooks",-11.284082953789053],["music",-11.284385303028353],["Ġgear",-11.28492291926026],["Ġusers",-11.284989669732333],["Ġboss",-11.284989888997],["Ġcompromise",-11.285214122683094],["Ġfilter",-11.285222829514193],["ĠHerald",-11.285341198339598],["gue",-11.285634331429488],["Ġculminat",-11.285727789917782],["ĠDallas",-11.285755286953242],["ĠCyrus",-11.285804459599966],["ĠAustin",-11.286799207844314],["ĠPicture",-11.287231235567567],["Ġconsult",-11.287823113533278],["ĠTogether",-11.287856871119258],["eur",-11.288102377050246],["ĠMalaysia",-11.288259436254712],["Ġwarrior",-11.288386312407587],["pet",-11.288391238243031],["Ġadminister",-11.289445814108806],["ĠLaborator",-11.289481022874135],["ĠMix",-11.289718132280019],["ĠMetro",-11.289802641605934],["Ġconvey",-11.289977234446159],["ĠCollection",-11.289990279702614],["Ġbombardment",-11.290040866668583],["Ġmicro",-11.290409478209913],["Ġscandal",-11.290509100296513],["Ġparticipation",-11.290538201436696],["Ġmodification",-11.291044201399213],["Ġrap",-11.291477136976315],["ĠAmendment",-11.291568408924972],["Ġ113",-11.291892645896665],["Ġmyth",-11.29193224063163],["ĠFund",-11.293028891395295],["ĠCharts",-11.293318690756378],["ĠWoman",-11.29340397711701],["Ġinflict",-11.29369594214791],["mal",-11.293882730772712],["ĠMusical",-11.294451059690385],["world",-11.294751698567207],["Ġgirlfriend",-11.294760734323662],["ĠParsons",-11.295306994307005],["Ġremote",-11.29534099937997],["ĠMat",-11.295560978440033],["Ġoriginat",-11.295638574466114],["ĠRoom",-11.295791820303599],["ĠFBI",-11.295832419496268],["ĠClarke",-11.296013312988315],["ĠMovie",-11.296163079210213],["Ġtransportation",-11.297015677498148],["Ġmono",-11.297341210219802],["Ġimprison",-11.29734754566065],["ĠChelse",-11.297453236358109],["ĠWilhelm",-11.297785101682507],["Ġbrilliant",-11.297963299714382],["Ġmultiplay",-11.298284816292941],["ĠDanish",-11.298527634810032],["die",-11.299044486354557],["try",-11.2991073072907],["ĠGre",-11.299227771999057],["Ġmail",-11.299354737887457],["Ġwidow",-11.29956844496132],["Ġnoise",-11.299828468456404],["Ġtempo",-11.300230617254531],["ĠSri",-11.3003389790846],["Ġdisband",-11.30056367924379],["ī",-11.301126038178527],["Î±",-11.301172580416434],["Ġsalary",-11.301191895466879],["Ġflash",-11.301240130919716],["Ġ173",-11.301278887143638],["ĠArmstrong",-11.301712636599703],["Ġgrandfather",-11.30171496704844],["Ġuncertain",-11.30184132819021],["Ġmoon",-11.302304666907292],["Ġ102",-11.302571791824619],["ĠStock",-11.302606796075416],["ĠQuebec",-11.30332849320294],["Ġexpectation",-11.303497170586766],["cia",-11.303606213541547],["ĠOrlean",-11.303862205437074],["Ġ152",-11.303956450119415],["Ġtranslate",-11.304004128478677],["stan",-11.304357968923181],["Ġwrestler",-11.305133558526558],["ĠCathedral",-11.305476081867317],["ĠMarc",-11.305645536431147],["ĠGreater",-11.305657069566166],["Ġignor",-11.305775550738403],["Ġprices",-11.306033964243387],["ĠRama",-11.30629940266784],["Ġdinosaur",-11.30655395691975],["ĠApollo",-11.306568582638569],["ĠTang",-11.306639362569515],["Ġcrops",-11.306825642150958],["Ġanimat",-11.30683684160498],["met",-11.307435317231352],["Ġonward",-11.308205163252257],["ĠMega",-11.308290898164083],["Ġmytholog",-11.308961705288823],["CA",-11.309025639211121],["Ġpar",-11.309035802634568],["ĠFisher",-11.309143409779992],["ĠCultural",-11.309255080459497],["Ġrecurring",-11.309287795116484],["ĠStand",-11.309301289480832],["Ġaft",-11.309399458713482],["ĠPam",-11.309654118042173],["ĠSpider",-11.309809343737264],["Ġorange",-11.309822303423314],["Ġdiverse",-11.31007816021268],["Ġsignificance",-11.310363695130949],["ĠStra",-11.310535893519933],["ĠFourth",-11.310862915532667],["Ġrevival",-11.311062784076732],["Ġtraveling",-11.311390397864091],["ĠÃĨthel",-11.311400364298187],["Ġillustrate",-11.311570566632888],["ĠPast",-11.312320479348184],["ĠZe",-11.312329258011292],["ĠKin",-11.312345457083222],["Ġdinner",-11.312508036817789],["ĠSel",-11.312769493007515],["Ġgift",-11.312828646064247],["ante",-11.312948602729096],["ĠBuffalo",-11.313046001453632],["Ġterminal",-11.313059155164357],["Ġadvertisement",-11.313091109244898],["ĠAuthorit",-11.313237218108174],["Ġbeating",-11.314003986689892],["Ġvulnerabl",-11.314127450665445],["Ġopt",-11.31415213184598],["ĠLas",-11.314515206927112],["ĠGuitar",-11.314534167984384],["ĠSerbian",-11.314899402310974],["Ġconquest",-11.31522540656956],["Ġcelebrat",-11.315402475749762],["ĠAgency",-11.315768770243293],["ĠMun",-11.315891578897947],["Ġworn",-11.316636652122227],["ĠMinor",-11.316742105955582],["è",-11.316852149342028],["Ġtribe",-11.31738133996366],["ĠTyler",-11.317404512081932],["Ġvariable",-11.317426798722341],["Ġmixture",-11.31745589875414],["ople",-11.318266605099714],["Ġclothes",-11.318848036830463],["Ġlit",-11.31901683762796],["ĠCome",-11.319265942084641],["ĠUtah",-11.319284807650192],["Ġdescent",-11.319330190646674],["Ġdynamic",-11.319589733340749],["±",-11.319674801053118],["Ġgate",-11.319711672159531],["Ġdominat",-11.320017672644703],["aka",-11.320200466175352],["Ġefficient",-11.320673114602553],["Ġtrick",-11.320776540361376],["Ġunexpected",-11.321220160546797],["ĠStuart",-11.321220337311502],["Ġsum",-11.321530692598468],["Ġlists",-11.321596058078551],["ĠHarold",-11.321607920262556],["Ġinitiate",-11.321643316939983],["Ġchest",-11.321819114212406],["Ġopin",-11.321837948802454],["Ġwelcome",-11.322175763955908],["ĠPictures",-11.322423509796957],["lau",-11.322839847319857],["Ġoutcome",-11.322871420091792],["Ġsteer",-11.322883950085252],["Ġ240",-11.323243540542883],["ĠJustin",-11.323274228897054],["ĠRegional",-11.323274302950693],["ĠSpirit",-11.32340437923405],["Ġcathedral",-11.323411341905313],["ĠRuth",-11.323479252813643],["hom",-11.323531726168778],["ĠCricket",-11.323778652933193],["ĠCharlotte",-11.323960055140216],["ensis",-11.324654704861128],["rim",-11.324802012503984],["ĠCBS",-11.325214218450682],["Ġmerge",-11.325332377128143],["Ġeasie",-11.325495447398492],["ock",-11.326186539564917],["Ġ1000",-11.326293672215632],["bri",-11.326512338611211],["Ġsailor",-11.326683051948123],["Ġvelocit",-11.32670786987956],["beaten",-11.326823609314793],["Ġcommanding",-11.326850246166302],["Ġtomb",-11.32693626586236],["Ġcalculate",-11.326979496479211],["Ġdescendant",-11.327098560406416],["Ġurani",-11.327252559705048],["ĠMuhammad",-11.327257500480892],["ĠHand",-11.327526178890418],["bert",-11.32756055549343],["Ġneutral",-11.32762154261191],["ĠAssociate",-11.32780816141048],["Ġmood",-11.327810083960493],["ĠRichmond",-11.327814091646733],["Ġinstallation",-11.328181936557254],["Ġkilometer",-11.328360405865165],["Ġsaving",-11.328373554306497],["Ġbond",-11.328388878598624],["ĠHunter",-11.328517814339303],["ĠMetropolitan",-11.328911394436854],["ĠLin",-11.329007306411974],["Ġtalks",-11.330163317345203],["ĠRap",-11.330597372537412],["Ġ1889",-11.330683740352455],["Ġinvestigat",-11.330966332145616],["ĠPine",-11.331465045614342],["Ġsubstance",-11.332224458744669],["ĠGor",-11.33241986840454],["Ġisotope",-11.332777822684523],["Ġ1894",-11.333849110667327],["ĠBulgarian",-11.334023514029173],["ĺ",-11.334406578947984],["ĠWant",-11.33453912876487],["Ġdual",-11.334904515080158],["Ġscreenplay",-11.335037680502651],["Ġscholarship",-11.335621411757376],["mul",-11.335903530873717],["ĠBible",-11.336075605913429],["ĠExecutive",-11.336104668710856],["ĠScientology",-11.336104669196642],["Ġlifetime",-11.336407311901938],["Ġphysic",-11.336609057962718],["Ġinteract",-11.336655034088775],["ĠConstantine",-11.336673811796084],["Ġdiplomatic",-11.336774111460432],["ĠCode",-11.33682817205573],["Ġairing",-11.336979800711628],["Ġdestination",-11.337289659542893],["Ġvariation",-11.33730046492881],["ĠStevens",-11.337687254099256],["ĠIsle",-11.338087175002585],["Ġelite",-11.3381038602078],["Ġagricultur",-11.338174507569205],["Ġscar",-11.338369741178239],["Ġheritage",-11.338806379854779],["Ġjoke",-11.338996982550123],["ĠSwan",-11.339095544385112],["ĠPete",-11.339261471663168],["cus",-11.339371488309446],["Ġempty",-11.339451389786074],["Ġsword",-11.33991625488164],["ĠScar",-11.339921199019233],["ĠFreedom",-11.340001883891803],["Ġcompetitor",-11.34000766849217],["Ġdecisive",-11.34055802058155],["ĠYouTube",-11.341115818657846],["Ġrejoin",-11.34111667147916],["Ġaccord",-11.341314240457706],["ĠMason",-11.341610784910472],["benea",-11.341839124977263],["Ġkiller",-11.342536312018803],["ĠMass",-11.342958306664737],["Ġtrappe",-11.343269065468089],["ĠRhodes",-11.34356338644751],["ĠHad",-11.343925654170343],["ĠLeo",-11.345842219832882],["ĠPink",-11.345999408399122],["Ġgolden",-11.346308060131573],["ĠNewton",-11.34656600917771],["Ġseventeen",-11.346784714333275],["Ġbowler",-11.346906979482815],["ĠCount",-11.347117501557069],["ĠGrade",-11.347181107410783],["Ġmillimeter",-11.347274870167034],["Ġconfusion",-11.347286480964577],["ĠKyle",-11.347289773750164],["Ġdisrupt",-11.348217992248916],["Ġ1800",-11.348376440956494],["Ġbiological",-11.34842366604097],["Ġdwarf",-11.348444765686391],["Ġtelephone",-11.348962088321882],["Ġgrain",-11.349137786446567],["Ġdrift",-11.349359200620672],["Ġevident",-11.349524025339427],["ĠCardif",-11.349525286234684],["eck",-11.350094909845023],["Ġsoutheastern",-11.350096242171192],["Ġbarrier",-11.350133140711385],["Ġrefugee",-11.350496999256869],["ĠTyphoon",-11.350651343874421],["ĠRegister",-11.350669627341373],["Ġtexts",-11.350683431843496],["ĠTrans",-11.350700367926876],["ĠKill",-11.351076823916149],["Ġcemeter",-11.35121441892367],["Ġnose",-11.351452883596377],["ivity",-11.351653221810238],["Ġasset",-11.35167663384483],["eath",-11.351689891354003],["Ġbulk",-11.351827612517338],["Ġdevoted",-11.352139068971205],["Ġmeasurement",-11.35219466849307],["Ġscenario",-11.35234245042364],["Ġevolve",-11.35246671839531],["Ġflows",-11.352473513952688],["zu",-11.352693362448413],["ages",-11.35326612294573],["get",-11.353269336386916],["ĠMin",-11.35335784126638],["Ġ165",-11.353358453986223],["Ġnice",-11.35342116730902],["Ġprecise",-11.353472165657541],["Ġtimber",-11.353474776894144],["ĠConservation",-11.353475463721919],["ĠElectric",-11.353754407720572],["Ġcloses",-11.353987847525481],["ĠZone",-11.354629548338387],["Ġstorms",-11.35490774219658],["ĠTerritor",-11.35493152112841],["Ġ108",-11.354973367447707],["ĠWells",-11.355026331451496],["ĠControl",-11.355109844035258],["Ġprince",-11.355591801915908],["ĠBarr",-11.355696722632914],["Ġpink",-11.355984392659753],["1891",-11.356024835187378],["chin",-11.356127076172925],["Ġprocesse",-11.356149598503197],["ĠYears",-11.356190483149046],["Ġextinct",-11.356237803168048],["Ġpregnan",-11.356252222375378],["ĠGround",-11.356330188299538],["ĠNature",-11.356342589278789],["ĠGr",-11.356344955631068],["Ġtag",-11.35665267285465],["ĠOrchestra",-11.35686860556876],["act",-11.357273008754083],["Ġmunicipalit",-11.357413892779245],["Ġillustration",-11.357590409129848],["ĠShiva",-11.35771404805576],["thrown",-11.357788920888897],["ĠSox",-11.357801456503433],["Ġenhance",-11.35784139803649],["els",-11.357951322700107],["Ġlighting",-11.3582848839595],["ĠJi",-11.358551351240777],["Ġinfrastructure",-11.358756738029978],["Ġsugar",-11.359313487964613],["ĠIslamic",-11.35931816719672],["Ġpriorit",-11.359323149716047],["Ġdimension",-11.35960601104862],["ĠCavalry",-11.359707901312422],["ĠUntil",-11.359758295805168],["ĠBeat",-11.359818188815446],["Ġsailing",-11.359842674156106],["ĠEmil",-11.35986863718658],["ĠFish",-11.360195885375166],["Ġliteral",-11.360240563424902],["Ġcategorie",-11.360276727635496],["ĠWisconsin",-11.360276727742624],["Ġhide",-11.360574558731638],["ĠOscar",-11.360862902834157],["ĠBla",-11.360994362801037],["uch",-11.361034721393146],["col",-11.361200052005831],["Ġrealise",-11.361503330834044],["AT",-11.361581660324124],["Ġsteep",-11.362048227815347],["ĠMil",-11.362272402645853],["ĠCom",-11.362281319838813],["Ġarena",-11.362374939628783],["Ġmate",-11.362548708578819],["Ġclan",-11.36308628307285],["ĠCro",-11.363114732445938],["Ġmolecule",-11.363125751875836],["Ġordinar",-11.363127252488216],["ĠActress",-11.363201403691239],["acted",-11.363861930512488],["star",-11.363995935077593],["angular",-11.364918577055516],["Ġcrack",-11.364931501461898],["ĠKid",-11.365126356511444],["ĠAirlines",-11.365511672372172],["ĠJerusalem",-11.365982876906163],["ĠBoeing",-11.366120890971569],["RS",-11.366219510852297],["Ġpeninsula",-11.367128035052733],["ĠFather",-11.367242483015715],["ĠSonic",-11.367503282366066],["Ġobserver",-11.368034469802968],["Ġresort",-11.368282887377724],["1892",-11.368315266837767],["Ġimpressive",-11.368423826733624],["ĠTre",-11.368595171153775],["Ġabsent",-11.368822133149212],["ĠPanzer",-11.36887603381443],["Ġafford",-11.36938167955879],["ĠMontgomery",-11.369422261102581],["ĠFight",-11.369518114792726],["Ġmovies",-11.369577404214265],["Without",-11.369804578353197],["ĠMag",-11.370236942191951],["Î",-11.370362220449927],["Ġpursu",-11.37049359404353],["Ġcensus",-11.37057381835104],["Ġpupil",-11.370690702908426],["Ġcash",-11.370969477815503],["ĠAgain",-11.372060881410523],["bird",-11.37289506374041],["ĠBranch",-11.372911607319486],["ĠBarnes",-11.37299922550803],["inus",-11.373147623597937],["ĠCemeter",-11.373451054235964],["ĠFalls",-11.373506518905128],["ĠBrooks",-11.373623017700329],["ĠPierre",-11.373657133234676],["handling",-11.373887589146172],["ĠDonald",-11.374416062490969],["Ġproceeding",-11.37441983780769],["Ġfortune",-11.374636517843225],["Ġretail",-11.374643957482611],["ĠBaron",-11.37479415331848],["ther",-11.37495706226624],["rick",-11.375269923987332],["Ġrealistic",-11.375417579823402],["Ġfatal",-11.375520394677459],["ashore",-11.376810367198251],["Ġmanufacturer",-11.376927326453274],["ĠRen",-11.37714312126305],["Ġalert",-11.377232307870756],["Ġinducte",-11.377936268508066],["ĠSupport",-11.37795865698309],["ĠIl",-11.377969017948228],["ĠPra",-11.377980045820621],["Ġoverlook",-11.378073217447998],["not",-11.378215972156767],["ĠIvan",-11.378226354085648],["ĠLeader",-11.378546633948169],["Ġcylinder",-11.37865220855054],["Ġmarkets",-11.378987102629694],["ĠSaturn",-11.379255445070573],["ĠDraft",-11.37943620536005],["ĠRogers",-11.379714762731421],["Ġ135",-11.379780879551088],["Ġrelation",-11.380008023164152],["Ġtooth",-11.380130881955733],["ĠAttorney",-11.380392347743198],["ĠTurkey",-11.380412528295418],["AM",-11.380640098340015],["ĠSherman",-11.38066888768504],["ĠServices",-11.380952488612397],["ĠMacArthur",-11.380973067829018],["Ġcounterpart",-11.38099888153993],["Ġoversee",-11.381015266834691],["ĠSprings",-11.381121364978707],["Ġdrain",-11.381408942937455],["Ġspawn",-11.38156022231629],["ĠScots",-11.381682022499769],["Ġhostile",-11.381684547346996],["ĠCentury",-11.382135644442638],["Ġautobiograph",-11.38251298316359],["ĠBaltic",-11.382780394723138],["Ġ1888",-11.382826597072803],["ĠKon",-11.383044188704508],["Ã©n",-11.38305279951999],["anagement",-11.383121796482772],["Ġvital",-11.383316360549216],["Ġspeculation",-11.38331802948813],["ĠEvil",-11.383513902810229],["Ġpremier",-11.383742655905866],["Ġbats",-11.383995840911876],["rop",-11.384135514968186],["Ġ163",-11.384254421067599],["ĠSean",-11.384351648430474],["ĠCzech",-11.384464495397637],["heir",-11.384466082983487],["Ġnaming",-11.38478242714394],["ĠFo",-11.384922468569197],["ĠBurns",-11.38537327110372],["Ġsurge",-11.385536898937632],["Ġdischarge",-11.385681053927065],["Ġdependent",-11.385774051095071],["Ġcensor",-11.38591221622827],["Ġstrand",-11.386225468347927],["urged",-11.38689876466589],["rine",-11.386979395010611],["Ġremov",-11.387003867582454],["ĠRear",-11.387187293828443],["rip",-11.387556378364478],["Ġproof",-11.38774816698739],["ĠResident",-11.387968151660496],["Ġspark",-11.388015240123568],["Ġamendment",-11.388019042105727],["book",-11.38836570385848],["Ġassert",-11.388439683312013],["ĠâĢ²",-11.389308081757253],["Ġposter",-11.389655897712322],["Ġswing",-11.390058979778528],["rang",-11.390188507229952],["ĠWarrior",-11.390310904552688],["Ġfortress",-11.390422798680245],["ĠÎ¼m",-11.390671517418891],["rack",-11.391129052909731],["EC",-11.391545647936422],["Ġhurt",-11.391998165351485],["Ġgalax",-11.392073441636711],["ĠReagan",-11.392074621774604],["ĠShah",-11.392172338511426],["ink",-11.392414509877021],["ĠJar",-11.39269267082641],["ire",-11.39284580651634],["ĠLegend",-11.392877114115098],["owing",-11.392918305463066],["Ġrumor",-11.393001931655348],["ĠChapel",-11.393018853326543],["Ġ450",-11.393221918419476],["Ġclosure",-11.393246828669895],["ides",-11.393835620333888],["ĠGlee",-11.393836350286696],["elli",-11.394011327693635],["Ġpictures",-11.39444332724657],["Ġenabl",-11.39454749443192],["ĠPet",-11.394606844646363],["path",-11.39480466783383],["ple",-11.395353022513028],["Ġconcurrent",-11.395616471043576],["Ġromance",-11.395617638661992],["Ġimpos",-11.395862027876287],["Ġscrap",-11.396645416021208],["ĠThames",-11.396793370118452],["ĠMind",-11.396887977327587],["etic",-11.397048394627161],["Ġseparation",-11.397384764664668],["ĠMann",-11.39746609166021],["ĠPlant",-11.397765312941452],["ĠTribune",-11.397962361855994],["ĠRomney",-11.39796239350226],["ĠArticle",-11.397984188312108],["Ġnegotiate",-11.39815168726653],["Ġdying",-11.398365861160281],["Ġelect",-11.398629353106983],["Ġepic",-11.3986393373382],["Ġexhaust",-11.398867306722364],["bre",-11.39906231785254],["Ġsuspension",-11.39914472792611],["ĠWriter",-11.399144886423155],["ĠSport",-11.399161401967502],["Ġ171",-11.399196940740259],["moto",-11.399304487272424],["cro",-11.399306630965263],["ological",-11.399958481210003],["mbar",-11.399968037300615],["ĠMiles",-11.400097943750705],["Ġdoctrine",-11.400328510229501],["Ġdistinction",-11.400528695754964],["Ġarch",-11.400586944529891],["Ġinvest",-11.400777477925892],["Ġdisagree",-11.400842277702182],["ĠOrganization",-11.40095168885125],["Ġintent",-11.401398077366547],["Ġsummon",-11.401638210001519],["ĠBarbara",-11.402100031821885],["ĠAdvance",-11.402155459752784],["ĠToo",-11.402226676839362],["Ġ1865",-11.402367075918505],["smith",-11.402480341874439],["BA",-11.40262537444666],["ĠAction",-11.402853533179695],["Ġ978",-11.40431056212827],["ĠAgainst",-11.404741719758697],["ĠRobin",-11.404874490858585],["Ġhomosexual",-11.405077913855038],["ĠComedy",-11.405267349217837],["ĠBur",-11.405351401138036],["ĠNATO",-11.405673905581317],["Ġblend",-11.405693783615806],["ĠShadow",-11.406268609370734],["Ġemphasize",-11.406308547923215],["Ġmyster",-11.40654490328421],["lla",-11.40669940859135],["ĠNancy",-11.407530578461653],["Ġrider",-11.407556312665118],["Ġsurpass",-11.407635681933623],["Ġegg",-11.40823630625626],["Ġenroll",-11.40857457273885],["Ġvolcanic",-11.408735399048384],["Ġcontinent",-11.408754224915352],["Ġharsh",-11.408756526986366],["ĠAnimal",-11.408761238128008],["Ġpersist",-11.40891118957039],["ites",-11.409216938455355],["Ġlaps",-11.410219108451432],["Ġcircular",-11.41039020332833],["Ġcolumns",-11.410828309097582],["Ġsings",-11.41092997372009],["Ġpin",-11.411031493492432],["Ġsinking",-11.411058424063995],["Ġ220",-11.411079416714749],["ĠCyclone",-11.411647930239768],["Ġbelonging",-11.411933755720092],["cla",-11.412029827171203],["Ġunveil",-11.412244166142209],["Ġcattle",-11.41225707080909],["nell",-11.41250592858854],["Ġpainter",-11.412651686514899],["bol",-11.41290436147769],["gri",-11.413598094727485],["ĠBright",-11.413821285622753],["Ġ117",-11.413967287234627],["Ġshortage",-11.414050392384663],["vol",-11.414173509810922],["ĠPortugal",-11.414644354411063],["ĠErnest",-11.414645777915462],["Ġblockade",-11.414832615921913],["Ġ121",-11.415128188798299],["lag",-11.415411718383318],["Ġmineral",-11.415477925637735],["Ġstrain",-11.415575728057227],["Ġphysician",-11.415848001903282],["Ġgrass",-11.41633728261627],["Ġusage",-11.41664901788741],["ĠPh",-11.416694523066152],["ĠMcC",-11.417044802993285],["ĠNewcastle",-11.417113146558824],["Ġadmir",-11.417292423354574],["ĠMonte",-11.417805470474788],["Ġcompanion",-11.41838329112085],["Ġconcerning",-11.418556360379029],["ĠDuch",-11.418966877190435],["Ī",-11.419441771178676],["Ġpara",-11.420019649449582],["Ġcards",-11.420192939076443],["nik",-11.420199031932182],["ĠAllie",-11.420210296055096],["·",-11.420502038744477],["ĠCE",-11.420676299942784],["Ġrushing",-11.420715758600869],["Ġharm",-11.420913259428577],["30",-11.421107281410025],["ridge",-11.42163896465939],["Ġlighter",-11.421789449080537],["ĠDrake",-11.42198979441034],["Ġblast",-11.422049926207599],["Ġ166",-11.422306145573739],["ĠBri",-11.4224188052941],["Ġassessment",-11.42258898446432],["ĠChristianit",-11.423317014839247],["ĠFuture",-11.423583554502095],["ĠAk",-11.423818655637149],["ĠKal",-11.42382967977159],["list",-11.423848889780537],["ĠHeavyweight",-11.424307836622843],["ĠPersonn",-11.424559870045753],["Ġadmit",-11.424655645225037],["ĠJosÃ©",-11.424916913905998],["Ġstrange",-11.42497540895629],["Ġcheap",-11.42513476602975],["ĠGot",-11.425303209665646],["Ġdebri",-11.425527234612847],["hopping",-11.426112508852794],["ĠContinental",-11.426186643566684],["ĠSex",-11.426299260890058],["Ġsky",-11.426342358629853],["Ġmetric",-11.42637041847798],["Ġmassacre",-11.426560814293548],["Ġsuspected",-11.426565389680558],["ĠJoint",-11.42667712768976],["Ġinfant",-11.42724762155634],["Ġdemographic",-11.42734671507835],["Ġtrait",-11.427445100726734],["Ġchoir",-11.427950462516144],["¯",-11.428022590978232],["Ġchemistr",-11.428065141780676],["Ġcorps",-11.428357257199568],["Ġconspirac",-11.428561093267792],["Ġmillimetre",-11.428561124045508],["ĠBrad",-11.428813896125178],["ction",-11.428912455749952],["ĠLiberty",-11.428952608509354],["Ġboyfriend",-11.429167996830326],["ĠAncient",-11.429168357299822],["Ãº",-11.429210463550465],["Ġ112",-11.429340304727438],["Ġrelat",-11.429435266182814],["Ġ1864",-11.42971574944201],["ĠCornwall",-11.429788800525603],["Ġgoddess",-11.429832069229029],["Ġstroke",-11.429942502366487],["ĠFat",-11.429982807283437],["Ġceiling",-11.430387888357163],["ĠStandard",-11.430439491956705],["Ġangr",-11.430608012490861],["ĠMarshal",-11.430707408137815],["Ġbears",-11.430886229044365],["ĠTournament",-11.430998407997386],["Ġambassador",-11.432832122914846],["ĠArchbishop",-11.432834033377985],["Ġgenuine",-11.432842259190654],["Ġextract",-11.432934582438213],["ĠEight",-11.433256704181982],["Ġhorizontal",-11.433457020932032],["Ġballot",-11.434366241933748],["Ġpolar",-11.434495731523837],["Ġgods",-11.434625141861277],["ĠOpera",-11.434720067634569],["Ġindigenous",-11.434770337620186],["Ġlogo",-11.435144543191258],["ĠCommissioner",-11.435241137392648],["far",-11.435502038564648],["ĠMake",-11.436061029942302],["ĠAuto",-11.436114905846885],["Ġcorporate",-11.436509736847839],["OS",-11.43660590168317],["ĠCena",-11.436849155527426],["Ġ145",-11.437394309828088],["Ġjuvenile",-11.437738603187519],["Ġconsumption",-11.43773860987148],["Ġrandom",-11.43773886285488],["Ġremake",-11.437739347041216],["Ġtransmission",-11.437745279106858],["ĠCareer",-11.438085773202921],["ĠIsaac",-11.438484624209988],["sville",-11.43851032458301],["Ġevolv",-11.43883524566617],["cut",-11.439584590480301],["ĠLeicester",-11.439584774169074],["Ġshadow",-11.440201556454076],["Ġdefinite",-11.440229083687328],["ĠReich",-11.440454414801692],["oka",-11.44111666736493],["ĠKenneth",-11.441176618893582],["ĠBoulevard",-11.441434327273818],["ĠMalcolm",-11.44143435116963],["ight",-11.441545630970346],["ĠWhere",-11.442234914920778],["Ġoriginate",-11.442303406729437],["Ġscrapp",-11.442817303744818],["Ġdeputy",-11.443620121741219],["ĠPedro",-11.443907432773273],["ĠMeteorological",-11.443912479647267],["ĠPr",-11.444144181054611],["ĠLower",-11.444401984832911],["Ġresignation",-11.444647461424577],["ago",-11.444977724842351],["ĠCapital",-11.445147281488946],["ĠChamberlain",-11.445148692094083],["Ġreferee",-11.445286258128235],["ĠCarol",-11.445424942582868],["ĠEnergy",-11.44576346302],["Ġ118",-11.446212144419691],["Ġflesh",-11.446384623120807],["Ġbatterie",-11.44638715646045],["Ġoutline",-11.446452282526803],["ĠAdventure",-11.44662727071874],["atus",-11.446858566885641],["Ġexcess",-11.446936533232485],["Ġpremise",-11.447004410571287],["ĠDublin",-11.447071036084937],["Ġvalid",-11.447189379865044],["ĠEllis",-11.447229327055304],["Ġsuppress",-11.447609794371527],["Ġattribut",-11.447637136052787],["Ġnurse",-11.447665126563965],["ĠYugoslavia",-11.447674687618116],["ĠThor",-11.447734219855313],["ĠLink",-11.447736196296283],["ĠJulian",-11.448103596823987],["Ġlesson",-11.448177468875777],["Ġvocalist",-11.448554532523428],["ĠGang",-11.448727816316037],["Ġdreadnought",-11.448867002172287],["Ġpunishment",-11.448929702767273],["ĠDJ",-11.449096056664146],["Å¡",-11.449580398067436],["Ġdeit",-11.449744909757804],["igan",-11.449757719312295],["Ġtheorie",-11.45006950964482],["Ġparliamentar",-11.450416512864393],["ĠZu",-11.451303067728812],["ĠFriends",-11.451468627148596],["pop",-11.451722916456756],["how",-11.452148762060723],["ĠERA",-11.452302657024177],["ĠStrait",-11.452461092410601],["Ġfacult",-11.452475757068587],["ĠElectronic",-11.452609307247414],["ĠIslam",-11.452879199604055],["Ġdust",-11.452921227946126],["right",-11.453076411316875],["ĠOrigin",-11.453085740666728],["ĠSerb",-11.453470970541701],["Ġcollision",-11.453852990968247],["Ġblues",-11.453969487973968],["ĠSpin",-11.454148462873802],["ĠRomanian",-11.454193727972282],["rugb",-11.454202289745908],["Ġcorresponding",-11.454554371499064],["cast",-11.454758966733714],["Ġindustrie",-11.455105811801754],["Ġlasting",-11.455322367182184],["Ġloud",-11.45548103852703],["ĠTr",-11.455625023071153],["ĠBear",-11.455714795140647],["ĠDisc",-11.455970335122572],["Ġterritorial",-11.455970683677876],["ement",-11.456070361498245],["ĠPublish",-11.456330309770646],["ĠMachine",-11.456393593062216],["ER",-11.456660426379333],["Ġorganic",-11.456943454429847],["Ġnephew",-11.45698190264176],["game",-11.457011843182777],["ĠCrystal",-11.457154265839705],["Ĳ",-11.457176973352034],["viation",-11.457458295193941],["ĠRush",-11.457858894935235],["jar",-11.457868521904498],["Ġrevolutionar",-11.457897098919426],["Ġcrop",-11.457922658326481],["ĠHop",-11.458133822021564],["ĠHit",-11.458175521637653],["ĠEddie",-11.458274673592356],["ĠVar",-11.458917269536158],["ĠKaiser",-11.458927146243445],["ĠBradley",-11.458949375523664],["ĠJoan",-11.458977462050331],["ĠNumber",-11.458977795180667],["SM",-11.459355250984576],["ĠDennis",-11.459513127092464],["Ġ132",-11.45963441067044],["phy",-11.459693093439034],["Ġshipment",-11.45990803065644],["Ġdisappointed",-11.460128132754418],["Ġrapper",-11.460224969492192],["Ġscreening",-11.460325778205151],["ĠYouth",-11.460379780710117],["anti",-11.460418880491552],["ĠConservative",-11.460532538650792],["ĠBrand",-11.460934103994685],["Ġkilogram",-11.462009945743016],["Ġdropping",-11.462032509451411],["Ġexclud",-11.462202268318777],["Ġ131",-11.462297483874377],["ĠSerbia",-11.462425619194583],["Ġstern",-11.462646990612832],["Ġhills",-11.462840447446645],["hal",-11.462935791524128],["Ġbitter",-11.462983923577546],["Ġ181",-11.463007195759253],["Ġcorridor",-11.463269271249127],["Ġvicinit",-11.463272562436298],["ĠLes",-11.463654122298532],["ĠAngle",-11.463943121569372],["mark",-11.464206198243355],["ĠHearts",-11.464343483790746],["ĠPolitical",-11.46453168618812],["ĠKat",-11.464874701602183],["ĠBurke",-11.464930495593386],["ĠDakota",-11.465168277839389],["ĠHorn",-11.46565513985863],["Ġthunderstorm",-11.46579658345717],["ĠHistorian",-11.46595942848645],["Ġcomplicated",-11.466490958218142],["holes",-11.46649847290659],["ĠMorning",-11.466585048941411],["ĠCub",-11.466661509222039],["mic",-11.466961797447418],["Ġpounder",-11.466984906874877],["Ġpan",-11.467179704851283],["ĠJake",-11.467247335310764],["Ġcirculat",-11.46767360360666],["ĠSpringfield",-11.467802306385083],["Ġdoors",-11.468071834731294],["Ġtroop",-11.468084458167496],["Ġvariations",-11.468243959049701],["Ġburst",-11.468359646419692],["Ġconsumer",-11.468477492161725],["ography",-11.46851397072707],["Ġfat",-11.468689462525749],["Ġprayer",-11.468970675087313],["ĠTommy",-11.46902750436104],["Ġbarrel",-11.469154168400413],["ĠGill",-11.469316717959725],["ĠFilming",-11.469327972541176],["Ġhail",-11.469344596429064],["ĠPol",-11.469547131206648],["Ġinaugural",-11.469596405490083],["Ġroster",-11.469597799046307],["Ġfluid",-11.469611667269067],["Ġcoordinate",-11.470219337832155],["horn",-11.470441242632363],["Ġinfect",-11.470442252515287],["tford",-11.470509043212346],["Ġimp",
[...]
