{"version":"1.0","truncation":null,"padding":null,"added_tokens":[{"id":0,"special":true,"content":"[PAD]","single_word":false,"lstrip":false,"rstrip":false,"normalized":false},{"id":1,"special":true,"content":"[UNK]","single_word":false,"lstrip":false,"rstrip":false,"normalized":false},{"id":2,"special":true,"content":"[CLS]","single_word":false,"lstrip":false,"rstrip":false,"normalized":false},{"id":3,"special":true,"content":"[SEP]","single_word":false,"lstrip":false,"rstrip":false,"normalized":false}],"normalizer":{"type":"Sequence","normalizers":[{"type":"BertNormalizer","clean_text":true,"handle_chinese_chars":true,"strip_accents":null,"lowercase":false}]},"pre_tokenizer":{"type":"Sequence","pretokenizers":[{"type":"Whitespace"},{"type":"BertPreTokenizer"},{"type":"Digits","individual_digits":false}]},"post_processor":null,"decoder":null,"model":{"type":"Unigram","unk_id":1,"vocab":[["[PAD]",0.0],["[UNK]",0.0],["[CLS]",0.0],["[SEP]",0.0],["s",-2.933120207034767],["the",-3.1442196053479137],[",",-3.272907489325359],["a",-3.450908999714981],[".",-3.47722161804041],["t",-3.5120294985705254],["o",-3.5392556463168905],["d",-3.587329325384996],["of",-3.895648632123457],["and",-3.9674304380301866],["@",-4.040078460976719],["in",-4.153577386190323],["e",-4.222862968070544],["n",-4.237340178904521],["i",-4.421093617147415],["=",-4.5233254099217834],["\"",-4.614583768479324],["y",-4.699669136674208],["was",-4.825488537175106],["'",-4.957134570636089],["-",-5.012202417867169],["ing",-5.0135271899066804],["The",-5.044380840900578],["r",-5.146249880291883],["ly",-5.249712767136279],["for",-5.257224427640985],["that",-5.29255237624054],["with",-5.344688014278718],["by",-5.378019960335772],[")",-5.444340400332866],["(",-5.44494516514405],["he",-5.685122071320125],["his",-5.697240413181939],["from",-5.745725244323868],["A",-5.851922739904946],["were",-5.94056924194394],["m",-5.96551366509877],["I",-6.004080626495062],["l",-6.009425654630411],["In",-6.111306561503914],["had",-6.12195473191108],["which",-6.194606184731821],["be",-6.199226410332976],["h",-6.265533945109524],["f",-6.274736874149104],["u",-6.334229814336387],["are",-6.373580120373763],["not",-6.460586438106473],["but",-6.48970183516645],["S",-6.5225539346996815],["one",-6.526987436694981],["her",-6.54104792253238],[";",-6.561452032944617],["first",-6.566157297167447],["their",-6.587166496993481],["–",-6.590058251340112],["its",-6.6098894646375825],[":",-6.614168479602439],["w",-6.614943065099805],["also",-6.622299806551526],["c",-6.664297500604562],["who",-6.683531340657273],["have",-6.703417874043142],["g",-6.754732613336547],["two",-6.757565634138606],["He",-6.764685710764203],["2",-6.76579345949129],["1",-6.7674473148958505],["has",-6.775665430747631],["been",-6.789685629179111],["time",-6.854872352617424],["after",-6.906963156483659],["th",-6.910219679448918],["this",-6.928620759585655],["b",-6.953029978986335],["out",-6.954024209959899],["would",-6.965922137418362],["other",-6.972208174455266],["into",-6.999892433032361],["over",-7.0391764366606075],["ies",-7.051179439230578],["T",-7.053211931518165],["more",-7.057147180452414],["3",-7.060306255417428],["k",-7.066673917522895],["all",-7.07269509411676],["up",-7.111498470649224],["p",-7.112490074263221],["M",-7.1387493570511715],["19",-7.154846771003546],["B",-7.172007363594876],["him",-7.1778871406132705],["when",-7.181615431648877],["most",-7.220215903556882],["game",-7.234957449058294],["ever",-7.238086987106637],["during",-7.245528348488252],["4",-7.258896051266383],["5",-7.2591572033916325],["only",-7.276243828445228],["20",-7.285983088954234],["than",-7.291806931828212],["C",-7.2954785071451305],["about",-7.304311692594425],["while",-7.3105406052582005],["new",-7.313237360024004],["between",-7.332805157671094],["On",-7.334490375571409],["film",-7.334511617083525],["later",-7.338495120380175],["D",-7.343393882728133],["three",-7.345233750354678],["where",-7.352692501196541],["through",-7.369341805865497],["release",-7.390636555736673],["season",-7.403308329706515],["though",-7.4139845832452504],["New",-7.418841804276509],["made",-7.447573292169629],["some",-7.457416541317782],["000",-7.459578932870301],["R",-7.468286581424005],["year",-7.475702038756488],["such",-7.489674254156297],["part",-7.492231393213666],["second",-7.50037543034184],["can",-7.506878249848354],["before",-7.508808020374971],["number",-7.5101308925194505],["state",-7.517685886305234],["6",-7.546706775039231],["/",-7.548021135286863],["12",-7.550150905260644],["This",-7.552556085138756],["album",-7.552706776542877],["under",-7.55398860170861],["used",-7.560307925509463],["O",-7.569962565140894],["9",-7.570976283203587],["man",-7.571865133627368],["well",-7.5733267547992185],["E",-7.574850224068825],["15",-7.574974631843675],["song",-7.575792337995784],["years",-7.596714968293163],["being",-7.603683077892521],["episode",-7.604249774471375],["P",-7.604693845045572],["there",-7.608708803869339],["U",-7.621479397695767],["against",-7.621713143863811],["H",-7.623493182554656],["include",-7.62515651230394],["team",-7.627096931673732],["10",-7.631280865349689],["includ",-7.655683843622176],["became",-7.6591182135116505],["8",-7.669602361021724],["—",-7.672599543083512],["United",-7.68178264571266],["7",-7.686598850424984],["series",-7.68734441770383],["both",-7.691462951766315],["After",-7.691520474678601],["end",-7.697617667322913],["work",-7.707834658707384],["like",-7.718441417220555],["early",-7.720983489494465],["four",-7.746200593114779],["W",-7.75139358968414],["American",-7.756245488154681],["18",-7.7703749097456125],["force",-7.778970578306604],["place",-7.7864857241718965],["said",-7.7901302385139015],["day",-7.793704697589533],["could",-7.798121634106023],["them",-7.7987001537397145],["many",-7.799370334425282],["several",-7.804153958572423],["F",-7.814208949274429],["did",-7.819436008399919],["known",-7.825221735133857],["how",-7.845130203497389],["began",-7.851203502013446],["area",-7.85839449303851],["z",-7.858985258804207],["N",-7.867239686505503],["base",-7.873656636244899],["back",-7.874497747889997],["G",-7.876377975854572],["She",-7.888044144669152],["until",-7.894765578001719],["War",-7.8964760239403695],["calle",-7.897966400468153],["use",-7.8983434605477445],["found",-7.906660644070547],["war",-7.912717170522287],["million",-7.921297787689932],["receive",-7.9232621512140735],["high",-7.925604664821298],["final",-7.926593493032591],["16",-7.930802722629746],["L",-7.933847455363269],["group",-7.943785266264204],["men",-7.94753698512095],["0",-7.9478213887060125],["British",-7.9514353902262815],["large",-7.952304751289915],["long",-7.957144855292922],["$",-7.969565210528309],["along",-7.969601887464119],["people",-7.973703575467249],["K",-7.976332810750948],["music",-7.979170216116367],["player",-7.980309835103245],["original",-7.982779888034337],["side",-7.985018515385866],["May",-7.988648019700312],["any",-7.992779205019893],["How",-7.996169151769445],["September",-8.00137085687481],["World",-8.003007982931617],["took",-8.007906294411681],["same",-8.010758624578726],["line",-8.023071742852792],["because",-8.023412459212333],["Al",-8.025877944318472],["may",-8.029230209232423],["August",-8.03131562283431],["States",-8.035486064933746],["around",-8.045593733356494],["km",-8.045624391995288],["led",-8.04736560342251],["life",-8.04953632350049],["near",-8.050973876263987],["each",-8.05432039522898],["continue",-8.058539741979974],["John",-8.06162930997785],["these",-8.062000027004604],["following",-8.069092338147483],["off",-8.072315273503891],["v",-8.078031869585477],["October",-8.090081551283268],["describe",-8.103809672720326],["17",-8.109491088936258],["way",-8.11050099997754],["main",-8.112893647844874],["able",-8.113480695542755],["single",-8.114219546320179],["five",-8.115805077347494],["show",-8.121122353444155],["century",-8.121615760138212],["US",-8.125232669692817],["city",-8.126464315206578],["J",-8.131832790983058],["what",-8.133241742799674],["world",-8.13332376575192],["down",-8.134510561412059],["]",-8.136119486734351],["[",-8.138168927018414],["June",-8.144018112813605],["11",-8.146552809317653],["ship",-8.14884982693738],["less",-8.159549782552808],["name",-8.160665239763281],["%",-8.163459134708752],["July",-8.163734699678914],["November",-8.170209753548686],["since",-8.176254551314583],["form",-8.17887447803719],["30",-8.179743275566791],["will",-8.183563315403509],["March",-8.186734678315775],["April",-8.189059176286538],["York",-8.194584558899745],["own",-8.198161526431575],["13",-8.21051292248614],["due",-8.21060214756558],["um",-8.214693707199144],["per",-8.2159930672697],["North",-8.217472954776888],["home",-8.219497950596864],["system",-8.22308090078117],["character",-8.223382564053805],["result",-8.228660842814836],["left",-8.23085684445374],["14",-8.231596599780286],["now",-8.235428175124127],["school",-8.238165236056892],["attack",-8.239423505728126],["During",-8.239824332581989],["government",-8.241448439174377],["played",-8.24686660443477],["complete",-8.246946438457051],["December",-8.24911008135836],["third",-8.249872531852422],["V",-8.255613262609852],["much",-8.25873486465363],["play",-8.263603624688258],["January",-8.265170870652202],["another",-8.271542621532385],["wrote",-8.27235831734189],["South",-8.273655030635574],["25",-8.279161122357989],["When",-8.28280363620717],["month",-8.282906292972724],["head",-8.283695622392724],["change",-8.283881378135103],["won",-8.28618738169082],["band",-8.291447475875087],["power",-8.291517671097784],["position",-8.294121167053998],["record",-8.305186218272373],["top",-8.30694590519846],["general",-8.310284408490904],["late",-8.311945453695218],["make",-8.312475791201319],["species",-8.313556209170148],["title",-8.313622978069281],["family",-8.316811282614951],["produce",-8.317436963739555],["previous",-8.327676379718227],["water",-8.3295739125723],["building",-8.331183914322708],["named",-8.33121856335859],["last",-8.331906198597988],["just",-8.334764219839238],["version",-8.334849363665827],["become",-8.33884042034362],["video",-8.339620518570234],["very",-8.340095156730172],["service",-8.343925743138177],["support",-8.345672742868118],["They",-8.346896146926143],["age",-8.348537935980406],["six",-8.355233518909934],["German",-8.355562526457458],["north",-8.365836212043773],["death",-8.367981841546152],["still",-8.368592867231005],["cause",-8.375136247210483],["even",-8.37912637246181],["By",-8.380141783202976],["those",-8.381829922483526],["ity",-8.384938122347531],["held",-8.38623100993833],["create",-8.387186045113067],["Februar",-8.387990137755862],["major",-8.389396035303962],["issue",-8.38994093128727],["role",-8.392482252230431],["small",-8.392869690646156],["next",-8.3943130125884],["short",-8.394434523215049],["best",-8.395453771160875],["100",-8.39984519213773],["order",-8.401374678360256],["performance",-8.402523772138826],["take",-8.40692527791313],["public",-8.41113289948693],["wide",-8.412202761885325],["match",-8.412346162473325],["event",-8.418089445786869],["His",-8.418655297078407],["National",-8.419709449606508],["town",-8.42086899234023],["storm",-8.421338411331657],["score",-8.423614302530481],["built",-8.425189547786974],["former",-8.425708030889096],["There",-8.426406941045204],["French",-8.428134775855726],["return",-8.428643585696115],["came",-8.429462562969057],["book",-8.4303707079753],["2010",-8.432192515611991],["No",-8.43494857165985],["half",-8.437069536768075],["local",-8.444639919923942],["house",-8.445642015007575],["For",-8.45229914545567],["again",-8.456673585429467],["land",-8.457903683560684],["attempt",-8.460498618639864],["remain",-8.466467752185428],["south",-8.468785975248549],["40",-8.471294094207895],["production",-8.474235462706579],["you",-8.479203799721157],["period",-8.48306063921314],["2008",-8.484385958841894],["often",-8.489087930580702],["old",-8.492188616251578],["All",-8.492619014139057],["field",-8.504285312784686],["200",-8.505192748497377],["2011",-8.50699222873676],["among",-8.508545727520916],["career",-8.510265504528894],["review",-8.518658175174716],["England",-8.524909269014064],["&",-8.524971803259833],["story",-8.526810676848147],["members",-8.5311522165844],["level",-8.531980822881437],["further",-8.53292245785598],["games",-8.540274302679522],["point",-8.540529877230071],["damage",-8.543765202726561],["feature",-8.544760673278628],["ritten",-8.5450775591355],["different",-8.545650655697367],["West",-8.546735337796992],["King",-8.547206778346872],["considere",-8.547883530011692],["2007",-8.54810564638939],["official",-8.552192581455847],["having",-8.553690645950981],["City",-8.558470558450502],["days",-8.562716329306326],["total",-8.562783476828752],["24",-8.565450104022252],["River",-8.567342843848804],["21",-8.567872157364427],["English",-8.568450326652798],["went",-8.575965169548798],["One",-8.576777993520592],["fire",-8.578379743264959],["history",-8.580723082314577],["moved",-8.586419765628754],["II",-8.592614387032489],["London",-8.596932702813556],["increase",-8.598648923669026],["similar",-8.600086462577222],["lead",-8.603343168537204],["without",-8.604369820205854],["club",-8.60440395851313],["track",-8.60856870207837],["east",-8.614878672052493],["full",-8.619679644592377],["X",-8.620139788712333],["Universit",-8.62262461673467],["run",-8.623041755317981],["action",-8.625078401279534],["case",-8.626120456112725],["27",-8.63541454194253],["23",-8.635476524981309],["gave",-8.639174348875205],["design",-8.640313156853002],["week",-8.641269686303463],["given",-8.645311932639382],["air",-8.647187150164822],["right",-8.649984732113078],["publishe",-8.650908817079223],["control",-8.653078257403141],["While",-8.65474425607768],["west",-8.65522318849996],["defeat",-8.65576472360838],["close",-8.6576210500811],["50",-8.661046264099232],["stage",-8.664769485654835],["company",-8.664878971077316],["believe",-8.664958169320256],["light",-8.667284945415215],["returne",-8.670688485843318],["initial",-8.672408235431737],["great",-8.674240151550126],["highe",-8.675511771341014],["using",-8.676644101792585],["lost",-8.67699786262013],["reported",-8.67978177230966],["State",-8.68165323379186],["2006",-8.685385978061563],["real",-8.686753138863128],["making",-8.689978935833492],["particular",-8.693281445540158],["recorde",-8.695469180025723],["22",-8.69667949723628],["stead",-8.697995267013],["According",-8.700956896882614],["low",-8.701771905242792],["development",-8.701959657746343],["reache",-8.706341693585331],["common",-8.70747141997628],["allow",-8.709088463977885],["country",-8.70939733326701],["never",-8.713221950412274],["father",-8.71361105512628],["General",-8.715493593413408],["red",-8.717364519095716],["suggest",-8.724211574953387],["Australia",-8.725836985065163],["term",-8.727690062067923],["aircraft",-8.729888760128379],["writing",-8.731352226665814],["William",-8.732137703729034],["body",-8.733385190982396],["military",-8.736730108087631],["himself",-8.736857029479948],["2013",-8.738080808796548],["good",-8.746511080478665],["get",-8.746772563787438],["toward",-8.757777324177427],["These",-8.758100030698989],["popular",-8.761019840026565],["live",-8.761650563684686],["announce",-8.76282035447346],["James",-8.762889475485077],["28",-8.766862239817076],["develope",-8.769822473542826],["Park",-8.775349763316793],["America",-8.777710245508091],["children",-8.77856940114874],["class",-8.779300482013939],["win",-8.7804480018243],["style",-8.780753428375535],["effect",-8.780971538346325],["tour",-8.781446177871373],["ships",-8.785202089495225],["Army",-8.786080625646898],["race",-8.786731507482374],["political",-8.787068048727706],["project",-8.789291074724842],["Division",-8.789587057889007],["League",-8.795339470551976],["George",-8.797295591716368],["population",-8.798029759357323],["influence",-8.799523649439992],["remaine",-8.800709646668421],["Australian",-8.801015102660175],["present",-8.805258276568175],["sent",-8.809654054021374],["away",-8.81058919037179],["tropical",-8.810958159861327],["strong",-8.812260087531472],["felt",-8.812567305994104],["campaign",-8.812649322958247],["range",-8.815294562151184],["across",-8.81568453418319],["car",-8.81797932194553],["region",-8.820522006770792],["Street",-8.821755299112947],["route",-8.829104914355193],["night",-8.8294113376484],["ground",-8.830590291864164],["26",-8.830704905481756],["appearance",-8.835977098820816],["noted",-8.836088350159757],["either",-8.83813455637108],["eight",-8.841628196252683],["television",-8.842100323540832],["kille",-8.84243771206324],["within",-8.845212524459141],["national",-8.845637527009472],["battle",-8.845735956204225],["County",-8.848583800892037],["Air",-8.849712834925937],["seen",-8.850819555250055],["With",-8.853763101122647],["2005",-8.8550024236244],["Japanes",-8.85530718467374],["Road",-8.855384087752812],["successful",-8.855494091634382],["should",-8.856778043430367],["road",-8.857270179698919],["eventual",-8.860845709255418],["born",-8.862016136899777],["x",-8.863641263250296],["various",-8.864056065170201],["’",-8.864364305993533],["performe",-8.86533913180324],["replace",-8.865712848814615],["followe",-8.867240567429747],["success",-8.868530906924793],["member",-8.868693597512854],["face",-8.86937197550906],["law",-8.870002385974846],["fight",-8.876973678781525],["2014",-8.877438067203071],["served",-8.882008252866276],["characters",-8.883262896361277],["white",-8.886385935921496],["ally",-8.88695936551198],["taken",-8.889519231901405],["contain",-8.893219839536386],["start",-8.893437952534498],["29",-8.894192456360623],["little",-8.89660715919735],["locate",-8.897737408732866],["direct",-8.898073369154803],["addition",-8.898732762263764],["establishe",-8.901096970312173],["Star",-8.901876720991796],["significant",-8.902300993464896],["together",-8.906881056319348],["operation",-8.908646374393236],["human",-8.9104844353883],["appeared",-8.91452788643875],["experience",-8.91577785400946],["front",-8.916356790056726],["station",-8.919248518568475],["East",-8.919944601046293],["site",-8.921038681330455],["debut",-8.922166605317516],["mid",-8.923057333288432],["chart",-8.924100599682028],["San",-8.92428968464214],["earlie",-8.925293313094064],["put",-8.926099384063782],["black",-8.927040012440436],["Michael",-8.927746398914115],["entire",-8.929155330395108],["does",-8.929564387482905],["open",-8.930130538673255],["!",-8.93289167902145],["example",-8.933847649379707],["Man",-8.933908803959767],["La",-8.934454683534051],["miles",-8.934939054487362],["songs",-8.935156758316648],["women",-8.935572812620052],["dded",-8.938241736584276],["Royal",-8.940980795122323],["Island",-8.942843280622217],["elected",-8.94431621813495],["decided",-8.94707240760394],["average",-8.949197430660535],["once",-8.950308923195642],["give",-8.951543669513736],["require",-8.95202815520515],["ness",-8.95363878861227],["starte",-8.955481785767843],["forme",-8.955665957254293],["feet",-8.960729684542047],["House",-8.963043972865142],["help",-8.963841400454147],["David",-8.966881800437436],["praise",-8.967345481749366],["Z",-8.96860645363785],["involve",-8.972075186285183],["seven",-8.976959013168646],["France",-8.978806311155628],["element",-8.980150015208618],["far",-8.983619907493175],["Some",-8.984680742831904],["important",-8.98880611038925],["free",-8.994234668288543],["met",-8.99583345740283],["report",-8.996010868447367],["rock",-8.996975694294601],["capture",-8.997039867859916],["points",-8.997648005976222],["Robert",-9.004479680456335],["playing",-9.005263454505963],["Other",-9.005951738302302],["2004",-9.007278704915615],["thought",-9.008751959209306],["rather",-9.011399223906011],["scene",-9.01143315872856],["31",-9.018184658568947],["opene",-9.018233201900824],["brother",-9.018545200115291],["behind",-9.018804009825732],["upon",-9.021076994968814],["construction",-9.023136091464751],["gun",-9.023717969163854],["Indian",-9.024191458687454],["ran",-9.025444935221396],["pre",-9.026547132248067],["section",-9.028537324124361],["You",-9.032975893689333],["features",-9.033124190520537],["crew",-9.034846883412197],["structure",-9.035545188618762],["every",-9.036187597502368],["School",-9.038665468461277],["office",-9.03914653147473],["sold",-9.041513947741246],["art",-9.041827832717296],["rest",-9.043137669819528],["subsequent",-9.043345809621517],["highway",-9.04344746297189],["list",-9.044533468719155],["difficult",-9.044787093231056],["relationship",-9.04664635197982],["heavy",-9.047058348186566],["election",-9.047668011987781],["leading",-9.04877559784482],["current",-9.04985321735546],["leave",-9.050658591299005],["Henry",-9.051148490070233],["arrive",-9.053851523420716],["look",-9.056711451702034],["young",-9.058160033121926],["mph",-9.060571510122438],["Battle",-9.0606275043728],["cover",-9.061440066202904],["500",-9.062627734749519],["interest",-9.065363272244197],["program",-9.066511167151369],["special",-9.067022451729226],["Best",-9.067530699821333],["Music",-9.068323447650455],["modern",-9.068354524368688],["2000",-9.068983357295298],["fourth",-9.069330493335508],["post",-9.071076705781167],["working",-9.071760743062857],["Black",-9.072889524207202],["love",-9.073358092859275],["party",-9.073636042597025],["our",-9.074815093450034],["almos",-9.074881085372047],["worke",-9.07853265197154],["command",-9.07968803357018],["brought",-9.080018784535765],["guns",-9.080209822327316],["anti",-9.081107337340818],["cast",-9.081726123975676],["shot",-9.083279281917195],["individual",-9.084247477602844],["wife",-9.085039315116843],["wante",-9.086186349859569],["court",-9.08638850999552],["mother",-9.08692837983322],["effort",-9.08752586430472],["provided",-9.090439896430134],["female",-9.090511800466384],["business",-9.090798647020538],["least",-9.091271914116714],["process",-9.091291123344085],["problem",-9.091964310956325],["Washington",-9.093818381112566],["novel",-9.094134372208774],["cost",-9.096147613015484],["claim",-9.100460639805936],["ended",-9.100912661524502],["recording",-9.102467744631182],["star",-9.10443690550315],["Paul",-9.104444252495046],["victor",-9.107591948559296],["artist",-9.109122600987792],["European",-9.10947725541989],["allowe",-9.109855583737945],["Europe",-9.111837249959638],["critics",-9.11221363639309],["studio",-9.113016704843517],["troops",-9.113415552402012],["designed",-9.114306408367389],["lower",-9.115660622524196],["Despi",-9.116415404033763],["army",-9.116480325237003],["material",-9.117015497558262],["island",-9.117681128087964],["joine",-9.119537166717258],["2003",-9.120656748266523],["Follow",-9.12173406673267],["j",-9.12994792445621],["location",-9.130137476350352],["President",-9.131754326734496],["weeks",-9.132811788169167],["communit",-9.133073261654259],["bridge",-9.135048207462098],["95",-9.135125440991517],["condition",-9.135944488217776],["goal",-9.136871656109374],["Force",-9.13779321388352],["hurricane",-9.138671644611383],["First",-9.140789771116856],["urned",-9.142281142085764],["person",-9.14339942543024],["Cup",-9.143577360825539],["opening",-9.143887967676868],["passe",-9.143998786482285],["Japan",-9.147172919191206],["plan",-9.147509663748055],["director",-9.14785101685489],["Y",-9.148089822442774],["voice",-9.148231339207726],["positive",-9.148503904023874],["ous",-9.14971780872817],["king",-9.150181847273252],["lack",-9.151814621260751],["piece",-9.152259863896017],["Two",-9.1548211560486],["ter",-9.16028259035621],["Her",-9.160474806330061],["soon",-9.162033588638554],["ve",-9.163084396776275],["appear",-9.163881797859485],["finished",-9.165371476249543],["39",-9.165760003306366],["Le",-9.165913863208278],["introduce",-9.170248680894895],["Championship",-9.170306262557576],["advance",-9.170507782784147],["come",-9.171693729341664],["saying",-9.171808940691305],["times",-9.173145184531142],["division",-9.173725856011739],["Route",-9.173894214234382],["sound",-9.17447908750979],["regular",-9.175435003299183],["move",-9.17771116098962],["80",-9.178644693705543],["space",-9.179437222800104],["runs",-9.180154573731638],["ation",-9.180212757515662],["pent",-9.180632540483566],["signed",-9.182188952037457],["works",-9.182538850335796],["self",-9.183001899551279],["length",-9.183691938763014],["60",-9.186109117990805],["possible",-9.18826520523894],["availabl",-9.188762805368027],["southern",-9.190938897982667],["figure",-9.191167866841512],["movement",-9.194050657548985],["model",-9.19532404375758],["training",-9.19569895765012],["hours",-9.195816778613368],["keep",-9.196032599930431],["White",-9.19632865822078],["From",-9.197975493090908],["International",-9.198211082863812],["2001",-9.198876101608784],["vocal",-9.200636273672451],["Charles",-9.201096945848796],["Red",-9.205128787048574],["ought",-9.207441404714857],["decision",-9.207529220454868],["Thomas",-9.208410702124793],["Kingdom",-9.209752126117174],["church",-9.21128686629152],["Hall",-9.211433963411015],["Navy",-9.211905095705937],["°",-9.213227452222494],["friend",-9.213422200739945],["claimed",-9.213543665485451],["Sea",-9.215529287615563],["turn",-9.215656902290572],["league",-9.215725713582493],["raise",-9.21649884900473],["magazine",-9.2172430745862],["round",-9.21762766261036],["taking",-9.2178989621599],["going",-9.21909087651075],["cut",-9.221488331148077],["surface",-9.224019295209116],["contract",-9.22426727669729],["minutes",-9.224367122435922],["activit",-9.224979985698065],["theme",-9.227220526634486],["northern",-9.232720654471963],["find",-9.236086801911485],["letter",-9.236275070546311],["international",-9.237016359744871],["study",-9.237732499657207],["2002",-9.238180183329874],["carrie",-9.238207647877951],["Canada",-9.23841747630409],["explain",-9.23847972797833],["agree",-9.23900173803355],["nine",-9.239874269217582],["Award",-9.240769836662766],["language",-9.241528774521797],["share",-9.241698232322523],["Peter",-9.24355517561463],["need",-9.246012207649892],["central",-9.249981490644492],["wood",-9.251644044079503],["California",-9.253473006812092],["immediate",-9.257304353590971],["must",-9.257420144170316],["outside",-9.258730501630234],["Court",-9.264801629624499],["personal",-9.26545457578144],["better",-9.266147161787469],["size",-9.26825068026155],["rule",-9.269561673871076],["enough",-9.272475038585585],["India",-9.272599373506653],["rdered",-9.274812363844188],["Great",-9.275244345470414],["room",-9.276669557491886],["commercial",-9.27692200302412],["reduce",-9.27831352314482],["idea",-9.27862527562164],["Union",-9.280225632713359],["35",-9.280455530291523],["units",-9.282636623812765],["award",-9.283484625682902],["sked",-9.283719013298288],["according",-9.285141564736433],["above",-9.287302061825901],["Smith",-9.287851857985025],["daughter",-9.290472341116686],["beginning",-9.291515198331227],["relative",-9.292679686024119],["fact",-9.29278758662865],["additional",-9.294254117476049],["conduct",-9.29444144984958],["social",-9.295289754386816],["Game",-9.297384416037232],["park",-9.297845078768749],["speed",-9.298019128542954],["1990",-9.298081309205099],["Richard",-9.298278081732409],["animal",-9.300768071886429],["board",-9.301847760995603],["sub",-9.302180500583162],["faile",-9.30341128208223],["port",-9.304400428975883],["Company",-9.304655504673173],["abilit",-9.305927933580955],["response",-9.306665475929615],["NY",-9.30804918704954],["ves",-9.308266261178703],["ell",-9.30844682345236],["winds",-9.311444489935036],["College",-9.312549829719147],["pressure",-9.314010682668663],["coast",-9.314868209837408],["evidence",-9.315586802919704],["90",-9.316398956460024],["Church",-9.316998376589114],["Act",-9.317154714579104],["mission",-9.317504872140404],["loss",-9.319375397602483],["despite",-9.321327619546427],["poor",-9.322361727696492],["date",-9.322509110197034],["village",-9.323242243061584],["High",-9.32431558479702],["type",-9.325184757652147],["Los",-9.326163097516813],["fall",-9.326260241304585],["view",-9.32634157577646],["£",-9.32699706735011],["?",-9.32699706735011],["UK",-9.327997889177333],["musical",-9.328541987399023],["soldier",-9.329579858607186],["directe",-9.329697824565939],["hard",-9.330330384492706],["Hill",-9.331254621108897],["subject",-9.33175138893758],["river",-9.332348304823885],["media",-9.33313239561603],["Germany",-9.334601867656913],["sometime",-9.334914038309016],["told",-9.33566451123593],["And",-9.335708649192872],["western",-9.336286559655525],["develop",-9.340776746542423],["flight",-9.342653289224756],["center",-9.342701692527102],["Western",-9.343850639669244],["future",-9.343852855267148],["recent",-9.344313764970545],["Final",-9.344350372524362],["fleet",-9.344777041150564],["perform",-9.346865559775926],["market",-9.347251823118691],["charge",-9.347515600580786],["reason",-9.350476197007294],["Roman",-9.355145557239688],["009",-9.355659448373409],["peak",-9.356684355109278],["Grand",-9.358181205871324],["latter",-9.358276455111731],["propose",-9.358835400891438],["football",-9.359083036667423],["eastern",-9.359262856997148],["engine",-9.360225011921601],["Times",-9.363946077555058],["writer",-9.364141080229658],["fund",-9.364418902857867],["police",-9.364587541296984],["ball",-9.367123680599674],["provide",-9.367172372141885],["That",-9.368286755706063],["alread",-9.370208520778046],["pop",-9.370658897182555],["tell",-9.373382779841787],["summer",-9.375566885767599],["1970",-9.376373855936366],["196",-9.377123744734657],["Most",-9.378235124236584],["past",-9.3802433068301],["radio",-9.380407178339661],["1980",-9.380953826631202],["meeting",-9.380983838073442],["rating",-9.381861118107064],["lines",-9.38190941593716],["Britain",-9.382161953732199],["Brown",-9.382592630176172],["actual",-9.385605836769992],["money",-9.385873942663196],["food",-9.386614764675963],["president",-9.38677773436175],["account",-9.3869160695197],["act",-9.388944413198441],["whom",-9.388983930828035],["larges",-9.389134997240836],["might",-9.39008464850773],["limited",-9.390377980290237],["course",-9.390798831466439],["estimated",-9.39135198137657],["associate",-9.391356726240657],["trade",-9.393730887276064],["compare",-9.394417100007075],["45",-9.39540812434655],["amount",-9.395499978328964],["Virginia",-9.395998238754947],["specific",-9.396145151659422],["want",-9.397447992528292],["staff",-9.397634281871328],["Later",-9.398656574422846],["write",-9.398858167908191],["practice",-9.402309374516319],["especiall",-9.405988444778588],["via",-9.40662878189874],["respective",-9.407148634670142],["manage",-9.407222407402406],["Bay",-9.407252677143],["70",-9.40814791621069],["audience",-9.408478731709444],["1999",-9.408982407987567],["Soviet",-9.410425522023585],["Lake",-9.414572759713],["join",-9.414838166300106],["becoming",-9.41520566004602],["entered",-9.415815710543052],["ley",-9.416891498820009],["Early",-9.417977201530025],["Awards",-9.4200714282738],["promote",-9.420275214187098],["Christian",-9.420749784868974],["winning",-9.421155516418164],["active",-9.421428010401586],["percent",-9.421709852305698],["test",-9.421829737645641],["visit",-9.422645868780771],["appointed",-9.423045164468693],["certain",-9.424693262743878],["brief",-9.424701424659427],["research",-9.425544086682944],["rate",-9.428940056566189],["reference",-9.429023687405303],["Day",-9.42908352693503],["Jackson",-9.429973978808778],["operate",-9.430114888510216],["authorit",-9.430492672022496],["é",-9.432812406239213],["concert",-9.433329065801404],["related",-9.434067332601487],["woman",-9.436535506794142],["Edward",-9.437578676061513],["flood",-9.438200346311858],["ounded",-9.438461915730564],["larger",-9.439716843838696],["interview",-9.439825699854298],["key",-9.441486317561123],["clear",-9.442019477788063],["Love",-9.444115712323491],["Rock",-9.445058460097613],["My",-9.445476628913086],["leaving",-9.446452132103747],["script",-9.448422213789485],["marrie",-9.449747445137714],["Club",-9.450020252966553],["cell",-9.450551193509671],["destroye",-9.451019280825982],["thus",-9.452630805566878],["refuse",-9.453366900193332],["Spanis",-9.453504003114528],["box",-9.454646703162917],["God",-9.456737066039254],["approximate",-9.457568903975046],["probabl",-9.458866924169872],["Association",-9.45920209333871],["running",-9.461910044686997],["ending",-9.462177388881745],["students",-9.463372204735288],["serve",-9.464122649322286],["intended",-9.464313624924833],["natural",-9.465370838358911],["Party",-9.466057358520189],["lyric",-9.466166807537268],["1960",-9.46655368019231],["broadcast",-9.468940373973894],["fish",-9.46919786056612],["leader",-9.469359171203612],["private",-9.472651791131304],["overall",-9.473007947164461],["Chicago",-9.47400108704066],["professional",-9.474490592371408],["studie",-9.474935948318555],["coming",-9.476197807031395],["TV",-9.476370180536534],["image",-9.477810378973672],["producer",-9.479677411816532],["critical",-9.479912140391404],["forward",-9.483981185413057],["helpe",-9.484184326712054],["Chinese",-9.485628506732096],["1998",-9.485662938678313],["trial",-9.48665494258373],["Council",-9.486797122592979],["detail",-9.488421262334096],["child",-9.489231261417016],["Dr",-9.489485869333448],["singer",-9.489713707771683],["commander",-9.489961285152626],["manager",-9.490386506297892],["mixe",-9.490629093494038],["spread",-9.490866585026998],["planne",-9.491655046692733],["shape",-9.49190839331258],["300",-9.492018810840221],["Second",-9.493324928158593],["effective",-9.493567319265988],["traditional",-9.495847522466248],["gold",-9.497725745228191],["Many",-9.498474169890345],["awarde",-9.500003810773713],["Mary",-9.50142776181433],["Russian",-9.502676844373982],["typical",-9.50303209676639],["longer",-9.503041361665012],["pay",-9.503491853421815],["annual",-9.503723189149458],["fans",-9.505458862530197],["meet",-9.50672710409792],["ice",-9.507262433143167],["increasing",-9.507997335934112],["living",-9.508395335447977],["supporte",-9.508703947061795],["Johnson",-9.508707940038784],["read",-9.50976619247972],["break",-9.510105042848664],["improve",-9.511106316992276],["drive",-9.511488526119368],["Pacific",-9.512545965503325],["guitar",-9.514077372023408],["fifth",-9.514496638849852],["History",-9.51626067160928],["Lord",-9.517979260343163],["wall",-9.518859641188877],["pro",-9.519505126663033],["represent",-9.519947356653827],["Billboard",-9.521916633538801],["Queen",-9.521993170167214],["75",-9.522263261374661],["value",-9.522761985807236],["64",-9.523986067576116],["separate",-9.525088767001183],["double",-9.525260810425605],["Canadian",-9.52680884918166],["competition",-9.527632651662643],["El",-9.5287867484829],["scenes",-9.530964127412],["declare",-9.53293463621036],["stone",-9.53627451414885],["Record",-9.537175618459715],["others",-9.53757113214899],["fell",-9.539876071122167],["Since",-9.540931800735272],["Atlantic",-9.541642902642163],["minute",-9.541924884329914],["copies",-9.542047668643532],["pilot",-9.542651603679746],["Squadron",-9.542674287493668],["suffere",-9.543317451970351],["1997",-9.543597516996515],["extende",-9.544139228331927],["ex",-9.544908138494042],["exist",-9.5451188072902],["Mark",-9.5462198065227],["themsel",-9.548198103810245],["32",-9.551755231220964],["portion",-9.551962861699547],["Florida",-9.55231647664653],["dance",-9.552480791526728],["Both",-9.555585104503951],["word",-9.555857140613124],["88",-9.556205065451728],["wind",-9.556429889035078],["tons",-9.556485511594053],["measure",-9.556626659496015],["Highway",-9.557212320071908],["whe",-9.558116242423596],["escape",-9.559240758316719],["itsel",-9.560611211997344],["think",-9.560749679630769],["countri",-9.562425311781457],["pair",-9.562987687716213],["target",-9.56375461704144],["states",-9.564254148206063],["alway",-9.564263859417268],["prevent",-9.564409806307882],["hour",-9.564460184086089],["upper",-9.564585437957843],["deal",-9.566670019656335],["cyclone",-9.56680193826383],["purchase",-9.567164708937614],["Italian",-9.567568356474858],["centre",-9.568114039167012],["frequent",-9.56859390091516],["Texas",-9.569019054414591],["status",-9.569702595971322],["parent",-9.569965123497344],["con",-9.570283187928002],["Don",-9.570920262458461],["health",-9.571499697371534],["approach",-9.571995973803357],["historian",-9.572094846024585],["deep",-9.573029213936826],["Center",-9.574127714305222],["bar",-9.574523043145849],["China",-9.574811284059882],["Africa",-9.575362879789127],["network",-9.575632534161587],["rights",-9.57630559014615],["But",-9.577642133678372],["ment",-9.578199271086367],["know",-9.578668625321093],["removed",-9.578858722666299],["Year",-9.578991862596212],["enter",-9.579338712813119],["indicate",-9.579460853962777],["33",-9.581123466752155],["Green",-9.581523184028631],["Olympic",-9.581918514693923],["prior",-9.584605337159891],["something",-9.585353294722193],["offere",-9.58536390721592],["launche",-9.5866417648134],["ill",-9.586855896319985],["eeded",-9.587781589953517],["unit",-9.587882361834009],["Jack",-9.589794331957636],["coach",-9.591504465700654],["00",-9.592974394073392],["Martin",-9.593363913360987],["ranke",-9.594739859213188],["avoid",-9.595024838577354],["discovere",-9.595195665163306],["organization",-9.596702661748632],["com",-9.597764706677216],["stars",-9.599509794953642],["composed",-9.600264188374846],["nature",-9.600986082263947],["Earth",-9.60427939563846],["74",-9.604791477958184],["pass",-9.605028346173965],["cross",-9.607499203866084],["III",-9.607874893984606],["Sir",-9.609023642090209],["09",-9.609196019000011],["inspired",-9.610880704400499],["referre",-9.611008831360806],["Big",-9.61147034183348],["minor",-9.611665018385157],["ll",-9.612512144970948],["potential",-9.612537524141787],["officers",-9.612882291472399],["matche",-9.613326020000661],["Empire",-9.613529499352929],["moving",-9.614427362903202],["reveale",-9.614836389698096],["Tom",-9.614940009756475],["Central",-9.615858322892356],["access",-9.61687022242756],["occur",-9.620313806643459],["qualit",-9.620487464560465],["numerous",-9.620973235280147],["ville",-9.622531310997953],["conclude",-9.62305564758249],["male",-9.623631587587573],["impact",-9.62427678241242],["territor",-9.624375620530286],["54",-9.625831722704184],["scale",-9.62691879778988],["whole",-9.627004869465445],["Angele",-9.62704324974436],["Test",-9.628972814415597],["shows",-9.629621671769467],["hold",-9.629670348045957],["participate",-9.629960528773385],["liste",-9.630781982377146],["maller",-9.630932690890894],["Congress",-9.631403721915321],["castle",-9.631789095600402],["Group",-9.632511003440506],["sister",-9.63406336215002],["plot",-9.635012313608552],["legal",-9.635586991247022],["achieve",-9.63576623183647],["yard",-9.636458720841688],["Film",-9.637137881381728],["information",-9.637758760899407],["occurre",-9.638481037091458],["reach",-9.638702720288387],["collection",-9.639382489405609],["college",-9.64069641216279],["Go",-9.642355812923396],["earned",-9.642743923741698],["1996",-9.643025995306116],["2016",-9.644542719011495],["depression",-9.644915627780302],["parts",-9.645477470304238],["bill",-9.64569374152469],["Greek",-9.645766907730394],["officer",-9.64596406785381],["1950",-9.64612084156664],["divide",-9.646273584499461],["standard",-9.646603570035301],["session",-9.647307522193197],["vehicle",-9.647776692155329],["decline",-9.647866765278133],["37",-9.648952672449584],["direction",-9.649313135707361],["observe",-9.649727492386143],["primar",-9.650867566011234],["economic",-9.65135516302682],["mouth",-9.65264321125211],["discover",-9.652715308578529],["Minister",-9.654450929244266],["confirm",-9.654508929766001],["tracks",-9.655128307235309],["travel",-9.656353485013527],["severe",-9.656803067374963],["author",-9.657637772639085],["ham",-9.658478850769695],["plans",-9.65893125090075],["culture",-9.659449012576115],["Team",-9.660017544946035],["complex",-9.660108438362876],["expected",-9.660429134387101],["Tour",-9.660514715667508],["Ma",-9.660653161238175],["industry",-9.66174134109056],["1994",-9.661984244408934],["57",-9.662110937667439],["matter",-9.662329251725932],["Sun",-9.662677301798112],["situation",-9.662791393258106],["feel",-9.662911845871486],["independent",-9.663188628869214],["horse",-9.663225266718692],["border",-9.663387080099898],["majorit",-9.663811549253099],["DVD",-9.664419467292474],["Corps",-9.665579763787147],["attention",-9.665933776344374],["marked",-9.666159224373182],["education",-9.666565366056599],["variet",-9.666666386236631],["36",-9.669362532992595],["Time",-9.669556278479032],["science",-9.67139219534986],["giving",-9.677945727740937],["commente",-9.677966568194273],["press",-9.678110114143607],["lived",-9.67822681553864],["Stone",-9.678283712112023],["kind",-9.679699438913511],["marriage",-9.679998086874589],["ance",-9.680635468212172],["recover",-9.682201497776303],["dead",-9.683220708742484],["beat",-9.683695873886442],["metal",-9.683874183328909],["edition",-9.684341714927976],["adult",-9.68445393046624],["mass",-9.684561062425535],["newspaper",-9.68457758971017],["yards",-9.684920551190881],["Michigan",-9.68633138188445],["Bridge",-9.686351225049522],["attacke",-9.687309864825156],["sales",-9.687337147639422],["appears",-9.68889892519667],["Under",-9.689094994072867],["Chris",-9.689327834197595],["Super",-9.689691611989954],["combine",-9.690029225239586],["capital",-9.690305075410063],["normal",-9.690578755472968],["goals",-9.691131004574588],["engineer",-9.691823726199983],["sequence",-9.691870989382378],["facilit",-9.693278998673456],["product",-9.69341706414407],["Wales",-9.69403418143835],["distance",-9.694044721373418],["rough",-9.69489276541642],["below",-9.695302280032388],["religious",-9.695304115573613],["covere",-9.696467252741076],["Old",-9.696720064732784],["concept",-9.697974982053974],["ary",-9.698198830598901],["foot",-9.698294860144857],["Hot",-9.698544602449982],["attende",-9.69956971899655],["owned",-9.6998584949548],["purpose",-9.700493357716555],["object",-9.700840100555462],["movie",-9.701064392768878],["question",-9.701395940736735],["middle",-9.70169649596305],["moment",-9.703263208475326],["shown",-9.704428624233497],["district",-9.705536321582027],["heart",-9.706520039230199],["Q",-9.706830414171781],["38",-9.706916167866334],["camp",-9.707444077707603],["nable",-9.70794137223314],["Major",-9.708423786947986],["source",-9.709199668695202],["49",-9.709913113081925],["rapid",-9.710546098367876],["Over",-9.710910845369328],["takes",-9.71223495970859],["focus",-9.712324891194134],["Scott",-9.713002562594136],["serious",-9.716439332045777],["African",-9.716841696473004],["jury",-9.71705656737052],["notes",-9.718809548257163],["decade",-9.719064838825823],["constructed",-9.720859272737533],["captain",-9.721103943914414],["Several",-9.721362376136591],["1992",-9.722576575298005],["schedule",-9.72275618839037],["energy",-9.72395413133319],["financial",-9.724201515832576],["method",-9.725226823802277],["call",-9.727495108225654],["chief",-9.727952824940264],["inch",-9.728022712756045],["wing",-9.730443932798524],["47",-9.733017834279558],["argue",-9.733609477498204],["closed",-9.735338086263528],["68",-9.738608402387609],["physical",-9.73885265316775],["Fox",-9.739411420372248],["screen",-9.740101879705925],["Service",-9.741441154025901],["host",-9.742328070125772],["sign",-9.743008075519908],["function",-9.74344869006415],["temperature",-9.743814889878342],["Mexico",-9.745835482583255],["crosse",-9.746057690423452],["Like",-9.747042061966141],["34",-9.747467128729081],["48",-9.748644844536699],["challenge",-9.749522404220615],["societ",-9.750352738608402],["learn",-9.751632116104078],["Line",-9.75314796913763],["stating",-9.753309834562167],["defense",-9.754086384443953],["elling",-9.754109946357568],["Frank",-9.754394071304196],["train",-9.754411667080912],["tried",-9.754575849415126],["films",-9.75462774817466],["400",-9.754911584947605],["Latin",-9.755808196484764],["Pro",-9.755868527990057],["color",-9.75658935473126],["friends",-9.756610495322981],["1930",-9.756767395940953],["combat",-9.758380581499793],["Madonna",-9.760095246503505],["assigne",-9.760297503680142],["usuall",-9.76056887968506],["ive",-9.761083628900334],["twenty",-9.76175306047841],["1993",-9.762415429964845],["conflict",-9.76278291584838],["bring",-9.764534328636298],["1991",-9.764609104348189],["46",-9.76652631086957],["Jones",-9.766790966531776],["Scotland",-9.768724394136537],["Bill",-9.770046405584964],["broke",-9.770077367704722],["scor",-9.770848807483656],["consider",-9.772631038359785],["accepte",-9.772922689401373],["Department",-9.773780740866302],["mer",-9.77607865475917],["presente",-9.776594362098239],["quickl",-9.77681487081375],["words",-9.77750454949],["Hurricane",-9.777818675244395],["morning",-9.778500125091377],["machine",-9.778622824854997],["article",-9.779619442422101],["risk",-9.779647452053908],["executive",-9.77991509617278],["tower",-9.780618253525372],["Three",-9.781088804322877],["+",-9.781349013450917],["bound",-9.78302244485383],["Their",-9.78329977309007],["universit",-9.783446974196739],["nation",-9.783456222293882],["secure",-9.783679854061177],["responsible",-9.784055013201598],["guest",-9.78508582261838],["build",-9.785259469869931],["Zealand",-9.785595731976601],["Prince",-9.785740418455354],["blood",-9.786245643859797],["paper",-9.78686194097463],["droppe",-9.78812372000967],["survive",-9.788310873818544],["Infantry",-9.789901837404452],["kept",-9.79007692768709],["Creek",-9.790298781368577],["inches",-9.790597505354356],["leg",-9.791000166904913],["means",-9.794909160670917],["winter",-9.79508502091872],["agent",-9.795475280417886],["nother",-9.79724067566231],["Societ",-9.797990755086047],["display",-9.798431409012744],["care",-9.798968194621873],["regard",-9.798982345899105],["championship",-9.80073473373596],["forest",-9.801551091295172],["meter",-9.803068846622272],["square",-9.803625958099605],["Committee",-9.804806224828836],["Post",-9.806479723338725],["slight",-9.806924643472604],["save",-9.808264296243777],["actor",-9.808820935469017],["Saint",-9.809049322712053],["teams",-9.809313999981452],["squadron",-9.810455083710591],["battalion",-9.811669105824832],["onto",-9.811984873129573],["traffic",-9.813467399038803],["follow",-9.813615929271908],["Battalion",-9.813695827343793],["job",-9.814638184165869],["Life",-9.816179311358919],["nominate",-9.8166207282986],["enjoy",-9.816684945890337],["resulting",-9.817420035422412],["ring",-9.818427261281903],["hundred",-9.819394368589574],["content",-9.819571626352968],["engage",-9.820529370815335],["Live",-9.820979253473086],["presence",-9.821712674909715],["quarter",-9.821905520374711],["Louis",-9.822767316030767],["older",-9.823322340292755],["worker",-9.823351150794158],["maintain",-9.823671341329506],["painting",-9.824376019203738],["federal",-9.826768825878654],["1942",-9.827020108908195],["couple",-9.827787933990926],["han",-9.82783962162771],["metres",-9.828108440443907],["defence",-9.83039948638525],["storie",-9.830477455917459],["weight",-9.83233629832817],["speech",-9.832404583819063],["identifie",-9.833007561349747],["More",-9.83370091665183],["65",-9.83454126259752],["viewers",-9.834560430346272],["enemy",-9.835660282907492],["royal",-9.836146151340197],["greate",-9.836402127553997],["Fort",-9.836710685010221],["setting",-9.836752814159048],["starting",-9.837713475550741],["seem",-9.838077138844781],["extreme",-9.83834948842054],["Oxford",-9.838782955116883],["Captain",-9.840161432063237],["expresse",-9.840635989118704],["plant",-9.841309460569954],["obtain",-9.841389563251997],["meaning",-9.842874307689806],["meant",-9.843439822732993],["ski",-9.84355479287043],["begins",-9.843977342779452],["Lee",-9.844428570275198],["worth",-9.845426338798307],["Chief",-9.84581699377866],["multiple",-9.847133926557033],["stay",-9.847150300430805],["featur",-9.847593378368321],["sex",-9.847671633259946],["contemporar",-9.847860776586714],["Bar",-9.847951695527273],["gain",-9.848416573645306],["Boston",-9.848678216173298],["Republican",-9.849181693896858],["Harrison",-9.849381349968635],["transfer",-9.850240202833945],["oppose",-9.850416903075606],["property",-9.851199466758734],["concern",-9.851278654610581],["encounter",-9.851769314472474],["sense",-9.851996133188711],["Southern",-9.85251587190922],["Manchester",-9.852611922296635],["strength",-9.852664124508207],["inside",-9.852822347975819],["paid",-9.853422995473188],["primarily",-9.854361520721605],["prominent",-9.854424777238528],["aired",-9.855298820465727],["tradition",-9.85550607940425],["sexual",-9.855534512296138],["designate",-9.856049283397473],["extensive",-9.856117162982716],["Before",-9.856980843144306],["threat",-9.85717946423825],["Brigade",-9.857389623063913],["dark",-9.857468630660883],["hall",-9.857812795570364],["showe",-9.85909853851542],["weaken",-9.859693953467271],["peake",-9.860327545456123],["Jim",-9.860420927303315],["assist",-9.861261517623126],["85",-9.862275211478806],["Little",-9.864201859838062],["acting",-9.86437565069434],["Regiment",-9.86563251666794],["Long",-9.865665105644224],["companie",-9.865806549410085],["Mar",-9.865817278623048],["ium",-9.865970551610035],["reception",-9.866296354800356],["blue",-9.866303731917293],["1944",-9.866416201889615],["tournament",-9.866475287204823],["69",-9.867115582724438],["Vietnam",-9.867884935882653],["Cross",-9.868738425410356],["Car",-9.86932758655841],["Ben",-9.871234968656827],["invasion",-9.872052624805253],["rying",-9.872604808083087],["electric",-9.873281449264347],["passenger",-9.873345392279669],["historical",-9.873370990647826],["Academ",-9.877418483465187],["gas",-9.87754755530413],["BBC",-9.877770721923145],["makes",-9.879139761903094],["younge",-9.879424934690858],["van",-9.87971011698449],["Series",-9.882471191412757],["label",-9.883285217376137],["powerful",-9.8834129356433],["volume",-9.883629732085208],["reflect",-9.884007804462188],["floor",-9.884370001365665],["poem",-9.884784945590761],["Catholic",-9.885661045483674],["Port",-9.885682403614684],["candidate",-9.885919655733357],["Games",-9.88636693076963],["difference",-9.88723760662428],["Home",-9.88771970197796],["55",-9.88786569302147],["books",-9.888755393801624],["premiere",-9.889705014765832],["ja",-9.88971416880522],["formation",-9.889864521048887],["speak",-9.890266618637447],["maximum",-9.891326827489252],["passing",-9.8915643760965],["things",-9.891777508552574],["Paris",-9.892029290583237],["naval",-9.892925785454143],["contribute",-9.89317389410238],["ver",-9.893368870812115],["standing",-9.893740144122676],["Middle",-9.894032384011904],["boat",-9.894192453777459],["weather",-9.894548427347251],["transport",-9.895258712754952],["Joseph",-9.895413091585255],["disease",-9.897618815731846],["Ital",-9.897819906734762],["ized",-9.898104930483454],["1945",-9.898235081377303],["hospital",-9.898657780578851],["Entertainment",-9.89923847948455],["innings",-9.8993656702987],["Museum",-9.89997801486366],["policy",-9.90126302112482],["quick",-9.901961281638227],["1941",-9.903189817055116],["calling",-9.904112341223025],["Stephen",-9.90523057940314],["big",-9.905510100618896],["armed",-9.905918187818237],["wise",-9.906058010194345],["vessel",-9.906494570657053],["83",-9.906766019215539],["1920",-9.907324225120778],["opportunit",-9.907377056531086],["Con",-9.90793329812458],["thousand",-9.909354210563357],["Williams",-9.911459594923036],["struck",-9.912609644478053],["Art",-9.91287462795205],["acquire",-9.913473796118486],["railway",-9.91400071273744],["contrast",-9.914699424745578],["birth",-9.915653175963119],["150",-9.91701101236204],["background",-9.917871265196473],["caus",-9.918230891690133],["Production",-9.91888937680257],["protect",-9.919166054420211],["writers",-9.919629770426285],["Avenue",-9.920072162926765],["battleship",-9.92019439856726],["theory",-9.920234182900172],["treatment",-9.920360597901798],["reaching",-9.920421598101399],["52",-9.920711083579555],["landing",-9.921536645991672],["student",-9.922487586792878],["search",-9.922968923911053],["Becau",-9.923233299434052],["governor",-9.923513904739995],["retire",-9.923590408709089],["44",-9.92387141064605],["proved",-9.923878041735815],["Victoria",-9.92487368030196],["succeed",-9.924913799346108],["platform",-9.925338746110995],["gaine",-9.925579065283195],["Though",-9.925652037796583],["rich",-9.92600564915427],["husband",-9.926276294262628],["inter",-9.926628629088512],["foreign",-9.92684819346007],["Ireland",-9.927033786044626],["begin",-9.927204389137048],["incident",-9.927322119543474],["criticize",-9.927656271631413],["gen",-9.927956751546692],["draft",-9.928062679810422],["stock",-9.928567881310883],["Republic",-9.929722531443156],["42",-9.92995880245073],["kill",-9.930768560963873],["comic",-9.931275642078363],["houses",-9.93210101114449],["stop",-9.933019185697514],["41",-9.933636767498678],["laid",-9.934747179362894],["establish",-9.935956946108899],["1989",-9.936160335078503],["contact",-9.938413405203754],["native",-9.938965018836045],["surrounding",-9.939055774098389],["recognize",-9.939693045806028],["Show",-9.939909890044666],["ide",-9.940547883663253],["1943",-9.941757326747554],["fuel",-9.942447054797448],["sixth",-9.942864842917729],["ceremon",-9.942947070169078],["62",-9.943165481537868],["visual",-9.94423339807391],["county",-9.944524269467712],["reaction",-9.946345434290055],["green",-9.946514835059142],["cruiser",-9.946697745824912],["organize",-9.946823586112732],["true",-9.947640879512267],["says",-9.947815747401124],["tree",-9.948328599416653],["citie",-9.94927110589338],["website",-9.95049008107151],["secret",-9.950520670388716],["growth",-9.95105352188118],["fighter",-9.951541882535851],["Tropical",-9.951822473053825],["Sam",-9.952334701054939],["else",-9.95254991251109],["records",-9.952586722896392],["soundtrack",-9.952992961585792],["Valley",-9.954036020203619],["heavi",-9.954235788826258],["agreement",-9.955142734429133],["broad",-9.955312522836488],["dependence",-9.955404581488397],["supplie",-9.955881162391252],["offer",-9.95719802010014],["Van",-9.957420462486981],["mind",-9.958571224437154],["nomination",-9.958675481713332],["equal",-9.958744886546228],["Parliament",-9.959208187500291],["Dutch",-9.9616546373533],["murder",-9.961848091664882],["your",-9.961961443253303],["hire",-9.96200459723993],["focuse",-9.962349732786844],["residents",-9.965015833782775],["Week",-9.965632337896173],["vote",-9.966497718477164],["artillery",-9.967384482145883],["negative",-9.968647391040427],["Young",-9.970178705226601],["strike",-9.97023981424585],["Through",-9.970422304911224],["medical",-9.971107333131703],["define",-9.971614778734212],["alone",-9.972863274043013],["reign",-9.973255234519202],["credit",-9.973753046758802],["creat",-9.973781732932125],["Carolina",-9.973843886903264],["comment",-9.973919839396684],["Men",-9.975252747967415],["Top",-9.97630407983115],["failure",-9.976900915697009],["uses",-9.976947942606655],["apparent",-9.977908641894045],["senior",-9.97850101636123],["Governor",-9.978799045338176],["What",-9.979903284711382],["sources",-9.980125152967268],["represente",-9.98072399222409],["multi",-9.981011442094166],["limit",-9.981196211987346],["computer",-9.98150338045325],["affected",-9.981868278274767],["birds",-9.982157587759847],["spring",-9.982795508388195],["Fleet",-9.983267260791624],["Song",-9.98331984079561],["technique",-9.985372737506703],["56",-9.985397789641889],["kilometre",-9.985858023632348],["reviewer",-9.986721701432414],["formal",-9.988224040032184],["equipment",-9.988277969532822],["usual",-9.988642710428953],["capacit",-9.989483127407793],["raid",-9.99029627442493],["pattern",-9.99052699018198],["Blue",-9.99057771515559],["600",-9.991682559854606],["serving",-9.993067756490433],["famous",-9.994229969564387],["approache",-9.99488267845769],["occupie",-9.99489506988815],["Admiral",-9.995052276892075],["greates",-9.995366883188419],["mile",-9.995419078846476],["wicket",-9.996493378209372],["connect",-9.996498136932946],["Korean",-9.99677162876088],["Football",-9.996938061209976],["page",-9.996956885614365],["Operation",-9.997127505873001],["mean",-9.997341561705543],["table",-9.997680470075593],["degree",-9.997948580884904],["feeling",-9.998113474903386],["Duke",-9.998220172675191],["weapons",-9.998468084370375],["wave",-9.998501945291148],["43",-9.99856034998184],["request",-9.99948780472276],["except",-9.99970794299469],["Castle",-10.000281188492368],["consiste",-10.000341752245205],["Bond",-10.000765360614707],["Mean",-10.001364925509268],["settlement",-10.001428332192003],["Northern",-10.001961510655898],["offensive",-10.002016006990802],["Ka",-10.00285264005442],["Storm",-10.003232152563521],["Prime",-10.003755574515857],["chi",-10.004050691481506],["demand",-10.004773339312289],["Government",-10.00578527330437],["Tech",-10.006061645893343],["Upo",-10.00709973640005],["firm",-10.007258570377806],["struggle",-10.007627970065384],["thick",-10.008038593255193],["slow",-10.0084123652406],["statement",-10.008416900534236],["killing",-10.009107631060662],["destroy",-10.0100909953453],["District",-10.010753577221724],["Homer",-10.010858619763813],["BC",-10.012328151362492],["Mac",-10.012705005632379],["grew",-10.013394005522605],["prisoner",-10.014123196746832],["sky",-10.014606404913494],["drama",-10.016230382143274],["deck",-10.016505739862861],["edge",-10.016838806008371],["maintaine",-10.018440462953231],["factor",-10.019218399077182],["committee",-10.019569827850184],["girl",-10.019640934964436],["hop",-10.020917782595065],["Scottish",-10.02168548587416],["core",-10.021866481220071],["1987",-10.022094327203055],["System",-10.02269341079063],["aspect",-10.023769733706827],["76",-10.023840413103484],["SR",-10.025349330148611],["chance",-10.02558609487024],["hill",-10.026571130664337],["Fantasy",-10.027530993955114],["rail",-10.027573492508603],["Chart",-10.02758955354151],["master",-10.027984333270368],["store",-10.028461876937461],["street",-10.028621941319699],["proposal",-10.02904661751186],["bodies",-10.030149038621435],["visite",-10.030346832379958],["intersection",-10.03044201779598],["Background",-10.03064695071223],["bank",-10.030686318832307],["rise",-10.032084054478442],["treat",-10.03211157278469],["rainfall",-10.03401232587365],["supply",-10.034849025371669],["composition",-10.035360210347875],["incorporate",-10.03540247219796],["aid",-10.03576084629073],["interchange",-10.036018269417227],["therefore",-10.036818049966408],["assault",-10.036969623330084],["cap",-10.038016133576948],["twice",-10.039396701614413],["Polish",-10.039498875679156],["billion",-10.041215811724474],["losing",-10.041602051512523],["Joe",-10.043544098862803],["Senate",-10.043592249188634],["consecutive",-10.043746024055336],["draw",-10.043830712747427],["compete",-10.045174824036497],["Christmas",-10.04596726783232],["heard",-10.046237640722245],["Festival",-10.046645090640059],["flag",-10.047153814625617],["58",-10.047853655236905],["opinion",-10.04801282155542],["Mike",-10.048093040222238],["Eastern",-10.049717688780655],["connection",-10.049823958872773],["chosen",-10.050957118049311],["Light",-10.051180022389863],["fiction",-10.051226765897397],["chose",-10.051854681935032],["Wilson",-10.053052636537354],["headquarter",-10.053163074551858],["lap",-10.053384951064965],["origin",-10.053847611522446],["repair",-10.054055392523374],["fine",-10.055007212233784],["Pennsylvania",-10.055048481868711],["tail",-10.055110999040869],["text",-10.055998240240063],["expansion",-10.05625475467493],["Taylor",-10.05713808940927],["camera",-10.057252812432097],["Studios",-10.05726826872911],["genre",-10.057295358324092],["herself",-10.05751690293552],["CD",-10.057808894259216],["names",-10.060053119293089],["unknown",-10.060815196137412],["rain",-10.060824371982386],["Due",-10.06127495368138],["crime",-10.061456736509799],["1986",-10.0650801201774],["extra",-10.065215497659839],["Alexander",-10.065984791060158],["Allied",-10.066279244775874],["Each",-10.066356494552357],["Up",-10.066458719911855],["hands",-10.066882296437228],["nothing",-10.0669190890334],["environment",-10.067054523713917],["thing",-10.06734735193202],["reserve",-10.067431059684116],["storyline",-10.067489387708195],["fellow",-10.067940926875252],["silver",-10.06863972472517],["á",-10.068871902346308],["simply",-10.069438020082808],["SS",-10.07151583930955],["extend",-10.071644244924192],["adopte",-10.072283632031585],["rated",-10.072395806520746],["genu",-10.07239842081479],["growing",-10.073411161301406],["arms",-10.07370105822219],["holding",-10.07399084340985],["simple",-10.074429580620713],["hair",-10.074702792580975],["Night",-10.075665016991437],["consist",-10.076077571875539],["opposition",-10.076951957843088],["zone",-10.077002037164167],["crossing",-10.077438868526794],["Civil",-10.077650198651599],["civil",-10.078043785485566],["che",-10.078130509590757],["q",-10.078164909567738],["northeast",-10.078250916321549],["leaders",-10.080651348453085],["council",-10.081043970573955],["trees",-10.081108698265632],["stood",-10.081547623046706],["opponent",-10.082105543268279],["tax",-10.082261475868075],["basis",-10.083148474333662],["winner",-10.083380550328105],["semi",-10.08373442429527],["boy",-10.084797583567928],["defend",-10.086366581133007],["fired",-10.087000165684287],["accept",-10.087290826229879],["gate",-10.087724488145533],["Reception",-10.087974721062196],["MD",-10.08809358248147],["budget",-10.088324284339004],["Railway",-10.088402588454947],["cultural",-10.08840368408055],["split",-10.089652887963096],["honor",-10.090566062184708],["expedition",-10.091232792398728],["Further",-10.09231144291663],["Irish",-10.092387004118665],["exchange",-10.092720784242358],["Bob",-10.093404064820593],["Institute",-10.093579193953776],["containe",-10.093697160092873],["Doctor",-10.094760879988463],["choice",-10.094766997976906],["flying",-10.096709873858734],["abandone",-10.09711555696473],["Ocean",-10.09795884655907],["administration",-10.098158623646142],["Harry",-10.098767376820765],["message",-10.09895426130968],["Li",-10.099309033355665],["Jersey",-10.10031978566359],["unique",-10.101422725691428],["filmed",-10.102282920802054],["segment",-10.102591994399688],["rescue",-10.103860360293677],["criticism",-10.103874969616033],["que",-10.104263309624823],["Spain",-10.104367153586045],["creation",-10.105526016265706],["considerabl",-10.105529836906694],["beyond",-10.105563313718282],["mon",-10.105875092398366],["restore",-10.10598901486721],["Su",-10.106739952895845],["convince",-10.106821960338282],["drawn",-10.106873400412237],["carrier",-10.107321234174384],["Four",-10.108060752438323],["comes",-10.108256053089137],["Coast",-10.108581189515801],["rival",-10.108915232835386],["debate",-10.10990367019342],["assume",-10.110288865800612],["flow",-10.110381633340078],["doing",-10.11038377672083],["coin",-10.110729601508657],["51",-10.110983150949295],["verse",-10.112314465312892],["possibly",-10.113676204627199],["motion",-10.11546952610306],["arrangement",-10.11598135190565],["Columbia",-10.116878590031519],["province",-10.117035653483617],["follows",-10.118318068849666],["commissione",-10.118951030081869],["Elizabeth",-10.1191455406591],["Wood",-10.120318724648765],["necessar",-10.120461979016895],["regarde",-10.120809017689933],["ong",-10.121350805119325],["broken",-10.12166445854072],["critic",-10.122870234720317],["advantage",-10.12315909698054],["warning",-10.123426515410442],["Town",-10.123669973109454],["block",-10.124814031890232],["Out",-10.125666434196523],["peace",-10.126760691516342],["Commission",-10.127996100529788],["Cambridge",-10.128883983393004],["mounte",-10.128952852526309],["Can",-10.12938633727526],["favor",-10.129922987341503],["arrange",-10.13014916028629],["approve",-10.130193279029864],["bird",-10.130580031787861],["item",-10.130774009610967],["walls",-10.130925126053356],["Board",-10.131639425329611],["counter",-10.131888080053793],["data",-10.132349288848975],["1985",-10.13257214217002],["93",-10.133262435876107],["personnel",-10.133915994404045],["repeated",-10.13456341532629],["Point",-10.13475686719685],["franchise",-10.13497749078782],["desire",-10.136148439415104],["ldest",-10.136403185224568],["rear",-10.136573375252839],["Arthur",-10.13708310889127],["twelve",-10.137397394128788],["nuclear",-10.137454062555975],["grante",-10.137713840104135],["grow",-10.13861166483476],["Andrew",-10.13874074103847],["accompanie",-10.13969710129447],["conference",-10.140208496953884],["management",-10.140249282367762],["surrender",-10.140551925779134],["Album",-10.140729592723678],["characteristic",-10.141068188295987],["leadership",-10.141197983015646],["graphic",-10.14123042097813],["parallel",-10.14131450809003],["800",-10.141702368965628],["Ohio",-10.141904165161588],["iron",-10.14194557396617],["actors",-10.142822235365264],["occasion",-10.144174264037234],["passes",-10.144802034973935],["contest",-10.144980730205988],["infantry",-10.145488631807126],["Will",-10.145564247879966],["settle",-10.14564159754725],["description",-10.145659530798934],["von",-10.14615922894094],["path",-10.147317989769862],["Georgia",-10.148021702362312],["Secretary",-10.148896633887562],["composer",-10.149280725691138],["oday",-10.150105939434967],["crowd",-10.150330780379257],["link",-10.150955669461675],["ang",-10.15095746608443],["finding",-10.151248837523735],["northwest",-10.151361280883457],["perfect",-10.151368794538861],["Single",-10.151837477959893],["1984",-10.152406482264734],["ancient",-10.152470596005058],["Also",-10.152815102992852],["vi",-10.153018967519111],["ecurity",-10.15370323619312],["horses",-10.153733820209709],["lay",-10.153993832690265],["benefit",-10.154569547421287],["53",-10.154673141472484],["permanent",-10.15513196445817],["collapse",-10.155293424416566],["caught",-10.155566686283887],["ric",-10.156286990912108],["Order",-10.156620650767143],["newly",-10.156684596096927],["Law",-10.156974544046252],["expande",-10.157158831706687],["Philadelphia",-10.157227977526565],["height",-10.157732613333293],["Science",-10.159141152320888],["reform",-10.159932874516137],["arrival",-10.159972603322652],["alternative",-10.160496877129564],["Russia",-10.160805264266525],["fast",-10.16258570952808],["ger",-10.162964113923378],["centuri",-10.163011517331311],["breed",-10.163060508504893],["comedy",-10.163595388244621],["brown",-10.164091608856877],["solo",-10.165181400356563],["Radio",-10.166728532507824],["mentioned",-10.167437276554947],["Walter",-10.167839919446577],["mountain",-10.168124930020719],["Never",-10.168223679843381],["investigation",-10.168582081324388],["stations",-10.168836935467418],["seventh",-10.170623181051239],["determined",-10.170757377211727],["familie",-10.170788943114234],["reveal",-10.170810252827357],["Asia",-10.170938361577901],["sell",-10.17133751233794],["planet",-10.171437046209018],["affair",-10.172084696584685],["quite",-10.173226020318763],["66",-10.173586575032665],["fair",-10.173861299603544],["generation",-10.173873465946798],["Grant",-10.173927047228947],["defensive",-10.173962355277006],["People",-10.175515378479613],["transferr",-10.175950113328282],["bus",-10.176269105249926],["1967",-10.176339344459691],["finish",-10.176555712969533],["Hu",-10.176654281603154],["Pre",-10.177111652453982],["recommend",-10.17718444510858],["encourage",-10.178205097458923],["trip",-10.17825985522146],["rejecte",-10.178307118245844],["Development",-10.178401906394807],["producers",-10.178720340873339],["prison",-10.179324951782412],["occasional",-10.179385374677695],["Square",-10.180774126895482],["regiment",-10.18091460417262],["shooting",-10.182356969250236],["Ottoman",-10.182486335642471],["Among",-10.182609427846055],["Liverpoo",-10.182817775990404],["sides",-10.182900476900876],["Dan",-10.182937053078152],["colour",-10.183569265325366],["refer",-10.184104260653076],["wild",-10.185494804692627],["Office",-10.185571165214187],["Nintendo",-10.185671705659438],["Lewis",-10.185808587388284],["watch",-10.186658990361469],["emerge",-10.187069299087256],["attribute",-10.188019318734469],["plays",-10.188243412112845],["protection",-10.188244632321219],["Field",-10.188496569977023],["turret",-10.188814750747772],["formula",-10.189398898385932],["temple",-10.18962465271298],["86",-10.189906469161736],["econom",-10.189931949096833],["Carl",-10.190458034513018],["dollar",-10.190819069305611],["piano",-10.191384328025821],["Ten",-10.19178096491038],["casualt",-10.191991106072894],["Lieutenant",-10.192363582811614],["Additional",-10.192852323463882],["urban",-10.195332739887338],["protecte",-10.19542493308212],["instrument",-10.196048142905983],["supporter",-10.196942811177475],["ker",-10.197379968655282],["Lincoln",-10.197513748937393],["touchdown",-10.198246778276324],["73",-10.198940428462874],["faste",-10.198997678943824],["flat",-10.199101150516281],["Har",-10.199399104785957],["ization",-10.199430228882829],["gradual",-10.199528091957527],["appeal",-10.200483584641741],["specimen",-10.201693216684719],["device",-10.202565260902942],["Gulf",-10.202755646109088],["dedicated",-10.202978421612428],["invite",-10.203283460306912],["brigade",-10.203290756022234],["96",-10.20404937989484],["Jewish",-10.205291206446507],["Anderson",-10.206230372348276],["intensit",-10.206619349985772],["skin",-10.206888156846302],["61",-10.206905873262812],["ful",-10.206906210130247],["ultimatel",-10.207026815672341],["Good",-10.207262416671808],["Francisco",-10.207319021700764],["Miller",-10.207382152337399],["Jean",-10.20787747691504],["graduate",-10.20861293475334],["Du",-10.208855876879454],["plants",-10.208930778122648],["98",-10.208960376458803],["Bank",-10.209053458189995],["connected",-10.2091477489958],["Steve",-10.209407775181656],["victim",-10.209517309281686],["Pop",-10.210010198208051],["carry",-10.21051439014324],["Earl",-10.211188272529004],["publication",-10.211208234011014],["partial",-10.212072565107942],["rank",-10.213674480339204],["ji",-10.213917937699128],["craft",-10.214031821815668],["household",-10.215343756205938],["Disney",-10.21534771785276],["Carey",-10.215352219425855],["eyes",-10.215631605947106],["Brian",-10.215634317859458],["Davis",-10.215678052514983],["derive",-10.218186704919788],["Emperor",-10.219600671249621],["Book",-10.220865222184669],["torpedo",-10.22141895958032],["Conference",-10.221429565851084],["HMS",-10.221675838654814],["PlayStation",-10.221864901084908],["branch",-10.222614033260879],["representative",-10.224723966370535],["promise",-10.224814061710891],["1914",-10.224956946604914],["1982",-10.226170297731919],["guard",-10.226989939588522],["1971",-10.227284857924666],["disc",-10.22754327292696],["count",-10.227696685618692],["goes",-10.227849452695851],["watche",-10.227867193084087],["controlle",-10.227887214413666],["escort",-10.228523142881038],["1918",-10.229026938036371],["super",-10.230166616282858],["receiv",-10.230340178897112],["grade",-10.23038223022404],["constant",-10.23062464984739],["1966",-10.230792644840987],["1972",-10.230938118405772],["1979",-10.231809799415897],["Bell",-10.232382255790567],["ridge",-10.232473674552683],["promotion",-10.232646655714872],["provid",-10.23321249531944],["farm",-10.233427542374459],["analysis",-10.233600497868945],["yellow",-10.23428015935424],["injure",-10.234586198512005],["editor",-10.235874333897405],["sports",-10.235984746693319],["submarine",-10.236441073095722],["ban",-10.236680807528598],["stream",-10.236990331745108],["accident",-10.237585169684],["department",-10.238090719873183],["cancel",-10.238596039731224],["riving",-10.238687055552036],["trains",-10.239917365284361],["applie",-10.24040715176592],["document",-10.240686532336795],["throw",-10.241296548625833],["fruit",-10.241442431145893],["ensure",-10.241733316254953],["steel",-10.242601533424072],["NHL",-10.243171481315377],["notable",-10.24332063154504],["#",-10.243433332395373],["unusual",-10.243900341742146],["1965",-10.24403737065845],["walk",-10.244416478507997],["surprise",-10.244890422503307],["systems",-10.245128904482018],["Boy",-10.24515443399841],["combination",-10.24608117161201],["FA",-10.246241926944395],["67",-10.246642655621216],["upgrade",-10.24730209331102],["1975",-10.247651698729772],["religion",-10.248853976568132],["Original",-10.248880687326889],["bomb",-10.249948054647366],["types",-10.25034375591929],["Christ",-10.250384908021848],["Onc",-10.250697690671524],["120",-10.25070774948236],["headed",-10.25182895691428],["Gold",-10.251830047496725],["singing",-10.251935524286607],["Han",-10.252988841791314],["Hollywood",-10.253068594934831],["decide",-10.254319809400851],["narrow",-10.254788953580746],["lane",-10.256408143726052],["Station",-10.256732998076782],["boats",-10.256733438198697],["shore",-10.257236674771434],["hotel",-10.257312399128725],["credite",-10.257720552005917],["protest",-10.257839122265086],["ideas",-10.257992790292661],["digital",-10.258960094599004],["IV",-10.258990025145707],["entrance",-10.25937416285165],["assistant",-10.260277475658125],["price",-10.260818102883656],["lives",-10.262153931717455],["ard",-10.262268293636113],["1973",-10.262283666226974],["mar",-10.262369012789916],["Democratic",-10.26254700218588],["Way",-10.262980528282819],["destroyer",-10.263670197655953],["Singapore",-10.263773309725352],["cricket",-10.263935053191537],["programme",-10.264805108759122],["pit",-10.265021583341246],["mark",-10.265975061302216],["Daily",-10.267035270324072],["Press",-10.267060272337913],["Between",-10.26784788816105],["turns",-10.267929522654894],["ends",-10.26813915354376],["Lady",-10.268459746771347],["vision",-10.26889832380562],["Supreme",-10.26891376478547],["250",-10.269084937849968],["cha",-10.270116771966604],["domestic",-10.270518803607876],["generate",-10.27098632874365],["1976",-10.271492750722095],["63",-10.272613532205694],["rose",-10.272987124850918],["belief",-10.27320586064748],["judge",-10.274000072087933],["phase",-10.274622193423156],["59",-10.2754027316575],["task",-10.275523542862766],["launch",-10.275810357186792],["garden",-10.276824358485705],["hip",-10.276956645737705],["passage",-10.278380981056106],["basic",-10.278621296575906],["Colonel",-10.279218717986486],["Rose",-10.279430371910035],["grant",-10.279937073011746],["Age",-10.280137737637695],["04",-10.281126143556756],["employe",-10.281537446710395],["pound",-10.281908966696937],["pitch",-10.282245496551306],["Wall",-10.282463227637908],["berg",-10.282786696968811],["wait",-10.283383380195724],["Women",-10.284088028022675],["fille",-10.284303609347857],["literature",-10.28460626123372],["knot",-10.284718895459738],["Summer",-10.28526127638014],["union",-10.286150000849666],["exact",-10.286272742669382],["Muslim",-10.28634422616617],["unlike",-10.286682031648883],["Lu",-10.286988682966642],["72",-10.28737545613829],["coal",-10.287591737642405],["Mount",-10.288361919511265],["slave",-10.28843105450044],["viewe",-10.28845130162371],["echnology",-10.288677252104925],["Clark",-10.288924422551704],["flower",-10.289200882029249],["adding",-10.289577512790274],["scientific",-10.289819692767692],["Daniel",-10.290346651492666],["principal",-10.290633232258287],["Beyoncé",-10.290693018829796],["Simon",-10.290923715182641],["introduction",-10.291485394437093],["actress",-10.29156454682747],["Gar",-10.29159993770851],["unsuccessful",-10.291889618253256],["museum",-10.292010907249946],["arm",-10.292049410808403],["consists",-10.292356587259324],["habitat",-10.292609087912608],["responsibilit",-10.292873463252699],["resistance",-10.293619998127824],["converte",-10.29384239846652],["81",-10.294200322550163],["cited",-10.294534990599054],["Special",-10.294627333772594],["channel",-10.294924833232605],["Matt",-10.294957566713066],["reputation",-10.295717516673724],["prepared",-10.295879276726417],["distinct",-10.296931419169164],["adaptation",-10.29728753913934],["burn",-10.298070610680549],["rename",-10.298144465678599],["selection",-10.298835781004334],["87",-10.299058423769145],["Cape",-10.299253231983533],["anything",-10.299428499028858],["campus",-10.30056937424401],["shire",-10.300714179336602],["sequel",-10.301432244188693],["ated",-10.302272270806618],["distribution",-10.302327141901703],["losse",-10.302435740722748],["possibilit",-10.303244694942212],["communication",-10.303579918750234],["Kentuck",-10.304085798411473],["straight",-10.304783075683885],["daily",-10.305600265689069],["gameplay",-10.305715313534398],["knew",-10.306168703517585],["journalist",-10.306294965027815],["realize",-10.306311843019794],["1946",-10.306370192669217],["1981",-10.307183440546499],["produc",-10.307862801939908],["99",-10.308125928137294],["PA",-10.308643266252934],["Airport",-10.308923578435223],["Who",-10.309024066588155],["−",-10.309171588511141],["Par",-10.30974827661421],["perhap",-10.310505172950716],["77",-10.31078603978931],["freeway",-10.310817848985234],["capable",-10.311340517536566],["sample",-10.311458873372056],["here",-10.311582357181912],["driver",-10.31247267314866],["extension",-10.312784960530115],["Norway",-10.312894831728425],["drew",-10.312980057933009],["survey",-10.313684886149833],["reading",-10.313957811129908],["canal",-10.314051074020975],["industrial",-10.31453999245831],["Mu",-10.314540517215184],["map",-10.315809016547652],["bomber",-10.316113814981794],["Golden",-10.3167115853849],["existence",-10.317203497542295],["didn",-10.317689507425202],["shell",-10.318048687738447],["register",-10.3192182331442],["preserve",-10.31926245031115],["fun",-10.31997408370941],["southeast",-10.320049425884733],["cold",-10.320638049545208],["201",-10.320741403926544],["operating",-10.32090583237631],["roads",-10.320937453384238],["joint",-10.321227711238878],["responde",-10.321639258674765],["Bowl",-10.321691637491412],["Public",-10.322480334332704],["Massachusetts",-10.322584106500884],["1917",-10.322734304690844],["mode",-10.322879524551706],["Rome",-10.323404426586208],["missing",-10.324186048204847],["contribution",-10.324208552546322],["collected",-10.324479625531977],["turning",-10.324645880473772],["asily",-10.32473872690873],["controvers",-10.324810980775373],["journey",-10.324837122068754],["spot",-10.32483785284447],["knowledge",-10.32544368266956],["depth",-10.325445946386347],["politic",-10.325973415203466],["option",-10.326011335568714],["internal",-10.327009575541643],["depend",-10.327966151457675],["Video",-10.328729215461946],["700",-10.328769259748638],["burie",-10.328869800977845],["stadium",-10.329251687622046],["theatre",-10.330600634192354],["Even",-10.330727181378402],["entry",-10.331476338605365],["provides",-10.331546389855223],["finds",-10.332447882459158],["curve",-10.332715078116712],["tank",-10.332786604439375],["Ray",-10.333579823829515],["1948",-10.334820866746403],["mine",-10.334922229026644],["Main",-10.335066714454287],["bass",-10.335124871494395],["owner",-10.335296023986519],["compound",-10.335588808804832],["retaine",-10.33575755419414],["fear",-10.337250554463317],["About",-10.33732991815448],["festival",-10.338691533118775],["Dark",-10.339127665430626],["association",-10.339257526947225],["End",-10.341441588228976],["islands",-10.342098476807527],["hat",-10.342565315425468],["bowl",-10.34324109224489],["depict",-10.343318845637636],["calls",-10.343974408626254],["chapter",-10.344425587968955],["sustaine",-10.344683424311182],["Power",-10.344980355903788],["fresh",-10.345239888791319],["Moore",-10.34631633688824],["learned",-10.34643234343501],["Byzantine",-10.346522176081379],["drop",-10.346524195713954],["pursue",-10.346575856687204],["und",-10.346647044189526],["gar",-10.346719823588185],["1978",-10.347114687861023],["79",-10.347820184706805],["inner",-10.347961668026967],["lies",-10.347996539818775],["surround",-10.348429158710173],["baseball",-10.348688700217702],["moderate",-10.34871062481513],["78",-10.348736990605914],["sentence",-10.348929410274678],["warm",-10.349297485059768],["violence",-10.349806191422573],["Imperial",-10.350192555617724],["ington",-10.35071878419079],["handle",-10.352334554238581],["bottom",-10.352508560298322],["Justice",-10.352580516613084],["MTV",-10.353211761336597],["institution",-10.353617825139576],["breeding",-10.354076928294438],["Jay",-10.35483766479684],["tube",-10.354878565266937],["Director",-10.355189590502686],["carrying",-10.355570066706496],["technical",-10.355760855512141],["penalt",-10.355906287841435],["strateg",-10.356402653023684],["safet",-10.356773663550545],["Arab",-10.35679706982277],["94",-10.356825674392761],["Sunday",-10.357095608857051],["Bart",-10.357564759873584],["accuse",-10.357884711535501],["entitle",-10.358093599349518],["code",-10.358273032113138],["coastal",-10.358310536156951],["Naval",-10.359055780873508],["Sydney",-10.359956657856282],["opera",-10.360427888451431],["1977",-10.360861703681286],["Maryland",-10.361542296168249],["landfall",-10.36225065155393],["exhibit",-10.362471147926955],["plate",-10.362558366028113],["classic",-10.36296100067122],["signal",-10.363254742796613],["Water",-10.363773699301563],["wear",-10.364079796191938],["raising",-10.364415801874515],["scheme",-10.364616427040733],["Poland",-10.367923610040485],["afterward",-10.368076448957462],["ride",-10.36853199722494],["experiment",-10.368620718665776],["application",-10.370289005301737],["Col",-10.370641767568355],["symbol",-10.371012390951298],["southwest",-10.37115902423573],["AD",-10.371303577494453],["Albert",-10.37134226905892],["playoff",-10.371520685132737],["Alan",-10.373252478712534],["Not",-10.373331560960029],["showing",-10.373537665623465],["resource",-10.373558938645122],["demonstrate",-10.373887802887573],["Space",-10.374131685595327],["Recording",-10.374308464328383],["1963",-10.374477355568757],["protein",-10.374563908974798],["secondar",-10.374654221210404],["Theatre",-10.375275003336089],["battery",-10.376170795226418],["teacher",-10.37623450407181],["favour",-10.376433502899923],["expand",-10.377520056074895],["Far",-10.378338408906128],["ju",-10.378750578975978],["bigge",-10.379076254921982],["quipped",-10.37940626133521],["Moon",-10.379799724700892],["gu",-10.379947993168038],["denie",-10.381276164940877],["acres",-10.381841994044334],["Fire",-10.382099951552023],["attract",-10.382108177779358],["ō",-10.382843164765719],["Mulder",-10.38311804979264],["Gordon",-10.383122695568147],["dominate",-10.38347618467922],["Simpsons",-10.383658413403541],["evening",-10.383714747666804],["interested",-10.383720932796997],["lake",-10.38424961247368],["file",-10.38516073525147],["respect",-10.385313073635563],["cycle",-10.385595822147604],["scientist",-10.387430240067413],["delivere",-10.388349848721276],["improvement",-10.38906341832244],["progress",-10.390264300617943],["stoppe",-10.390642714219325],["transition",-10.390767673458226],["Stadium",-10.391525374200754],["Just",-10.392551173627915],["venue",-10.392924896500308],["wealth",-10.393374563964276],["roof",-10.393634198239022],["exercise",-10.393864833918185],["partner",-10.395547380178723],["honour",-10.396490949647346],["substantial",-10.396596874378979],["online",-10.396825818471125],["97",-10.396933495980411],["ach",-10.398154109383066],["lands",-10.398246931944316],["essential",-10.399023949645546],["civilian",-10.399516737187167],["lan",-10.39959892948138],["fashion",-10.399928765694986],["commission",-10.400006894513703],["argument",-10.4002776024906],["Prior",-10.400788744881845],["Adam",-10.401028089793641],["boundar",-10.40202146776321],["1938",-10.403762450068822],["glass",-10.403842149407382],["Sound",-10.403910541308743],["UN",-10.404843141453176],["adapted",-10.40528048795324],["Egypt",-10.405830564173355],["chemical",-10.405852802571307],["Critical",-10.406039401121209],["Free",-10.406242106448735],["Cor",-10.408366439019078],["threatene",-10.408444877688911],["installe",-10.408915634652491],["exclusive",-10.40903302179539],["mere",-10.40931008981122],["1919",-10.409437236964221],["Command",-10.409566656661433],["sufficient",-10.409593696093594],["pick",-10.410237749246395],["establishment",-10.41087968756691],["download",-10.411376567871908],["replacement",-10.411395551256799],["kingdom",-10.411501522350854],["Eric",-10.411672047108254],["employee",-10.41181707928803],["relief",-10.412239302953104],["dispute",-10.412366311009192],["Your",-10.41237350992845],["animate",-10.414456254014329],["door",-10.41479858738014],["bu",-10.415676262389987],["mention",-10.416175816859734],["ung",-10.416320437956976],["acid",-10.416420854016911],["duty",-10.416619603112618],["weak",-10.417743622222865],["deploy",-10.417744289352502],["ised",-10.417752729863496],["component",-10.418153125650585],["Tony",-10.418511275898556],["Part",-10.418740279333253],["continu",-10.418839079800154],["equivalent",-10.418896274413527],["eliminate",-10.419320663845582],["airport",-10.42010370852947],["Memorial",-10.421129951909506],["portraye",-10.421882196621645],["Girl",-10.42261515339029],["Chi",-10.422638906824274],["academic",-10.42307524552315],["admitted",-10.424278294295204],["1956",-10.42461553290492],["visible",-10.424765769242434],["rang",-10.425475320864384],["Cha",-10.425485133243829],["catch",-10.425702256854287],["Garden",-10.425865653708172],["Songs",-10.42590392544028],["recalle",-10.425903999814585],["global",-10.425938215651383],["importanc",-10.426008350241087],["belt",-10.426323657402792],["classification",-10.42645259394023],["Norman",-10.426594867775373],["NBA",-10.426771009495644],["Forest",-10.427615679297737],["retreat",-10.428035960407039],["Beach",-10.428659431617172],["Mountain",-10.428775325736789],["IGN",-10.43037590018026],["buy",-10.43064149048061],["Hungarian",-10.430866472776563],["picture",-10.431584242054573],["departure",-10.431877546948266],["remainder",-10.432134233828037],["librar",-10.432711993297527],["Plot",-10.433288989882843],["plane",-10.433419148031803],["armor",-10.43430710804654],["Militar",-10.434380317931453],["les",-10.434638968339614],["Douglas",-10.434639023396526],["1936",-10.43480826143433],["Hamilton",-10.435139054491222],["misse",-10.435216605725104],["distribute",-10.4352377989199],["Play",-10.435425872421378],["Sky",-10.435454023015089],["arreste",-10.435794600341314],["wearing",-10.436428402627541],["manner",-10.43645700318939],["attache",-10.436580430854526],["celebrate",-10.436741820172966],["retain",-10.436921605216337],["brain",-10.437221098704725],["Sha",-10.437737020351094],["jo",-10.438121814322791],["seek",-10.438642389165471],["convoy",-10.438666858196642],["pan",-10.438848855258822],["proper",-10.438851448608165],["poet",-10.43935707459649],["Ross",-10.44010361528501],["ready",-10.44041074916689],["designer",-10.440447308991628],["UTC",-10.441052440910045],["relations",-10.441647444156816],["Philip",-10.441924322908033],["observation",-10.441969695827254],["Kennedy",-10.442254466054406],["attain",-10.442957254225856],["preparation",-10.443326643265001],["84",-10.443492178722467],["Base",-10.443654724686912],["talk",-10.443664382006142],["Mill",-10.444035996892314],["180",-10.444253998720356],["89",-10.44447549307282],["Bush",-10.444493433772347],["Roger",-10.444908868240864],["chorus",-10.445109802728338],["emotional",-10.445313394870304],["drug",-10.445734035900662],["tunnel",-10.44588788455405],["voted",-10.44602738254362],["classe",-10.446704901331016],["Kent",-10.446856693901639],["suit",-10.446875477108271],["Fame",-10.446957467813641],["describ",-10.447434782236042],["champion",-10.447751633567465],["Giant",-10.447885717940304],["Revolution",-10.448115554398942],["memor",-10.44855831529545],["intention",-10.448840628326465],["brand",-10.448902563445783],["drawing",-10.449186189989232],["Howard",-10.44929999482791],["laste",-10.449535348026645],["Death",-10.449694203310909],["Land",-10.450069262015692],["outer",-10.450309737888366],["1961",-10.450603193969453],["sites",-10.450808432958286],["par",-10.45084632665641],["climate",-10.450872865871775],["qua",-10.451268730159851],["trouble",-10.451829124710594],["Maria",-10.452174770924236],["AAF",-10.453062293680373],["Arts",-10.453242251664992],["medal",-10.454475944824118],["corner",-10.454631670341882],["determine",-10.454695719613731],["safe",-10.454845344334323],["Today",-10.454974852882865],["Adams",-10.455036569682118],["everyth",-10.455068376829876],["youth",-10.45515457213609],["1953",-10.455303961147187],["Media",-10.455493825690034],["cent",-10.45595534677439],["exception",-10.45596261649416],["instance",-10.456403673987966],["climb",-10.456599014658213],["sole",-10.456739234338528],["Magazine",-10.456774788029316],["dutie",-10.457356032693287],["rural",-10.458210051905597],["Tim",-10.45851038178755],["Head",-10.458640650460145],["Back",-10.45876075598305],["Pan",-10.458766483117419],["Project",-10.459040488520314],["remember",-10.459725922872785],["explore",-10.459797581216764],["breaking",-10.459893224301144],["Ver",-10.459959498637819],["Initial",-10.4603921399606],["decrease",-10.460429311251193],["Master",-10.46095683274913],["Five",-10.46097887120786],["involv",-10.461623088280437],["roles",-10.462103753803678],["singles",-10.462358443017997],["views",-10.462380902578351],["notice",-10.46290828074858],["identity",-10.463305692791282],["rules",-10.463408685150567],["Scully",-10.463494427865447],["stronge",-10.463693192747764],[">",-10.464785163085555],["Norwegian",-10.465304171830535],["Hitler",-10.465304173628615],["recognition",-10.465575742971303],["cars",-10.466559768279437],["Ann",-10.467090451322356],["discusse",-10.467116962398062],["correct",-10.467211367830604],["freedom",-10.468183160000308],["130",-10.468658324894996],["eighth",-10.47030533514156],["1947",-10.47039515096848],["soul",-10.470461232321146],["conclusion",-10.47050912824278],["1937",-10.471249472712906],["regional",-10.471341583098376],["step",-10.471372551250255],["patrol",-10.471387973255025],["Ryan",-10.471417118184373],["concerned",-10.471785111641319],["1958",-10.471949597726866],["convention",-10.472611174761386],["founder",-10.472832515503812],["Dis",-10.473295236954815],["spirit",-10.473418867017328],["Research",-10.474098373858775],["committe",-10.474219079415317],["enemie",-10.474436036942974],["WWE",-10.474696050129635],["Mexican",-10.475479070995771],["execute",-10.475608820256376],["ure",-10.475979952669366],["Ken",-10.476723671597851],["ticket",-10.476824610943659],["delay",-10.47728669805782],["row",-10.477864538807827],["160",-10.478075736479788],["DE",-10.478864734276101],["certifie",-10.479683559959811],["Assembly",-10.480144307466052],["memorial",-10.480759669148691],["visitor",-10.481488246097234],["Cleveland",-10.483507071778355],["Dean",-10.483568023863835],["Rolling",-10.483970842845824],["bury",-10.484067680889648],["Short",-10.484212488175318],["Illinois",-10.485228877748382],["sons",-10.486286728502373],["restaurant",-10.486288550464579],["someone",-10.488092135411971],["behavior",-10.488187966207432],["tanks",-10.488196850189018],["offers",-10.488513474140873],["shoot",-10.488631289120013],["prey",-10.488764731952608],["string",-10.489660492848186],["grand",-10.490533917280187],["Arsenal",-10.49053878795705],["izing",-10.491080098271576],["intelligence",-10.491337721841921],["sale",-10.491811039269253],["hearing",-10.49186284731196],["<",-10.491870699842977],["criminal",-10.49187071371879],["91",-10.493252748655111],["solution",-10.493359907208694],["atmosphere",-10.493738408040928],["foundation",-10.493798730352784],["panel",-10.49402894486298],["Kong",-10.494156707436476],["predict",-10.494171988550828],["Review",-10.494692295035673],["kick",-10.494738917060026],["circulation",-10.495343302775838],["Ku",-10.49559097809795],["Stanley",-10.496729735705578],["1959",-10.497130607791958],["phone",-10.49741179878823],["”",-10.497484186883765],["Bruce",-10.497652235260661],["doctor",-10.49810114558821],["load",-10.498356246942322],["82",-10.498360312607007],["favorite",-10.498863127081073],["cal",-10.498890975045875],["Sal",-10.49921396710006],["principle",-10.499374046722934],["valley",-10.49948256735686],["Third",-10.499705107179201],["bow",-10.499763224656586],["Max",-10.500545875129154],["Morgan",-10.5005932687124],["literar",-10.501640193367772],["attend",-10.501764338978681],["Family",-10.502051729766507],["resume",-10.50214651443008],["Allen",-10.502679690591222],["ck",-10.50321862392835],["inspiration",-10.503273485458758],["terminus",-10.503513386633816],["Kevin",-10.503669672486778],["documentar",-10.503955071822388],["Per",-10.50426621205165],["Iron",-10.504405537071516],["opposite",-10.504483579575],["successor",-10.504536185828098],["Mediterranean",-10.505288316865142],["completion",-10.505568744804805],["supposed",-10.505907114382783],["Channel",-10.506102020409926],["throne",-10.50642919788226],["circle",-10.50646047102782],["1955",-10.506858585722984],["Bristol",-10.507182954091533],["poste",-10.507308510524124],["“",-10.507722724327857],["Release",-10.507727767252636],["bough",-10.507962235084818],["moral",-10.50829689596834],["Beatles",-10.508360411790413],["SBN",-10.508551863408078],["massive",-10.509755314497932],["expose",-10.509860032419509],["mal",-10.510024232865948],["classified",-10.510036310854364],["surviv",-10.51038751773907],["Premier",-10.510625057002766],["Korea",-10.51101902380185],["acts",-10.51126410987715],["sistance",-10.511689357497806],["possession",-10.512051355426882],["saile",-10.512775624904945],["exit",-10.513516916687959],["patient",-10.513796865455658],["minister",-10.514030105665753],["electronic",-10.5146486608272],["arc",-10.514654498607257],["án",-10.514886382058739],["citizens",-10.51494772153022],["deliver",-10.514952331125329],["Bishop",-10.515072393705774],["card",-10.515454084768447],["weapon",-10.515609386749958],["income",-10.515665145990289],["spoke",-10.51594491971841],["Marine",-10.516749605592853],["Anne",-10.51699243883276],["thirty",-10.517251793030185],["PC",-10.517319489091028],["merchant",-10.518084279536843],["Jeff",-10.519627030608115],["talent",-10.52042972623039],["downtown",-10.52063817532319],["roll",-10.520985844478494],["objective",-10.521691181840799],["dated",-10.5218290300377],["×",-10.52245495085487],["destruction",-10.522455271335062],["interior",-10.522770816145211],["dating",-10.522851461096842],["ranking",-10.524040778639723],["Nick",-10.526686133387793],["Six",-10.526872426199258],["wer",-10.527297399362205],["Temple",-10.527397670095455],["Robinson",-10.527431310545808],["Lisa",-10.528409250268934],["gone",-10.528518600447624],["creator",-10.529367603388359],["propertie",-10.529609000787918],["males",-10.529752505746838],["begun",-10.532798908446118],["Jane",-10.533391554239879],["alleged",-10.533492240786758],["Americans",-10.533849921687356],["Inter",-10.534234521533646],["71",-10.534238300494248],["batt",-10.53429984692949],["address",-10.534782497669385],["110",-10.535615690197929],["1952",-10.535635204638071],["restrict",-10.535910658273087],["Francis",-10.536173905806871],["Now",-10.536585575519583],["earning",-10.536669739657993],["withdraw",-10.536764797901574],["sort",-10.536966738725141],["ested",-10.537026710744634],["trained",-10.537190437942009],["bringing",-10.537652199733792],["Horse",-10.538275565709652],["romantic",-10.53853100667879],["Philippine",-10.53912963162648],["finishing",-10.539162625273184],["dismisse",-10.539261966645686],["garrison",-10.539362276352783],["laws",-10.53958030776023],["198",-10.539758271702192],["narrative",-10.54020116951916],["folk",-10.540464582075462],["frame",-10.54055878115711],["Cap",-10.540827012463401],["DNA",-10.54125205194677],["Ex",-10.541756308980743],["CR",-10.542277964924567],["Oregon",-10.542716639846876],["cavalry",-10.542722164916519],["Unlike",-10.543402688172698],["commande",-10.544192848858602],["Television",-10.54469500885729],["Construction",-10.545249544325545],["Winter",-10.545361673386187],["profit",-10.54593051194213],["1933",-10.546082448882766],["Similar",-10.546093428885076],["borough",-10.546211770391281],["rew",-10.547892562992534],["discuss",-10.548114286885832],["Nelson",-10.548658319433182],["shark",-10.548812523724092],["Tower",-10.549502034043753],["fitte",-10.55111208371764],["gay",-10.552182338723963],["heat",-10.552456476569722],["investigate",-10.554251869306725],["Sweden",-10.554880114350338],["flank",-10.556334127776054],["ear",-10.556403686502925],["Patrick",-10.55687075901514],["eleven",-10.556896650289564],["homes",-10.557037483476364],["Around",-10.557865570198194],["1935",-10.558233472270787],["animation",-10.559448579163822],["Toronto",-10.559462650874506],["staye",-10.559596266612598],["Ron",-10.560039126035772],["Jon",-10.560632630809595],["Welsh",-10.562286029083122],["ical",-10.562398133763452],["1949",-10.563323587738838],["1951",-10.563885222562682],["ö",-10.564361300902213],["fictional",-10.56436492193],["collect",-10.564549282760813],["Del",-10.564635065250009],["chain",-10.564763527258828],["controversial",-10.564874566052664],["Kim",-10.565217171004967],["Tri",-10.565273791991006],["pool",-10.565297678488145],["estimate",-10.56591936970334],["appointment",-10.565993991696564],["protagonist",-10.566563370338358],["predecessor",-10.567425292985535],["hope",-10.567778503757447],["outbreak",-10.568166610029715],["Knight",-10.568454866164569],["organisation",-10.568820749875265],["Cal",-10.569033821369285],["Sports",-10.569073468315764],["anniversar",-10.569151663856411],["Jordan",-10.57001272260834],["rebel",-10.570248942242216],["Ru",-10.571524193299243],["bell",-10.571869551621251],["seeing",-10.57195479534118],["photograph",-10.572204509192106],["classical",-10.572593816210341],["dates",-10.572663425908477],["Matthew",-10.572666577087189],["consistent",-10.572799612595958],["orbit",-10.572837982928093],["Victor",-10.57315346124328],["basketball",-10.573207264777185],["soil",-10.57429633104929],["sure",-10.574675645871519],["spin",-10.574702327610565],["wor",-10.575042485268828],["Netherlands",-10.575684766753293],["Mon",-10.575709100749197],["giant",-10.576314918498769],["Engineer",-10.57700415521162],["remark",-10.577639387441348],["mitted",-10.578038380304568],["chamber",-10.579036100310388],["sleep",-10.579779513351292],["Every",-10.580601746878004],["monument",-10.580759759328405],["architecture",-10.581339912623474],["Th",-10.583119994939828],["Morris",-10.583389999590668],["lock",-10.583740615219442],["waters",-10.584602366540727],["enable",-10.584857567823397],["cancer",-10.585141014434313],["ile",-10.585525216705205],["cloth",-10.585978493646873],["Centre",-10.586011700080242],["pitche",-10.586217532016834],["fossil",-10.58679809153631],["sharp",-10.586927039882019],["teaching",-10.587036797002934],["license",-10.587110348863066],["listing",-10.588335452607957],["temporar",-10.588400115884752],["ich",-10.588622776947192],["tries",-10.58870609549324],["injurie",-10.588986281608562],["pure",-10.589390429538643],["1900",-10.589509199881242],["Russell",-10.589621886031985],["MP",-10.590017982086925],["discussion",-10.590211860897885],["Jews",-10.591066888724535],["solid",-10.591193107577642],["absence",-10.591576921474909],["Wild",-10.59170749003159],["92",-10.591844859400693],["Nations",-10.592051809180157],["athlete",-10.593049083585143],["Wright",-10.593800352087953],["comparison",-10.59393515191266],["reverse",-10.594021164525286],["Cole",-10.594057027365613],["Class",-10.594430773348531],["hoped",-10.594485475009993],["Librar",-10.595165601185222],["requeste",-10.595695248854092],["delaye",-10.595841929761729],["carbon",-10.596335941601753],["seeme",-10.596398834496773],["involvement",-10.596998956691873],["Thompson",-10.599262096898581],["Vice",-10.599408512884027],["Santa",-10.599661608883972],["worst",-10.599716928534974],["Simpson",-10.599779860229347],["sport",-10.600092960068093],["category",-10.600152830613084],["Late",-10.600593875728077],["Croatian",-10.60127502105892],["neck",-10.601329288920331],["Track",-10.60166485701201],["Murray",-10.602495884021295],["chairman",-10.602825085280996],["í",-10.603505441848538],["NFL",-10.60350894688549],["Indiana",-10.603531286536267],["Puerto",-10.60372380512527],["Race",-10.604227549467247],["picke",-10.604263912957958],["earth",-10.604686293805631],["remnant",-10.605215411095152],["Network",-10.605527508643844],["pushe",-10.605935558932602],["Carter",-10.606076960153233],["personalit",-10.606188008646539],["Hav",-10.606682895762024],["NBC",-10.607664188990316],["Kelly",-10.608065653076654],["Persian",-10.608564525743974],["Commander",-10.60898360693889],["vice",-10.608999292898751],["Federal",-10.609740641846736],["angle",-10.60980592216806],["presidential",-10.610136988400402],["fur",-10.610998905201061],["requirement",-10.611021387451357],["medieval",-10.611204333568923],["recognise",-10.611270486131238],["weekend",-10.611365999606258],["Modern",-10.612126903529143],["residence",-10.612363067240995],["Cat",-10.61302133075687],["Alex",-10.613640660142979],["justice",-10.614037603561332],["Anna",-10.614152153879123],["intense",-10.61474127754308],["Constitution",-10.615305203949239],["Hospital",-10.615417807260679],["allie",-10.615486662640008],["retirement",-10.615576935397065],["politician",-10.61633081758481],["emergenc",-10.616689666082685],["siege",-10.616700452584828],["remove",-10.616865806790114],["tension",-10.616929411429037],["188",-10.617007623523708],["Within",-10.617116642621188],["portray",-10.618757030744865],["Ham",-10.61895113711333],["Parker",-10.618964995407966],["heads",-10.619123352970897],["modified",-10.619227671913944],["deeme",-10.619520056095785],["crash",-10.619555634721808],["express",-10.620022058407008],["Heart",-10.62150686749066],["painte",-10.621576655865203],["gap",-10.621653488604363],["Silver",-10.621862823970407],["07",-10.62230675197583],["isolate",-10.622841440484033],["Police",-10.624249950103756],["realit",-10.62459376007468],["evolve",-10.625071307877917],["Bu",-10.625399594212885],["revenue",-10.625530212421294],["USA",-10.62584509569365],["Batman",-10.62610396125739],["pur",-10.626297435530951],["negotiation",-10.626378106185987],["ninth",-10.626631548253135],["Pu",-10.626639804424324],["suffering",-10.627359428019037],["Harris",-10.62846968683103],["falling",-10.62848197938289],["900",-10.62862534591962],["Bad",-10.628668289278876],["Guard",-10.628824112437544],["ó",-10.628896385220893],["Last",-10.629080344612461],["Berlin",-10.629332355208174],["lowly",-10.629442467262631],["sponsor",-10.6294792629008],["cool",-10.629800538125158],["musicians",-10.631084658588552],["1913",-10.631210929533442],["06",-10.631827305431532],["Here",-10.632063959007507],["Palace",-10.632472140674922],["DS",-10.632616224800673],["Thus",-10.632883328125004],["gan",-10.63329995674763],["historic",-10.634162724115575],["crown",-10.634412402819988],["engagement",-10.634629280167212],["virus",-10.635028985957282],["landed",-10.635297132144215],["1926",-10.635358343609516],["Design",-10.635586254737527],["convection",-10.636140991044606],["colony",-10.636603266352523],["poll",-10.636944348000478],["legislation",-10.637681822015654],["Jesu",-10.637889579456434],["wine",-10.638614579713561],["audio",-10.639295118397511],["push",-10.640129044742814],["1934",-10.64026282232525],["Education",-10.64058801334213],["qui",-10.641552845537007],["Houston",-10.641726053831645],["aboard",-10.64176425051284],["dialogue",-10.642320868302571],["layer",-10.642741780459453],["1921",-10.64310666129348],["girls",-10.643305779574352],["Pat",-10.643429584729132],["Des",-10.643940028913377],["stands",-10.644070177819762],["separated",-10.644900749762648],["designation",-10.644967329796234],["everyone",-10.645000439851314],["tenance",-10.645017037561827],["Mid",-10.645305354915415],["Corporation",-10.645421859389575],["powers",-10.646526309772135],["Warner",-10.647791538156515],["mental",-10.647794220175802],["monarch",-10.64795447026042],["copy",-10.648033216730902],["plannin",-10.648129171558482],["Mor",-10.648280240086793],["starre",-10.648352469563136],["ultimate",-10.64923598525088],["huge",-10.649832220620702],["Jan",-10.650026486002954],["resemble",-10.651235297863746],["Down",-10.651606830694414],["sudden",-10.651970645029667],["Samuel",-10.652297855315203],["colonial",-10.65235180091327],["Swedis",-10.652353854133883],["Commonwealth",-10.652615388554473],["format",-10.652760375416541],["rooms",-10.655379382428722],["coat",-10.655459799472666],["Camp",-10.655752003817662],["arrest",-10.656007972073215],["qualify",-10.656360354404137],["Critic",-10.656441183085331],["sector",-10.65698552873666],["colleague",-10.657057382521481],["lose",-10.657194921788557],["Treat",-10.657624767470425],["08",-10.657627816246187],["railroad",-10.657783105441693],["universe",-10.657953017117885],["mount",-10.657988553904325],["1932",-10.658789828511576],["Along",-10.658816779600942],["Gaga",-10.659203136950936],["Medal",-10.659582835494833],["treate",-10.659596818914462],["acted",-10.659607314775963],["Anthon",-10.660137936997433],["Asian",-10.660833626648547],["Croatia",-10.66093723655641],["longes",-10.661058196286666],["Angel",-10.662109766215657],["Phil",-10.662888739559683],["console",-10.663066631342236],["nickname",-10.664303310639587],["Holy",-10.664401440852249],["Rick",-10.664616329624524],["polic",-10.66471214226958],["concentrate",-10.66516887781979],["intersect",-10.665402415216693],["1912",-10.66560550450578],["handed",-10.66584785974715],["evacuate",-10.665895869015444],["eggs",-10.66593947743432],["beautiful",-10.666466300030647],["seize",-10.666515582564227],["Fair",-10.666753502229504],["votes",-10.666804906560792],["hunting",-10.666970612153492],["Che",-10.667056331289771],["defende",-10.667571526020948],["depicte",-10.667673178570332],["ways",-10.668044565137956],["Sta",-10.66861239782215],["facing",-10.669599137632126],["Jaso",-10.67000716158069],["RAF",-10.670065473879335],["explosion",-10.670281479861483],["anyone",-10.670495528838767],["Gilbert",-10.67060765656379],["ble",-10.670986834778235],["lic",-10.671105493401434],["influential",-10.67163274620049],["Israel",-10.672447024784038],["Journal",-10.6729796015421],["Democrat",-10.673136200615675],["emperor",-10.673153285340256],["costume",-10.673492980581635],["professor",-10.673543317550472],["Writing",-10.674432447057736],["mate",-10.674444025470864],["dale",-10.674465237220929],["lift",-10.674566304176784],["Detroit",-10.675072291380088],["Pope",-10.675832294961062],["ence",-10.676049134249762],["violent",-10.676283430225029],["Bre",-10.676340632258174],["pull",-10.676357485344628],["reinforce",-10.676620350979112],["Frederick",-10.677101346730533],["pen",-10.677772000262653],["tribute",-10.67847710450345],["Player",-10.678663794638132],["rising",-10.67900834817894],["charges",-10.679053468227709],["DC",-10.67916731197271],["forcing",-10.679361537461219],["squad",-10.679506461513592],["firing",-10.679586853940984],["guilt",-10.679956151465612],["ram",-10.680436196802876],["mix",-10.680574634983335],["ocean",-10.681535023834943],["childhood",-10.682662383868328],["developer",-10.682846213953399],["elder",-10.683147286890325],["1929",-10.683339620226699],["Khan",-10.683701006298657],["hull",-10.684042357241065],["Categor",-10.684077018714195],["criticise",-10.684205166220526],["Clinton",-10.684798691705751],["looke",-10.685009933885055],["Plan",-10.685482237395252],["Ju",-10.686507394250798],["shift",-10.686639862915056],["Lane",-10.686771101965306],["Dream",-10.686931921699196],["interaction",-10.68713890830484],["Egyptian",-10.687644190496236],["owners",-10.687707809692485],["spend",-10.687900193594222],["concentration",-10.687971798910596],["1911",-10.688178026829686],["hole",-10.688751555251992],["comprise",-10.689259496100584],["Spears",-10.690066652473384],["Germans",-10.690624294461244],["Princess",-10.691058857893223],["Nielsen",-10.691535035208434],["1931",-10.691924716186481],["Dance",-10.692079857654901],["watching",-10.69216910840849],["diameter",-10.692211757316297],["provision",-10.692309490840142],["Stewart",-10.692512090569352],["Melbourn",-10.69261034297237],["Die",-10.692975275648012],["wooden",-10.69308060520029],["alternate",-10.693197835514738],["Building",-10.693460163090737],["1922",-10.69378163035908],["genetic",-10.69406850214871],["asks",-10.694090781161632],["favorabl",-10.694111253371016],["sight",-10.694256781933541],["flew",-10.694799002198142],["pain",-10.694840105740296],["ology",-10.69504431078895],["Anglo",-10.696467698278171],["uniform",-10.696786797108475],["USS",-10.696825411986339],["window",-10.697014858089819],["tracted",-10.69727684369609],["resigned",-10.697329224542761],["pointed",-10.697932346314493],["advocate",-10.698251347300001],["notabl",-10.698714134338445],["shots",-10.699029085671471],["pace",-10.69915152912769],["stable",-10.699779287753241],["environmental",-10.69990454330678],["afternoon",-10.700040879392072],["Ball",-10.700562643723256],["Guy",-10.700697296975058],["evil",-10.700709033110739],["Lennon",-10.701090989417601],["Austria",-10.701360631167178],["radar",-10.701449260683544],["impresse",-10.701480088933272],["cease",-10.701555205606766],["error",-10.701866879006147],["Evans",-10.702159121813756],["linke",-10.703258326479057],["insect",-10.704123622921575],["attempting",-10.705211047160516],["lowes",-10.705565025106262],["Bra",-10.705728373799714],["ame",-10.705801233975729],["closer",-10.705989004743456],["footage",-10.706279744426123],["lawyer",-10.706629026124645],["Nazi",-10.707240133825524],["05",-10.707303273454148],["hood",-10.707696481208806],["ika",-10.708264369443723],["teeth",-10.708587231457875],["routes",-10.708727855483389],["Colorado",-10.709272798025193],["balance",-10.70942924574562],["collaboration",-10.709939604163367],["Turkish",-10.71059272209367],["extent",-10.711256864278397],["Ki",-10.711270221115793],["easy",-10.71169911646278],["Foundation",-10.71194487698098],["offering",-10.7119729324663],["circuit",-10.712252506237485],["persuade",-10.71233555322133],["affect",-10.71240879062313],["grounds",-10.712499136060126],["Brazil",-10.712581721974637],["Dave",-10.712802866800391],["Mel",-10.713070436242845],["Mario",-10.713430528549157],["Sarah",-10.713574445910146],["Wind",-10.713783012675105],["ston",-10.713892614667845],["junior",-10.713915378218475],["resolve",-10.714160681754018],["resolution",-10.714354637071503],["understand",-10.714369488013071],["margin",-10.714399044574478],["superior",-10.715514716363801],["Baltimore",-10.715914549779606],["happene",-10.716592796578384],["Greec",-10.716811592410219],["occupation",-10.717163705354096],["column",-10.717442308139928],["junction",-10.717648478509169],["hear",-10.717925727047286],["accompany",-10.7182327842895],["streets",-10.718270208164917],["wrong",-10.718544817799975],["Cooper",-10.718957204301107],["salt",-10.719361034624821],["confront",-10.71957177810856],["militia",-10.719589573968328],["prime",-10.720270787663482],["ven",-10.720689484830205],["motor",-10.720744071565266],["Story",-10.720879208063419],["exhibition",-10.722354935082762],["Guardian",-10.72261269003845],["Gu",-10.723125025345297],["alignment",-10.723205062322744],["interpretation",-10.723602666493488],["Wal",-10.723772882342253],["disaster",-10.724623798709079],["Senator",-10.72521153128211],["residential",-10.725329501276576],["beam",-10.726150605937647],["alliance",-10.72633589724445],["Sullivan",-10.726643653474202],["log",-10.727131312386017],["departe",-10.727149234663518],["140",-10.727323104209383],["poetr",-10.727669173822601],["detect",-10.728333848154694],["hal",-10.728446359353892],["loop",-10.728509323600132],["Somerset",-10.728669063247981],["ü",-10.729452210685348],["Iowa",-10.72964343817034],["changing",-10.730124513851926],["continuous",-10.730489848410324],["highlight",-10.730714685683903],["Marshall",-10.731088432017028],["racing",-10.731209881063469],["partie",-10.731326465905891],["Key",-10.731852528815764],["conservative",-10.732074357380299],["happy",-10.73257046877038],["trans",-10.733139015490355],["appropriate",-10.733816532832664],["Canal",-10.7341528108355],["organ",-10.735551819486652],["signing",-10.735773345343208],["creative",-10.736264445485034],["Gen",-10.736265839958016],["var",-10.736364628292211],["drum",-10.736405514379825],["ster",-10.736646207774745],["informe",-10.737119242634103],["prize",-10.737360048922378],["Wrestling",-10.737469312185203],["dream",-10.737732862610534],["grown",-10.738033379988359],["EP",-10.738092211991448],["identify",-10.738171344056948],["testing",-10.738792362552598],["evolution",-10.738855264023021],["satellite",-10.73953636946262],["boiler",-10.740190806341372],["toll",-10.740352043881806],["taught",-10.741005331845301],["truck",-10.741207369915406],["1928",-10.741758613304505],["creature",-10.742332893342486],["Mad",-10.742593320652475],["Miami",-10.742614521238023],["wings",-10.743112397494901],["erect",-10.74320569490379],["ballad",-10.743817583283452],["volunteer",-10.743922298914843],["trail",-10.744165589010123],["rus",-10.74454688046177],["Area",-10.744551454712587],["Austrian",-10.744657237412444],["Open",-10.744741410457102],["drums",-10.74499264100943],["dangerous",-10.74511747504678],["Place",-10.745396027807768],["mill",-10.745955161672066],["Confederate",-10.747765199421613],["wedding",-10.747769864945852],["witnesse",-10.748345046864603],["northward",-10.748828857309425],["prevente",-10.749135429996304],["Hungar",-10.749494145064146],["Pen",-10.749521782100684],["teammate",-10.74975281338807],["Peninsula",-10.749833194810925],["answer",-10.750390654335586],["crisi",-10.75117889928232],["medium",-10.751250155168854],["simultaneous",-10.751559615798765],["shelter",-10.75156252265532],["isation",-10.75160481418506],["tourist",-10.751622198045121],["maker",-10.751758972666366],["Ministr",-10.751920976009838],["Seattle",-10.752251209188778],["runner",-10.752737142441084],["initiate",-10.752900105572866],["withdrew",-10.753250888586715],["permission",-10.753386681179487],["chase",-10.753683333537786],["moves",-10.753807098678001],["choose",-10.754257987326941],["originate",-10.754863926031277],["Trek",-10.755319166815806],["drink",-10.755437503611047],["bands",-10.755756918183822],["Front",-10.757606545655234],["clock",-10.757890744348357],["Dam",-10.758234573894482],["Ram",-10.758541527012234],["tier",-10.75873847790264],["melod",-10.759320236232291],["print",-10.759822263656005],["1924",-10.760090535228166],["Sch",-10.76013033884599],["ā",-10.760376314866784],["veteran",-10.760586412525852],["existe",-10.760588078415612],["Mars",-10.76084054951611],["apartment",-10.761000955182947],["thirteen",-10.761283604980626],["dense",-10.7615056109829],["platinum",-10.761634181866562],["Mal",-10.761710611368585],["advice",-10.7637130221147],["predator",-10.764612361410698],["doubt",-10.764639041232616],["skills",-10.764901830121566],["monitor",-10.764991669115746],["Alabama",-10.765129772354467],["shoulder",-10.7656370125557],["mainstream",-10.765640236342778],["labor",-10.765875358422754],["ura",-10.766018854908147],["towns",-10.766233928991468],["faith",-10.766664017304258],["Caribbean",-10.766882917413287],["imp",-10.767689546436365],["sounds",-10.76890544244991],["Shi",-10.76914119826974],["holds",-10.76970169004102],["Charlie",-10.770401449697202],["Country",-10.770783959616404],["burg",-10.77080521399857],["merge",-10.77118928753428],["citing",-10.771410241399725],["expensive",-10.771458217625595],["legs",-10.771474733305652],["expression",-10.771480481979268],["brick",-10.771512148193988],["Belgi",-10.77157802458343],["illegal",-10.77191197061186],["Lawrence",-10.772161153761601],["ask",-10.772449539350646],["shear",-10.772946573730078],["spending",-10.773068914610029],["housing",-10.773105420460052],["landscape",-10.773982512624578],["Hard",-10.77422214903773],["mini",-10.774295703775188],["Yankee",-10.774987304691077],["achievement",-10.775235774831826],["marry",-10.775440777256394],["hockey",-10.77569089235039],["seats",-10.77580270403099],["suicide",-10.776403444753745],["prepare",-10.776815306683591],["Minnesota",-10.777112847315596],["attitude",-10.777846127209367],["Dead",-10.777889532253676],["ić",-10.778853668063924],["approval",-10.779224147990572],["locomotive",-10.77966737498402],["publisher",-10.77984347102871],["prompte",-10.779908032465803],["Run",-10.779993187066394],["tenth",-10.780301426880314],["compilation",-10.780318353874707],["debt",-10.780361419627152],["Apple",-10.780466743058746],["vertical",-10.781073468808922],["ethnic",-10.781227919484362],["organise",-10.781610534063319],["Health",-10.782092891508352],["triple",-10.782270459684765],["symptom",-10.782794709491576],["finance",-10.782848626909052],["closing",-10.783095237197935],["examine",-10.78390860601619],["false",-10.784565252541997],["perspective",-10.784585627819851],["wound",-10.784891671521194],["minimum",-10.785301027350792],["abuse",-10.785511979311927],["adventure",-10.78667550461322],["neighborhood",-10.787108163232986],["Township",-10.787747129085812],["Grammy",-10.787810536990564],["differ",-10.78793176709667],["Crown",-10.78843484654945],["rates",-10.78867468383135],["bear",-10.78892254382366],["Hotel",-10.789040648342098],["Soon",-10.790105208358678],["ight",-10.790390427748918],["consequence",-10.79052535878114],["statue",-10.790637193001356],["armament",-10.790667592229159],["regulation",-10.790749342461012],["Den",-10.791097798744127],["lam",-10.791131048985156],["Pass",-10.791799719794714],["Much",-10.792551035765136],["adjacent",-10.79273389411734],["Staff",-10.792785953002015],["scholar",-10.792808897694044],["blame",-10.792913049203564],["Guide",-10.79377523475803],["factors",-10.793874341311142],["Human",-10.794058242120192],["steal",-10.79414312371912],["definition",-10.794637880297149],["Dieg",-10.7952110876139],["Return",-10.795407074498996],["Mer",-10.79551614708872],["marine",-10.795710617568398],["travele",-10.795778631008059],["USD",-10.79578438965364],["Raw",-10.795863942886275],["funeral",-10.796337622677218],["Flight",-10.796585403570901],["characterize",-10.797058927726402],["Christopher",-10.797133005149853],["photo",-10.797949869341227],["authors",-10.798065086502545],["owed",-10.798152221341496],["palace",-10.798276154003826],["partnership",-10.798420886142312],["strip",-10.798685461271155],["chair",-10.798820870239439],["Walker",-10.799222424680984],["instrumental",-10.799257086842275],["Qu",-10.799285533619328],["Dar",-10.799384751511504],["Dor",-10.79973419996881],["scholars",-10.801045596308825],["translate",-10.80136350209365],["dresse",-10.801376633489625],["Native",-10.801858063212205],["*",-10.802243743966201],["standards",-10.802951581460789],["Children",-10.803699931983122],["aware",-10.804045448267301],["hook",-10.804416315028814],["Interstate",-10.804451268752729],["attendance",-10.805241824344165],["Saxon",-10.806823448786012],["1908",-10.807384527113364],["Ford",-10.807560404562594],["Edge",-10.807754874660942],["priest",-10.80809581857776],["expert",-10.808099029553441],["elevation",-10.80844966237125],["Wing",-10.808589716569866],["1905",-10.808832703836412],["intensifie",-10.80888621607189],["fill",-10.809118333038507],["Benjamin",-10.809176033823192],["Are",-10.810227542375575],["rhythm",-10.81091952405949],["Legacy",-10.811007888727389],["1909",-10.811040321780578],["tion",-10.811089614145938],["lieutenant",-10.811375773446429],["Ice",-10.81150830885882],["percentage",-10.812328056828587],["Hockey",-10.812485415620142],["Gun",-10.81269824911553],["translation",-10.812999644606444],["alien",-10.813149711300952],["aggressive",-10.813210770238486],["smooth",-10.813589857135547],["suitabl",-10.813950772375154],["orchestra",-10.813976346355094],["Roosevelt",-10.815418682855508],["entertainment",-10.815429369660853],["Kansa",-10.816555944679177],["ize",-10.816676615893272],["construct",-10.817002653653883],["Alfred",-10.817636710508507],["asking",-10.817664103864544],["beach",-10.818076333913794],["operational",-10.81869982242041],["Chronicle",-10.819125781094975],["istic",-10.819234527872878],["accurate",-10.81949005319295],["tactic",-10.819535804265339],["divorce",-10.819722973573594],["investment",-10.819872348836107],["Wolf",-10.819978631278424],["Manhattan",-10.820219285895476],["Franklin",-10.820705599452268],["quote",-10.821132226165826],["manuscript",-10.822075437770192],["races",-10.823318584693844],["covering",-10.82332365430631],["oxygen",-10.823697213162468],["distinguishe",-10.824193263576957],["bombing",-10.824249598771083],["Dragon",-10.825058381878504],["Digital",-10.825787273170805],["concrete",-10.826531984484912],["perceive",-10.827773665332133],["stra",-10.827810028025835],["chapel",-10.828396381706987],["advisor",-10.82844840026996],["phrase",-10.829143127683702],["Margaret",-10.829179725364881],["truth",-10.829188988239327],["interesting",-10.829582987001713],["impossibl",-10.829847338113764],["1907",-10.829889048919851],["anger",-10.830126615961404],["meat",-10.830192582852735],["faction",-10.830406974077148],["guy",-10.831032398778653],["travelle",-10.831128246451204],["Steven",-10.831131299783925],["wake",-10.831625011059517],["danger",-10.831920243403378],["understanding",-10.832366677279474],["westward",-10.832683568431783],["jet",-10.83326374658582],["Hong",-10.83353645017376],["Jam",-10.83361559917871],["windows",-10.833889125497075],["Hay",-10.834035703400424],["Industry",-10.8347611279073],["Hero",-10.835269208017515],["profile",-10.835281895565311],["lemur",-10.83562136906816],["shield",-10.835889333156617],["pole",-10.835962351649776],["sculpture",-10.836270451869733],["aged",-10.836648558669236],["bone",-10.836666650087722],["sank",-10.837617699716242],["360",-10.83841341567042],["agricultural",-10.83845979109498],["Mississippi",-10.838523865379088],["Ranger",-10.839194369300724],["regain",-10.839499321490672],["grave",-10.839780478188363],["Portland",-10.839926724890969],["punk",-10.839972935061724],["trust",-10.840499963177965],["mayor",-10.840541091798595],["bright",-10.840840026024228],["boys",-10.84087697517407],["Halo",-10.840899207900325],["dress",-10.84093069513587],["submitte",-10.842630403591958],["feed",-10.842687387696625],["displaye",-10.842698111479873],["helicopter",-10.843058163682477],["Campbell",-10.843469621244068],["Born",-10.843692112039887],["Saturday",-10.843815909655742],["Independent",-10.844208787635687],["horror",-10.844574193027489],["ix",-10.844707996585722],["Marie",-10.84501718642684],["plus",-10.845048781844168],["enters",-10.84528072326841],["survivors",-10.845527323380459],["situate",-10.846234535354041],["communist",-10.846464716475072],["guide",-10.846477304355467],["Fu",-10.846490928023622],["earn",-10.847240040328554],["arriv",-10.847479870670082],["Villa",-10.848494897749763],["restoration",-10.848786593330832],["fifteen",-10.849224419518332],["Seven",-10.849691837869308],["Credit",-10.849831588078676],["distinctive",-10.850764223678574],["tornado",-10.852196314995457],["illness",-10.85345427378039],["Roy",-10.85398253028896],["virtual",-10.854102065720408],["wheel",-10.85546973704085],["ynasty",-10.855893569306684],["assemble",-10.856106811860922],["helping",-10.856517855928429],["ammunition",-10.85680213629088],["clean",-10.85738377844584],["churche",-10.857863988940515],["context",-10.858604991718598],["Ban",-10.858766813290348],["update",-10.858847605450883],["Rob",-10.858959821965446],["VI",-10.860440060636165],["dramatic",-10.860658191942022],["strict",-10.861390477059818],["aimed",-10.862676612671207],["fourteen",-10.862949990074176],["spiritual",-10.862966133726392],["celebration",-10.862981342838069],["tune",-10.863073953644918],["Bel",-10.863144501337402],["Liberal",-10.863585037691642],["Enterprise",-10.863720861910807],["wish",-10.863840337953764],["artistic",-10.863846638958155],["fled",-10.863893743636485],["suspende",-10.864012109943719],["stem",-10.864675507260085],["particle",-10.865374774180864],["Historic",-10.865645512733858],["Tor",-10.86629819016618],["Graham",-10.866473298486731],["idae",-10.866622123621914],["exile",-10.866756647094814],["skull",-10.866883042910075],["cho",-10.866920438414894],["dancer",-10.867266817341902],["Cold",-10.867325279563865],["assiste",-10.868007677280964],["mobile",-10.86818837675359],["Tennessee",-10.868371171154454],["viation",-10.868447824904944],["Louisiana",-10.868760113745559],["charter",-10.869350984211648],["Honor",-10.869619682138612],["CE",-10.870011019992994],["complet",-10.870043943024264],["bonus",-10.87054181421607],["portrait",-10.871890317581794],["telling",-10.872733233738467],["Warren",-10.872779168712299],["underground",-10.87279905118897],["cargo",-10.873778620802433],["horn",-10.873814828037533],["rap",-10.874210662253045],["Missouri",-10.874216239385323],["queen",-10.874282820580088],["earthquake",-10.874607649671418],["Labour",-10.874645657521299],["etting",-10.874649866192076],["loose",-10.874690603386469],["cult",-10.875054031555933],["Tamil",-10.875114461767431],["employment",-10.875190460777517],["Montreal",-10.875555906992272],["1906",-10.875699549526757],["Bor",-10.876684078252147],["stick",-10.87686907788807],["proceed",-10.87771993419098],["Ger",-10.877837594824872],["mature",-10.87863891460298],["VII",-10.879007019583574],["plain",-10.87918788445399],["jazz",-10.87936872547989],["Depression",-10.879699362196193],["Season",-10.879736224637742],["grey",-10.879947268164635],["arch",-10.880541818466785],["ken",-10.880960836636064],["Ber",-10.881326082686215],["Hart",-10.88133541722797],["commence",-10.882476237180157],["1870",-10.882631244580507],["legend",-10.883415401754323],["guitarist",-10.883710713053347],["Mitchell",-10.884057382642478],["worn",-10.884159241583536],["replac",-10.884774237748616],["donate",-10.885087859456466],["Harvey",-10.885611520914068],["ABC",-10.885612462214802],["Sub",-10.886256842882329],["Ridge",-10.886525584618433],["dozen",-10.886807816390306],["tape",-10.887200569859655],["spore",-10.887224166713096],["reward",-10.88764454102845],["abilitie",-10.88789996346915],["theater",-10.88814138377819],["pulle",-10.888899863231854],["fifty",-10.889173113736476],["radical",-10.88995586565501],["substitute",-10.890833242343263],["quiet",-10.890928083313817],["Fall",-10.89168915998538],["Bus",-10.89178657155283],["administrative",-10.89195248622013],["fields",-10.892179316383203],["hipping",-10.892289138445694],["Business",-10.892370066356296],["minimal",-10.892520952137273],["recruit",-10.892738669350031],["Cook",-10.892857109486682],["circumstance",-10.894742745973456],["rice",-10.894838107659087],["Jimm",-10.895697518297084],["surger",-10.896191979318864],["ace",-10.896418149174686],["artwork",-10.896909309173077],["strengthen",-10.897431069969898],["defender",-10.897456554252317],["instruction",-10.897780039394025],["ick",-10.89849997002733],["Representative",-10.898736225753305],["Get",-10.899000438947844],["drove",-10.89904994132414],["bronze",-10.899136706356881],["rivers",-10.899203433227036],["temporari",-10.899306719905294],["procedure",-10.899537346247541],["Cuba",-10.900125428833093],["opped",-10.90036126699341],["Bros",-10.900828369403303],["behaviour",-10.901141520214448],["thinking",-10.901434833035395],["rebuilt",-10.90193796554678],["stretch",-10.902154665308554],["regime",-10.902636184263438],["Hindu",-10.902767149553341],["variant",-10.902994687176871],["replie",-10.903151157037055],["disorder",-10.903168491504072],["Hell",-10.903378658052478],["Bal",-10.903391324242943],["crest",-10.903521436299181],["victorie",-10.904093816565817],["Let",-10.90414182390973],["topic",-10.904173658789876],["Sol",-10.904185695323946],["fallen",-10.904230935340538],["inhabitant",-10.904249732388806],["tale",-10.904366700405674],["coverage",-10.905066450047745],["ruling",-10.905346004501116],["revolt",-10.90597204392937],["Mont",-10.905986810337676],["wire",-10.906513192467344],["flee",-10.907240509542408],["fixed",-10.907467497697546],["ownership",-10.907920355663698],["boss",-10.90818781431472],["Gate",-10.90839145392551],["ack",-10.909645638980548],["illustrate",-10.910940960673209],["practical",-10.911106099629839],["Files",-10.91114964479984],["ubbed",-10.911327445954853],["Mat",-10.911607524777303],["conversion",-10.911736798729462],["basin",-10.911762908244826],["mechanism",-10.911820678528837],["Arizona",-10.912037673693778],["cousin",-10.912970761607383],["maneuver",-10.913256024147383],["armore",-10.913398447464942],["representation",-10.913517148156487],["cur",-10.913724361539762],["colonie",-10.913953215886671],["ification",-10.914242213591034],["execution",-10.914398513606782],["Dylan",-10.914485304030224],["kar",-10.915137741563345],["spotted",-10.915317349468854],["Billy",-10.915327345580074],["Bureau",-10.915337172727025],["rebellion",-10.9157318242689],["Cu",-10.915824444484187],["WC",-10.916318620915376],["elaborate",-10.916516149059792],["Tokyo",-10.916562191862845],["Real",-10.916673544716687],["similarit",-10.916677396490831],["frequenc",-10.916918543455637],["absolute",-10.916918560509274],["parish",-10.916944846291605],["philosoph",-10.917092347808097],["preferr",-10.917167127206405],["quest",-10.917455856126963],["loan",-10.917637719369589],["marks",-10.91771083363588],["signature",-10.917737263666478],["twin",-10.918017627141758],["airline",-10.918402225403693],["dominant",-10.918430614598876],["Athletic",-10.918959364916667],["prove",-10.919984704887597],["gam",-10.919999787470108],["vast",-10.920079486751368],["lab",-10.920175881931776],["payment",-10.92038890853964],["songwriter",-10.921132949788078],["uch",-10.92158913592463],["solar",-10.92189714386434],["musician",-10.922117411953455],["typhoon",-10.922233360726231],["Nine",-10.922683579642229],["mus",-10.923026447247349],["Such",-10.923046231486001],["Ali",-10.92321159854744],["printe",-10.923675952295923],["Sony",-10.923719163396372],["Take",-10.924427713888823],["embark",-10.924470906579202],["missile",-10.924715695030839],["Val",-10.924743894220816],["smoke",-10.925648757454283],["feud",-10.925841914197878],["densit",-10.926365821418688],["Indies",-10.926807721752482],["aki",-10.927199081927562],["flagship",-10.92875727901563],["cable",-10.929799266771425],["Murphy",-10.930052889649774],["Soul",-10.930483123553685],["Tag",-10.930635278735235],["Oklahoma",-10.930878942403321],["suite",-10.931223037240269],["riders",-10.931629298963003],["gang",-10.931723512828736],["reinforcement",-10.93180887638528],["cannon",-10.932020055487055],["Delaware",-10.932564100682571],["check",-10.932584305595817],["Juan",-10.933272564514462],["forty",-10.933435142634732],["oured",-10.933442048936934],["marking",-10.933695972126225],["ants",-10.933874082930426],["Well",-10.934871764080007],["vis",-10.93492300051161],["legislature",-10.93502230853707],["addresse",-10.93504266918422],["deaths",-10.935340277169987],["Federation",-10.935448118364425],["Iraq",-10.935879552326618],["Sk",-10.93644743071166],["universal",-10.937100705244884],["Prize",-10.937526560935495],["obvious",-10.937932928082436],["Switzerland",-10.938349406590852],["waves",-10.939035447044478],["Broadway",-10.9390959369993],["insiste",-10.939658434958748],["dissipate",-10.939913334419481],["baby",-10.940206567259313],["Amy",-10.940331824783366],["excellent",-10.941334722450742],["invade",-10.941661148330073],["reporter",-10.941701053423387],["Officer",-10.941965957356079],["tribes",-10.942056047790476],["manufacture",-10.942087676512726],["Yo",-10.94229349710102],["Bull",-10.94248673108552],["frigate",-10.942524887526945],["yield",-10.942552535421164],["riot",-10.942629537705898],["bearing",-10.943310113879328],["1901",-10.943515812094708],["metric",-10.944269155938612],["sphere",-10.944590791294916],["announcement",-10.944902470947873],["badl",-10.94495963718876],["Rico",-10.94544910292166],["journal",-10.945635143548998],["Baker",-10.946702838170152],["believ",-10.94702487657494],["storage",-10.947527022644934],["suggestion",-10.947646073962925],["nations",-10.947668925186324],["quarterback",-10.947914418037175],["Fred",-10.948084393864198],["racial",-10.94822589041813],["impression",-10.949253192894819],["apply",-10.94980233419728],["shells",-10.950534834672283],["striking",-10.950927573638307],["Tar",-10.951323416361658],["settler",-10.951329422806442],["stole",-10.951528088900867],["uncle",-10.951708100789315],["Owen",-10.951777960858795],["1903",-10.951807032167011],["legac",-10.951898967848336],["1902",-10.952496360244268],["Hor",-10.952497967020527],["lacke",-10.952742400764759],["val",-10.95340246343599],["emotion",-10.953444996034435],["cloud",-10.953470678575604],["cutting",-10.953558956355163],["Shakespeare",-10.953909657358947],["Leslie",-10.95430856055059],["relocate",-10.954408794725499],["neighbor",-10.955130597622329],["Baby",-10.95517754859501],["select",-10.95565420293153],["commentar",-10.955672099705806],["useful",-10.955977724609195],["degrees",-10.956102670925727],["farmer",-10.956162507544807],["kW",-10.95623812918766],["Glen",-10.956811928591312],["Perry",-10.956983770161582],["branche",-10.957270658348776],["app",-10.957435700828643],["biographer",-10.95754020609727],["pretty",-10.957753976662286],["theatrical",-10.958123445251228],["rian",-10.95826338512193],["architect",-10.958394229374647],["float",-10.958846191675953],["minorit",-10.959477412530811],["armour",-10.959573112078115],["Mag",-10.959772392994322],["Nixon",-10.96025003867435],["altitude",-10.96025013464109],["cave",-10.960410797531756],["shop",-10.960751662258486],["sunk",-10.9614208335297],["Atlanta",-10.961957946008372],["105",-10.962664361602489],["03",-10.96286106149358],["edit",-10.962980761209812],["shorte",-10.963050024495566],["adopt",-10.963627101216625],["Band",-10.964248428595981],["Actor",-10.964342613799044],["casting",-10.964559828163036],["portrayal",-10.964626825903139],["Know",-10.96472801136223],["Jonathan",-10.965405020668861],["Denmark",-10.965414159780533],["Trust",-10.965863408561944],["Gray",-10.965970259689293],["negotiate",-10.966425712164682],["enhance",-10.9664728873203],["govern",-10.966698572947688],["performer",-10.96712854372217],["Baseball",-10.967233692969025],["Rihanna",-10.967514627825624],["sang",-10.967782759305859],["Vi",-10.967953406760508],["Hugh",-10.968143942435042],["reconnaissance",-10.968169682258022],["Report",-10.968388194548794],["altere",-10.968457257655412],["customer",-10.968863933430253],["egg",-10.969422460647387],["Friday",-10.96947234931904],["ritual",-10.969654980282163],["Type",-10.970097471930588],["Miss",-10.970417204336972],["Abbey",-10.970551542006472],["MS",-10.97066974316255],["Hal",-10.97104159973471],["shock",-10.971328259148944],["conventional",-10.971346331304673],["Fighter",-10.971485755883087],["Johnny",-10.971642264414108],["familiar",-10.971688661945278],["Small",-10.97179976999217],["Shaw",-10.97205050576039],["Hudson",-10.972246692365953],["whils",-10.972714900973369],["sail",-10.97300613917757],["remix",-10.973198902071694],["knee",-10.973476942677415],["Cardinal",-10.9748367290974],["holiday",-10.976129908861628],["Campaign",-10.976129937345355],["organism",-10.976685139276634],["Karl",-10.976895550239634],["offense",-10.977059899576808],["villain",-10.97709985510681],["š",-10.97746098099077],["Drive",-10.977526173453272],["enliste",-10.977630391752433],["apolis",-10.977988965715749],["Kurt",-10.978080012958593],["emphasis",-10.978377899832868],["friendship",-10.97868753081703],["researcher",-10.978698682857704],["Arnold",-10.978731815976165],["saurus",-10.97881695992529],["exposure",-10.979169338854105],["zer",-10.979260874014887],["feather",-10.979420125383893],["courts",-10.979441595154173],["osted",-10.979518457168812],["placing",-10.97964514411986],["pack",-10.97997347525374],["190",-10.980048266587723],["delegate",-10.98008450948142],["backing",-10.980307167127606],["ative",-10.980520093409343],["continental",-10.980755107515419],["ignore",-10.980790096627047],["dancing",-10.982032063795906],["acclaim",-10.982522975750793],["inherit",-10.982664045706045],["Wayne",-10.983076745172013],["convert",-10.983231320081448],["Bach",-10.983507842106556],["Finn",-10.983632042633177],["taste",-10.983855591101179],["Obama",-10.983947497919978],["Railroad",-10.984034816954082],["Communist",-10.984188348531564],["cinema",-10.984269204953188],["touch",-10.984549696173275],["mechanical",-10.98459101772999],["Potter",-10.984659364243168],["Snow",-10.98508778965941],["Israeli",-10.985351034824667],["garner",-10.985408930122114],["constitution",-10.985438948418519],["Keith",-10.985715954319378],["eighteen",-10.985719537891375],["AC",-10.986446844475516],["Universal",-10.986567022994826],["mining",-10.986985843220896],["strengthene",-10.987023830988186],["abandon",-10.987354886591616],["Internet",-10.987451668977911],["electron",-10.98776417783025],["gathere",-10.988112352993431],["Rachel",-10.988403118537914],["routine",-10.989274548654976],["186",-10.989470061863102],["mines",-10.989531186611705],["Reserve",-10.989678892351659],["Spring",-10.989751939830043],["Express",-10.98989256276897],["Bat",-10.98990457247594],["expect",-10.990008473689304],["suburb",-10.990050720781625],["Dun",-10.990056413878804],["conceive",-10.99063049608539],["progresse",-10.990886036587826],["pioneer",-10.991828073042532],["Madagasca",-10.9922662935771],["rebound",-10.992594553614538],["Pearl",-10.99332559700696],["external",-10.993586349460383],["ón",-10.993642505019643],["Peace",-10.994034700628877],["Natural",-10.994228002475927],["Nor",-10.994381166206582],["Champion",-10.994556623762191],["Beat",-10.995440182484515],["Off",-10.995966061866916],["Kirk",-10.996016410306545],["Impact",-10.996090583859544],["Tracy",-10.996246162391946],["gal",-10.996278495823178],["mainland",-10.99675239873281],["secretary",-10.996851526849422],["wage",-10.996940846172745],["infection",-10.997132566440534],["demolishe",-10.997650442895505],["empire",-10.998440428777883],["Eventual",-10.998462220694787],["Our",-10.998480514514922],["Birmingham",-10.998882917333844],["readers",-10.99901168583423],["Emil",-10.99915025190364],["employ",-10.999200544815215],["eeking",-10.999757947725037],["indicat",-11.000020511787273],["ranium",-11.000753258258854],["sitting",-11.000836171195076],["conversation",-11.001098238090467],["dvertising",-11.001112861761325],["warship",-11.001214777210713],["lavery",-11.001651963557535],["Sar",-11.001738000524377],["authorize",-11.001765676089954],["reduction",-11.002012634002252],["Blood",-11.002131880832785],["expense",-11.002429884096397],["Leonard",-11.002457488714047],["Belgian",-11.002566906997966],["lists",-11.002783760891598],["acoustic",-11.002874084764862],["alter",-11.003534643734952],["artificial",-11.003763127343534],["Defence",-11.003781060710452],["Troph",-11.004654334868718],["McCartney",-11.005099302836964],["coache",-11.005217019152079],["talking",-11.005226111782875],["attraction",-11.005955933717118],["Mur",-11.006088954714663],["constitutional",-11.006228507364666],["Phoenix",-11.006435139891549],["crashe",-11.00662933513556],["Morrison",-11.006645377159458],["deposit",-11.007106295789193],["cup",-11.007481265801509],["stein",-11.008195787306837],["Secret",-11.00860586687421],["aging",-11.008966759137259],["roots",-11.009087946159678],["Boat",-11.009186022285565],["magic",-11.00950034196186],["Blues",-11.009885367725627],["desert",-11.010036504471305],["experimental",-11.010200854487678],["vary",-11.010877051966727],["educational",-11.011170035332176],["liquid",-11.011382863619852],["Classic",-11.012362777316564],["deliberate",-11.012371843206491],["depiction",-11.012450551007891],["wider",-11.012516458830957],["atomic",-11.012622048801223],["fragment",-11.012943578501819],["mor",-11.01344410435129],["Connecticut",-11.01359573178283],["funny",-11.013765864354106],["favourite",-11.014133989847902],["Shortl",-11.014301038837353],["dish",-11.014318348017518],["offices",-11.014679062075853],["trigger",-11.014884771090731],["demande",-11.01518183393868],["Eve",-11.015182289957867],["Anti",-11.015882763097176],["kov",-11.015925294370067],["prototype",-11.01596705136155],["Chan",-11.015968854756089],["gray",-11.016009483173411],["Mother",-11.01608326799106],["impose",-11.016085020972017],["Euro",-11.01609143055806],["Todd",-11.01629453017599],["coup",-11.016432691399807],["aerial",-11.016446485756198],["oversea",-11.01674491710832],["Ontari",-11.016777542285162],["electrical",-11.016813638538807],["dome",-11.017473554820201],["micro",-11.018150842188998],["Fan",-11.018335810218677],["ranks",-11.01926203215573],["Unit",-11.020654199317605],["strategic",-11.02078207451763],["manga",-11.02101928800671],["delivery",-11.02149379398613],["Canterbury",-11.021712909734617],["Stan",-11.021816524482889],["withdrawal",-11.022293303372077],["sheet",-11.022342860705084],["sacrifice",-11.022350151584273],["Lucas",-11.022736426585737],["imperial",-11.022985475258828],["wins",-11.023022136421497],["edite",-11.023110213134554],["tempo",-11.023239079000183],["Bobby",-11.023919588990367],["Community",-11.023986623175762],["removal",-11.024038425820947],["col",-11.024192965942305],["liberal",-11.024542010181358],["sung",-11.024697326187354],["Jupiter",-11.02488753281149],["heir",-11.024949561702824],["Fleming",-11.024979492328017],["mountains",-11.025680106451055],["liner",-11.025736629500214],["tur",-11.025916940862103],["lease",-11.0270967058308],["Napoleon",-11.027145928287984],["cluster",-11.027465691383929],["aftermath",-11.027621946233602],["Convention",-11.027709086440225],["eared",-11.027893072286377],["iness",-11.02799742152345],["Works",-11.028034306314439],["armie",-11.028367431238276],["Sel",-11.028702983592627],["gender",-11.02895807837833],["corn",-11.029057281077003],["please",-11.029227170070914],["acknowledged",-11.029639631402112],["Shu",-11.029806768618055],["Rain",-11.029943811051536],["bridges",-11.030384069887955],["Foreign",-11.030388490365798],["Ultimate",-11.030415893223061],["Dog",-11.030572181504375],["350",-11.030748907164611],["reduc",-11.030902502487434],["complaint",-11.031217224158528],["restling",-11.031413707456233],["educate",-11.031733585125558],["demo",-11.032728259183202],["feeding",-11.032926135952518],["pitcher",-11.033225248753059],["UEF",-11.033499408862555],["welcome",-11.034257879427695],["mail",-11.03470403961009],["ava",-11.034750294205],["emphasize",-11.034789020337342],["Greg",-11.034985248882162],["blow",-11.035473770589363],["processe",-11.03630663328639],["amateur",-11.036324343387722],["failing",-11.036787371511593],["competitive",-11.037227721719475],["Personal",-11.038513909410963],["decay",-11.038613000245293],["Transport",-11.038765417414428],["PS",-11.038843382222034],["sburg",-11.038993311016881],["arts",-11.039364340393497],["Windows",-11.039439570379958],["ä",-11.039786282965366],["Say",-11.040057096185478],["Mint",-11.04029336080513],["Vancouver",-11.040452024275716],["participant",-11.040452024684171],["jurisdiction",-11.040913492288116],["Swift",-11.040913762358535],["walking",-11.040932437572138],["Players",-11.041139739482233],["proportion",-11.041324188814166],["Oak",-11.041326475663103],["Angelo",-11.041360936044],["publishing",-11.041540780735234],["qualified",-11.04190383295649],["trailer",-11.04197260851182],["ratio",-11.042367637998563],["nce",-11.042423360105392],["eagle",-11.043452498276025],["fault",-11.044788825875347],["pale",-11.045087000302466],["Bernard",-11.045099319799935],["shall",-11.045184728422335],["Rio",-11.045836785282805],["revolution",-11.046395707552122],["fantasy",-11.046467800559604],["moon",-11.046585689904482],["heading",-11.046999085204796],["operator",-11.047419536338637],["radiation",-11.047420546869805],["membership",-11.047422667666732],["Marvel",-11.047495071365397],["streak",-11.047868643248801],["Triple",-11.048572618188555],["putting",-11.04870726139723],["Administration",-11.04879120111083],["Inc",-11.049139269233653],["TNA",-11.049183603953722],["tenure",-11.049268296281138],["Village",-11.049868940358662],["grass",-11.050247233959576],["dogs",-11.050452010953933],["Trail",-11.05049716686276],["extratropical",-11.05058725399257],["Bradman",-11.050596131433782],["revise",-11.050809428728332],["rum",-11.050938987287012],["Portuguese",-11.051120028831296],["gre",-11.051385104250727],["bag",-11.051510988324495],["hydrogen",-11.051607145187557],["alcohol",-11.051681241278072],["eruption",-11.052069280359095],["Rights",-11.052136930140433],["nic",-11.05214109292217],["assembly",-11.052473123386427],["creek",-11.052533257665313],["Alice",-11.052664942713374],["serial",-11.052817848927656],["Social",-11.052938576175407],["provincial",-11.053454297586821],["valuable",-11.053454886344673],["Local",-11.054181803366639],["parliament",-11.05422078783276],["gill",-11.05435203177936],["displace",-11.0555080553186],["watershed",-11.05555415904296],["ongoing",-11.05564716747246],["125",-11.056675406342663],["Pakistan",-11.056899228495976],["Gary",-11.057011414414434],["burne",-11.05707572237403],["battlecruiser",-11.057169527881268],["structural",-11.05725434083507],["rick",-11.05732078539124],["gram",-11.057354272198864],["intercept",-11.057412770657717],["Vol",-11.057438620488748],["possesse",-11.057824138994999],["steps",-11.05855731943382],["Grey",-11.059036764005626],["inhabit",-11.059125147377411],["ave",-11.059168182483655],["dynamic",-11.059184085644695],["utter",-11.059278427881079],["distant",-11.059333753743866],["Dick",-11.059342389561998],["Dwight",-11.059550163481495],["riding",-11.059560832134657],["1860",-11.059994666480726],["exceed",-11.060007890930219],["Hardy",-11.06004012121117],["intellectual",-11.060509006878501],["keyboard",-11.060932668117548],["Cho",-11.061070213201226],["blocks",-11.061301342944056],["Shin",-11.061417778774555],["mushroom",-11.061432401761342],["Trans",-11.061678850711932],["intervention",-11.061907423371553],["architectural",-11.061911179187938],["1896",-11.06210525999815],["drugs",-11.062113531994584],["Hampshire",-11.06284629792355],["Side",-11.062966291211955],["ˈ",-11.062991128915844],["Bird",-11.06302153345048],["trace",-11.063555268349038],["Oliver",-11.063709539458692],["bal",-11.063810319301862],["worship",-11.063814112250435],["gui",-11.064086947226741],["enberg",-11.064387592259555],["guarantee",-11.065208075685513],["disturbance",-11.065685782089155],["Alaska",-11.066169611495168],["gets",-11.066405702980369],["Edinburgh",-11.066627958793582],["NCAA",-11.066635102805119],["identical",-11.066635846491874],["ré",-11.066794159037293],["birthday",-11.06679616325781],["examination",-11.067132067427362],["Collins",-11.067376088660001],["Professor",-11.067575501144452],["explosive",-11.067581079791687],["Marge",-11.067671223471095],["promotional",-11.067872270187607],["voting",-11.06801775307949],["AL",-11.068041013575922],["rix",-11.06820776963736],["automatic",-11.068532681972915],["ped",-11.068718005841927],["Kar",-11.069361091915766],["Trade",-11.069385093409924],["Helen",-11.069402143689416],["bones",-11.06997072700024],["blind",-11.070071254098666],["jump",-11.070489384577812],["ensis",-11.07054396050778],["restriction",-11.070781525315311],["mistake",-11.070787468953345],["muscle",-11.070930359660885],["rivalr",-11.070932493863012],["decorate",-11.071564896542105],["accommodate",-11.071651559725932],["voyage",-11.072328524432214],["medicine",-11.072831905084765],["ears",-11.07288418201734],["170",-11.07295883006886],["banks",-11.073112216447313],["compet",-11.073264199333913],["Near",-11.073374974050733],["lanes",-11.073707259054961],["neighbour",-11.07421182283483],["anime",-11.074280237411852],["cruise",-11.07461957805496],["Work",-11.07463898960027],["ale",-11.074696655545559],["conquer",-11.074756135285043],["duration",-11.075174209162519],["parody",-11.075209303884673],["CO",-11.075324650659056],["uck",-11.075480214627525],["1898",-11.076018726796887],["Dann",-11.076101623500973],["Armenian",-11.076129633673936],["Deep",-11.076451332559504],["Flying",-11.076489230319826],["Victorian",-11.076492144769896],["imming",-11.076567713241847],["ideal",-11.076950952613505],["navy",-11.077197132385173],["trend",-11.07778036834851],["JT",-11.077922499174555],["discipline",-11.078059290487762],["Province",-11.078059359011704],["terrain",-11.078078246326054],["condemn",-11.078914105415716],["burial",-11.079416903125285],["Historical",-11.080470895897621],["hitting",-11.080745674464303],["Craig",-11.081466433990197],["Virgin",-11.081527312860505],["servant",-11.082077558627645],["Wii",-11.082572846602265],["Ralph",-11.082861209882568],["eating",-11.083382495499862],["sweet",-11.08343180843076],["Thos",-11.083566466307639],["Argentina",-11.083920695344094],["Nan",-11.084301177053018],["Whit",-11.084482813821282],["01",-11.084640587940067],["fortification",-11.084972986843725],["attending",-11.08530873808931],["shallow",-11.085372030515835],["Yorkshire",-11.08543995193568],["ries",-11.086055989795025],["Jacob",-11.08667045979735],["Johnston",-11.086688927867456],["Performance",-11.08673308682187],["Carlo",-11.08716095405076],["efficient",-11.087649175437715],["Sur",-11.088026314094172],["chord",-11.088200812764752],["capabilit",-11.088271753136219],["Lloyd",-11.088654546898876],["hidde",-11.088764852316853],["styles",-11.088787809042513],["ious",-11.088892929182723],["unclear",-11.088978129790828],["scattere",-11.089114062489022],["magnitude",-11.089138417322914],["shaft",-11.089152463148292],["rom",-11.089389153731588],["Market",-11.090148808983404],["accidental",-11.090210015442365],["Globe",-11.090727818562073],["progressive",-11.091204293045873],["greed",-11.091357909806966],["rarel",-11.091674788378985],["Turner",-11.092603442900273],["Call",-11.09266669185185],["Jerry",-11.093078922551094],["planets",-11.093254366792623],["shut",-11.094020885253395],["stores",-11.09429317756677],["mirror",-11.094480939380427],["drummer",-11.094564022344795],["blast",-11.094877520762678],["succession",-11.095418529573156],["Lang",-11.095886427021634],["1899",-11.096237526373365],["explanation",-11.096434456956558],["Overall",-11.0964440274382],["commitment",-11.096498302527731],["predominant",-11.096556329295655],["Blu",-11.096592930149285],["wishe",-11.096774019312736],["Celtic",-11.0974190887664],["sq",-11.097532566336952],["Metro",-11.097551636818391],["lion",-11.097663812660654],["Bennett",-11.097904270648002],["collaborate",-11.098247904822623],["biograph",-11.09826780236375],["softw",-11.098348742873526],["dust",-11.098456183969672],["react",-11.098667610033848],["Subsequent",-11.098873192033622],["bombs",-11.099005401444973],["leads",-11.099191533420603],["starr",-11.099476444253353],["185",-11.099833177469657],["Hol",-11.100620807990826],["argues",-11.100693154773861],["Finland",-11.101320227805894],["output",-11.101357733187653],["sugar",-11.101529911555787],["Kate",-11.101691391376864],["prohibit",-11.101714495350041],["monaster",-11.101814607048784],["statistic",-11.102203001401595],["Voice",-11.102340251808121],["Penn",-11.102597069053918],["lawsuit",-11.103747649537468],["polar",-11.1038818241625],["Common",-11.10409725471525],["Champions",-11.10414051475284],["Mission",-11.104548694416307],["ique",-11.104708400904974],["repeat",-11.104920052646056],["grossing",-11.105384797113913],["Grace",-11.105524967468295],["warfar",-11.105896767535476],["cleare",-11.105902191416952],["forth",-11.106716132371545],["Norfolk",-11.106761768652209],["cabinet",-11.107013850360616],["prospect",-11.107136541742282],["Syria",-11.107574229939218],["reluctant",-11.107843800109265],["rounds",-11.10797765511576],["quit",-11.108256327376552],["willing",-11.108260408765643],["Official",-11.108703738326424],["Judge",-11.108785363841633],["Burton",-11.108832523006338],["transporte",-11.10890961931257],["trading",-11.108986480612296],["referr",-11.109144886782119],["suspect",-11.109781858297117],["eritage",-11.110120217743875],["turbine",-11.11018688857203],["ruler",-11.110371594770207],["Queensland",-11.110631905772152],["presentation",-11.110638600181723],["recall",-11.111058399069826],["argu",-11.111197171323145],["Link",-11.111739325261413],["Artist",-11.112076177104154],["precipitation",-11.112167570882072],["Hawaii",-11.112204658010786],["Nicholas",-11.112288290243011],["banne",-11.112317462693028],["Style",-11.113168435619254],["Barry",-11.113440708265646],["AP",-11.113465524213229],["Next",-11.114728231933778],["Still",-11.115420344363653],["tomb",-11.115567519141827],["uz",-11.115630871480537],["Ros",-11.115807443004186],["stress",-11.11584658234744],["Brazilian",-11.116148765578451],["Brothers",-11.116381352757127],["physic",-11.116424146207905],["bore",-11.117150246679223],["hir",-11.11772497438879],["march",-11.117954174469245],["athletic",-11.118133213599915],["compliment",-11.118249843465275],["Broadcast",-11.118355406303777],["crystal",-11.118375406288006],["agenc",-11.118467441274108],["activist",-11.118967808036155],["LP",-11.119092914133494],["questione",-11.11925859117981],["Vincent",-11.119388602082324],["Davies",-11.119470985937038],["inus",-11.119471092751247],["stern",-11.119834849072145],["Catherine",-11.120130233234274],["Emmy",-11.120131643448683],["Medical",-11.120639544564838],["Harbor",-11.12080143082656],["NA",-11.12095491629195],["Sweet",-11.121131539281837],["Guinea",-11.121143849425202],["habit",-11.121156108197816],["Opera",-11.121184283625276],["eastward",-11.12165878495508],["hang",-11.122182438510293],["Hunt",-11.122279922668312],["1850",-11.122421507835352],["Mis",-11.122592757992269],["pursuit",-11.123323737249343],["prefer",-11.123755567187278],["Mayor",-11.124526380985552],["inscription",-11.124677196012616],["Yellow",-11.124684992748499],["imager",-11.124782359573079],["Sega",-11.125212218909503],["Bryan",-11.125302467316425],["copper",-11.125827383455988],["gross",-11.125975673485524],["Kane",-11.126953259445685],["tooth",-11.126970228689991],["Hughes",-11.127132799507333],["beaut",-11.127380970697772],["1897",-11.127381389596621],["Roll",-11.127714225515215],["revive",-11.127852483047427],["Darwin",-11.127951880981513],["Mega",-11.128322309804684],["hybrid",-11.128659681764638],["zu",-11.128998745550831],["Indonesia",-11.12933700796387],["Antonio",-11.129445882608564],["Farm",-11.130041180658843],["package",-11.130643392484128],["wreck",-11.130680272349089],["ancestor",-11.130703425050665],["loud",-11.131103547236393],["mad",-11.131236942425879],["dealing",-11.131245700826792],["nautical",-11.131328165596182],["Box",-11.131479890517019],["mul",-11.13163722618781],["02",-11.13204851890859],["Kon",-11.132093689665862],["Harvard",-11.132700413766917],["proceeded",-11.133222831863902],["gene",-11.133224848499655],["Beginning",-11.13323969342929],["Oslo",-11.133338812025151],["spoken",-11.133404446448651],["Bro",-11.13351765078789],["Mass",-11.133565932346045],["Training",-11.133607399632485],["undertake",-11.134045667126149],["Affair",-11.1342321019074],["Abu",-11.13462786039821],["Cameron",-11.134726420957996],["torpedoe",-11.135258394847632],["laborator",-11.135787254689392],["Studio",-11.135927684498593],["survival",-11.136543729338058],["Beck",-11.13665295510333],["legislative",-11.137262750838818],["Swiss",-11.137267479918098],["cul",-11.137298286696378],["statione",-11.13731623061918],["Luke",-11.1378432353569],["collective",-11.137880362048348],["Poe",-11.138247910070334],["voter",-11.138396453354666],["sixteen",-11.139263695476135],["confidence",-11.139300439603673],["lum",-11.139458227496949],["bond",-11.139842979312856],["Son",-11.1400836454924],["Moscow",-11.140316999097003],["dislike",-11.140349766972772],["mammal",-11.140474957258082],["Symphon",-11.14081459781939],["…",-11.140826909216324],["Pittsburgh",-11.140827535279698],["charity",-11.141991833007257],["consume",-11.142054684357682],["ration",-11.14211538142785],["commentator",-11.142358817654925],["nineteen",-11.14235894537159],["Gallery",-11.142360521563148],["initiative",-11.142383682219394],["breast",-11.142455258876574],["talks",-11.142880113970643],["consideration",-11.142956820699705],["advised",-11.14308988399473],["Protestant",-11.143892359487985],["varied",-11.14413734254774],["Susan",-11.144163549574074],["poly",-11.144492451717088],["occupy",-11.144916260622715],["Female",-11.145522547880285],["proof",-11.145543498697918],["supplement",-11.145736948293145],["tribe",-11.145769266861382],["airfield",-11.145898034368926],["interprete",-11.146328807588226],["sisters",-11.146416829213788],["summit",-11.146585976885678],["cor",-11.146945661443429],["Wilhelm",-11.147260909901325],["Orange",-11.147288544824868],["myth",-11.147996348576378],["solve",-11.148445896446422],["Bath",-11.14881588072079],["Junior",-11.149023630316357],["puzzle",-11.149535980983188],["decisive",-11.149535981824215],["burning",-11.149782715935388],["gency",-11.149882641200264],["Tam",-11.150020703561513],["autumn",-11.150051113267182],["Terry",-11.150201056412726],["tonnes",-11.150209878499638],["celebrit",-11.150565581567667],["Liz",-11.150848007922159],["Upper",-11.150860946991372],["Zone",-11.1515311832622],["Ren",-11.15178937507977],["Edition",-11.152123341807624],["ú",-11.153058539174472],["Wallace",-11.153200019183652],["Mountains",-11.153417270214604],["recommendation",-11.153427182343858],["audition",-11.15347476347021],["wick",-11.153653996605236],["humor",-11.153697807710723],["Movie",-11.153736606432302],["patron",-11.154025664839303],["Mir",-11.154294859184525],["asset",-11.15445775220871],["Tra",-11.154717153728765],["Section",-11.154730842295532],["trait",-11.154776023255298],["List",-11.15521008775486],["attorney",-11.155211950813648],["filter",-11.155256271422484],["chemistr",-11.155593454452875],["explicit",-11.156247414981166],["accessibl",-11.156486105871885],["photography",-11.156509907588301],["mechanic",-11.156519127442964],["evacuation",-11.157292762078606],["Carr",-11.157705770238906],["inning",-11.157730374396369],["Boys",-11.157772221705319],["Microsoft",-11.157815047458325],["lyrical",-11.158052902812276],["battles",-11.158366465509083],["programming",-11.158460125033844],["rig",-11.158742626702741],["inclusion",-11.158840784425244],["Formation",-11.158900477633544],["roadway",-11.158901163182968],["Picture",-11.159111322620642],["volcano",-11.159475871085274],["Defense",-11.159882128823849],["trick",-11.16038816931884],["compile",-11.16043258642778],["Malaysia",-11.16105366406217],["Bri",-11.161085451747955],["indeed",-11.161104044169075],["Indonesian",-11.161261836433653],["Gil",-11.161315361312603],["crops",-11.161356316162333],["Description",-11.161961716819377],["Jefferson",-11.161979661297526],["migration",-11.162023075315972],["careful",-11.162127343834875],["harm",-11.162501296445605],["Program",-11.162646276124834],["harbour",-11.163004232969811],["195",-11.163006518393988],["Girls",-11.16304164608134],["Aftermat",-11.163414234455713],["shifte",-11.163526077325688],["Hope",-11.16363265321596],["compromise",-11.163699930826624],["Cast",-11.163914763460557],["mic",-11.164763853441144],["speculate",-11.165062126782143],["conquest",-11.165184434173149],["conservation",-11.165639385594751],["rushe",-11.16579507095227],["export",-11.16599256463327],["Sheffield",-11.166151704063298],["lighting",-11.16668057984906],["prepar",-11.166976450540545],["publications",-11.166993458436977],["Come",-11.167166787446853],["blocke",-11.167191160347468],["ions",-11.167297574210533],["demonstration",-11.167743858121195],["inland",-11.167852945128853],["immigrant",-11.168248501349087],["anticipate",-11.168488971505191],["Pol",-11.168638704126032],["descent",-11.168722117316916],["pine",-11.16878818364742],["ports",-11.169159874216488],["Larry",-11.169306720693449],["closure",-11.169592781219166],["fundamental",-11.169813547368058],["vol",-11.17001546512807],["uncertain",-11.17003284514109],["Gall",-11.170035361449749],["auto",-11.170146195161768],["à",-11.170332154467197],["vulnerabl",-11.170857648101624],["noise",-11.171062037597997],["modification",-11.171386965913598],["Zero",-11.171963288809211],["1895",-11.172652809119503],["Gay",-11.17284811139012],["forecast",-11.173743139620935],["Neil",-11.174448157214922],["warrior",-11.17454410405464],["Cyrus",-11.175081674491185],["Herald",-11.175088706948042],["Security",-11.175233292814553],["Tre",-11.175641955659763],["Dallas",-11.175671359018825],["tory",-11.175744495346384],["electro",-11.17593283170988],["Apollo",-11.176116641133941],["elite",-11.176644006825903],["Austin",-11.176665488115468],["lung",-11.176817462315555],["Lost",-11.177536792173512],["founding",-11.17763097376807],["powder",-11.177714239352401],["Together",-11.17771463557267],["drafte",-11.178374622861327],["fisher",-11.17879372144381],["calculate",-11.178902999714698],["follower",-11.179019778646715],["Collection",-11.179311108401723],["Laborator",-11.179339482989569],["hunt",-11.179488638149403],["RNA",-11.179605592712168],["absent",-11.179641535999803],["champions",-11.179644202793959],["participation",-11.179838585515185],["bombardment",-11.179896763900327],["MC",-11.179908719831767],["censor",-11.179925046059886],["pink",-11.180235445764765],["resident",-11.180273299582787],["Nova",-11.180368036776052],["Hunter",-11.180430862876488],["FC",-11.180885386736636],["Amendment",-11.181425950031231],["administer",-11.18160098038603],["Pra",-11.181685248539267],["Com",-11.181928544617026],["Room",-11.182713968872035],["Woman",-11.182960845591683],["Child",-11.183680572346429],["Jun",-11.18382636766228],["activate",-11.183864016743868],["Musical",-11.184087920315779],["finger",-11.184109134268983],["stroke",-11.184180442007449],["jobs",-11.184254176287329],["Gre",-11.18463925853564],["remote",-11.184777248845045],["ple",-11.18501605102461],["girlfriend",-11.185165825498203],["mono",-11.185232748294212],["span",-11.18547500128079],["FBI",-11.185739714968129],["Hills",-11.186084106938262],["Pine",-11.186216887888648],["users",-11.186232800014356],["imprison",-11.187291865923871],["Chelse",-11.187294177653973],["clothes",-11.187388425794804],["significance",-11.187443429970354],["CBS",-11.187772955873385],["brilliant",-11.187820708122498],["aria",-11.188291470939737],["Danish",-11.188359442165286],["onward",-11.188616028383022],["trappe",-11.188891782547772],["marche",-11.188992601293377],["Stock",-11.189585106729307],["gift",-11.189710506774913],["Parsons",-11.189837863016304],["aux",-11.189895950067235],["Gill",-11.190003485789338],["grandfather",-11.190295336322475],["usage",-11.190574961829197],["disband",-11.190766756668339],["uri",-11.1909442192376],["salary",-11.19105239253916],["Allie",-11.191444455048547],["Greater",-11.191509297605215],["Armstrong",-11.19168191407457],["chest",-11.191699107959352],["Horn",-11.1918508945637],["traveling",-11.192476693350937],["tender",-11.19276440902021],["Half",-11.192789950200673],["mixture",-11.193182999192928],["Quebec",-11.193185760780176],["expectation",-11.19330838448919],["Orlean",-11.193720574072227],["wrestler",-11.193924554379615],["mytholog",-11.194794715203079],["bor",-11.194915109409429],["Fisher",-11.194998252633514],["Fund",-11.195312816737001],["dinosaur",-11.195334468549483],["Cathedral",-11.195336462162363],["HD",-11.195926407656067],["terminal",-11.19618545246365],["variable",-11.196333505868157],["Sri",-11.196502598566832],["bats",-11.196858044895293],["rely",-11.197271319545827],["suffer",-11.197308019943529],["Cultural",-11.198572240127021],["recurring",-11.198587270945811],["essay",-11.1992567157927],["benea",-11.199574255787422],["Spider",-11.199653560233823],["Authorit",-11.19965808718733],["respond",-11.199722574168625],["diverse",-11.199829769105968],["Pal",-11.200090663697814],["Past",-11.20016844654137],["Fourth",-11.200634020811233],["Buffalo",-11.201308437081853],["115",-11.202008285272285],["Name",-11.202601824529918],["advertisement",-11.202947803663502],["Sho",-11.202955356154067],["aunt",-11.203139707671077],["mood",-11.203153933183053],["Pam",-11.203214371983147],["Salt",-11.203509575242213],["Guitar",-11.203975396477361],["destination",-11.204013040612644],["FIF",-11.204370568138984],["killer",-11.204767743561991],["beating",-11.204948492532978],["organic",-11.205005418376544],["Magic",-11.2052726202409],["revival",-11.205598439638017],["coordinate",-11.20594575842901],["commanding",-11.20604052766844],["grid",-11.206595717939546],["corporate",-11.206622208270282],["ere",-11.206625915208004],["trough",-11.20669530577634],["owing",-11.207239160577517],["Tyler",-11.207254607060285],["Var",-11.207339672617872],["None",-11.207707480359485],["precise",-11.207799986214614],["oriente",-11.2078188880446],["Rap",-11.207839132497273],["sailor",-11.208021724852888],["variation",-11.208056744590728],["joke",-11.208518212168102],["Spirit",-11.20865259209258],["Agency",-11.208659137547402],["sick",-11.208877384440127],["circular",-11.208891147478589],["Utah",-11.209023950262806],["Clarke",-11.209087621557963],["molecule",-11.20998381769293],["fortress",-11.210632448546683],["Stuart",-11.211112301384807],["unexpected",-11.211198481347608],["cathedral",-11.211625030739121],["Harold",-11.211648030642195],["nice",-11.212499819525464],["Marc",-11.212773406642725],["avi",-11.212877983968266],["saving",-11.213254934100666],["Charlotte",-11.21327012187514],["installation",-11.213319776715128],["Constantine",-11.213379373230419],["velocit",-11.213996386345112],["acre",-11.214117033605891],["Regional",-11.214451592366508],["Cricket",-11.214830160411175],["Serbian",-11.215026437952737],["transportation",-11.215669858702865],["beaten",-11.215929192818235],["Isle",-11.216504447590324],["Muhammad",-11.216564523137501],["descendant",-11.216668734630023],["appreciate",-11.216796020684779],["Disc",-11.217076388908005],["biological",-11.21710057883368],["gear",-11.217107119453718],["Athen",-11.217244539123861],["Associate",-11.217665538504644],["Richmond",-11.217666585179314],["Evil",-11.218026089289841],["isotope",-11.218137186895415],["kilometer",-11.218217216668522],["1889",-11.218440393512813],["atus",-11.218656724757967],["upset",-11.218714354706542],["Metropolitan",-11.218767770455042],["realise",-11.219547359577582],["dissolve",-11.219678150998226],["charte",-11.21981991223059],["discharge",-11.220048368746735],["airing",-11.220059805449106],["Sonic",-11.221362488828818],["prince",-11.221385174371616],["diplomatic",-11.221546930777714],["rowned",-11.221846299235736],["1894",-11.222005439569397],["Rod",-11.222031259056862],["Hans",-11.222037204758067],["substance",-11.222159885335639],["109",-11.222460338174477],["sailing",-11.222665468074657],["Tang",-11.223088084263184],["iva",-11.223154528316343],["scope",-11.223513109400763],["dive",-11.223741537631895],["impressive",-11.223779491568095],["requir",-11.224058522118675],["rains",-11.224644257153578],["oxide",-11.225272457980566],["Bible",-11.22546918554512],["agricultur",-11.225501991671976],["1000",-11.225897047903555],["Scientology",-11.22596204591639],["Executive",-11.225962046039196],["scholarship",-11.226168594779923],["screenplay",-11.226201221423265],["empty",-11.226518638885658],["Mason",-11.227449149513363],["accord",-11.227670065562252],["1891",-11.228201135408263],["Freedom",-11.229307621329784],["competitor",-11.22985750408289],["millimeter",-11.229858522294652],["mac",-11.229934431128662],["clan",-11.229953562788886],["neutral",-11.230001182641214],["captur",-11.230329481142642],["heritage",-11.230337629431205],["gle",-11.230772889270419],["240",-11.230828752772204],["YouTube",-11.230993361686252],["Der",-11.231007096630828],["Pictures",-11.231241383616561],["Books",-11.231393227079915],["dependent",-11.231405635100685],["ransportation",-11.231491213955085],["Bulgarian",-11.23159869279123],["outcome",-11.23200158659552],["Grade",-11.232203155798175],["Yu",-11.23227472696301],["Control",-11.232492476719688],["inger",-11.232901290933459],["romance",-11.233234901326323],["lip",-11.233298309531314],["implemente",-11.233381125816027],["continent",-11.23355115147679],["recruite",-11.23366977944154],["prices",-11.234128261662587],["Christianit",-11.234358370916546],["para",-11.234477143941106],["bypass",-11.23511080829983],["permit",-11.235791567506983],["Pete",-11.235998569441268],["venture",-11.236037002439387],["seventeen",-11.236574484925201],["Charts",-11.236596270471964],["Count",-11.236836927452746],["telephone",-11.237137916801597],["Kyle",-11.237147964787685],["confusion",-11.237195875485224],["bowler",-11.237206968085323],["golden",-11.237220836686356],["Baron",-11.237285769077154],["unle",-11.23750960773986],["Chapel",-11.237638563620921],["Advance",-11.237784054542848],["bishop",-11.23778981780086],["hurt",-11.237976719285921],["1892",-11.238267933703636],["assert",-11.2388502469129],["Want",-11.238879021897299],["evident",-11.239381328557968],["Cardif",-11.239398225546294],["switch",-11.239535098819363],["happen",-11.239638045020115],["rapper",-11.239725037148986],["Newton",-11.239777881375353],["municipalit",-11.23987190507884],["advanc",-11.239939007504432],["categorie",-11.239944382834697],["barrier",-11.240005820865232],["goods",-11.240106047290412],["fold",-11.240222780086043],["Shiva",-11.240278538366784],["Typhoon",-11.240507756481769],["Register",-11.240530979314123],["mast",-11.240739379488797],["dwarf",-11.240777579125442],["Walt",-11.240879536078626],["cemeter",-11.241150299321546],["Kal",-11.241169915430511],["bulk",-11.241418184709755],["complaine",-11.241525430965993],["scenario",-11.241635470191511],["measurement",-11.242064637835073],["mineral",-11.242285914497131],["southeastern",-11.242692703122366],["timber",-11.242767810133731],["relation",-11.242879366889923],["1800",-11.243003428221819],["Conservation",-11.243332832513195],["Kill",-11.243378940328824],["gods",-11.243506792292802],["pregnan",-11.243750526455472],["Rhodes",-11.243770507903196],["realistic",-11.243886456582015],["admit",-11.244313846524651],["easie",-11.244704033831995],["Territor",-11.244769663437708],["Ruth",-11.244949005221617],["extinct",-11.24499181571615],["poster",-11.245014323187965],["mask",-11.245219938477563],["Sox",-11.245489124335046],["urged",-11.245616206075368],["theorie",-11.245653810954392],["devoted",-11.24592451355219],["logo",-11.246171495276641],["holes",-11.24621717754718],["refugee",-11.246335087083281],["elli",-11.246429035277062],["Orchestra",-11.246726055010239],["illustration",-11.247321917439306],["stuff",-11.24757303646572],["Justin",-11.247823526560808],["infrastructure",-11.247919840555696],["crews",-11.247955016140718],["witness",-11.248197725831979],["Islamic",-11.248450970622281],["constitute",-11.248951934429616],["dimension",-11.248970170309693],["Until",-11.248997279965113],["Cavalry",-11.249565279682852],["Ground",-11.249939757647716],["Wisconsin",-11.250134126379798],["Code",-11.250385426605176],["user",-11.250507772977315],["104",-11.250873645848266],["rent",-11.250934217794192],["Mil",-11.251015746901444],["Oscar",-11.251107315354265],["Rat",-11.251358663524714],["commemorate",-11.251374422289175],["eligible",-11.251842533640307],["lifetime",-11.252001349978295],["ante",-11.252035525913701],["ordinar",-11.252403009658074],["literal",-11.252632902559014],["Fish",-11.252702181266315],["Nar",-11.252766490643804],["Nature",-11.252893580048411],["Actress",-11.252984786312052],["Reich",-11.253293842897996],["Ker",-11.253465563618793],["paint",-11.25351955984582],["lava",-11.254036989738635],["⁄",-11.254696416368391],["resort",-11.254732121944954],["Without",-11.25496344201408],["Sport",-11.25552562013987],["knocke",-11.255707446926861],["Airlines",-11.255825941726325],["Jerusalem",-11.255840254112945],["Boeing",-11.256008760984185],["scandal",-11.25631917141603],["kills",-11.256382020478942],["₹",-11.25641266388244],["peninsula",-11.256412820083739],["angular",-11.256521834898457],["Rad",-11.25686641689905],["101",-11.257091952643837],["lasting",-11.25743223495433],["switche",-11.257523080756965],["Pierre",-11.257621265642353],["strange",-11.257739484562475],["rejoin",-11.257773097701191],["stretche",-11.257880218491962],["trio",-11.257932384885398],["Flag",-11.258101708117263],["commit",-11.258107712852617],["Panzer",-11.258169152824031],["Father",-11.258625270315454],["Bur",-11.258926877736364],["cash",-11.259141986023344],["Montgomery",-11.259279638271376],["450",-11.25979057899719],["pupil",-11.260393770354078],["census",-11.260433061599688],["Draft",-11.260628665018128],["nix",-11.260696424575922],["handling",-11.26092020200877],["flows",-11.260936569044361],["oppos",-11.261075973723091],["Stevens",-11.261335810593062],["hosts",-11.261815858450927],["rider",-11.262250574804115],["Branch",-11.26258756209203],["Kid",-11.263156447896332],["burst",-11.263179665154052],["Barnes",-11.263225740586876],["Cemeter",-11.263350154926016],["inducte",-11.263465193218321],["Donald",-11.263805260423727],["mbar",-11.263841998379018],["proceeding",-11.2638895760081],["Fight",-11.264112830854415],["naming",-11.264836555987902],["retail",-11.265294490328573],["Legend",-11.265573537861341],["ock",-11.265603853701606],["Scots",-11.266358565578479],["cards",-11.266435726320243],["Edwards",-11.266809395574464],["Leader",-11.26684086803891],["Hop",-11.26698544549576],["alert",-11.266992357724707],["Bon",-11.267343857834241],["possess",-11.267491824493806],["ake",-11.267893159650423],["cylinder",-11.268509600573493],["Support",-11.269084573853437],["Century",-11.26908931747063],["assessment",-11.269129308651639],["Saturn",-11.269458507173681],["onic",-11.269614034720917],["dinner",-11.269660067428894],["Grove",-11.269780420676925],["Rama",-11.270019395609147],["epic",-11.270232377883243],["Attorney",-11.27024972492357],["hostile",-11.27036813770931],["Turkey",-11.27037128110096],["Sherman",-11.270426760326616],["travell",-11.270658573798624],["Brooks",-11.270860496981978],["mud",-11.270860683569673],["scrap",-11.270894541047994],["MacArthur",-11.270970381347471],["gue",-11.271011686133473],["preced",-11.271018655467113],["Again",-11.271115694441828],["directors",-11.271254008244203],["Gra",-11.271853235592502],["grain",-11.271944628561519],["Kur",-11.271989217350264],["Baltic",-11.271995236798205],["manufacturer",-11.272033279555867],["1888",-11.272064077612686],["volcanic",-11.272149910398046],["crop",-11.272348741966628],["interact",-11.272811066347234],["root",-11.272821222451912],["speculation",-11.273160634107132],["lesson",-11.273475478409793],["ER",-11.27360475804537],["fortune",-11.27366657534108],["fatal",-11.273849080109091],["bitter",-11.273862616095819],["Czech",-11.27432189283368],["counterpart",-11.274533927898021],["Las",-11.274719012194614],["Ivan",-11.275524149398366],["GameSp",-11.276102662447292],["enforce",-11.276374347708721],["Warrior",-11.276656617150127],["rushing",-11.277194186523193],["Resident",-11.277240823318301],["keeper",-11.277270831487403],["Pink",-11.277401461699261],["priorit",-11.277487173974253],["autobiograph",-11.277552856446631],["belong",-11.27760345204662],["documente",-11.277631321973162],["amendment",-11.277850267000893],["Gro",-11.278002727425246],["tough",-11.27822900682893],["Wells",-11.27828421774906],["magnetic",-11.278497754663206],["Stand",-11.278756695599476],["aga",-11.278799539462621],["manufactur",-11.278980675489654],["galax",-11.279046856352583],["surge",-11.279508745211098],["rendere",-11.279827111577568],["thrown",-11.279938017271295],["batte",-11.280349406079598],["observer",-11.280628886493554],["utstanding",-11.280654127689203],["Reagan",-11.281342271992282],["Burns",-11.281464448631644],["spare",-11.281507540075935],["highlighte",-11.281609681070572],["Mind",-11.282068433546797],["Action",-11.28274159311936],["Ring",-11.283422156469143],["harsh",-11.283504013182082],["pu",-11.28387767994542],["promot",-11.284165450253665],["Nation",-11.284371514236948],["Writer",-11.28487159781977],["hell",-11.284900761138072],["anagement",-11.284912975022493],["elect",-11.284920328837664],["lighter",-11.285421191525382],["distinction",-11.285572765405506],["arena",-11.28582931117688],["Para",-11.285851415370628],["Falls",-11.286034183190733],["concurrent",-11.286190394958476],["Thames",-11.286332965900545],["separation",-11.286645474665065],["Glee",-11.286822721128107],["Tribune",-11.287229068714936],["Romney",-11.287229948011422],["Article",-11.28723475050683],["Shah",-11.28835793016129],["suspension",-11.289004469026736],["intent",-11.289146874713914],["Lin",-11.289234783249498],["loved",-11.289282365165125],["metre",-11.289290454876724],["Miles",-11.289554116999405],["texts",-11.290032393465825],["doctrine",-11.290185890667095],["hence",-11.290428573979568],["leaf",-11.290465389494718],["mont",-11.290726952955207],["Organization",-11.29079962339592],["disagree",-11.290851780702951],["companion",-11.291451532403892],["ERA",-11.291641319244974],["rocket",-11.291726073163549],["distinguish",-11.291943838236527],["transform",-11.292043383477917],["custom",-11.292219171754372],["suspected",-11.292472502165111],["rumor",-11.292520587960222],["1865",-11.292529024087244],["Barbara",-11.293656501216798],["DJ",-11.293895068153489],["chu",-11.294021246138616],["Greate",-11.294322777296046],["Comedy",-11.294630736390936],["homosexual",-11.29495313452373],["Springs",-11.295059350016686],["smith",-11.295105762707731],["bull",-11.295142396285495],["hopping",-11.295254571687686],["graph",-11.295380305115646],["NATO",-11.295567387897076],["Shadow",-11.296149010874501],["Against",-11.296324610376482],["belonging",-11.296750704344573],["myster",-11.29728939225212],["Duch",-11.297407349474652],["Nancy",-11.2974831606933],["978",-11.297903900878813],["Fer",-11.298189839310446],["Animal",-11.298513060970263],["renewe",-11.298572478674739],["Constantinop",-11.29888332176548],["complicated",-11.299758505593147],["vital",-11.30010732993172],["shortage",-11.301056523609203],["cattle",-11.301502389492287],["Cyclone",-11.301525252635125],["steep",-11.302066088021054],["Thor",-11.303169486520984],["miss",-11.303216665955457],["alive",-11.303376220043036],["Swan",-11.303427480676554],["physician",-11.303457708495664],["diamond",-11.30348874143202],["Portugal",-11.303901200128296],["Ernest",-11.304501751275144],["transit",-11.30454041538967],["blockade",-11.304543545986203],["bears",-11.304728795651883],["Gene",-11.304766608911248],["absorbe",-11.305493012226075],["definite",-11.305592567399954],["Reed",-11.306065797823745],["rape",-11.307900000296561],["OS",-11.307977819332553],["chen",-11.308184229337508],["ography",-11.308216948355609],["transmission",-11.308273667102188],["noble",-11.308689437146231],["pleasure",-11.308732383839436],["sinking",-11.30877554378289],["concerning",-11.309003628221735],["pose",-11.30913530536738],["painter",-11.309222625622272],["Kam",-11.309568060730982],["cite",-11.30965335977816],["Continental",-11.309934640288052],["Eye",-11.309996437566053],["Newcastle",-11.310116928858482],["Scar",-11.31025630206259],["whale",-11.310699788289096],["Rogers",-11.310811345420348],["disable",-11.311016730869554],["Future",-11.311133980461808],["VIII",-11.311162726689433],["NC",-11.311328879437806],["trap",-11.311404759234797],["Ser",-11.311512022201931],["Drake",-11.312132003484562],["Cro",-11.312378517471402],["choir",-11.312451850724617],["roller",-11.313011217285737],["corps",-11.313354173921546],["Bright",-11.31341656741423],["ersonnel",-11.313672952253198],["ologist",-11.313852956851653],["Heavyweight",-11.314205917167826],["mates",-11.314338862909967],["José",-11.314770445510312],["Joint",-11.315715521826542],["taxe",-11.315790346090335],["overlook",-11.315931501280438],["millimetre",-11.31599674169951],["massacre",-11.31643564147214],["demographic",-11.31664619189322],["Adventure",-11.3169739075657],["Liberty",-11.31727710293589],["dreadnought",-11.317807242834839],["Tur",-11.318219205391129],["dispatche",-11.31830780716047],["NL",-11.318519902432868],["PR",-11.318781031944308],["depart",-11.318786152212095],["infant",-11.318851845107806],["Ancient",-11.319025374237373],["Eight",-11.319346108246929],["Marshal",-11.31934773334995],["boyfriend",-11.319532287610627],["sham",-11.319577733009616],["goddess",-11.31963521865731],["Cornwall",-11.319675340996648],["Standard",-11.319681215682774],["Robin",-11.319791570739488],["ceiling",-11.320245561731323],["1864",-11.320733555132321],["Tournament",-11.320856600499441],["shipment",-11.320941149229958],["Low",-11.321013471976666],["random",-11.321034998396966],["masse",-11.321096234820576],["Commissioner",-11.32127080103795],["Sex",-11.321281906448451],["Make",-11.321386359653648],["horizontal",-11.322137400756851],["Cena",-11.32253767942364],["fusion",-11.322617594659794],["ambassador",-11.322689505705405],["Howe",-11.32279893053389],["genuine",-11.323504430399165],["por",-11.323629883510375],["Archbishop",-11.323644856675035],["conspirac",-11.323834458098144],["consumption",-11.323913871846546],["batterie",-11.32430756253463],["Isaac",-11.325221027251642],["flesh",-11.325232799930959],["limb",-11.325478955490123],["judicial",-11.325753230499238],["rifle",-11.325762369195228],["colored",-11.326216426734145],["indigenous",-11.32667847524136],["ule",-11.32672750623971],["exhaust",-11.326782706791537],["pictures",-11.32701004974458],["Career",-11.327046912882862],["juvenile",-11.32759598183748],["reunite",-11.328116653286285],["Energy",-11.328210986833316],["flash",-11.328630018351245],["Leicester",-11.329442154331037],["therap",-11.329781750872938],["Monte",-11.329947510864894],["ballot",-11.330155238474632],["remake",-11.330173568278585],["Capital",-11.330229087342818],["Serb",-11.330331970736195],["parliamentar",-11.33045585975706],["Kenneth",-11.330496304776997],["uni",-11.330567901150015],["Plant",-11.330633228493022],["industrie",-11.330684019668904],["deputy",-11.330715810829261],["asserted",-11.33074446231636],["Boulevard",-11.33129170764203],["Malcolm",-11.331291778625278],["remarkabl",-11.331389857367132],["morph",-11.331612897070352],["territorial",-11.331658908959454],["cook",-11.33199582170166],["cre",-11.332214057477223],["111",-11.33236290621199],["Conservative",-11.332390112825724],["sensitive",-11.332526653636334],["ashore",-11.332862115939266],["lium",-11.33295603270783],["columns",-11.333376214272636],["Pedro",-11.333765987522357],["Meteorological",-11.333768923032041],["Lower",-11.334223428240268],["resignation",-11.33447146362457],["relat",-11.334650517964576],["Joan",-11.334743119340473],["Chamberlain",-11.335002147344344],["referee",-11.335060967001338],["utilize",-11.3351600790905],["Minor",-11.33567737786574],["excess",-11.336041313519885],["terminate",-11.33610683940454],["nephew",-11.336240743444266],["doors",-11.336482914677717],["ferry",-11.336500046787434],["premise",-11.336861544128315],["width",-11.336900444487506],["Carol",-11.336950070379189],["cry",-11.337002745444963],["vocalist",-11.337022733469265],["murdered",-11.337260203144648],["mixing",-11.33737714254567],["afford",-11.337424118900886],["Yugoslavia",-11.337845808360736],["Strait",-11.338488209807517],["punishment",-11.338757665197292],["Machine",-11.338874348964065],["DOT",-11.339308282300951],["Dublin",-11.340161761587613],["Serbia",-11.340851047099154],["Fat",-11.341255096191368],["shadow",-11.341418271682738],["Lou",-11.341424101933544],["bert",-11.341524235104751],["fluid",-11.341530754955908],["Origin",-11.341775392346673],["Anton",-11.3417852073811],["Where",-11.341884291132073],["Ven",-11.341893914279328],["loade",-11.342052054190692],["Turn",-11.342448796356244],["Electronic",-11.342466739598846],["Round",-11.3425497190584],["hunter",-11.343245576707723],["Was",-11.343344602710237],["introduc",-11.34340481884962],["routing",-11.343470688256414],["collision",-11.343710368375351],["lik",-11.343973028771098],["gotte",-11.344000443118777],["ă",-11.344050871143471],["aku",-11.344061096686769],["debri",-11.344240940511611],["ngry",-11.344365335428563],["Crystal",-11.344527785182358],["corresponding",-11.34458369153175],["screening",-11.344991202123428],["Julian",-11.34524555816149],["Years",-11.345358009192228],["Pet",-11.345491111458887],["varie",-11.346244058598153],["Rush",-11.346355875339476],["petition",-11.346424005670514],["Gor",-11.346430492901124],["Michel",-11.346687619124342],["carve",-11.346816186822949],["Number",-11.34689586213566],["movies",-11.347005179890793],["Publish",-11.347380861168254],["hills",-11.34757601493489],["revolutionar",-11.34760672875737],["Eddie",-11.348100142558902],["facult",-11.348102352930532],["remov",-11.348476679383623],["prayer",-11.348537019534017],["Friends",-11.348581695608274],["threatening",-11.348727693153005],["dropping",-11.348728836140008],["Kaiser",-11.348735704368421],["sville",-11.348741828268285],["roster",-11.348781070585229],["Bradley",-11.348807087467975],["disappointed",-11.348876058813696],["Pac",-11.349292483549927],["pounder",-11.349337655000927],["Dennis",-11.350252579079136],["nurse",-11.350497926285591],["jar",-11.35051431155231],["kilogram",-11.350607243033453],["Youth",-11.35102521285783],["immun",-11.351440410531314],["zero",-11.352288995839078],["worthy",-11.352778724292724],["Angle",-11.353107789587146],["corridor",-11.353126631642716],["stones",-11.353347453261161],["vicinit",-11.353519037185254],["releas",-11.353617668513445],["Romanian",-11.353743433403123],["Political",-11.35438888414071],["sentiment",-11.354414147796973],["Burke",-11.355000943119311],["Dakota",-11.355020612205736],["calm",-11.355655784532853],["thunderstorm",-11.355663076332014],["undergo",-11.356196021625488],["Jake",-11.356639827257803],["Services",-11.356863126492977],["Brad",-11.357182407221126],["Bed",-11.357217771630287],["Devil",-11.357419882001073],["arker",-11.357483513889065],["skill",-11.357731658745982],["prop",-11.357777373936752],["igan",-11.357838093983883],["Springfield",-11.358003373174874],["sustain",-11.35838741475613],["Morning",-11.35879122443371],["Alliance",-11.358832609159498],["stops",-11.358901154222478],["Tommy",-11.358952910805147],["loyal",-11.359121059971786],["Historian",-11.359222281482493],["corporation",-11.359275489582542],["inaugural",-11.359453764438463],["Stage",-11.359474155591222],["honest",-11.359915399421247],["gathering",-11.360472960400246],["220",-11.361057795370748],["Range",-11.361231349120459],["Filming",-11.361250199261452],["jaw",-11.361630966781103],["sheep",-11.361701238262693],["Chuck",-11.36239536989153],["Wagner",-11.362632445888906],["convicte",-11.362770113102357],["consumer",-11.362924207349339],["reconstruction",-11.363272745726292],["Curtis",-11.363447956263954],["Zu",-11.3638723867276],["Stra",-11.364052838978086],["Studies",-11.364165461895869],["Sean",-11.36423322150621],["Gibraltar",-11.364544452339127],["mansion",-11.364622137971221],["Break",-11.36477453108963],["milk",-11.365013397401682],["Blake",-11.365147486842574],["congregation",-11.365182614432154],["mysterious",-11.365200423907055],["rotation",-11.366288245953257],["Montana",-11.366483883864248],["rier",-11.367018961434212],["rounded",-11.367528362624146],["Large",-11.367535459584346],["Arena",-11.36753711893168],["Brand",-11.367631753871082],["silent",-11.367642428013408],["isle",-11.367733205328603],["Cincinnati",-11.36773934311524],["Hull",-11.367849020532063],["Malta",-11.368216628655226],["exterior",-11.368379549376947],["spider",-11.368380708763155],["jam",-11.368467646873274],["barrel",-11.36851774968601],["wonder",-11.368548520286428],["Rear",-11.36860176681601],["Friedrich",-11.369039048392354],["gunner",-11.36924330557996],["én",-11.369828765203046],["improv",-11.370528029817049],["Hood",-11.370649853346862],["touche",-11.37066289593594],["arned",-11.371288157177421],["1840",-11.371410728215961],["torture",-11.371924377877177],["itz",-11.37226685000538],["Canuck",-11.373570392000115],["brook",-11.373928809800557],["labour",-11.374004021671436],["adapt",-11.374566063596758],["dual",-11.374611543610296],["mutual",-11.374806801396268],["Luc",-11.37494428026502],["meal",-11.374990876936728],["Character",-11.375428818299877],["Kra",-11.37579071493354],["Kan",-11.37630115142894],["rag",-11.376555260465008],["skeleton",-11.376715146261443],["Bla",-11.376831999156483],["Than",-11.377204640438325],["Electric",-11.377352468647686],["Dec",-11.377719599866184],["Watch",-11.377852744097183],["spite",-11.378362152493171],["cker",-11.37889942616655],["Normandy",-11.378955258105702],["ivity",-11.378958520338621],["variations",-11.37906228481533],["outline",-11.379141329291162],["Shield",-11.379334730497485],["Olivia",-11.379389099633958],["Ter",-11.379767245228956],["stunt",-11.379829220111738],["enthusiastic",-11.38003960332652],["patent",-11.380141624060702],["occurr",-11.380197389868073],["Maine",-11.38020513212479],["unite",-11.380319033502367],["domain",-11.380418207118627],["knight",-11.380539279201637],["genera",-11.380683104453674],["centered",-11.380770434773439],["175",-11.380808661498218],["armoure",-11.38089749228953],["swept",-11.381199756079027],["Tree",-11.382130231924076],["1887",-11.382231633582073],["nquiry",-11.382357800112356],["Afghanistan",-11.38257066725209],["tools",-11.382827929413804],["rode",-11.38302406545106],["installment",-11.383264856626326],["vic",-11.383282201120476],["Josh",-11.383291043032191],["Yugoslav",-11.384137900365303],["Twitter",-11.384519415073282],["Madison",-11.384522068015057],["lat",-11.384950711862707],["populate",-11.385173721394253],["Circle",-11.385189699010395],["invent",-11.385374009996259],["exploit",-11.385385721447882],["Any",-11.385477127043897],["102",-11.385564702412747],["outdoor",-11.38563646468759],["Edmund",-11.385832263804632],["Bears",-11.385964751540858],["fatalit",-11.386101038309267],["filmmaker",-11.386484802249356],["psychological",-11.386490534728702],["linear",-11.386984668054634],["stance",-11.38723262847155],["Lion",-11.387234580352143],["ives",-11.38757790362812],["printing",-11.3875907645335],["gauge",-11.388478648714655],["Revolutionar",-11.388517592343975],["Herbert",-11.388557232854204],["Eli",-11.388713862377925],["1863",-11.389080353385463],["Orton",-11.389092541526768],["varying",-11.389187339471048],["reject",-11.389326148716789],["Leon",-11.389754349218393],["grosse",-11.389882074181157],["Planet",-11.39074752656268],["Former",-11.390868471349838],["remixe",-11.391275819984834],["exclude",-11.3915247899996],["Technology",-11.391690549219117],["chumacher",-11.391708881295987],["Milan",-11.391806026904295],["Deput",-11.391816243604962],["Alexandr",-11.391884581285005],["relieved",-11.392161656137866],["Kor",-11.392165141613814],["ological",-11.392300904008032],["Brooklyn",-11.39243584659334],["Gregory",-11.392671367735446],["stabilit",-11.393108930154387],["Kil",-11.393865132558155],["Eagle",-11.394078404344686],["Bab",-11.394474561726344],["Vegas",-11.394641882398368],["JNA",-11.394774404887928],["fungus",-11.394993679670868],["parks",-11.395167074844398],["Factor",-11.39537788840911],["spell",-11.395748422289959],["Brook",-11.396122617949539],["Mercury",-11.396303770515564],["Bear",-11.396324789745066],["viewing",-11.396726891962949],["Auto",-11.396741970215754],["Rich",-11.397155084205915],["Scout",-11.397312578678948],["deployment",-11.397396460232194],["exploration",-11.397679013398921],["Leeds",-11.397704735391725],["Alberta",-11.397795143792804],["coincide",-11.39809806482534],["peer",-11.398604051411095],["assassination",-11.398992913425165],["sharks",-11.399252396175257],["Urban",-11.399365233332933],["rac",-11.399422122332837],["Solar",-11.39999039960458],["McKinley",-11.400262914507017],["decoration",-11.400285643383384],["Princeton",-11.400286987408169],["Hearts",-11.400455661924251],["nationalist",-11.400816731300148],["participat",-11.400816883476502],["teenager",-11.400862760977883],["harbor",-11.40092625132915],["assignment",-11.401339554727674],["markets",-11.40140839289103],["Inside",-11.401462429211573],["intermediate",-11.40160250072852],["intelligent",-11.402910668137894],["Hubbard",-11.40291114369122],["Sultan",-11.403559129133633],["Ellen",-11.403964789471114],["twentie",-11.404031814921627],["induce",-11.404090510844],["Mann",-11.404187435803003],["ramp",-11.404788707868162],["Note",-11.405191485345885],["MLB",-11.405376712109467],["measur",-11.405408745885211],["Phillie",-11.405599205718696],["bombard",-11.405614746253455],["laying",-11.405864211164003],["Holland",-11.40599676321181],["Brien",-11.406702769877421],["Kir",-11.40677585636612],["ome",-11.406820332951142],["challenging",-11.40689605695611],["diagnose",-11.406896057685735],["enormous",-11.406897021879239],["NASA",-11.406908277861723],["Ghost",-11.407158778145902],["disappeare",-11.407465378542936],["α",-11.407741190878635],["dying",-11.4083105178427],["1884",-11.408343840246303],["worse",-11.408898531215456],["acquisition",-11.409561836478261],["insurance",-11.409561918115813],["Glasgo",-11.409563147826063],["Mix",-11.409783936818773],["Computer",-11.410244579585743],["tool",-11.410460160552104],["Belle",-11.410797272944333],["rush",-11.410811115272946],["cus",-11.410831603733957],["declaration",-11.410987849101511],["gravit",-11.41120241518221],["Titan",-11.411579216737799],["Gang",-11.412102413505455],["martial",-11.412238443501437],["cclaimed",-11.41294629272559],["accumulate",-11.413277617137897],["fitting",-11.413445614556911],["ə",-11.413445882605341],["Comics",-11.413506336199468],["uka",-11.413600316594874],["sharing",-11.414272857793046],["cotton",-11.414348287477328],["Tunes",-11.414584107459193],["ail",-11.414620912270802],["Total",-11.41469028477588],["Raj",-11.414720512923722],["monster",-11.41475686137754],["Theater",-11.414917073286759],["coastline",-11.414921184792291],["excessive",-11.414978658877862],["Alpha",-11.415954014179718],["realis",-11.416256204049281],["complement",-11.416565170740899],["allegation",-11.417602258679235],["punt",-11.41805167009046],["sending",-11.41903025892808],["Iran",-11.419051466252515],["steppe",-11.419311648561502],["Kot",-11.419613514713674],["violation",-11.419628586051825],["Buddhist",-11.419651685656023],["outlet",-11.419715842589461],["extract",-11.419915745140734],["uprising",-11.419991308733103],["750",-11.420126354352679],["currenc",-11.420228614387575],["Fifth",-11.42029747061003],["BCE",-11.420373328905544],["lian",-11.420461515685528],["accelerate",-11.420483962870673],["contacte",-11.420872676076394],["boom",-11.420971775658266],["ided",-11.420981110130512],["Tintin",-11.421012067824858],["flame",-11.42101828843694],["explode",-11.42114602034627],["accomplishe",-11.421268126195233],["inform",-11.421381394441195],["Ottawa",-11.421653283204417],["confused",-11.422511090943129],["Dur",-11.422552867541896],["ough",-11.422642560159627],["Non",-11.42401404772257],["outstanding",-11.42425861427424],["Austro",-11.424352512001434],["surprising",-11.424366453346993],["Percy",-11.424381216100498],["ruly",-11.424924995863776],["Millennium",-11.425029528720593],["Lie",-11.425075093901842],["Westminster",-11.42509715336497],["arose",-11.425121063629955],["Theodore",-11.425338526970563],["diversit",-11.42548699831936],["widow",-11.425966449452083],["Strong",-11.426112361552864],["eeper",-11.42636158279225],["collector",-11.42649436366028],["vel",-11.426726512482437],["Month",-11.426771084509975],["1877",-11.42736729004162],["Kat",-11.427536678579887],["municipal",-11.427831604921273],["thanks",-11.427874563526846],["exceptional",-11.428117697725746],["CEO",-11.428663751459199],["Denver",-11.429201987992297],["Letter",-11.429680709433939],["radius",-11.429808591608996],["Mercedes",-11.42987798162978],["outfit",-11.430033615389295],["Cloud",-11.430059721694255],["Gothic",-11.430158485377525],["judges",-11.430407047161246],["jersey",-11.430468323353296],["Manuel",-11.430525025587613],["Cam",-11.430754124914426],["ates",-11.430829045118251],["Ari",-11.430880778782095],["endorse",-11.430942375156452],["Current",-11.431156489872723],["1876",-11.431208052066179],["Ellis",-11.431246508824586],["myself",-11.43136889490356],["medals",-11.431374697723966],["Otto",-11.431722985426045],["hopes",-11.431795265954825],["SH",-11.431811191200389],["Islam",-11.432048464873827],["seal",-11.432470723114193],["Basketball",-11.432512556186374],["conviction",-11.432544384238566],["Nevada",-11.432612170793265],["Franco",-11.433023843956628],["Steam",-11.433848457296229],["saint",-11.434030088411047],["Les",-11.43442141340766],["motive",-11.434594015531822],["Cox",-11.43465683632844],["surpasse",-11.434680359238392],["Albany",-11.435007814804406],["prompting",-11.435274498331424],["Rosa",-11.435500950793314],["lover",-11.435689587854515],["aggregate",-11.435813346715275],["hypothesis",-11.435827732609326],["RIA",-11.435849546887464],["defendant",-11.435938484737498],["oversee",-11.436183969925835],["Crime",-11.436248564692027],["submerge",-11.436796806376],["battlefield",-11.43700896931946],["Ronald",-11.437309036034573],["Emma",-11.437342756927698],["Ages",-11.437552471746947],["navigation",-11.437844197925843],["Gloucester",-11.437990145748739],["Bas",-11.43838922968815],["motif",-11.43868161647432],["Face",-11.439587039982683],["ghost",-11.440005134494918],["recipient",-11.440740233314305],["Barcelon",-11.440740233935369],["revenge",-11.441099029317648],["ł",-11.441643752493171],["135",-11.441847481304533],["Barr",-11.442010340366302],["ester",-11.44226865826572],["Wil",-11.442419650855317],["cock",-11.442547607648375],["laps",-11.442740325698216],["icon",-11.443100612502931],["quarters",-11.44313744585831],["kids",-11.443334633022864],["kit",-11.443516469407934],["notion",-11.443520397647381],["Bosnia",-11.443541578745945],["beer",-11.443625652954493],["integrated",-11.443742547264248],["clip",-11.44385698156286],["privilege",-11.444188515592142],["Lamb",-11.444411464640936],["Chester",-11.444781225226965],["specialist",-11.445085512105653],["Cher",-11.445194678745768],["elevated",-11.445300676262246],["emission",-11.44543412216974],["Weather",-11.445577376325046],["retreate",-11.445826759419909],["Composition",-11.445897714885504],["etic",-11.446019516219124],["angel",-11.446133197701158],["Pokémon",-11.446263201918047],["dimensional",-11.446295716758556],["arrow",-11.446336114380905],["Store",-11.44674891683519],["Economic",-11.446928577186124],["Petr",-11.4472786427819],["bacteria",-11.447738357532014],["127",-11.448149065290824],["Churchill",-11.448233561998038],["authentic",-11.448342808154388],["Foster",-11.449760392848097],["Punk",-11.449776499515004],["Char",-11.449918034115488],["moto",-11.450339379662822],["EC",-11.450525097709125],["Gates",-11.450942695330658],["abundant",-11.451120950714225],["molecular",-11.4511209689304],["allocate",-11.451269001853014],["Kit",-11.45131943631306],["Canyon",-11.451565564862658],["lesser",-11.451738837060546],["Delta",-11.451745098245482],["precede",-11.451781337733452],["1875",-11.451813975462999],["donation",-11.452320553014061],["emerg",-11.452420917085991],["lim",-11.45244957516157],["Geoffr",-11.45259645677178],["confine",-11.452718651193566],["nstructed",-11.45279739029049],["Viet",-11.453432454510768],["compar",-11.453507452318469],["cubic",-11.453581807873219],["Spin",-11.453586158974405],["waite",-11.45374960993463],["Tigers",-11.453800439612781],["Malay",-11.453931951630699],["Mari",-11.453973778620892],["Jamaica",-11.45409397190643],["Mun",-11.454195350526792],["clergy",-11.454323910119246],["steer",-11.454347884779025],["230",-11.45436925199622],["Quest",-11.454615322663855],["FM",-11.454904827255984],["Body",-11.45513513388236],["Len",-11.455145082590656],["Blair",-11.455220178903094],["vegetation",-11.45530381696405],["convey",-11.455313430762022],["troop",-11.455321072923397],["ingham",-11.45559401645469],["Qui",-11.455662873845766],["shirt",-11.455734121249641],["Train",-11.455859128093895],["Nash",-11.456803142811214],["RBI",-11.456883159170658],["finest",-11.456925701566162],["Labor",-11.457200194088216],["Raymond",-11.457405067225942],["Wei",-11.457866239096866],["Marines",-11.457933815308],["Marsh",-11.458154784288684],["lac",-11.458698337079834],["Appeal",-11.458803333656949],["Sara",-11.458804559680397],["fected",-11.458964412575881],["offshor",-11.459040429983386],["ister",-11.459077164919803],["consciousness",-11.459232501287845],["165",-11.459583918022556],["Parkway",-11.459710768400548],["archaeological",-11.46021490765536],["instant",-11.460448876508345],["ides",-11.460484919607715],
[...]
