{"version":"1.0","truncation":null,"padding":null,"added_tokens":[{"id":0,"special":true,"content":"[PAD]","single_word":false,"lstrip":false,"rstrip":false,"normalized":false},{"id":1,"special":true,"content":"[UNK]","single_word":false,"lstrip":false,"rstrip":false,"normalized":false},{"id":2,"special":true,"content":"[CLS]","single_word":false,"lstrip":false,"rstrip":false,"normalized":false},{"id":3,"special":true,"content":"[SEP]","single_word":false,"lstrip":false,"rstrip":false,"normalized":false}],"normalizer":{"type":"Sequence","normalizers":[{"type":"BertNormalizer","clean_text":true,"handle_chinese_chars":true,"strip_accents":null,"lowercase":false}]},"pre_tokenizer":{"type":"Sequence","pretokenizers":[{"type":"Whitespace"},{"type":"BertPreTokenizer"},{"type":"Digits","individual_digits":false}]},"post_processor":null,"decoder":null,"model":{"type":"Unigram","unk_id":1,"vocab":[["[PAD]",0.0],["[UNK]",0.0],["[CLS]",0.0],["[SEP]",0.0],["s",-2.9331202070347704],["the",-3.1442196053479154],[",",-3.2729074893253625],["a",-3.4509089997149758],[".",-3.4772216180404136],["t",-3.5120294985705005],["o",-3.5392556463169846],["d",-3.58732932538501],["of",-3.8956486321234625],["and",-3.9674304380302043],["@",-4.040078460976723],["in",-4.153577386190136],["e",-4.222862968070544],["n",-4.237340178904544],["i",-4.421093617147214],["=",-4.523325409921787],["\"",-4.614583768479328],["y",-4.699669136674219],["was",-4.82548853717511],["'",-4.957134570636093],["-",-5.012202417867172],["ing",-5.013527189906707],["The",-5.04438084090058],["r",-5.146249880291837],["ly",-5.249712767136273],["for",-5.257224427640974],["that",-5.292552376240543],["with",-5.344688014278722],["by",-5.378019960335781],[")",-5.4443404003328695],["(",-5.444945165144054],["he",-5.6851220713201425],["his",-5.697240413181946],["from",-5.7457252443238716],["A",-5.85192273990495],["were",-5.940569241943944],["m",-5.9655136650987615],["I",-6.004080626495062],["l",-6.009425654630411],["In",-6.111306561503911],["had",-6.121954731911083],["which",-6.194606184731825],["be",-6.199226410333008],["h",-6.265533945109537],["f",-6.274736874149108],["u",-6.334229814336391],["are",-6.37358012037377],["not",-6.460586438106475],["but",-6.489701835166457],["S",-6.5225539346996815],["one",-6.526987436694981],["her",-6.541047922532385],[";",-6.56145203294462],["first",-6.56615729716745],["their",-6.587166496993486],["–",-6.590058251340116],["its",-6.609889464637572],[":",-6.6141684796024425],["w",-6.614943065099796],["also",-6.6222998065515295],["c",-6.664297500604562],["who",-6.683531340657277],["have",-6.703417874043145],["g",-6.754732613336566],["two",-6.75756563413861],["He",-6.764685710764189],["2",-6.765793459491293],["1",-6.767447314895847],["has",-6.775665430747633],["been",-6.789685629179115],["time",-6.854872352617429],["after",-6.906963156483664],["th",-6.910219679448911],["this",-6.928620759585645],["b",-6.953029978986333],["out",-6.95402420995989],["would",-6.9659221374183655],["other",-6.97220817445527],["into",-6.999892433032361],["over",-7.0391764366606075],["ies",-7.051179439230582],["T",-7.053211931518158],["more",-7.05714718045242],["3",-7.060306255417432],["k",-7.066673917522895],["all",-7.072695094116767],["up",-7.111498470649234],["p",-7.112490074263214],["M",-7.138749357051173],["19",-7.15484677100355],["B",-7.172007363594876],["him",-7.177887140613274],["when",-7.181615431648881],["most",-7.220215903556886],["game",-7.234957449058298],["ever",-7.238086987106643],["during",-7.245528348488255],["4",-7.25889605126639],["5",-7.259157203391638],["only",-7.27624382844523],["20",-7.285983088954238],["than",-7.291806931828212],["C",-7.295478507145136],["about",-7.304311692594428],["while",-7.310540605258204],["new",-7.31323736002401],["between",-7.332805157671098],["On",-7.334490375571411],["film",-7.334511617083528],["later",-7.338495120380179],["D",-7.34339388272814],["three",-7.345233750354682],["where",-7.352692501196547],["through",-7.369341805865501],["release",-7.390636555736679],["season",-7.403308329706519],["though",-7.413984583245259],["New",-7.418841804276514],["made",-7.4475732921696345],["some",-7.4574165413177855],["000",-7.459578932870304],["R",-7.468286581424005],["year",-7.475702038756491],["such",-7.4896742541563],["part",-7.49223139321367],["second",-7.500375430341844],["can",-7.506878249848356],["before",-7.508808020374975],["number",-7.510130892519452],["state",-7.517685886305237],["6",-7.5467067750392385],["/",-7.5480211352868665],["12",-7.550150905260647],["This",-7.552556085138759],["album",-7.55270677654288],["under",-7.553988601708616],["used",-7.560307925509468],["O",-7.569962565140896],["9",-7.570976283203592],["man",-7.571865133627368],["well",-7.573326754799224],["E",-7.57485022406882],["15",-7.574974631843677],["song",-7.575792337995788],["years",-7.596714968293167],["being",-7.603683077892525],["episode",-7.604249774471379],["P",-7.604693845045574],["there",-7.608708803869343],["U",-7.62147939769577],["against",-7.621713143863815],["H",-7.623493182554654],["include",-7.625156512303944],["team",-7.627096931673735],["10",-7.631280865349693],["includ",-7.655683843622182],["became",-7.659118213511654],["8",-7.669602361021724],["—",-7.672599543083516],["United",-7.681782645712664],["7",-7.686598850424987],["series",-7.687344417703834],["both",-7.69146295176632],["After",-7.691520474678605],["end",-7.697617667322907],["work",-7.707834658707389],["like",-7.718441417220559],["early",-7.7209834894944755],["four",-7.746200593114782],["W",-7.7513935896841435],["American",-7.756245488154683],["18",-7.770374909745616],["force",-7.778970578306607],["place",-7.786485724171898],["said",-7.790130238513905],["day",-7.793704697589536],["could",-7.798121634106026],["them",-7.798700153739716],["many",-7.799370334425285],["several",-7.804153958572426],["F",-7.814208949274429],["did",-7.819436008399926],["known",-7.825221735133859],["how",-7.845130203497391],["began",-7.851203502013449],["area",-7.858394493038501],["z",-7.858985258804209],["N",-7.867239686505499],["base",-7.8736566362449025],["back",-7.874497747889995],["G",-7.876377975854574],["She",-7.888044144669156],["until",-7.8947655780017225],["War",-7.896476023940375],["calle",-7.897966400468157],["use",-7.8983434605477445],["found",-7.90666064407055],["war",-7.912717170522292],["million",-7.9212977876899355],["receive",-7.923262151214077],["high",-7.925604664821302],["final",-7.926593493032595],["16",-7.930802722629748],["L",-7.9338474553632725],["group",-7.943785266264207],["men",-7.9475369851209585],["0",-7.94782138870602],["British",-7.951435390226285],["large",-7.952304751289919],["long",-7.957144855292928],["$",-7.969565210528312],["along",-7.969601887464119],["people",-7.973703575467253],["K",-7.976332810750959],["music",-7.979170216116371],["player",-7.980309835103249],["original",-7.98277988803434],["side",-7.985018515385871],["May",-7.988648019700316],["any",-7.992779205019893],["How",-7.99616915176945],["September",-8.001370856874814],["World",-8.00300798293162],["took",-8.007906294411685],["same",-8.01075862457873],["line",-8.023071742852794],["because",-8.023412459212336],["Al",-8.025877944318466],["may",-8.029230209232427],["August",-8.031315622834311],["States",-8.03548606493375],["around",-8.045593733356498],["km",-8.045624391995291],["led",-8.047365603422511],["life",-8.049536323500494],["near",-8.05097387626398],["each",-8.054320395228984],["continue",-8.058539741979978],["John",-8.061629309977853],["these",-8.062000027004608],["following",-8.069092338147486],["off",-8.072315273503886],["v",-8.07803186958547],["October",-8.090081551283271],["describe",-8.10380967272033],["17",-8.109491088936263],["way",-8.11050099997755],["main",-8.112893647844878],["able",-8.113480695542767],["single",-8.114219546320182],["five",-8.115805077347497],["show",-8.12112235344416],["century",-8.121615760138216],["US",-8.125232669692819],["city",-8.12646431520658],["J",-8.131832790983063],["what",-8.133241742799678],["world",-8.133323765751921],["down",-8.134510561412057],["]",-8.136119486734355],["[",-8.138168927018418],["June",-8.144018112813608],["11",-8.146552809317658],["ship",-8.148849826937381],["less",-8.15954978255281],["name",-8.160665239763285],["%",-8.163459134708756],["July",-8.163734699678917],["November",-8.17020975354869],["since",-8.176254551314587],["form",-8.178874478037196],["30",-8.179743275566796],["will",-8.183563315403513],["March",-8.186734678315778],["April",-8.189059176286541],["York",-8.194584558899749],["own",-8.198161526431596],["13",-8.210512922486146],["due",-8.210602147565583],["um",-8.214693707199151],["per",-8.21599306726971],["North",-8.21747295477689],["home",-8.219497950596867],["system",-8.223080900781172],["character",-8.223382564053807],["result",-8.22866084281484],["left",-8.230856844453744],["14",-8.231596599780287],["now",-8.235428175124133],["school",-8.238165236056895],["attack",-8.23942350572813],["During",-8.239824332581993],["government",-8.24144843917438],["played",-8.246866604434773],["complete",-8.246946438457055],["December",-8.249110081358364],["third",-8.249872531852425],["V",-8.25561326260985],["much",-8.258734864653633],["play",-8.263603624688262],["January",-8.265170870652206],["another",-8.271542621532388],["wrote",-8.272358317341894],["South",-8.273655030635577],["25",-8.279161122357992],["When",-8.282803636207174],["month",-8.282906292972728],["head",-8.283695622392727],["change",-8.283881378135106],["won",-8.286187381690823],["band",-8.291447475875088],["power",-8.291517671097788],["position",-8.294121167054001],["record",-8.305186218272375],["top",-8.306945905198466],["general",-8.310284408490906],["late",-8.311945453695222],["make",-8.312475791201322],["species",-8.313556209170152],["title",-8.313622978069285],["family",-8.316811282614955],["produce",-8.317436963739558],["previous",-8.327676379718229],["water",-8.329573912572302],["building",-8.33118391432271],["named",-8.331218563358595],["last",-8.331906198597991],["just",-8.334764219839242],["version",-8.33484936366583],["become",-8.338840420343624],["video",-8.339620518570237],["very",-8.340095156730175],["service",-8.34392574313818],["support",-8.345672742868121],["They",-8.346896146926149],["age",-8.348537935980413],["six",-8.35523351890994],["German",-8.355562526457462],["north",-8.365836212043776],["death",-8.367981841546156],["still",-8.368592867231008],["cause",-8.375136247210486],["even",-8.379126372461817],["By",-8.380141783202982],["those",-8.38182992248353],["ity",-8.384938122347535],["held",-8.386231009938335],["create",-8.38718604511307],["Februar",-8.387990137755866],["major",-8.389396035303966],["issue",-8.389940931287278],["role",-8.392482252230435],["small",-8.39286969064616],["next",-8.394313012588404],["short",-8.394434523215052],["best",-8.395453771160877],["100",-8.399845192137734],["order",-8.40137467836026],["performance",-8.40252377213883],["take",-8.406925277913135],["public",-8.411132899486933],["wide",-8.412202761885329],["match",-8.412346162473328],["event",-8.418089445786867],["His",-8.418655297078411],["National",-8.419709449606511],["town",-8.42086899234023],["storm",-8.42133841133166],["score",-8.423614302530485],["built",-8.425189547786978],["former",-8.4257080308891],["There",-8.426406941045208],["French",-8.428134775855728],["return",-8.428643585696118],["came",-8.42946256296906],["book",-8.430370707975305],["2010",-8.432192515611995],["No",-8.434948571659852],["half",-8.437069536768078],["local",-8.444639919923945],["house",-8.445642015007579],["For",-8.452299145455676],["again",-8.45667358542947],["land",-8.457903683560696],["attempt",-8.460498618639868],["remain",-8.466467752185432],["south",-8.468785975248553],["40",-8.471294094207899],["production",-8.474235462706583],["you",-8.47920379972116],["period",-8.483060639213143],["2008",-8.484385958841898],["often",-8.489087930580705],["old",-8.492188616251585],["All",-8.49261901413906],["field",-8.504285312784692],["200",-8.505192748497382],["2011",-8.506992228736763],["among",-8.50854572752092],["career",-8.510265504528897],["review",-8.51865817517472],["England",-8.524909269014067],["&",-8.524971803259836],["story",-8.52681067684815],["members",-8.531152216584404],["level",-8.53198082288144],["further",-8.532922457855983],["games",-8.540274302679526],["point",-8.540529877230075],["damage",-8.543765202726565],["feature",-8.54476067327863],["ritten",-8.545077559135503],["different",-8.54565065569737],["West",-8.546735337796996],["King",-8.547206778346876],["considere",-8.547883530011696],["2007",-8.548105646389393],["official",-8.55219258145585],["having",-8.553690645950985],["City",-8.558470558450505],["days",-8.56271632930633],["total",-8.562783476828756],["24",-8.565450104022256],["River",-8.567342843848808],["21",-8.567872157364432],["English",-8.568450326652801],["went",-8.575965169548804],["One",-8.576777993520595],["fire",-8.578379743264962],["history",-8.58072308231458],["moved",-8.58641976562876],["II",-8.592614387032492],["London",-8.59693270281356],["increase",-8.59864892366903],["similar",-8.600086462577226],["lead",-8.603343168537208],["without",-8.604369820205857],["club",-8.604403958513133],["track",-8.608568702078374],["east",-8.614878672052496],["full",-8.619679644592381],["X",-8.620139788712335],["Universit",-8.622624616734674],["run",-8.62304175531799],["action",-8.625078401279538],["case",-8.626120456112728],["27",-8.635414541942534],["23",-8.635476524981314],["gave",-8.639174348875208],["design",-8.640313156853006],["week",-8.641269686303467],["given",-8.645311932639382],["air",-8.647187150164823],["right",-8.649984732113081],["publishe",-8.650908817079227],["control",-8.653078257403145],["While",-8.654744256077683],["west",-8.655223188499962],["defeat",-8.655764723608383],["close",-8.657621050081104],["50",-8.661046264099236],["stage",-8.664769485654839],["company",-8.66487897107732],["believe",-8.66495816932026],["light",-8.667284945415219],["returne",-8.67068848584332],["initial",-8.67240823543174],["great",-8.67424015155013],["highe",-8.675511771341018],["using",-8.676644101792588],["lost",-8.676997862620134],["reported",-8.679781772309662],["State",-8.681653233791863],["2006",-8.685385978061566],["real",-8.68675313886313],["making",-8.689978935833498],["particular",-8.693281445540162],["recorde",-8.695469180025727],["22",-8.696679497236284],["stead",-8.697995267013003],["According",-8.700956896882618],["low",-8.701771905242799],["development",-8.701959657746347],["reache",-8.706341693585335],["common",-8.707471419976283],["allow",-8.709088463977888],["country",-8.709397333267013],["never",-8.713221950412267],["father",-8.713611055126284],["General",-8.71549359341341],["red",-8.717364519095721],["suggest",-8.72421157495339],["Australia",-8.72583698506517],["term",-8.727690062067929],["aircraft",-8.729888760128382],["writing",-8.731352226665818],["William",-8.732137703729038],["body",-8.733385190982398],["military",-8.736730108087635],["himself",-8.736857029479951],["2013",-8.738080808796552],["good",-8.746511080478669],["get",-8.746772563787452],["toward",-8.75777732417743],["These",-8.758100030698992],["popular",-8.761019840026568],["live",-8.761650563684691],["announce",-8.762820354473464],["James",-8.76288947548508],["28",-8.766862239817081],["develope",-8.769822473542831],["Park",-8.775349763316795],["America",-8.777710245508098],["children",-8.778569401148744],["class",-8.779300482013944],["win",-8.780448001824297],["style",-8.780753428375537],["effect",-8.780971538346328],["tour",-8.781446177871372],["ships",-8.78520208949523],["Army",-8.786080625646902],["race",-8.786731507482381],["political",-8.78706804872771],["project",-8.789291074724845],["Division",-8.78958705788901],["League",-8.79533947055198],["George",-8.797295591716372],["population",-8.798029759357327],["influence",-8.799523649439996],["remaine",-8.800709646668425],["Australian",-8.801015102660175],["present",-8.805258276568178],["sent",-8.809654054021374],["away",-8.81058919037179],["tropical",-8.81095815986133],["strong",-8.812260087531476],["felt",-8.812567305994108],["campaign",-8.81264932295825],["range",-8.81529456215119],["across",-8.81568453418319],["car",-8.817979321945533],["region",-8.820522006770798],["Street",-8.82175529911295],["route",-8.829104914355197],["night",-8.829411337648406],["ground",-8.830590291864167],["26",-8.83070490548176],["appearance",-8.83597709882082],["noted",-8.836088350159761],["either",-8.838134556371083],["eight",-8.841628196252689],["television",-8.842100323540835],["kille",-8.842437712063244],["within",-8.84521252445913],["national",-8.845637527009476],["battle",-8.845735956204228],["County",-8.84858380089204],["Air",-8.84971283492594],["seen",-8.850819555250057],["With",-8.85376310112265],["2005",-8.855002423624404],["Japanes",-8.855307184673743],["Road",-8.855384087752817],["successful",-8.855494091634386],["should",-8.85677804343037],["road",-8.857270179698917],["eventual",-8.860845709255422],["born",-8.86201613689978],["x",-8.8636412632503],["various",-8.864056065170205],["’",-8.864364305993536],["performe",-8.865339131803244],["replace",-8.865712848814619],["followe",-8.86724056742975],["success",-8.868530906924796],["member",-8.868693597512857],["face",-8.869371975509061],["law",-8.870002385974848],["fight",-8.876973678781528],["2014",-8.877438067203075],["served",-8.88200825286628],["characters",-8.88326289636128],["white",-8.8863859359215],["ally",-8.886959365511988],["taken",-8.889519231901403],["contain",-8.893219839536389],["start",-8.893437952534498],["29",-8.894192456360626],["little",-8.896607159197353],["locate",-8.89773740873287],["direct",-8.898073369154806],["addition",-8.898732762263768],["establishe",-8.901096970312176],["Star",-8.9018767209918],["significant",-8.9023009934649],["together",-8.906881056319351],["operation",-8.90864637439324],["human",-8.9104844353883],["appeared",-8.914527886438753],["experience",-8.915777854009464],["front",-8.91635679005673],["station",-8.91924851856848],["East",-8.919944601046298],["site",-8.921038681330456],["debut",-8.92216660531752],["mid",-8.923057333288435],["chart",-8.924100599682031],["San",-8.92428968464214],["earlie",-8.925293313094068],["put",-8.926099384063784],["black",-8.92704001244044],["Michael",-8.927746398914119],["entire",-8.929155330395112],["does",-8.929564387482909],["open",-8.930130538673259],["!",-8.932891679021454],["example",-8.933847649379711],["Man",-8.933908803959778],["La",-8.934454683534053],["miles",-8.934939054487366],["songs",-8.935156758316653],["women",-8.935572812620055],["dded",-8.93824173658428],["Royal",-8.940980795122327],["Island",-8.94284328062222],["elected",-8.944316218134954],["decided",-8.947072407603944],["average",-8.949197430660538],["once",-8.950308923195648],["give",-8.951543669513741],["require",-8.952028155205154],["ness",-8.953638788612274],["starte",-8.955481785767846],["forme",-8.955665957254299],["feet",-8.96072968454205],["House",-8.963043972865144],["help",-8.963841400454152],["David",-8.96688180043744],["praise",-8.96734548174937],["Z",-8.968606453637852],["involve",-8.972075186285187],["seven",-8.976959013168651],["France",-8.978806311155632],["element",-8.980150015208622],["far",-8.983619907493175],["Some",-8.984680742831907],["important",-8.988806110389254],["free",-8.994234668288545],["met",-8.995833457402828],["report",-8.996010868447371],["rock",-8.996975694294605],["capture",-8.99703986785992],["points",-8.997648005976227],["Robert",-9.004479680456338],["playing",-9.005263454505966],["Other",-9.005951738302306],["2004",-9.007278704915619],["thought",-9.008751959209286],["rather",-9.011399223906015],["scene",-9.011433158728563],["31",-9.018184658568952],["opene",-9.018233201900827],["brother",-9.018545200115295],["behind",-9.018804009825736],["upon",-9.021076994968814],["construction",-9.023136091464755],["gun",-9.023717969163858],["Indian",-9.02419145868746],["ran",-9.025444935221381],["pre",-9.026547132248067],["section",-9.028537324124365],["You",-9.032975893689336],["features",-9.03312419052054],["crew",-9.0348468834122],["structure",-9.035545188618766],["every",-9.036187597502373],["School",-9.03866546846128],["office",-9.039146531474733],["sold",-9.04151394774125],["art",-9.041827832717285],["rest",-9.043137669819528],["subsequent",-9.04334580962152],["highway",-9.043447462971894],["list",-9.044533468719159],["difficult",-9.04478709323106],["relationship",-9.046646351979824],["heavy",-9.04705834818657],["election",-9.047668011987783],["leading",-9.048775597844823],["current",-9.049853217355464],["leave",-9.050658591299008],["Henry",-9.051148490070236],["arrive",-9.05385152342072],["look",-9.056711451702038],["young",-9.05816003312193],["mph",-9.060571510122442],["Battle",-9.060627504372803],["cover",-9.061440066202906],["500",-9.062627734749523],["interest",-9.0653632722442],["program",-9.066511167151372],["special",-9.06702245172923],["Best",-9.067530699821337],["Music",-9.068323447650458],["modern",-9.068354524368692],["2000",-9.068983357295302],["fourth",-9.069330493335512],["post",-9.071076705781168],["working",-9.07176074306286],["Black",-9.072889524207204],["love",-9.073358092859278],["party",-9.073636042597029],["our",-9.074815093450043],["almos",-9.074881085372052],["worke",-9.078532651971544],["command",-9.079688033570184],["brought",-9.080018784535769],["guns",-9.080209822327319],["anti",-9.08110733734082],["cast",-9.08172612397568],["shot",-9.083279281917198],["individual",-9.084247477602847],["wife",-9.085039315116846],["wante",-9.086186349859572],["court",-9.086388509995526],["mother",-9.086928379833221],["effort",-9.087525864304723],["provided",-9.090439896430137],["female",-9.090511800466388],["business",-9.09079864702054],["least",-9.091271914116717],["process",-9.091291123344089],["problem",-9.091964310956328],["Washington",-9.09381838111257],["novel",-9.094134372208778],["cost",-9.096147613015487],["claim",-9.100460639805938],["ended",-9.10091266152451],["recording",-9.102467744631186],["star",-9.104436905503153],["Paul",-9.10444425249505],["victor",-9.1075919485593],["artist",-9.109122600987796],["European",-9.109477255419893],["allowe",-9.109855583737948],["Europe",-9.111837249959642],["critics",-9.112213636393095],["studio",-9.11301670484352],["troops",-9.113415552402016],["designed",-9.114306408367392],["lower",-9.1156606225242],["Despi",-9.116415404033763],["army",-9.116480325237006],["material",-9.117015497558265],["island",-9.117681128087966],["joine",-9.119537166717262],["2003",-9.120656748266526],["Follow",-9.121734066732671],["j",-9.129947924456214],["location",-9.130137476350354],["President",-9.1317543267345],["weeks",-9.132811788169171],["communit",-9.13307326165426],["bridge",-9.135048207462102],["95",-9.135125440991521],["condition",-9.13594448821778],["goal",-9.136871656109378],["Force",-9.137793213883523],["hurricane",-9.138671644611387],["First",-9.140789771116859],["urned",-9.14228114208577],["person",-9.143399425430246],["Cup",-9.143577360825542],["opening",-9.143887967676871],["passe",-9.143998786482289],["Japan",-9.14717291919121],["plan",-9.147509663748071],["director",-9.147851016854894],["Y",-9.148089822442778],["voice",-9.14823133920773],["positive",-9.148503904023878],["ous",-9.149717808728168],["king",-9.15018184727326],["lack",-9.151814621260755],["piece",-9.15225986389602],["Two",-9.154821156048603],["ter",-9.160282590356207],["Her",-9.160474806330063],["soon",-9.162033588638556],["ve",-9.163084396776284],["appear",-9.163881797859489],["finished",-9.165371476249547],["39",-9.16576000330637],["Le",-9.165913863208301],["introduce",-9.170248680894899],["Championship",-9.17030626255758],["advance",-9.170507782784151],["come",-9.171693729341673],["saying",-9.171808940691308],["times",-9.173145184531146],["division",-9.173725856011743],["Route",-9.173894214234386],["sound",-9.174479087509793],["regular",-9.175435003299187],["move",-9.177711160989624],["80",-9.178644693705547],["space",-9.179437222800106],["runs",-9.180154573731643],["ation",-9.180212757515669],["pent",-9.18063254048357],["signed",-9.182188952037468],["works",-9.182538850335803],["self",-9.183001899551295],["length",-9.183691938763017],["60",-9.186109117990808],["possible",-9.188265205238944],["availabl",-9.188762805368032],["southern",-9.19093889798267],["figure",-9.191167866841516],["movement",-9.194050657548988],["model",-9.195324043757584],["training",-9.195698957650123],["hours",-9.195816778613374],["keep",-9.196032599930437],["White",-9.196328658220784],["From",-9.197975493090912],["International",-9.198211082863816],["2001",-9.198876101608787],["vocal",-9.200636273672455],["Charles",-9.2010969458488],["Red",-9.205128787048578],["ought",-9.207441404714853],["decision",-9.207529220454871],["Thomas",-9.208410702124796],["Kingdom",-9.209752126117177],["church",-9.211286866291523],["Hall",-9.211433963411018],["Navy",-9.21190509570594],["°",-9.213227452222498],["friend",-9.213422200739949],["claimed",-9.213543665485455],["Sea",-9.21552928761557],["turn",-9.21565690229057],["league",-9.215725713582497],["raise",-9.216498849004733],["magazine",-9.217243074586204],["round",-9.217627662610365],["taking",-9.217898962159904],["going",-9.219090876510753],["cut",-9.22148833114808],["surface",-9.22401929520912],["contract",-9.224267276697294],["minutes",-9.224367122435925],["activit",-9.224979985698065],["theme",-9.22722052663449],["northern",-9.232720654471967],["find",-9.236086801911489],["letter",-9.236275070546315],["international",-9.237016359744874],["study",-9.237732499657211],["2002",-9.238180183329877],["carrie",-9.238207647877955],["Canada",-9.238417476304095],["explain",-9.238479727978334],["agree",-9.239001738033538],["nine",-9.239874269217578],["Award",-9.24076983666277],["language",-9.2415287745218],["share",-9.241698232322527],["Peter",-9.243555175614633],["need",-9.246012207649889],["central",-9.249981490644496],["wood",-9.251644044079507],["California",-9.253473006812095],["immediate",-9.257304353590975],["must",-9.25742014417032],["outside",-9.258730501630238],["Court",-9.264801629624502],["personal",-9.265454575781444],["better",-9.266147161787472],["size",-9.268250680261554],["rule",-9.26956167387108],["enough",-9.272475038585586],["India",-9.27259937350666],["rdered",-9.274812363844193],["Great",-9.275244345470417],["room",-9.276669557491887],["commercial",-9.276922003024124],["reduce",-9.278313523144824],["idea",-9.27862527562164],["Union",-9.280225632713362],["35",-9.280455530291526],["units",-9.282636623812769],["award",-9.283484625682904],["sked",-9.283719013298299],["according",-9.285141564736437],["above",-9.287302061825905],["Smith",-9.287851857985029],["daughter",-9.29047234111669],["beginning",-9.291515198331231],["relative",-9.29267968602412],["fact",-9.292787586628654],["additional",-9.294254117476052],["conduct",-9.294441449849584],["social",-9.29528975438682],["Game",-9.297384416037234],["park",-9.297845078768752],["speed",-9.298019128542958],["1990",-9.298081309205102],["Richard",-9.298278081732413],["animal",-9.300768071886433],["board",-9.301847760995612],["sub",-9.302180500583159],["faile",-9.303411282082234],["port",-9.304400428975887],["Company",-9.304655504673176],["abilit",-9.305927933580957],["response",-9.306665475929618],["NY",-9.308049187049544],["ves",-9.308266261178707],["ell",-9.308446823452368],["winds",-9.311444489935038],["College",-9.312549829719151],["pressure",-9.314010682668666],["coast",-9.314868209837412],["evidence",-9.315586802919707],["90",-9.316398956460025],["Church",-9.316998376589119],["Act",-9.317154714579106],["mission",-9.317504872140407],["loss",-9.319375397602487],["despite",-9.32132761954643],["poor",-9.322361727696496],["date",-9.322509110197036],["village",-9.323242243061587],["High",-9.324315584797024],["type",-9.325184757652151],["Los",-9.32616309751682],["fall",-9.32626024130459],["view",-9.326341575776464],["?",-9.326997067350113],["£",-9.326997067350113],["UK",-9.327997889177336],["musical",-9.328541987399026],["soldier",-9.32957985860719],["directe",-9.329697824565942],["hard",-9.330330384492711],["Hill",-9.3312546211089],["subject",-9.331751388937583],["river",-9.332348304823888],["media",-9.333132395616035],["Germany",-9.334601867656916],["sometime",-9.334914038309021],["told",-9.335664511235922],["And",-9.335708649192874],["western",-9.336286559655527],["develop",-9.340776746542426],["flight",-9.34265328922476],["center",-9.342701692527106],["Western",-9.343850639669247],["future",-9.343852855267151],["recent",-9.344313764970549],["Final",-9.344350372524367],["fleet",-9.344777041150566],["perform",-9.346865559775928],["market",-9.347251823118695],["charge",-9.34751560058079],["reason",-9.350476197007298],["Roman",-9.355145557239691],["009",-9.355659448373405],["peak",-9.35668435510928],["Grand",-9.358181205871327],["latter",-9.358276455111735],["propose",-9.358835400891442],["football",-9.359083036667426],["eastern",-9.359262856997152],["engine",-9.360225011921603],["Times",-9.363946077555061],["writer",-9.364141080229661],["fund",-9.364418902857873],["police",-9.364587541296988],["ball",-9.367123680599676],["provide",-9.367172372141887],["That",-9.368286755706066],["alread",-9.37020852077805],["pop",-9.37065889718256],["tell",-9.373382779841785],["summer",-9.375566885767602],["1970",-9.37637385593637],["196",-9.377123744734662],["Most",-9.378235124236587],["past",-9.380243306830101],["radio",-9.380407178339665],["1980",-9.380953826631206],["meeting",-9.380983838073446],["rating",-9.381861118107066],["lines",-9.381909415937168],["Britain",-9.382161953732203],["Brown",-9.382592630176175],["actual",-9.385605836769994],["money",-9.3858739426632],["food",-9.386614764675967],["president",-9.386777734361754],["account",-9.386916069519705],["act",-9.388944413198432],["whom",-9.388983930828038],["larges",-9.38913499724084],["might",-9.390084648507733],["limited",-9.390377980290241],["course",-9.390798831466443],["estimated",-9.391351981376575],["associate",-9.39135672624066],["trade",-9.393730887276067],["compare",-9.394417100007079],["45",-9.395408124346554],["amount",-9.395499978328964],["Virginia",-9.39599823875495],["specific",-9.396145151659425],["want",-9.397447992528296],["staff",-9.397634281871332],["Later",-9.39865657442285],["write",-9.398858167908195],["practice",-9.402309374516323],["especiall",-9.405988444778592],["via",-9.406628781898743],["respective",-9.407148634670145],["manage",-9.40722240740241],["Bay",-9.407252677143005],["70",-9.408147916210694],["audience",-9.408478731709447],["1999",-9.40898240798757],["Soviet",-9.410425522023589],["Lake",-9.414572759713003],["join",-9.414838166300113],["becoming",-9.415205660046023],["entered",-9.415815710543056],["ley",-9.416891498820014],["Early",-9.417977201530029],["Awards",-9.420071428273806],["promote",-9.420275214187102],["Christian",-9.420749784868978],["winning",-9.421155516418168],["active",-9.42142801040159],["percent",-9.421709852305701],["test",-9.421829737645641],["visit",-9.422645868780776],["appointed",-9.423045164468697],["certain",-9.424693262743881],["brief",-9.42470142465943],["research",-9.425544086682947],["rate",-9.428940056566192],["reference",-9.429023687405307],["Day",-9.429083526935031],["Jackson",-9.429973978808782],["operate",-9.43011488851022],["authorit",-9.430492672022497],["é",-9.432812406239217],["concert",-9.433329065801408],["related",-9.43406733260149],["woman",-9.436535506794145],["Edward",-9.437578676061516],["flood",-9.438200346311861],["ounded",-9.438461915730567],["larger",-9.4397168438387],["interview",-9.439825699854302],["key",-9.441486317561129],["clear",-9.442019477788067],["Love",-9.444115712323496],["Rock",-9.445058460097615],["My",-9.445476628913093],["leaving",-9.446452132103751],["script",-9.448422213789488],["marrie",-9.449747445137719],["Club",-9.450020252966556],["cell",-9.450551193509675],["destroye",-9.451019280825985],["thus",-9.452630805566882],["refuse",-9.453366900193336],["Spanis",-9.453504003114531],["box",-9.45464670316292],["God",-9.45673706603926],["approximate",-9.457568903975048],["probabl",-9.458866924169875],["Association",-9.459202093338714],["running",-9.461910044687],["ending",-9.462177388881754],["students",-9.463372204735292],["serve",-9.46412264932229],["intended",-9.464313624924836],["natural",-9.465370838358915],["Party",-9.466057358520192],["lyric",-9.466166807537272],["1960",-9.466553680192314],["broadcast",-9.468940373973897],["fish",-9.469197860566121],["leader",-9.469359171203616],["private",-9.472651791131307],["overall",-9.473007947164465],["Chicago",-9.474001087040664],["professional",-9.47449059237141],["studie",-9.474935948318558],["coming",-9.476197807031399],["TV",-9.476370180536538],["image",-9.477810378973675],["producer",-9.479677411816535],["critical",-9.47991214039141],["forward",-9.483981185413061],["helpe",-9.484184326712057],["Chinese",-9.4856285067321],["1998",-9.485662938678317],["trial",-9.486654942583733],["Council",-9.486797122592982],["detail",-9.488421262334102],["child",-9.48923126141702],["Dr",-9.489485869333448],["singer",-9.489713707771687],["commander",-9.48996128515263],["manager",-9.490386506297895],["mixe",-9.490629093494041],["spread",-9.490866585027002],["planne",-9.491655046692737],["shape",-9.491908393312583],["300",-9.492018810840225],["Second",-9.493324928158597],["effective",-9.493567319265994],["traditional",-9.49584752246625],["gold",-9.497725745228196],["Many",-9.498474169890349],["awarde",-9.500003810773716],["Mary",-9.501427761814336],["Russian",-9.502676844373983],["typical",-9.503032096766393],["longer",-9.503041361665016],["pay",-9.503491853421817],["annual",-9.503723189149461],["fans",-9.505458862530201],["meet",-9.506727104097923],["ice",-9.507262433143174],["increasing",-9.507997335934114],["living",-9.50839533544798],["supporte",-9.508703947061798],["Johnson",-9.508707940038787],["read",-9.509766192479722],["break",-9.510105042848666],["improve",-9.51110631699228],["drive",-9.511488526119372],["Pacific",-9.512545965503328],["guitar",-9.514077372023412],["fifth",-9.514496638849856],["History",-9.516260671609283],["Lord",-9.517979260343166],["wall",-9.51885964118888],["pro",-9.51950512666303],["represent",-9.51994735665383],["Billboard",-9.521916633538805],["Queen",-9.521993170167217],["75",-9.522263261374663],["value",-9.52276198580724],["64",-9.52398606757612],["separate",-9.525088767001186],["double",-9.525260810425609],["Canadian",-9.526808849181663],["competition",-9.527632651662646],["El",-9.528786748482895],["scenes",-9.530964127412004],["declare",-9.532934636210364],["stone",-9.536274514148849],["Record",-9.537175618459719],["others",-9.537571132148994],["fell",-9.53987607112217],["Since",-9.540931800735276],["Atlantic",-9.541642902642167],["minute",-9.541924884329916],["copies",-9.542047668643535],["pilot",-9.542651603679749],["Squadron",-9.542674287493671],["suffere",-9.543317451970355],["1997",-9.543597516996519],["extende",-9.54413922833193],["ex",-9.544908138494051],["exist",-9.545118807290203],["Mark",-9.546219806522705],["themsel",-9.548198103810245],["32",-9.55175523122097],["portion",-9.55196286169955],["Florida",-9.552316476646533],["dance",-9.552480791526731],["Both",-9.555585104503955],["word",-9.555857140613128],["88",-9.556205065451735],["wind",-9.556429889035082],["tons",-9.556485511594053],["measure",-9.556626659496018],["Highway",-9.557212320071912],["whe",-9.558116242423601],["escape",-9.559240758316722],["itsel",-9.56061121199733],["think",-9.560749679630772],["countri",-9.562425311781459],["pair",-9.562987687716216],["target",-9.563754617041445],["states",-9.564254148206066],["alway",-9.564263859417272],["prevent",-9.564409806307888],["hour",-9.56446018408609],["upper",-9.564585437957847],["deal",-9.566670019656343],["cyclone",-9.566801938263833],["purchase",-9.567164708937618],["Italian",-9.567568356474862],["centre",-9.568114039167016],["frequent",-9.568593900915163],["Texas",-9.569019054414595],["status",-9.569702595971325],["parent",-9.569965123497347],["con",-9.570283187928004],["Don",-9.570920262458463],["health",-9.571499697371538],["approach",-9.57199597380336],["historian",-9.572094846024589],["deep",-9.57302921393683],["Center",-9.574127714305225],["bar",-9.57452304314585],["China",-9.574811284059885],["Africa",-9.575362879789132],["network",-9.57563253416159],["rights",-9.576305590146154],["But",-9.577642133678376],["ment",-9.578199271086342],["know",-9.578668625321098],["removed",-9.578858722666302],["Year",-9.578991862596215],["enter",-9.579338712813124],["indicate",-9.57946085396278],["33",-9.581123466752159],["Green",-9.581523184028637],["Olympic",-9.581918514693927],["prior",-9.584605337159894],["something",-9.585353294722196],["offere",-9.585363907215923],["launche",-9.586641764813404],["ill",-9.586855896319992],["eeded",-9.587781589953527],["unit",-9.58788236183401],["Jack",-9.589794331957641],["coach",-9.591504465700657],["00",-9.592974394073396],["Martin",-9.59336391336099],["ranke",-9.594739859213192],["avoid",-9.595024838577357],["discovere",-9.59519566516331],["organization",-9.596702661748637],["com",-9.597764706677221],["stars",-9.599509794953645],["composed",-9.60026418837485],["nature",-9.600986082263951],["Earth",-9.604279395638464],["74",-9.604791477958189],["pass",-9.605028346173969],["cross",-9.607499203866091],["III",-9.60787489398461],["Sir",-9.609023642090213],["09",-9.609196019000015],["inspired",-9.610880704400502],["referre",-9.61100883136081],["Big",-9.611470341833483],["minor",-9.611665018385162],["ll",-9.612512144970946],["potential",-9.612537524141791],["officers",-9.612882291472403],["matche",-9.613326020000665],["Empire",-9.613529499352932],["moving",-9.614427362903205],["reveale",-9.6148363896981],["Tom",-9.614940009756479],["Central",-9.61585832289236],["access",-9.616870222427563],["occur",-9.620313806643463],["qualit",-9.620487464560469],["numerous",-9.62097323528015],["ville",-9.622531310997957],["conclude",-9.623055647582493],["male",-9.623631587587575],["impact",-9.624276782412423],["territor",-9.624375620530289],["54",-9.625831722704188],["scale",-9.626918797789884],["whole",-9.627004869465448],["Angele",-9.627043249744364],["Test",-9.6289728144156],["shows",-9.629621671769472],["hold",-9.629670348045961],["participate",-9.629960528773388],["liste",-9.630781982377153],["maller",-9.630932690890898],["Congress",-9.631403721915325],["castle",-9.631789095600405],["Group",-9.63251100344051],["sister",-9.634063362150021],["plot",-9.635012313608556],["legal",-9.635586991247026],["achieve",-9.635766231836474],["yard",-9.63645872084169],["Film",-9.637137881381731],["information",-9.637758760899409],["occurre",-9.638481037091461],["reach",-9.63870272028839],["collection",-9.639382489405612],["college",-9.640696412162793],["Go",-9.642355812923398],["earned",-9.642743923741701],["1996",-9.64302599530612],["2016",-9.644542719011499],["depression",-9.644915627780305],["parts",-9.645477470304243],["bill",-9.645693741524694],["Greek",-9.645766907730398],["officer",-9.645964067853814],["1950",-9.646120841566644],["divide",-9.646273584499466],["standard",-9.646603570035305],["session",-9.6473075221932],["vehicle",-9.647776692155333],["decline",-9.647866765278136],["37",-9.648952672449587],["direction",-9.649313135707365],["observe",-9.649727492386146],["primar",-9.65086756601124],["economic",-9.651355163026823],["mouth",-9.652643211252116],["discover",-9.652715308578532],["Minister",-9.654450929244268],["confirm",-9.654508929766004],["tracks",-9.655128307235314],["travel",-9.65635348501353],["severe",-9.656803067374966],["author",-9.657637772639088],["ham",-9.658478850769699],["plans",-9.658931250900753],["culture",-9.659449012576117],["Team",-9.660017544946037],["complex",-9.66010843836288],["expected",-9.660429134387106],["Tour",-9.660514715667512],["Ma",-9.660653161238157],["industry",-9.661741341090563],["1994",-9.661984244408938],["57",-9.662110937667443],["matter",-9.662329251725938],["Sun",-9.662677301798114],["situation",-9.662791393258109],["feel",-9.66291184587149],["independent",-9.663188628869216],["horse",-9.663225266718696],["border",-9.663387080099902],["majorit",-9.663811549253102],["DVD",-9.664419467292477],["Corps",-9.66557976378715],["attention",-9.665933776344378],["marked",-9.666159224373185],["education",-9.666565366056602],["variet",-9.666666386236633],["36",-9.669362532992599],["Time",-9.669556278479035],["science",-9.671392195349863],["giving",-9.67794572774094],["commente",-9.677966568194277],["press",-9.67811011414361],["lived",-9.678226815538645],["Stone",-9.678283712112025],["kind",-9.679699438913513],["marriage",-9.679998086874592],["ance",-9.680635468212172],["recover",-9.682201497776306],["dead",-9.683220708742489],["beat",-9.683695873886439],["metal",-9.683874183328912],["edition",-9.684341714927982],["adult",-9.684453930466244],["mass",-9.684561062425539],["newspaper",-9.684577589710173],["yards",-9.684920551190885],["Michigan",-9.686331381884454],["Bridge",-9.686351225049526],["attacke",-9.68730986482516],["sales",-9.687337147639427],["appears",-9.688898925196673],["Under",-9.68909499407287],["Chris",-9.689327834197602],["Super",-9.689691611989955],["combine",-9.69002922523959],["capital",-9.690305075410066],["normal",-9.690578755472972],["goals",-9.691131004574594],["engineer",-9.691823726199987],["sequence",-9.691870989382382],["facilit",-9.693278998673456],["product",-9.69341706414407],["Wales",-9.694034181438354],["distance",-9.694044721373421],["rough",-9.69489276541643],["below",-9.695302280032392],["religious",-9.695304115573617],["covere",-9.69646725274108],["Old",-9.696720064732787],["concept",-9.697974982053978],["ary",-9.698198830598901],["foot",-9.69829486014486],["Hot",-9.698544602449987],["attende",-9.699569718996552],["owned",-9.699858494954803],["purpose",-9.700493357716558],["object",-9.700840100555466],["movie",-9.701064392768881],["question",-9.701395940736738],["middle",-9.701696495963054],["moment",-9.70326320847533],["shown",-9.704428624233488],["district",-9.70553632158203],["heart",-9.706520039230202],["Q",-9.706830414171785],["38",-9.706916167866337],["camp",-9.707444077707606],["nable",-9.707941372233131],["Major",-9.70842378694799],["source",-9.709199668695206],["49",-9.709913113081928],["rapid",-9.71054609836788],["Over",-9.710910845369334],["takes",-9.712234959708598],["focus",-9.712324891194138],["Scott",-9.71300256259414],["serious",-9.716439332045779],["African",-9.716841696473004],["jury",-9.717056567370525],["notes",-9.718809548257166],["decade",-9.719064838825826],["constructed",-9.720859272737536],["captain",-9.721103943914418],["Several",-9.721362376136595],["1992",-9.722576575298008],["schedule",-9.722756188390374],["energy",-9.723954131333194],["financial",-9.72420151583258],["method",-9.72522682380228],["call",-9.727495108225657],["chief",-9.727952824940267],["inch",-9.728022712756047],["wing",-9.730443932798527],["47",-9.733017834279563],["argue",-9.733609477498208],["closed",-9.735338086263532],["68",-9.738608402387614],["physical",-9.738852653167754],["Fox",-9.739411420372251],["screen",-9.740101879705929],["Service",-9.741441154025905],["host",-9.742328070125772],["sign",-9.743008075519912],["function",-9.743448690064156],["temperature",-9.743814889878346],["Mexico",-9.745835482583256],["crosse",-9.746057690423457],["Like",-9.747042061966145],["34",-9.747467128729085],["48",-9.748644844536702],["challenge",-9.749522404220619],["societ",-9.750352738608404],["learn",-9.751632116104082],["Line",-9.753147969137634],["stating",-9.75330983456217],["defense",-9.754086384443958],["elling",-9.754109946357577],["Frank",-9.7543940713042],["train",-9.754411667080912],["tried",-9.75457584941513],["films",-9.754627748174665],["400",-9.754911584947608],["Latin",-9.755808196484766],["Pro",-9.755868527990062],["color",-9.756589354731263],["friends",-9.756610495322985],["1930",-9.756767395940956],["combat",-9.758380581499797],["Madonna",-9.760095246503509],["assigne",-9.760297503680135],["usuall",-9.760568879685069],["ive",-9.761083628900346],["twenty",-9.761753060478414],["1993",-9.762415429964848],["conflict",-9.762782915848383],["bring",-9.764534328636302],["1991",-9.764609104348192],["46",-9.766526310869574],["Jones",-9.766790966531781],["Scotland",-9.768724394136541],["Bill",-9.770046405584967],["broke",-9.770077367704728],["scor",-9.770848807483663],["consider",-9.772631038359789],["accepte",-9.772922689401376],["Department",-9.773780740866306],["mer",-9.776078654759171],["presente",-9.776594362098242],["quickl",-9.77681487081376],["words",-9.777504549490004],["Hurricane",-9.777818675244399],["morning",-9.778500125091378],["machine",-9.778622824855],["article",-9.779619442422105],["risk",-9.779647452053911],["executive",-9.779915096172784],["tower",-9.780618253525375],["Three",-9.78108880432288],["+",-9.781349013450921],["bound",-9.783022444853833],["Their",-9.783299773090075],["universit",-9.783446974196742],["nation",-9.783456222293882],["secure",-9.783679854061178],["responsible",-9.7840550132016],["guest",-9.785085822618383],["build",-9.785259469869935],["Zealand",-9.785595731976604],["Prince",-9.785740418455358],["blood",-9.7862456438598],["paper",-9.786861940974633],["droppe",-9.788123720009674],["survive",-9.788310873818547],["Infantry",-9.789901837404456],["kept",-9.790076927687094],["Creek",-9.79029878136858],["inches",-9.79059750535436],["leg",-9.791000166904917],["means",-9.79490916067092],["winter",-9.795085020918723],["agent",-9.795475280417888],["nother",-9.797240675662286],["Societ",-9.797990755086051],["display",-9.798431409012748],["care",-9.798968194621876],["regard",-9.79898234589911],["championship",-9.800734733735963],["forest",-9.801551091295176],["meter",-9.803068846622274],["square",-9.803625958099609],["Committee",-9.80480622482884],["Post",-9.806479723338729],["slight",-9.806924643472607],["save",-9.808264296243781],["actor",-9.80882093546902],["Saint",-9.809049322712056],["teams",-9.809313999981457],["squadron",-9.810455083710595],["battalion",-9.811669105824835],["onto",-9.811984873129571],["traffic",-9.813467399038807],["follow",-9.813615929271911],["Battalion",-9.813695827343796],["job",-9.814638184165872],["Life",-9.816179311358923],["nominate",-9.816620728298604],["enjoy",-9.81668494589034],["resulting",-9.817420035422415],["ring",-9.818427261281899],["hundred",-9.819394368589577],["content",-9.819571626352971],["engage",-9.820529370815338],["Live",-9.820979253473089],["presence",-9.821712674909719],["quarter",-9.821905520374715],["Louis",-9.82276731603077],["older",-9.823322340292759],["worker",-9.823351150794164],["maintain",-9.82367134132951],["painting",-9.824376019203742],["federal",-9.826768825878657],["1942",-9.827020108908199],["couple",-9.82778793399093],["han",-9.827839621627712],["metres",-9.828108440443911],["defence",-9.830399486385254],["storie",-9.830477455917462],["weight",-9.832336298328173],["speech",-9.832404583819066],["identifie",-9.833007561349751],["More",-9.833700916651834],["65",-9.834541262597524],["viewers",-9.834560430346276],["enemy",-9.835660282907495],["royal",-9.836146151340204],["greate",-9.836402127553999],["Fort",-9.836710685010209],["setting",-9.836752814159054],["starting",-9.837713475550744],["seem",-9.838077138844785],["extreme",-9.838349488420542],["Oxford",-9.838782955116887],["Captain",-9.84016143206324],["expresse",-9.840635989118708],["plant",-9.84130946056995],["obtain",-9.841389563252001],["meaning",-9.842874307689812],["meant",-9.843439822732993],["ski",-9.843554792870437],["begins",-9.843977342779457],["Lee",-9.844428570275202],["worth",-9.84542633879831],["Chief",-9.845816993778664],["multiple",-9.847133926557037],["stay",-9.847150300430807],["featur",-9.847593378368325],["sex",-9.84767163325995],["contemporar",-9.84786077658672],["Bar",-9.847951695527282],["gain",-9.84841657364531],["Boston",-9.848678216173301],["Republican",-9.849181693896861],["Harrison",-9.849381349968638],["transfer",-9.850240202833954],["oppose",-9.85041690307561],["property",-9.851199466758738],["concern",-9.851278654610585],["encounter",-9.851769314472477],["sense",-9.851996133188715],["Southern",-9.852515871909224],["Manchester",-9.852611922296639],["strength",-9.85266412450821],["inside",-9.852822347975817],["paid",-9.853422995473192],["primarily",-9.854361520721609],["prominent",-9.854424777238531],["aired",-9.855298820465729],["tradition",-9.855506079404254],["sexual",-9.855534512296142],["designate",-9.856049283397477],["extensive",-9.85611716298272],["Before",-9.85698084314431],["threat",-9.857179464238254],["Brigade",-9.857389623063916],["dark",-9.857468630660888],["hall",-9.85781279557037],["showe",-9.859098538515426],["weaken",-9.859693953467275],["peake",-9.860327545456126],["Jim",-9.860420927303318],["assist",-9.861261517623126],["85",-9.86227521147881],["Little",-9.864201859838067],["acting",-9.864375650694344],["Regiment",-9.865632516667944],["Long",-9.865665105644226],["companie",-9.865806549410088],["Mar",-9.865817278623052],["ium",-9.865970551610046],["reception",-9.86629635480036],["blue",-9.866303731917295],["1944",-9.866416201889619],["tournament",-9.866475287204826],["69",-9.86711558272444],["Vietnam",-9.867884935882659],["Cross",-9.86873842541036],["Car",-9.869327586558413],["Ben",-9.871234968656836],["invasion",-9.872052624805256],["rying",-9.872604808083091],["electric",-9.87328144926435],["passenger",-9.873345392279672],["historical",-9.87337099064783],["Academ",-9.87741848346519],["gas",-9.877547555304133],["BBC",-9.877770721923149],["makes",-9.8791397619031],["younge",-9.879424934690862],["van",-9.879710116984484],["Series",-9.88247119141276],["label",-9.883285217376141],["powerful",-9.883412935643303],["volume",-9.883629732085211],["reflect",-9.884007804462193],["floor",-9.884370001365669],["poem",-9.884784945590765],["Catholic",-9.885661045483678],["Port",-9.88568240361469],["candidate",-9.88591965573336],["Games",-9.886366930769633],["difference",-9.887237606624284],["Home",-9.887719701977964],["55",-9.887865693021473],["books",-9.88875539380163],["premiere",-9.889705014765836],["ja",-9.889714168805215],["formation",-9.889864521048892],["speak",-9.890266618637451],["maximum",-9.891326827489255],["passing",-9.891564376096504],["things",-9.891777508552577],["Paris",-9.89202929058324],["naval",-9.892925785454146],["contribute",-9.893173894102384],["ver",-9.893368870812118],["standing",-9.89374014412268],["Middle",-9.894032384011908],["boat",-9.894192453777462],["weather",-9.894548427347253],["transport",-9.895258712754956],["Joseph",-9.895413091585256],["disease",-9.89761881573185],["Ital",-9.89781990673476],["ized",-9.898104930483457],["1945",-9.898235081377306],["hospital",-9.898657780578855],["Entertainment",-9.899238479484554],["innings",-9.899365670298703],["Museum",-9.899978014863663],["policy",-9.901263021124823],["quick",-9.901961281638224],["1941",-9.90318981705512],["calling",-9.904112341223028],["Stephen",-9.905230579403144],["big",-9.905510100618901],["armed",-9.90591818781824],["wise",-9.906058010194348],["vessel",-9.906494570657056],["83",-9.906766019215542],["1920",-9.907324225120782],["opportunit",-9.90737705653109],["Con",-9.907933298124581],["thousand",-9.909354210563361],["Williams",-9.91145959492304],["struck",-9.912609644478056],["Art",-9.912874627952046],["acquire",-9.91347379611849],["railway",-9.914000712737444],["contrast",-9.914699424745582],["birth",-9.915653175963122],["150",-9.917011012362044],["background",-9.917871265196476],["caus",-9.918230891690134],["Production",-9.918889376802573],["protect",-9.919166054420215],["writers",-9.919629770426289],["Avenue",-9.920072162926768],["battleship",-9.920194398567265],["theory",-9.920234182900176],["treatment",-9.920360597901803],["reaching",-9.920421598101402],["52",-9.92071108357956],["landing",-9.921536645991676],["student",-9.922487586792881],["search",-9.922968923911057],["Becau",-9.923233299434056],["governor",-9.923513904739998],["retire",-9.923590408709092],["44",-9.923871410646054],["proved",-9.923878041735819],["Victoria",-9.924873680301967],["succeed",-9.92491379934611],["platform",-9.925338746110999],["gaine",-9.925579065283197],["Though",-9.925652037796587],["rich",-9.926005649154272],["husband",-9.926276294262632],["inter",-9.92662862908851],["foreign",-9.926848193460074],["Ireland",-9.92703378604463],["begin",-9.927204389137053],["incident",-9.927322119543478],["criticize",-9.927656271631417],["gen",-9.927956751546681],["draft",-9.928062679810425],["stock",-9.928567881310887],["Republic",-9.92972253144316],["42",-9.929958802450734],["kill",-9.930768560963877],["comic",-9.931275642078367],["houses",-9.932101011144493],["stop",-9.93301918569752],["41",-9.933636767498681],["laid",-9.934747179362898],["establish",-9.935956946108902],["1989",-9.936160335078506],["contact",-9.938413405203757],["native",-9.938965018836047],["surrounding",-9.939055774098392],["recognize",-9.939693045806031],["Show",-9.93990989004467],["ide",-9.940547883663275],["1943",-9.941757326747558],["fuel",-9.942447054797452],["sixth",-9.942864842917732],["ceremon",-9.94294707016908],["62",-9.943165481537871],["visual",-9.944233398073914],["county",-9.944524269467715],["reaction",-9.946345434290059],["green",-9.946514835059146],["cruiser",-9.946697745824913],["organize",-9.946823586112735],["true",-9.94764087951227],["says",-9.947815747401126],["tree",-9.948328599416655],["citie",-9.949271105893384],["website",-9.950490081071514],["secret",-9.95052067038872],["growth",-9.951053521881184],["fighter",-9.951541882535855],["Tropical",-9.951822473053829],["Sam",-9.952334701054943],["else",-9.952549912511092],["records",-9.952586722896397],["soundtrack",-9.952992961585796],["Valley",-9.954036020203622],["heavi",-9.954235788826262],["agreement",-9.955142734429137],["broad",-9.955312522836493],["dependence",-9.9554045814884],["supplie",-9.955881162391256],["offer",-9.957198020100144],["Van",-9.957420462486986],["mind",-9.958571224437156],["nomination",-9.958675481713335],["equal",-9.958744886546231],["Parliament",-9.959208187500295],["Dutch",-9.961654637353304],["murder",-9.961848091664885],["your",-9.961961443253305],["hire",-9.962004597239934],["focuse",-9.962349732786848],["residents",-9.965015833782779],["Week",-9.965632337896176],["vote",-9.966497718477166],["artillery",-9.967384482145887],["negative",-9.968647391040431],["Young",-9.970178705226605],["strike",-9.970239814245854],["Through",-9.970422304911228],["medical",-9.971107333131707],["define",-9.971614778734216],["alone",-9.972863274043014],["reign",-9.973255234519206],["credit",-9.973753046758805],["creat",-9.973781732932126],["Carolina",-9.973843886903268],["comment",-9.973919839396688],["Men",-9.975252747967419],["Top",-9.976304079831154],["failure",-9.976900915697012],["uses",-9.976947942606659],["apparent",-9.977908641894048],["senior",-9.978501016361234],["Governor",-9.97879904533818],["What",-9.979903284711385],["sources",-9.980125152967272],["represente",-9.980723992224094],["multi",-9.98101144209417],["limit",-9.981196211987351],["computer",-9.981503380453253],["affected",-9.98186827827477],["birds",-9.98215758775985],["spring",-9.982795508388197],["Fleet",-9.983267260791628],["Song",-9.983319840795614],["technique",-9.985372737506706],["56",-9.985397789641892],["kilometre",-9.985858023632352],["reviewer",-9.986721701432417],["formal",-9.988224040032188],["equipment",-9.988277969532826],["usual",-9.98864271042895],["capacit",-9.989483127407796],["raid",-9.990296274424933],["pattern",-9.990526990181984],["Blue",-9.990577715155592],["600",-9.99168255985461],["serving",-9.993067756490436],["famous",-9.99422996956439],["approache",-9.994882678457694],["occupie",-9.994895069888154],["Admiral",-9.995052276892082],["greates",-9.995366883188423],["mile",-9.995419078846478],["wicket",-9.996493378209376],["connect",-9.99649813693295],["Korean",-9.996771628760882],["Football",-9.99693806120998],["page",-9.996956885614368],["Operation",-9.997127505873005],["mean",-9.99734156170555],["table",-9.997680470075567],["degree",-9.997948580884907],["feeling",-9.99811347490339],["Duke",-9.998220172675195],["weapons",-9.998468084370378],["wave",-9.998501945291151],["43",-9.998560349981844],["request",-9.999487804722765],["except",-9.999707942994693],["Castle",-10.000281188492373],["consiste",-10.000341752245209],["Bond",-10.00076536061471],["Mean",-10.001364925509272],["settlement",-10.001428332192006],["Northern",-10.001961510655901],["offensive",-10.002016006990806],["Ka",-10.002852640054408],["Storm",-10.003232152563525],["Prime",-10.00375557451586],["chi",-10.004050691481524],["demand",-10.004773339312292],["Government",-10.005785273304372],["Tech",-10.006061645893345],["Upo",-10.007099736400054],["firm",-10.007258570377811],["struggle",-10.007627970065387],["thick",-10.008038593255195],["slow",-10.008412365240604],["statement",-10.00841690053424],["killing",-10.009107631060665],["destroy",-10.010090995345303],["District",-10.010753577221728],["Homer",-10.010858619763816],["BC",-10.012328151362496],["Mac",-10.012705005632382],["grew",-10.013394005522608],["prisoner",-10.014123196746835],["sky",-10.014606404913494],["drama",-10.016230382143277],["deck",-10.016505739862865],["edge",-10.016838806008375],["maintaine",-10.018440462953235],["factor",-10.019218399077184],["committee",-10.019569827850187],["girl",-10.019640934964437],["hop",-10.020917782595069],["Scottish",-10.021685485874164],["core",-10.021866481220073],["1987",-10.022094327203058],["System",-10.022693410790634],["aspect",-10.02376973370683],["76",-10.023840413103486],["SR",-10.025349330148618],["chance",-10.025586094870244],["hill",-10.026571130664339],["Fantasy",-10.027530993955118],["rail",-10.027573492508612],["Chart",-10.027589553541514],["master",-10.027984333270371],["store",-10.028461876937465],["street",-10.028621941319702],["proposal",-10.029046617511863],["bodies",-10.030149038621438],["visite",-10.030346832379962],["intersection",-10.030442017795984],["Background",-10.030646950712233],["bank",-10.03068631883231],["rise",-10.03208405447845],["treat",-10.032111572784693],["rainfall",-10.034012325873654],["supply",-10.034849025371672],["composition",-10.035360210347879],["incorporate",-10.035402472197964],["aid",-10.035760846290739],["interchange",-10.03601826941723],["therefore",-10.036818049966412],["assault",-10.036969623330087],["cap",-10.03801613357695],["twice",-10.039396701614416],["Polish",-10.03949887567916],["billion",-10.041215811724477],["losing",-10.041602051512527],["Joe",-10.043544098862807],["Senate",-10.043592249188638],["consecutive",-10.04374602405534],["draw",-10.043830712747432],["compete",-10.045174824036502],["Christmas",-10.045967267832324],["heard",-10.046237640722248],["Festival",-10.046645090640062],["flag",-10.04715381462562],["58",-10.047853655236906],["opinion",-10.048012821555423],["Mike",-10.04809304022224],["Eastern",-10.049717688780659],["connection",-10.049823958872777],["chosen",-10.050957118049313],["Light",-10.051180022389866],["fiction",-10.0512267658974],["chose",-10.051854681935039],["Wilson",-10.053052636537357],["headquarter",-10.053163074551861],["lap",-10.053384951064968],["origin",-10.05384761152245],["repair",-10.054055392523377],["fine",-10.055007212233788],["Pennsylvania",-10.055048481868715],["tail",-10.05511099904087],["text",-10.055998240240067],["expansion",-10.056254754674933],["Taylor",-10.057138089409273],["camera",-10.0572528124321],["Studios",-10.057268268729114],["genre",-10.057295358324096],["herself",-10.057516902935523],["CD",-10.05780889425922],["names",-10.060053119293094],["unknown",-10.060815196137415],["rain",-10.060824371982383],["Due",-10.061274953681384],["crime",-10.061456736509802],["1986",-10.065080120177404],["extra",-10.065215497659842],["Alexander",-10.065984791060162],["Allied",-10.066279244775878],["Each",-10.06635649455236],["Up",-10.06645871991186],["hands",-10.066882296437232],["nothing",-10.066919089033403],["environment",-10.06705452371392],["thing",-10.067347351932026],["reserve",-10.06743105968412],["storyline",-10.067489387708198],["fellow",-10.067940926875254],["silver",-10.068639724725173],["á",-10.068871902346313],["simply",-10.069438020082812],["SS",-10.071515839309557],["extend",-10.071644244924196],["adopte",-10.072283632031588],["rated",-10.07239580652075],["genu",-10.072398420814794],["growing",-10.07341116130141],["arms",-10.073701058222195],["holding",-10.073990843409854],["simple",-10.074429580620716],["hair",-10.074702792580977],["Night",-10.075665016991442],["consist",-10.076077571875542],["opposition",-10.076951957843091],["zone",-10.07700203716417],["crossing",-10.077438868526798],["Civil",-10.077650198651604],["civil",-10.07804378548557],["che",-10.078130509590768],["q",-10.078164909567736],["northeast",-10.078250916321553],["leaders",-10.08065134845309],["council",-10.081043970573958],["trees",-10.081108698265638],["stood",-10.08154762304671],["opponent",-10.082105543268282],["tax",-10.082261475868076],["basis",-10.083148474333665],["winner",-10.083380550328108],["semi",-10.083734424295276],["boy",-10.084797583567932],["defend",-10.08636658113301],["fired",-10.087000165684293],["accept",-10.087290826229882],["gate",-10.087724488145536],["Reception",-10.0879747210622],["MD",-10.088093582481473],["budget",-10.088324284339008],["Railway",-10.08840258845495],["cultural",-10.088403684080554],["split",-10.0896528879631],["honor",-10.090566062184712],["expedition",-10.091232792398731],["Further",-10.092311442916632],["Irish",-10.092387004118669],["exchange",-10.092720784242362],["Bob",-10.093404064820596],["Institute",-10.09357919395378],["containe",-10.093697160092876],["Doctor",-10.094760879988467],["choice",-10.09476699797691],["flying",-10.096709873858737],["abandone",-10.097115556964734],["Ocean",-10.097958846559074],["administration",-10.098158623646146],["Harry",-10.098767376820769],["message",-10.098954261309684],["Li",-10.099309033355677],["Jersey",-10.100319785663594],["unique",-10.101422725691432],["filmed",-10.102282920802057],["segment",-10.102591994399692],["rescue",-10.10386036029368],["criticism",-10.103874969616037],["que",-10.104263309624825],["Spain",-10.104367153586049],["creation",-10.10552601626571],["considerabl",-10.105529836906697],["beyond",-10.105563313718285],["mon",-10.105875092398364],["restore",-10.105989014867216],["Su",-10.106739952895852],["convince",-10.106821960338285],["drawn",-10.106873400412224],["carrier",-10.107321234174385],["Four",-10.108060752438327],["comes",-10.108256053089141],["Coast",-10.108581189515805],["rival",-10.10891523283539],["debate",-10.109903670193424],["assume",-10.110288865800616],["flow",-10.110381633340085],["doing",-10.110383776720834],["coin",-10.110729601508657],["51",-10.110983150949297],["verse",-10.112314465312895],["possibly",-10.113676204627202],["motion",-10.115469526103062],["arrangement",-10.115981351905653],["Columbia",-10.116878590031522],["province",-10.11703565348362],["follows",-10.11831806884967],["commissione",-10.118951030081872],["Elizabeth",-10.119145540659103],["Wood",-10.120318724648769],["necessar",-10.120461979016897],["regarde",-10.120809017689936],["ong",-10.121350805119322],["broken",-10.121664458540717],["critic",-10.12287023472032],["advantage",-10.123159096980544],["warning",-10.123426515410445],["Town",-10.123669973109457],["block",-10.124814031890235],["Out",-10.125666434196527],["peace",-10.126760691516346],["Commission",-10.127996100529792],["Cambridge",-10.128883983393008],["mounte",-10.128952852526318],["Can",-10.12938633727527],["favor",-10.129922987341509],["arrange",-10.130149160286294],["approve",-10.130193279029868],["bird",-10.130580031787865],["item",-10.13077400961097],["walls",-10.130925126053363],["Board",-10.131639425329615],["counter",-10.131888080053798],["data",-10.132349288848971],["1985",-10.132572142170023],["93",-10.133262435876109],["personnel",-10.133915994404049],["repeated",-10.134563415326294],["Point",-10.134756867196854],["franchise",-10.134977490787824],["desire",-10.136148439415107],["ldest",-10.136403185224568],["rear",-10.136573375252842],["Arthur",-10.137083108891273],["twelve",-10.137397394128792],["nuclear",-10.137454062555978],["grante",-10.137713840104137],["grow",-10.138611664834766],["Andrew",-10.138740741038474],["accompanie",-10.139697101294473],["conference",-10.140208496953887],["management",-10.140249282367765],["surrender",-10.140551925779137],["Album",-10.140729592723682],["characteristic",-10.141068188295991],["leadership",-10.14119798301565],["graphic",-10.141230420978136],["parallel",-10.141314508090034],["800",-10.141702368965632],["Ohio",-10.141904165161591],["iron",-10.14194557396617],["actors",-10.14282223536527],["occasion",-10.144174264037238],["passes",-10.14480203497394],["contest",-10.144980730205992],["infantry",-10.14548863180713],["Will",-10.14556424787997],["settle",-10.145641597547254],["description",-10.145659530798937],["von",-10.146159228940942],["path",-10.147317989769865],["Georgia",-10.148021702362318],["Secretary",-10.148896633887565],["composer",-10.149280725691142],["oday",-10.150105939434964],["crowd",-10.15033078037926],["link",-10.150955669461679],["ang",-10.150957466084428],["finding",-10.151248837523738],["northwest",-10.15136128088346],["perfect",-10.151368794538865],["Single",-10.151837477959896],["1984",-10.152406482264738],["ancient",-10.152470596005061],["Also",-10.152815102992856],["vi",-10.153018967519143],["ecurity",-10.153703236193124],["horses",-10.153733820209714],["lay",-10.153993832690267],["benefit",-10.154569547421291],["53",-10.154673141472488],["permanent",-10.155131964458173],["collapse",-10.15529342441657],["caught",-10.15556668628389],["ric",-10.156286990912124],["Order",-10.156620650767147],["newly",-10.156684596096932],["Law",-10.156974544046255],["expande",-10.15715883170669],["Philadelphia",-10.157227977526569],["height",-10.157732613333296],["Science",-10.159141152320892],["reform",-10.159932874516139],["arrival",-10.159972603322656],["alternative",-10.160496877129567],["Russia",-10.16080526426653],["fast",-10.162585709528079],["ger",-10.162964113923387],["centuri",-10.163011517331315],["breed",-10.163060508504897],["comedy",-10.163595388244625],["brown",-10.164091608856879],["solo",-10.165181400356566],["Radio",-10.166728532507827],["mentioned",-10.167437276554951],["Walter",-10.16783991944658],["mountain",-10.168124930020722],["Never",-10.168223679843383],["investigation",-10.168582081324391],["stations",-10.168836935467422],["seventh",-10.170623181051242],["determined",-10.17075737721173],["familie",-10.170788943114237],["reveal",-10.170810252827362],["Asia",-10.170938361577907],["sell",-10.171337512337947],["planet",-10.171437046209018],["affair",-10.172084696584689],["quite",-10.173226020318767],["66",-10.173586575032669],["fair",-10.173861299603548],["generation",-10.173873465946802],["Grant",-10.17392704722895],["defensive",-10.173962355277009],["People",-10.175515378479616],["transferr",-10.175950113328282],["bus",-10.176269105249931],["1967",-10.176339344459695],["finish",-10.176555712969536],["Hu",-10.17665428160316],["Pre",-10.177111652453988],["recommend",-10.177184445108583],["encourage",-10.178205097458926],["trip",-10.17825985522146],["rejecte",-10.178307118245847],["Development",-10.17840190639481],["producers",-10.178720340873344],["prison",-10.179324951782416],["occasional",-10.1793853746777],["Square",-10.180774126895486],["regiment",-10.180914604172623],["shooting",-10.18235696925024],["Ottoman",-10.182486335642475],["Among",-10.182609427846058],["Liverpoo",-10.182817775990408],["sides",-10.182900476900883],["Dan",-10.18293705307816],["colour",-10.183569265325369],["refer",-10.18410426065308],["wild",-10.185494804692633],["Office",-10.18557116521419],["Nintendo",-10.185671705659441],["Lewis",-10.185808587388285],["watch",-10.186658990361472],["emerge",-10.187069299087259],["attribute",-10.18801931873447],["plays",-10.188243412112849],["protection",-10.188244632321222],["Field",-10.188496569977026],["turret",-10.188814750747776],["formula",-10.189398898385935],["temple",-10.189624652712984],["86",-10.189906469161738],["econom",-10.189931949096836],["Carl",-10.190458034513023],["dollar",-10.190819069305615],["piano",-10.191384328025825],["Ten",-10.191780964910384],["casualt",-10.191991106072898],["Lieutenant",-10.192363582811618],["Additional",-10.192852323463885],["urban",-10.19533273988734],["protecte",-10.195424933082121],["instrument",-10.196048142905987],["supporter",-10.196942811177479],["ker",-10.197379968655289],["Lincoln",-10.197513748937396],["touchdown",-10.198246778276328],["73",-10.198940428462876],["faste",-10.198997678943828],["flat",-10.199101150516285],["Har",-10.199399104785964],["ization",-10.199430228882832],["gradual",-10.199528091957532],["appeal",-10.200483584641745],["specimen",-10.201693216684722],["device",-10.202565260902945],["Gulf",-10.202755646109091],["dedicated",-10.202978421612432],["invite",-10.203283460306915],["brigade",-10.203290756022238],["96",-10.204049379894844],["Jewish",-10.20529120644651],["Anderson",-10.20623037234828],["intensit",-10.206619349985774],["skin",-10.2068881568463],["61",-10.206905873262818],["ful",-10.206906210130251],["ultimatel",-10.20702681567235],["Good",-10.207262416671812],["Francisco",-10.207319021700767],["Miller",-10.207382152337404],["Jean",-10.207877476915042],["graduate",-10.208612934753344],["Du",-10.208855876879454],["plants",-10.208930778122651],["98",-10.208960376458807],["Bank",-10.209053458189999],["connected",-10.209147748995804],["Steve",-10.209407775181663],["victim",-10.20951730928169],["Pop",-10.210010198208055],["carry",-10.210514390143244],["Earl",-10.211188272529007],["publication",-10.211208234011018],["partial",-10.212072565107945],["rank",-10.213674480339208],["ji",-10.213917937699136],["craft",-10.214031821815674],["household",-10.215343756205941],["Disney",-10.215347717852763],["Carey",-10.215352219425858],["eyes",-10.21563160594711],["Brian",-10.215634317859461],["Davis",-10.215678052514987],["derive",-10.218186704919791],["Emperor",-10.219600671249625],["Book",-10.220865222184672],["torpedo",-10.221418959580324],["Conference",-10.221429565851087],["HMS",-10.221675838654818],["PlayStation",-10.221864901084912],["branch",-10.222614033260882],["representative",-10.224723966370538],["promise",-10.224814061710894],["1914",-10.224956946604918],["1982",-10.226170297731922],["guard",-10.226989939588524],["1971",-10.22728485792467],["disc",-10.227543272926964],["count",-10.227696685618694],["goes",-10.227849452695855],["watche",-10.22786719308409],["controlle",-10.227887214413672],["escort",-10.228523142881041],["1918",-10.229026938036375],["super",-10.230166616282855],["receiv",-10.230340178897118],["grade",-10.230382230224043],["constant",-10.230624649847394],["1966",-10.23079264484099],["1972",-10.230938118405776],["1979",-10.2318097994159],["Bell",-10.232382255790572],["ridge",-10.232473674552685],["promotion",-10.232646655714875],["provid",-10.233212495319442],["farm",-10.233427542374463],["analysis",-10.233600497868949],["yellow",-10.234280159354242],["injure",-10.234586198512009],["editor",-10.235874333897407],["sports",-10.235984746693322],["submarine",-10.236441073095726],["ban",-10.236680807528597],["stream",-10.236990331745112],["accident",-10.237585169684003],["department",-10.238090719873187],["cancel",-10.238596039731227],["riving",-10.238687055552044],["trains",-10.239917365284365],["applie",-10.240407151765924],["document",-10.240686532336799],["throw",-10.241296548625838],["fruit",-10.241442431145897],["ensure",-10.241733316254956],["steel",-10.242601533424075],["NHL",-10.24317148131538],["notable",-10.243320631545043],["#",-10.243433332395377],["unusual",-10.24390034174215],["1965",-10.244037370658454],["walk",-10.244416478508],["surprise",-10.24489042250331],["systems",-10.245128904482021],["Boy",-10.245154433998415],["combination",-10.246081171612014],["FA",-10.246241926944398],["67",-10.24664265562122],["upgrade",-10.247302093311024],["1975",-10.247651698729776],["religion",-10.248853976568135],["Original",-10.24888068732689],["bomb",-10.249948054647371],["types",-10.250343755919294],["Christ",-10.250384908021845],["Onc",-10.250697690671526],["120",-10.250707749482363],["headed",-10.251828956914286],["Gold",-10.251830047496728],["singing",-10.25193552428661],["Han",-10.252988841791318],["Hollywood",-10.253068594934835],["decide",-10.254319809400855],["narrow",-10.25478895358075],["lane",-10.25640814372605],["Station",-10.256732998076785],["boats",-10.256733438198701],["shore",-10.25723667477144],["hotel",-10.257312399128729],["credite",-10.257720552005921],["protest",-10.25783912226509],["ideas",-10.257992790292667],["digital",-10.258960094599008],["IV",-10.25899002514571],["entrance",-10.259374162851653],["assistant",-10.260277475658128],["price",-10.26081810288366],["lives",-10.262153931717458],["ard",-10.262268293636103],["1973",-10.262283666226978],["mar",-10.262369012789916],["Democratic",-10.262547002185881],["Way",-10.26298052828282],["destroyer",-10.263670197655957],["Singapore",-10.263773309725355],["cricket",-10.26393505319154],["programme",-10.264805108759125],["pit",-10.265021583341245],["mark",-10.265975061302218],["Daily",-10.267035270324076],["Press",-10.267060272337917],["Between",-10.267847888161054],["turns",-10.2679295226549],["ends",-10.268139153543764],["Lady",-10.268459746771349],["vision",-10.268898323805612],["Supreme",-10.268913764785474],["250",-10.269084937849971],["cha",-10.270116771966606],["domestic",-10.27051880360788],["generate",-10.270986328743653],["1976",-10.271492750722098],["63",-10.272613532205698],["rose",-10.272987124850925],["belief",-10.273205860647481],["judge",-10.274000072087937],["phase",-10.27462219342316],["59",-10.275402731657504],["task",-10.275523542862755],["launch",-10.275810357186796],["garden",-10.276824358485708],["hip",-10.276956645737707],["passage",-10.27838098105611],["basic",-10.27862129657591],["Colonel",-10.27921871798649],["Rose",-10.279430371910042],["grant",-10.279937073011752],["Age",-10.280137737637698],["04",-10.28112614355676],["employe",-10.281537446710399],["pound",-10.28190896669694],["pitch",-10.28224549655131],["Wall",-10.282463227637914],["berg",-10.282786696968817],["wait",-10.283383380195732],["Women",-10.284088028022678],["fille",-10.28430360934786],["literature",-10.284606261233723],["knot",-10.284718895459742],["Summer",-10.285261276380144],["union",-10.28615000084967],["exact",-10.286272742669386],["Muslim",-10.286344226166173],["unlike",-10.286682031648887],["Lu",-10.28698868296664],["72",-10.287375456138292],["coal",-10.287591737642408],["Mount",-10.288361919511269],["slave",-10.288431054500444],["viewe",-10.288451301623713],["echnology",-10.288677252104929],["Clark",-10.288924422551707],["flower",-10.28920088202925],["adding",-10.289577512790277],["scientific",-10.289819692767695],["Daniel",-10.29034665149267],["principal",-10.29063323225829],["Beyoncé",-10.2906930188298],["Simon",-10.290923715182645],["introduction",-10.291485394437096],["actress",-10.291564546827473],["Gar",-10.291599937708511],["unsuccessful",-10.29188961825326],["museum",-10.29201090724995],["arm",-10.2920494108084],["consists",-10.292356587259327],["habitat",-10.29260908791261],["responsibilit",-10.292873463252704],["resistance",-10.293619998127827],["converte",-10.293842398466523],["81",-10.294200322550168],["cited",-10.294534990599058],["Special",-10.294627333772597],["channel",-10.294924833232608],["Matt",-10.294957566713068],["reputation",-10.295717516673728],["prepared",-10.29587927672642],["distinct",-10.296931419169168],["adaptation",-10.297287539139344],["burn",-10.29807061068055],["rename",-10.2981444656786],["selection",-10.298835781004339],["87",-10.299058423769148],["Cape",-10.299253231983535],["anything",-10.299428499028862],["campus",-10.300569374244013],["shire",-10.300714179336605],["sequel",-10.301432244188696],["ated",-10.302272270806618],["distribution",-10.302327141901706],["losse",-10.302435740722752],["possibilit",-10.303244694942215],["communication",-10.303579918750238],["Kentuck",-10.304085798411476],["straight",-10.304783075683888],["daily",-10.305600265689073],["gameplay",-10.305715313534401],["knew",-10.30616870351759],["journalist",-10.306294965027817],["realize",-10.306311843019797],["1946",-10.30637019266922],["1981",-10.307183440546503],["produc",-10.307862801939914],["99",-10.308125928137295],["PA",-10.308643266252933],["Airport",-10.308923578435227],["Who",-10.309024066588158],["−",-10.309171588511145],["Par",-10.309748276614217],["perhap",-10.31050517295072],["77",-10.310786039789313],["freeway",-10.310817848985238],["capable",-10.31134051753657],["sample",-10.311458873372061],["here",-10.311582357181909],["driver",-10.312472673148667],["extension",-10.312784960530118],["Norway",-10.312894831728428],["drew",-10.312980057933014],["survey",-10.313684886149836],["reading",-10.313957811129912],["canal",-10.314051074020979],["industrial",-10.314539992458313],["Mu",-10.314540517215189],["map",-10.315809016547655],["bomber",-10.316113814981797],["Golden",-10.316711585384903],["existence",-10.317203497542298],["didn",-10.31768950742518],["shell",-10.31804868773845],["register",-10.319218233144202],["preserve",-10.319262450311154],["fun",-10.319974083709413],["southeast",-10.320049425884736],["cold",-10.320638049545213],["201",-10.320741403926545],["operating",-10.320905832376313],["roads",-10.320937453384241],["joint",-10.32122771123887],["responde",-10.32163925867477],["Bowl",-10.321691637491416],["Public",-10.322480334332708],["Massachusetts",-10.322584106500887],["1917",-10.322734304690847],["mode",-10.32287952455171],["Rome",-10.323404426586212],["missing",-10.32418604820485],["contribution",-10.324208552546326],["collected",-10.324479625531982],["turning",-10.324645880473776],["asily",-10.324738726908736],["controvers",-10.324810980775377],["journey",-10.324837122068757],["spot",-10.324837852844471],["knowledge",-10.325443682669563],["depth",-10.32544594638635],["politic",-10.325973415203471],["option",-10.326011335568717],["internal",-10.327009575541647],["depend",-10.327966151457678],["Video",-10.32872921546195],["700",-10.328769259748642],["burie",-10.32886980097785],["stadium",-10.32925168762205],["theatre",-10.330600634192356],["Even",-10.33072718137841],["entry",-10.331476338605368],["provides",-10.331546389855228],["finds",-10.332447882459164],["curve",-10.332715078116715],["tank",-10.332786604439379],["Ray",-10.33357982382952],["1948",-10.334820866746407],["mine",-10.334922229026645],["Main",-10.335066714454287],["bass",-10.335124871494397],["owner",-10.335296023986523],["compound",-10.335588808804836],["retaine",-10.335757554194144],["fear",-10.337250554463322],["About",-10.337329918154483],["festival",-10.338691533118778],["Dark",-10.33912766543063],["association",-10.339257526947229],["End",-10.341441588228976],["islands",-10.34209847680753],["hat",-10.342565315425457],["bowl",-10.343241092244895],["depict",-10.34331884563764],["calls",-10.343974408626257],["chapter",-10.344425587968958],["sustaine",-10.344683424311185],["Power",-10.344980355903791],["fresh",-10.345239888791323],["Moore",-10.346316336888243],["learned",-10.346432343435014],["Byzantine",-10.346522176081383],["drop",-10.34652419571396],["pursue",-10.346575856687208],["und",-10.346647044189513],["gar",-10.346719823588185],["1978",-10.347114687861026],["79",-10.34782018470681],["inner",-10.347961668026969],["lies",-10.34799653981878],["surround",-10.348429158710179],["baseball",-10.348688700217705],["moderate",-10.348710624815133],["78",-10.348736990605918],["sentence",-10.348929410274682],["warm",-10.349297485059772],["violence",-10.349806191422577],["Imperial",-10.350192555617728],["ington",-10.35071878419079],["handle",-10.352334554238585],["bottom",-10.352508560298325],["Justice",-10.352580516613088],["MTV",-10.3532117613366],["institution",-10.35361782513958],["breeding",-10.354076928294441],["Jay",-10.354837664796845],["tube",-10.354878565266938],["Director",-10.35518959050269],["carrying",-10.3555700667065],["technical",-10.355760855512145],["penalt",-10.355906287841439],["strateg",-10.356402653023688],["safet",-10.356773663550545],["Arab",-10.356797069822774],["94",-10.356825674392764],["Sunday",-10.357095608857055],["Bart",-10.35756475987358],["accuse",-10.357884711535505],["entitle",-10.35809359934952],["code",-10.358273032113143],["coastal",-10.358310536156955],["Naval",-10.359055780873511],["Sydney",-10.359956657856285],["opera",-10.360427888451433],["1977",-10.36086170368129],["Maryland",-10.361542296168253],["landfall",-10.362250651553934],["exhibit",-10.362471147926959],["plate",-10.362558366028118],["classic",-10.362961000671222],["signal",-10.363254742796615],["Water",-10.363773699301564],["wear",-10.36407979619194],["raising",-10.364415801874516],["scheme",-10.364616427040737],["Poland",-10.367923610040489],["afterward",-10.368076448957465],["ride",-10.368531997224945],["experiment",-10.36862071866578],["application",-10.370289005301741],["Col",-10.370641767568364],["symbol",-10.371012390951302],["southwest",-10.371159024235732],["AD",-10.371303577494459],["Albert",-10.371342269058927],["playoff",-10.37152068513274],["Alan",-10.373252478712537],["Not",-10.373331560960004],["showing",-10.373537665623468],["resource",-10.373558938645125],["demonstrate",-10.373887802887577],["Space",-10.374131685595332],["Recording",-10.374308464328386],["1963",-10.37447735556876],["protein",-10.374563908974801],["secondar",-10.374654221210406],["Theatre",-10.375275003336093],["battery",-10.376170795226422],["teacher",-10.376234504071814],["favour",-10.376433502899927],["expand",-10.377520056074898],["Far",-10.37833840890613],["ju",-10.378750578975986],["bigge",-10.379076254921989],["quipped",-10.379406261335214],["Moon",-10.379799724700893],["gu",-10.379947993168042],["denie",-10.38127616494088],["acres",-10.381841994044338],["Fire",-10.382099951552025],["attract",-10.382108177779298],["ō",-10.38284316476572],["Mulder",-10.383118049792644],["Gordon",-10.38312269556815],["dominate",-10.383476184679223],["Simpsons",-10.383658413403545],["evening",-10.383714747666808],["interested",-10.383720932797],["lake",-10.384249612473681],["file",-10.385160735251473],["respect",-10.385313073635567],["cycle",-10.385595822147607],["scientist",-10.387430240067417],["delivere",-10.38834984872128],["improvement",-10.389063418322444],["progress",-10.390264300617947],["stoppe",-10.390642714219323],["transition",-10.39076767345823],["Stadium",-10.391525374200757],["Just",-10.392551173627918],["venue",-10.39292489650031],["wealth",-10.39337456396428],["roof",-10.393634198239027],["exercise",-10.393864833918188],["partner",-10.395547380178726],["honour",-10.39649094964735],["substantial",-10.396596874378982],["online",-10.396825818471129],["97",-10.396933495980415],["ach",-10.398154109383055],["lands",-10.398246931944326],["essential",-10.39902394964555],["civilian",-10.39951673718717],["lan",-10.399598929481352],["fashion",-10.39992876569499],["commission",-10.400006894513707],["argument",-10.400277602490604],["Prior",-10.400788744881849],["Adam",-10.401028089793645],["boundar",-10.402021467763214],["1938",-10.403762450068825],["glass",-10.403842149407385],["Sound",-10.403910541308747],["UN",-10.40484314145318],["adapted",-10.405280487953243],["Egypt",-10.405830564173359],["chemical",-10.40585280257131],["Critical",-10.406039401121213],["Free",-10.406242106448738],["Cor",-10.408366439019085],["threatene",-10.408444877688915],["installe",-10.408915634652494],["exclusive",-10.409033021795393],["mere",-10.409310089811225],["1919",-10.409437236964225],["Command",-10.409566656661436],["sufficient",-10.409593696093598],["pick",-10.410237749246399],["establishment",-10.410879687566913],["download",-10.411376567871912],["replacement",-10.411395551256803],["kingdom",-10.411501522350857],["Eric",-10.411672047108258],["employee",-10.411817079288033],["relief",-10.412239302953108],["dispute",-10.412366311009196],["Your",-10.412373509928454],["animate",-10.414456254014333],["door",-10.414798587380144],["bu",-10.415676262389997],["mention",-10.416175816859736],["ung",-10.416320437956976],["acid",-10.416420854016915],["duty",-10.416619603112622],["weak",-10.417743622222869],["deploy",-10.417744289352505],["ised",-10.417752729863501],["component",-10.418153125650589],["Tony",-10.41851127589856],["Part",-10.418740279333253],["continu",-10.41883907980016],["equivalent",-10.418896274413529],["eliminate",-10.419320663845586],["airport",-10.420103708529474],["Memorial",-10.42112995190951],["portraye",-10.421882196621649],["Girl",-10.422615153390293],["Chi",-10.42263890682428],["academic",-10.423075245523153],["admitted",-10.424278294295208],["1956",-10.424615532904923],["visible",-10.424765769242438],["rang",-10.42547532086439],["Cha",-10.425485133243836],["catch",-10.42570225685429],["Garden",-10.425865653708176],["Songs",-10.425903925440284],["recalle",-10.425903999814588],["global",-10.425938215651387],["importanc",-10.42600835024109],["belt",-10.426323657402794],["classification",-10.426452593940233],["Norman",-10.426594867775377],["NBA",-10.426771009495647],["Forest",-10.427615679297741],["retreat",-10.428035960407042],["Beach",-10.428659431617175],["Mountain",-10.428775325736792],["IGN",-10.430375900180264],["buy",-10.430641490480614],["Hungarian",-10.430866472776566],["picture",-10.431584242054575],["departure",-10.43187754694827],["remainder",-10.432134233828041],["librar",-10.432711993297533],["Plot",-10.433288989882847],["plane",-10.433419148031811],["armor",-10.434307108046543],["Militar",-10.434380317931456],["les",-10.434638968339623],["Douglas",-10.43463902339653],["1936",-10.434808261434334],["Hamilton",-10.435139054491225],["misse",-10.43521660572511],["distribute",-10.435237798919903],["Play",-10.435425872421382],["Sky",-10.435454023015094],["arreste",-10.435794600341318],["wearing",-10.436428402627545],["manner",-10.436457003189394],["attache",-10.43658043085453],["celebrate",-10.43674182017297],["retain",-10.436921605216341],["brain",-10.437221098704729],["Sha",-10.437737020351099],["jo",-10.438121814322795],["seek",-10.438642389165476],["convoy",-10.438666858196646],["pan",-10.438848855258815],["proper",-10.438851448608167],["poet",-10.439357074596494],["Ross",-10.440103615285013],["ready",-10.440410749166894],["designer",-10.440447308991631],["UTC",-10.441052440910049],["relations",-10.44164744415682],["Philip",-10.441924322908037],["observation",-10.441969695827256],["Kennedy",-10.44225446605441],["attain",-10.442957254225856],["preparation",-10.443326643265005],["84",-10.443492178722472],["Base",-10.443654724686915],["talk",-10.443664382006144],["Mill",-10.444035996892318],["180",-10.444253998720361],["89",-10.444475493072824],["Bush",-10.444493433772351],["Roger",-10.444908868240868],["chorus",-10.445109802728341],["emotional",-10.445313394870308],["drug",-10.445734035900664],["tunnel",-10.445887884554054],["voted",-10.446027382543626],["classe",-10.446704901331017],["Kent",-10.446856693901639],["suit",-10.446875477108275],["Fame",-10.446957467813645],["describ",-10.447434782236048],["champion",-10.447751633567469],["Giant",-10.447885717940306],["Revolution",-10.448115554398946],["memor",-10.448558315295454],["intention",-10.448840628326469],["brand",-10.448902563445788],["drawing",-10.449186189989238],["Howard",-10.449299994827914],["laste",-10.449535348026647],["Death",-10.449694203310912],["Land",-10.4500692620157],["outer",-10.45030973788837],["1961",-10.450603193969457],["sites",-10.45080843295829],["par",-10.450846326656418],["climate",-10.450872865871778],["qua",-10.451268730159855],["trouble",-10.451829124710597],["Maria",-10.452174770924238],["AAF",-10.453062293680377],["Arts",-10.453242251664996],["medal",-10.454475944824122],["corner",-10.454631670341886],["determine",-10.454695719613735],["safe",-10.454845344334332],["Today",-10.454974852882868],["Adams",-10.455036569682122],["everyth",-10.45506837682988],["youth",-10.455154572136093],["1953",-10.455303961147191],["Media",-10.455493825690036],["cent",-10.455955346774388],["exception",-10.455962616494164],["instance",-10.456403673987968],["climb",-10.456599014658217],["sole",-10.456739234338531],["Magazine",-10.45677478802932],["dutie",-10.45735603269329],["rural",-10.458210051905601],["Tim",-10.458510381787555],["Head",-10.458640650460145],["Back",-10.458760755983054],["Pan",-10.458766483117422],["Project",-10.459040488520317],["remember",-10.459725922872789],["explore",-10.459797581216767],["breaking",-10.459893224301148],["Ver",-10.45995949863782],["Initial",-10.460392139960604],["decrease",-10.460429311251197],["Master",-10.460956832749133],["Five",-10.460978871207864],["involv",-10.461623088280438],["roles",-10.462103753803683],["singles",-10.462358443018001],["views",-10.462380902578357],["notice",-10.462908280748584],["identity",-10.463305692791286],["rules",-10.463408685150572],["Scully",-10.46349442786545],["stronge",-10.463693192747767],[">",-10.464785163085558],["Norwegian",-10.465304171830539],["Hitler",-10.465304173628619],["recognition",-10.465575742971307],["cars",-10.46655976827944],["Ann",-10.467090451322354],["discusse",-10.467116962398066],["correct",-10.467211367830608],["freedom",-10.468183160000311],["130",-10.468658324895],["eighth",-10.470305335141564],["1947",-10.470395150968484],["soul",-10.47046123232115],["conclusion",-10.470509128242783],["1937",-10.471249472712909],["regional",-10.47134158309838],["step",-10.471372551250258],["patrol",-10.471387973255029],["Ryan",-10.471417118184377],["concerned",-10.471785111641323],["1958",-10.47194959772687],["convention",-10.47261117476139],["founder",-10.472832515503816],["Dis",-10.47329523695482],["spirit",-10.473418867017331],["Research",-10.474098373858778],["committe",-10.474219079415322],["enemie",-10.474436036942977],["WWE",-10.474696050129639],["Mexican",-10.475479070995775],["execute",-10.47560882025638],["ure",-10.475979952669377],["Ken",-10.476723671597858],["ticket",-10.476824610943662],["delay",-10.477286698057824],["row",-10.477864538807832],["160",-10.478075736479793],["DE",-10.478864734276101],["certifie",-10.479683559959815],["Assembly",-10.480144307466057],["memorial",-10.480759669148695],["visitor",-10.481488246097237],["Cleveland",-10.483507071778359],["Dean",-10.483568023863839],["Rolling",-10.483970842845828],["bury",-10.484067680889652],["Short",-10.484212488175316],["Illinois",-10.485228877748385],["sons",-10.486286728502368],["restaurant",-10.486288550464582],["someone",-10.488092135411975],["behavior",-10.488187966207436],["tanks",-10.488196850189023],["offers",-10.488513474140879],["shoot",-10.488631289120017],["prey",-10.488764731952612],["string",-10.489660492848188],["grand",-10.49053391728019],["Arsenal",-10.490538787957053],["izing",-10.491080098271578],["intelligence",-10.491337721841925],["sale",-10.491811039269257],["hearing",-10.491862847311962],["<",-10.49187069984298],["criminal",-10.491870713718793],["91",-10.493252748655115],["solution",-10.493359907208697],["atmosphere",-10.493738408040931],["foundation",-10.493798730352788],["panel",-10.494028944862983],["Kong",-10.49415670743648],["predict",-10.494171988550832],["Review",-10.494692295035676],["kick",-10.49473891706003],["circulation",-10.495343302775842],["Ku",-10.495590978097953],["Stanley",-10.496729735705582],["1959",-10.497130607791961],["phone",-10.497411798788233],["”",-10.497484186883769],["Bruce",-10.497652235260666],["doctor",-10.498101145588214],["load",-10.498356246942325],["82",-10.49836031260701],["favorite",-10.498863127081076],["cal",-10.498890975045875],["Sal",-10.499213967100063],["principle",-10.499374046722938],["valley",-10.499482567356864],["Third",-10.499705107179205],["bow",-10.49976322465659],["Max",-10.500545875129157],["Morgan",-10.500593268712404],["literar",-10.501640193367775],["attend",-10.501764338978685],["Family",-10.50205172976651],["resume",-10.502146514430084],["Allen",-10.502679690591226],["ck",-10.503218623928353],["inspiration",-10.503273485458761],["terminus",-10.50351338663382],["Kevin",-10.503669672486781],["documentar",-10.503955071822391],["Per",-10.504266212051656],["Iron",-10.50440553707152],["opposite",-10.504483579575004],["successor",-10.504536185828101],["Mediterranean",-10.505288316865146],["completion",-10.505568744804808],["supposed",-10.505907114382786],["Channel",-10.50610202040993],["throne",-10.506429197882266],["circle",-10.506460471027824],["1955",-10.506858585722988],["Bristol",-10.507182954091537],["poste",-10.507308510524126],["“",-10.507722724327861],["Release",-10.50772776725264],["bough",-10.507962235084841],["moral",-10.508296895968343],["Beatles",-10.508360411790417],["SBN",-10.508551863408082],["massive",-10.509755314497935],["expose",-10.509860032419512],["mal",-10.510024232865948],["classified",-10.510036310854368],["surviv",-10.510387517739074],["Premier",-10.51062505700277],["Korea",-10.511019023801857],["acts",-10.511264109877153],["sistance",-10.511689357497813],["possession",-10.512051355426886],["saile",-10.512775624904949],["exit",-10.513516916687962],["patient",-10.513796865455662],["minister",-10.514030105665755],["electronic",-10.514648660827204],["arc",-10.514654498607262],["án",-10.514886382058739],["citizens",-10.514947721530223],["deliver",-10.514952331125334],["Bishop",-10.515072393705777],["card",-10.51545408476845],["weapon",-10.515609386749963],["income",-10.515665145990287],["spoke",-10.515944919718413],["Marine",-10.516749605592857],["Anne",-10.516992438832766],["thirty",-10.517251793030189],["PC",-10.517319489091031],["merchant",-10.518084279536847],["Jeff",-10.519627030608119],["talent",-10.520429726230393],["downtown",-10.520638175323194],["roll",-10.520985844478497],["objective",-10.521691181840803],["dated",-10.521829030037706],["×",-10.522454950854874],["destruction",-10.522455271335065],["interior",-10.522770816145215],["dating",-10.522851461096844],["ranking",-10.524040778639726],["Nick",-10.526686133387797],["Six",-10.526872426199263],["wer",-10.527297399362208],["Temple",-10.52739767009546],["Robinson",-10.527431310545811],["Lisa",-10.528409250268938],["gone",-10.528518600447624],["creator",-10.529367603388362],["propertie",-10.529609000787922],["males",-10.529752505746846],["begun",-10.532798908446122],["Jane",-10.533391554239886],["alleged",-10.533492240786762],["Americans",-10.53384992168736],["Inter",-10.53423452153365],["71",-10.534238300494255],["batt",-10.534299846929493],["address",-10.534782497669388],["110",-10.535615690197933],["1952",-10.535635204638075],["restrict",-10.53591065827309],["Francis",-10.536173905806875],["Now",-10.536585575519586],["earning",-10.536669739657992],["withdraw",-10.536764797901599],["sort",-10.536966738725143],["ested",-10.537026710744653],["trained",-10.53719043794201],["bringing",-10.537652199733795],["Horse",-10.538275565709656],["romantic",-10.538531006678793],["Philippine",-10.539129631626484],["finishing",-10.539162625273187],["dismisse",-10.53926196664569],["garrison",-10.539362276352787],["laws",-10.539580307760234],["198",-10.539758271702196],["narrative",-10.540201169519163],["folk",-10.540464582075465],["frame",-10.540558781157113],["Cap",-10.540827012463403],["DNA",-10.541252051946774],["Ex",-10.541756308980746],["CR",-10.542277964924573],["Oregon",-10.54271663984688],["cavalry",-10.542722164916523],["Unlike",-10.543402688172701],["commande",-10.544192848858604],["Television",-10.544695008857294],["Construction",-10.545249544325548],["Winter",-10.545361673386191],["profit",-10.545930511942133],["1933",-10.54608244888277],["Similar",-10.546093428885078],["borough",-10.546211770391285],["rew",-10.547892562992537],["discuss",-10.548114286885838],["Nelson",-10.548658319433185],["shark",-10.548812523724095],["Tower",-10.549502034043757],["fitte",-10.551112083717644],["gay",-10.552182338723968],["heat",-10.552456476569693],["investigate",-10.554251869306729],["Sweden",-10.554880114350341],["flank",-10.556334127776058],["ear",-10.556403686502925],["Patrick",-10.556870759015144],["eleven",-10.556896650289568],["homes",-10.55703748347637],["Around",-10.557865570198198],["1935",-10.558233472270791],["animation",-10.559448579163826],["Toronto",-10.55946265087451],["staye",-10.559596266612601],["Ron",-10.560039126035774],["Jon",-10.560632630809598],["Welsh",-10.562286029083126],["ical",-10.562398133763454],["1949",-10.563323587738841],["1951",-10.563885222562686],["ö",-10.564361300902217],["fictional",-10.564364921930004],["collect",-10.564549282760817],["Del",-10.564635065250014],["chain",-10.56476352725883],["controversial",-10.564874566052668],["Kim",-10.565217171004969],["Tri",-10.565273791991013],["pool",-10.565297678488148],["estimate",-10.565919369703341],["appointment",-10.565993991696569],["protagonist",-10.566563370338361],["predecessor",-10.567425292985538],["hope",-10.56777850375745],["outbreak",-10.568166610029719],["Knight",-10.568454866164572],["organisation",-10.568820749875268],["Cal",-10.569033821369288],["Sports",-10.569073468315768],["anniversar",-10.569151663856415],["Jordan",-10.570012722608343],["rebel",-10.57024894224222],["Ru",-10.571524193299247],["bell",-10.571869551621258],["seeing",-10.571954795341183],["photograph",-10.57220450919211],["classical",-10.572593816210345],["dates",-10.572663425908482],["Matthew",-10.572666577087192],["consistent",-10.572799612595961],["orbit",-10.572837982928096],["Victor",-10.573153461243283],["basketball",-10.573207264777189],["soil",-10.574296331049293],["sure",-10.574675645871524],["spin",-10.574702327610568],["wor",-10.575042485268833],["Netherlands",-10.575684766753296],["Mon",-10.575709100749208],["giant",-10.576314918498772],["Engineer",-10.577004155211624],["remark",-10.577639387441348],["mitted",-10.57803838030457],["chamber",-10.579036100310391],["sleep",-10.579779513351296],["Every",-10.580601746878008],["monument",-10.580759759328409],["architecture",-10.581339912623477],["Th",-10.583119994939828],["Morris",-10.583389999590672],["lock",-10.583740615219448],["waters",-10.584602366540729],["enable",-10.5848575678234],["cancer",-10.585141014434317],["ile",-10.58552521670522],["cloth",-10.585978493646877],["Centre",-10.586011700080245],["pitche",-10.586217532016837],["fossil",-10.586798091536313],["sharp",-10.586927039882022],["teaching",-10.587036797002936],["license",-10.587110348863071],["listing",-10.588335452607962],["temporar",-10.588400115884756],["ich",-10.588622776947206],["tries",-10.58870609549324],["injurie",-10.588986281608566],["pure",-10.589390429538646],["1900",-10.589509199881245],["Russell",-10.589621886031988],["MP",-10.59001798208693],["discussion",-10.590211860897888],["Jews",-10.591066888724539],["solid",-10.591193107577647],["absence",-10.591576921474912],["Wild",-10.591707490031594],["92",-10.591844859400696],["Nations",-10.59205180918016],["athlete",-10.593049083585147],["Wright",-10.593800352087957],["comparison",-10.593935151912664],["reverse",-10.594021164525289],["Cole",-10.594057027365618],["Class",-10.594430773348535],["hoped",-10.594485475009996],["Librar",-10.595165601185226],["requeste",-10.595695248854096],["delaye",-10.595841929761733],["carbon",-10.596335941601756],["seeme",-10.596398834496776],["involvement",-10.596998956691877],["Thompson",-10.599262096898585],["Vice",-10.59940851288403],["Santa",-10.599661608883975],["worst",-10.599716928534978],["Simpson",-10.599779860229349],["sport",-10.600092960068098],["category",-10.600152830613087],["Late",-10.60059387572808],["Croatian",-10.60127502105892],["neck",-10.601329288920331],["Track",-10.601664857012013],["Murray",-10.602495884021298],["chairman",-10.602825085281],["í",-10.603505441848544],["NFL",-10.603508946885494],["Indiana",-10.603531286536256],["Puerto",-10.603723805125274],["Race",-10.60422754946725],["picke",-10.604263912957961],["earth",-10.604686293805637],["remnant",-10.605215411095156],["Network",-10.605527508643847],["pushe",-10.605935558932606],["Carter",-10.606076960153237],["personalit",-10.606188008646543],["Hav",-10.606682895762027],["NBC",-10.60766418899032],["Kelly",-10.608065653076657],["Persian",-10.608564525743978],["Commander",-10.608983606938894],["vice",-10.608999292898755],["Federal",-10.60974064184674],["angle",-10.609805922168064],["presidential",-10.610136988400406],["fur",-10.610998905201065],["requirement",-10.61102138745136],["medieval",-10.611204333568926],["recognise",-10.611270486131241],["weekend",-10.611365999606262],["Modern",-10.612126903529147],["residence",-10.612363067240999],["Cat",-10.61302133075687],["Alex",-10.613640660142982],["justice",-10.614037603561336],["Anna",-10.614152153879123],["intense",-10.614741277543084],["Constitution",-10.615305203949243],["Hospital",-10.615417807260682],["allie",-10.615486662640013],["retirement",-10.615576935397069],["politician",-10.616330817584814],["emergenc",-10.616689666082689],["siege",-10.616700452584832],["remove",-10.616865806790118],["tension",-10.61692941142904],["188",-10.617007623523714],["Within",-10.617116642621186],["portray",-10.618757030744868],["Ham",-10.618951137113331],["Parker",-10.61896499540797],["heads",-10.619123352970902],["modified",-10.619227671913947],["deeme",-10.619520056095789],["crash",-10.619555634721811],["express",-10.620022058407011],["Heart",-10.621506867490663],["painte",-10.621576655865207],["gap",-10.621653488604366],["Silver",-10.62186282397041],["07",-10.622306751975833],["isolate",-10.622841440484034],["Police",-10.62424995010376],["realit",-10.624593760074681],["evolve",-10.62507130787792],["Bu",-10.625399594212892],["revenue",-10.625530212421298],["USA",-10.625845095693654],["Batman",-10.626103961257394],["pur",-10.626297435530956],["negotiation",-10.62637810618599],["ninth",-10.626631548253137],["Pu",-10.626639804424334],["suffering",-10.62735942801904],["Harris",-10.628469686831034],["falling",-10.628481979382894],["900",-10.628625345919623],["Bad",-10.628668289278878],["Guard",-10.628824112437545],["ó",-10.628896385220898],["Last",-10.629080344612461],["Berlin",-10.629332355208177],["lowly",-10.629442467262638],["sponsor",-10.629479262900803],["cool",-10.629800538125162],["musicians",-10.631084658588556],["1913",-10.631210929533445],["06",-10.631827305431534],["Here",-10.63206395900751],["Palace",-10.632472140674926],["DS",-10.632616224800675],["Thus",-10.632883328125008],["gan",-10.63329995674761],["historic",-10.634162724115578],["crown",-10.634412402819992],["engagement",-10.634629280167216],["virus",-10.635028985957286],["landed",-10.635297132144219],["1926",-10.63535834360952],["Design",-10.63558625473753],["convection",-10.63614099104461],["colony",-10.636603266352527],["poll",-10.636944348000481],["legislation",-10.637681822015658],["Jesu",-10.637889579456438],["wine",-10.638614579713565],["audio",-10.639295118397515],["push",-10.640129044742817],["1934",-10.640262822325253],["Education",-10.640588013342136],["qui",-10.641552845537017],["Houston",-10.641726053831649],["aboard",-10.641764250512834],["dialogue",-10.642320868302575],["layer",-10.642741780459456],["1921",-10.643106661293485],["girls",-10.643305779574355],["Pat",-10.643429584729128],["Des",-10.643940028913383],["stands",-10.644070177819756],["separated",-10.644900749762654],["designation",-10.644967329796238],["everyone",-10.645000439851318],["tenance",-10.64501703756183],["Mid",-10.64530535491542],["Corporation",-10.645421859389579],["powers",-10.646526309772138],["Warner",-10.647791538156518],["mental",-10.647794220175806],["monarch",-10.647954470260423],["copy",-10.648033216730905],["plannin",-10.648129171558436],["Mor",-10.648280240086802],["starre",-10.64835246956314],["ultimate",-10.649235985250876],["huge",-10.649832220620706],["Jan",-10.650026486002956],["resemble",-10.65123529786375],["Down",-10.65160683069442],["sudden",-10.65197064502967],["Samuel",-10.652297855315206],["colonial",-10.652351800913271],["Swedis",-10.652353854133887],["Commonwealth",-10.652615388554477],["format",-10.652760375416543],["rooms",-10.655379382428727],["coat",-10.65545979947267],["Camp",-10.655752003817668],["arrest",-10.656007972073217],["qualify",-10.656360354404143],["Critic",-10.656441183085335],["sector",-10.656985528736664],["colleague",-10.657057382521485],["lose",-10.657194921788562],["Treat",-10.657624767470429],["08",-10.657627816246192],["railroad",-10.657783105441696],["universe",-10.657953017117888],["mount",-10.65798855390433],["1932",-10.65878982851158],["Along",-10.658816779600945],["Gaga",-10.65920313695094],["Medal",-10.659582835494836],["treate",-10.659596818914466],["acted",-10.659607314775968],["Anthon",-10.660137936997437],["Asian",-10.660833626648545],["Croatia",-10.660937236556416],["longes",-10.66105819628667],["Angel",-10.662109766215663],["Phil",-10.662888739559689],["console",-10.66306663134224],["nickname",-10.66430331063959],["Holy",-10.664401440852252],["Rick",-10.664616329624527],["polic",-10.66471214226958],["concentrate",-10.665168877819793],["intersect",-10.665402415216697],["1912",-10.665605504505784],["handed",-10.665847859747153],["evacuate",-10.665895869015447],["eggs",-10.665939477434323],["beautiful",-10.666466300030649],["seize",-10.66651558256423],["Fair",-10.666753502229508],["votes",-10.666804906560797],["hunting",-10.666970612153495],["Che",-10.667056331289787],["defende",-10.667571526020952],["depicte",-10.667673178570336],["ways",-10.668044565137958],["Sta",-10.668612397822137],["facing",-10.66959913763213],["Jaso",-10.670007161580694],["RAF",-10.670065473879339],["explosion",-10.670281479861487],["anyone",-10.67049552883877],["Gilbert",-10.670607656563794],["ble",-10.670986834778242],["lic",-10.671105493401447],["influential",-10.671632746200494],["Israel",-10.67244702478404],["Journal",-10.672979601542103],["Democrat",-10.673136200615678],["emperor",-10.673153285340259],["costume",-10.673492980581639],["professor",-10.673543317550475],["Writing",-10.67443244705774],["mate",-10.674444025470866],["dale",-10.674465237220934],["lift",-10.674566304176786],["Detroit",-10.675072291380092],["Pope",-10.675832294961065],["ence",-10.676049134249771],["violent",-10.676283430225032],["Bre",-10.676340632258187],["pull",-10.676357485344631],["reinforce",-10.676620350979116],["Frederick",-10.677101346730536],["pen",-10.677772000262655],["tribute",-10.678477104503454],["Player",-10.678663794638135],["rising",-10.679008348178945],["charges",-10.679053468227712],["DC",-10.679167311972714],["forcing",-10.679361537461222],["squad",-10.679506461513595],["firing",-10.679586853940988],["guilt",-10.679956151465616],["ram",-10.68043619680288],["mix",-10.68057463498334],["ocean",-10.681535023834947],["childhood",-10.682662383868331],["developer",-10.682846213953402],["elder",-10.683147286890328],["1929",-10.683339620226702],["Khan",-10.68370100629866],["hull",-10.684042357241069],["Categor",-10.6840770187142],["criticise",-10.68420516622053],["Clinton",-10.684798691705755],["looke",-10.685009933885059],["Plan",-10.685482237395261],["Ju",-10.686507394250805],["shift",-10.68663986291506],["Lane",-10.68677110196531],["Dream",-10.6869319216992],["interaction",-10.687138908304844],["Egyptian",-10.68764419049624],["owners",-10.68770780969249],["spend",-10.687900193594226],["concentration",-10.6879717989106],["1911",-10.68817802682969],["hole",-10.688751555251994],["comprise",-10.689259496100588],["Spears",-10.690066652473387],["Germans",-10.690624294461248],["Princess",-10.691058857893227],["Nielsen",-10.691535035208437],["1931",-10.691924716186485],["Dance",-10.692079857654905],["watching",-10.692169108408494],["diameter",-10.6922117573163],["provision",-10.692309490840145],["Stewart",-10.692512090569355],["Melbourn",-10.692610342972374],["Die",-10.69297527564802],["wooden",-10.693080605200294],["alternate",-10.693197835514741],["Building",-10.69346016309074],["1922",-10.693781630359084],["genetic",-10.694068502148713],["asks",-10.694090781161652],["favorabl",-10.694111253371018],["sight",-10.694256781933547],["flew",-10.694799002198145],["pain",-10.6948401057403],["ology",-10.695044310788957],["Anglo",-10.696467698278175],["uniform",-10.696786797108478],["USS",-10.696825411986344],["window",-10.697014858089823],["tracted",-10.697276843696182],["resigned",-10.697329224542765],["pointed",-10.697932346314497],["advocate",-10.698251347300005],["notabl",-10.698714134338447],["shots",-10.699029085671476],["pace",-10.699151529127693],["stable",-10.699779287753246],["environmental",-10.699904543306783],["afternoon",-10.700040879392075],["Ball",-10.700562643723261],["Guy",-10.70069729697506],["evil",-10.700709033110742],["Lennon",-10.701090989417605],["Austria",-10.701360631167184],["radar",-10.701449260683548],["impresse",-10.701480088933277],["cease",-10.70155520560677],["error",-10.701866879006156],["Evans",-10.70215912181376],["linke",-10.70325832647906],["insect",-10.70412362292158],["attempting",-10.70521104716052],["lowes",-10.705565025106269],["Bra",-10.705728373799717],["ame",-10.705801233975732],["closer",-10.70598900474346],["footage",-10.706279744426126],["lawyer",-10.706629026124649],["Nazi",-10.707240133825529],["05",-10.707303273454151],["hood",-10.70769648120881],["ika",-10.708264369443722],["teeth",-10.70858723145788],["routes",-10.708727855483394],["Colorado",-10.709272798025196],["balance",-10.709429245745623],["collaboration",-10.70993960416337],["Turkish",-10.710592722093674],["extent",-10.7112568642784],["Ki",-10.711270221115818],["easy",-10.711699116462784],["Foundation",-10.711944876980983],["offering",-10.711972932466303],["circuit",-10.712252506237489],["persuade",-10.712335553221333],["affect",-10.712408790623133],["grounds",-10.712499136060131],["Brazil",-10.71258172197464],["Dave",-10.712802866800393],["Mel",-10.71307043624285],["Mario",-10.713430528549162],["Sarah",-10.71357444591015],["Wind",-10.713783012675108],["ston",-10.71389261466782],["junior",-10.713915378218479],["resolve",-10.714160681754022],["resolution",-10.714354637071507],["understand",-10.714369488013075],["margin",-10.71439904457448],["superior",-10.715514716363804],["Baltimore",-10.71591454977961],["happene",-10.716592796578388],["Greec",-10.716811592410222],["occupation",-10.7171637053541],["column",-10.717442308139931],["junction",-10.717648478509174],["hear",-10.717925727047293],["accompany",-10.718232784289501],["streets",-10.718270208164922],["wrong",-10.718544817799978],["Cooper",-10.71895720430111],["salt",-10.719361034624821],["confront",-10.719571778108564],["militia",-10.719589573968333],["prime",-10.720270787663486],["ven",-10.720689484830194],["motor",-10.720744071565269],["Story",-10.720879208063423],["exhibition",-10.722354935082766],["Guardian",-10.722612690038453],["Gu",-10.7231250253453],["alignment",-10.723205062322748],["interpretation",-10.723602666493491],["Wal",-10.72377288234226],["disaster",-10.724623798709082],["Senator",-10.725211531282113],["residential",-10.72532950127658],["beam",-10.72615060593765],["alliance",-10.726335897244454],["Sullivan",-10.726643653474206],["log",-10.727131312386025],["departe",-10.727149234663521],["140",-10.727323104209386],["poetr",-10.727669173822605],["detect",-10.728333848154698],["hal",-10.728446359353901],["loop",-10.728509323600136],["Somerset",-10.728669063247985],["ü",-10.729452210685352],["Iowa",-10.729643438170344],["changing",-10.730124513851932],["continuous",-10.730489848410327],["highlight",-10.730714685683907],["Marshall",-10.731088432017032],["racing",-10.731209881063473],["partie",-10.731326465905898],["Key",-10.731852528815764],["conservative",-10.732074357380302],["happy",-10.732570468770383],["trans",-10.733139015490355],["appropriate",-10.73381653283267],["Canal",-10.734152810835505],["organ",-10.735551819486657],["signing",-10.735773345343214],["creative",-10.736264445485038],["Gen",-10.736265839958019],["var",-10.736364628292216],["drum",-10.73640551437983],["ster",-10.736646207774747],["informe",-10.737119242634101],["prize",-10.737360048922381],["Wrestling",-10.737469312185207],["dream",-10.737732862610535],["grown",-10.738033379988355],["EP",-10.738092211991452],["identify",-10.738171344056951],["testing",-10.738792362552605],["evolution",-10.738855264023025],["satellite",-10.739536369462623],["boiler",-10.740190806341376],["toll",-10.740352043881808],["taught",-10.741005331845304],["truck",-10.74120736991541],["1928",-10.741758613304508],["creature",-10.742332893342489],["Mad",-10.742593320652478],["Miami",-10.742614521238027],["wings",-10.743112397494905],["erect",-10.743205694903793],["ballad",-10.743817583283455],["volunteer",-10.743922298914846],["trail",-10.74416558901012],["rus",-10.74454688046178],["Area",-10.744551454712589],["Austrian",-10.744657237412447],["Open",-10.744741410457106],["drums",-10.744992641009436],["dangerous",-10.745117475046783],["Place",-10.745396027807772],["mill",-10.745955161672068],["Confederate",-10.747765199421616],["wedding",-10.747769864945855],["witnesse",-10.748345046864607],["northward",-10.748828857309428],["prevente",-10.749135429996308],["Hungar",-10.74949414506415],["Pen",-10.749521782100686],["teammate",-10.749752813388074],["Peninsula",-10.749833194810929],["answer",-10.75039065433559],["crisi",-10.751178899282323],["medium",-10.751250155168858],["simultaneous",-10.751559615798769],["shelter",-10.751562522655323],["isation",-10.751604814185065],["tourist",-10.751622198045125],["maker",-10.751758972666368],["Ministr",-10.751920976009842],["Seattle",-10.752251209188781],["runner",-10.752737142441088],["initiate",-10.75290010557287],["withdrew",-10.753250888586718],["permission",-10.75338668117949],["chase",-10.75368333353779],["moves",-10.753807098678006],["choose",-10.754257987326945],["originate",-10.75486392603128],["Trek",-10.75531916681581],["drink",-10.755437503611054],["bands",-10.755756918183828],["Front",-10.757606545655237],["clock",-10.757890744348359],["Dam",-10.758234573894486],["Ram",-10.75854152701224],["tier",-10.758738477902645],["melod",-10.759320236232298],["print",-10.759822263656009],["1924",-10.76009053522817],["Sch",-10.760130338845997],["ā",-10.76037631486679],["veteran",-10.760586412525855],["existe",-10.760588078415616],["Mars",-10.760840549516118],["apartment",-10.76100095518295],["thirteen",-10.76128360498063],["dense",-10.761505610982901],["platinum",-10.761634181866565],["Mal",-10.761710611368592],["advice",-10.763713022114704],["predator",-10.764612361410702],["doubt",-10.76463904123262],["skills",-10.76490183012157],["monitor",-10.764991669115748],["Alabama",-10.76512977235447],["shoulder",-10.765637012555704],["mainstream",-10.765640236342781],["labor",-10.765875358422761],["ura",-10.766018854908141],["towns",-10.766233928991468],["faith",-10.766664017304262],["Caribbean",-10.766882917413291],["imp",-10.76768954643638],["sounds",-10.768905442449917],["Shi",-10.769141198269745],["holds",-10.769701690041025],["Charlie",-10.770401449697207],["Country",-10.770783959616407],["burg",-10.770805213998571],["merge",-10.771189287534284],["citing",-10.771410241399728],["expensive",-10.771458217625598],["legs",-10.771474733305656],["expression",-10.771480481979271],["brick",-10.771512148193992],["Belgi",-10.77157802458343],["illegal",-10.771911970611864],["Lawrence",-10.772161153761605],["ask",-10.772449539350646],["shear",-10.772946573730078],["spending",-10.773068914610032],["housing",-10.773105420460055],["landscape",-10.773982512624581],["Hard",-10.774222149037735],["mini",-10.774295703775195],["Yankee",-10.77498730469108],["achievement",-10.77523577483183],["marry",-10.775440777256398],["hockey",-10.775690892350394],["seats",-10.775802704030994],["suicide",-10.776403444753749],["prepare",-10.776815306683593],["Minnesota",-10.7771128473156],["attitude",-10.77784612720937],["Dead",-10.77788953225368],["ić",-10.778853668063928],["approval",-10.779224147990575],["locomotive",-10.779667374984024],["publisher",-10.779843471028714],["prompte",-10.779908032465807],["Run",-10.779993187066394],["tenth",-10.780301426880317],["compilation",-10.78031835387471],["debt",-10.780361419627155],["Apple",-10.78046674305875],["vertical",-10.781073468808925],["ethnic",-10.781227919484365],["organise",-10.781610534063322],["Health",-10.782092891508356],["triple",-10.782270459684769],["symptom",-10.78279470949158],["finance",-10.782848626909058],["closing",-10.783095237197939],["examine",-10.783908606016194],["false",-10.784565252542],["perspective",-10.784585627819855],["wound",-10.784891671521198],["minimum",-10.785301027350796],["abuse",-10.78551197931193],["adventure",-10.786675504613223],["neighborhood",-10.78710816323299],["Township",-10.787747129085815],["Grammy",-10.787810536990568],["differ",-10.787931767096673],["Crown",-10.788434846549453],["rates",-10.788674683831356],["bear",-10.78892254382366],["Hotel",-10.789040648342102],["Soon",-10.790105208358682],["ight",-10.790390427748921],["consequence",-10.790525358781144],["statue",-10.79063719300136],["armament",-10.790667592229163],["regulation",-10.790749342461016],["Den",-10.791097798744133],["lam",-10.791131048985152],["Pass",-10.791799719794717],["Much",-10.79255103576514],["adjacent",-10.792733894117344],["Staff",-10.792785953002019],["scholar",-10.792808897694048],["blame",-10.792913049203568],["Guide",-10.793775234758034],["factors",-10.793874341311147],["Human",-10.794058242120196],["steal",-10.794143123719124],["definition",-10.794637880297152],["Dieg",-10.795211087613904],["Return",-10.795407074499],["Mer",-10.795516147088726],["marine",-10.795710617568401],["travele",-10.795778631008062],["USD",-10.795784389653644],["Raw",-10.795863942886278],["funeral",-10.79633762267722],["Flight",-10.796585403570903],["characterize",-10.797058927726406],["Christopher",-10.797133005149858],["photo",-10.797949869341235],["authors",-10.798065086502548],["owed",-10.7981522213415],["palace",-10.79827615400383],["partnership",-10.798420886142315],["strip",-10.798685461271159],["chair",-10.798820870239442],["Walker",-10.799222424680988],["instrumental",-10.799257086842278],["Qu",-10.799285533619322],["Dar",-10.79938475151151],["Dor",-10.799734199968817],["scholars",-10.801045596308828],["translate",-10.801363502093654],["dresse",-10.801376633489628],["Native",-10.801858063212208],["*",-10.802243743966205],["standards",-10.802951581460793],["Children",-10.803699931983125],["aware",-10.804045448267303],["hook",-10.804416315028817],["Interstate",-10.804451268752732],["attendance",-10.805241824344169],["Saxon",-10.806823448786016],["1908",-10.807384527113367],["Ford",-10.807560404562597],["Edge",-10.807754874660947],["priest",-10.808095818577764],["expert",-10.808099029553444],["elevation",-10.808449662371254],["Wing",-10.80858971656987],["1905",-10.808832703836416],["intensifie",-10.808886216071894],["fill",-10.809118333038512],["Benjamin",-10.809176033823196],["Are",-10.810227542375582],["rhythm",-10.810919524059493],["Legacy",-10.811007888727392],["1909",-10.811040321780581],["tion",-10.811089614145938],["lieutenant",-10.811375773446432],["Ice",-10.811508308858823],["percentage",-10.81232805682859],["Hockey",-10.812485415620145],["Gun",-10.812698249115527],["translation",-10.812999644606448],["alien",-10.813149711300955],["aggressive",-10.81321077023849],["smooth",-10.81358985713555],["suitabl",-10.813950772375158],["orchestra",-10.8139763463551],["Roosevelt",-10.815418682855512],["entertainment",-10.815429369660857],["Kansa",-10.81655594467918],["ize",-10.816676615893279],["construct",-10.817002653653885],["Alfred",-10.817636710508511],["asking",-10.81766410386455],["beach",-10.818076333913798],["operational",-10.818699822420413],["Chronicle",-10.819125781094979],["istic",-10.819234527872883],["accurate",-10.819490053192954],["tactic",-10.819535804265342],["divorce",-10.819722973573597],["investment",-10.81987234883611],["Wolf",-10.819978631278428],["Manhattan",-10.82021928589548],["Franklin",-10.820705599452271],["quote",-10.82113222616583],["manuscript",-10.822075437770195],["races",-10.823318584693858],["covering",-10.823323654306314],["oxygen",-10.823697213162472],["distinguishe",-10.82419326357696],["bombing",-10.824249598771086],["Dragon",-10.825058381878506],["Digital",-10.825787273170809],["concrete",-10.826531984484916],["perceive",-10.827773665332137],["stra",-10.82781002802583],["chapel",-10.828396381706991],["advisor",-10.828448400269965],["phrase",-10.829143127683706],["Margaret",-10.829179725364884],["truth",-10.82918898823933],["interesting",-10.829582987001716],["impossibl",-10.829847338113767],["1907",-10.829889048919854],["anger",-10.830126615961408],["meat",-10.830192582852739],["faction",-10.830406974077153],["guy",-10.831032398778657],["travelle",-10.831128246451208],["Steven",-10.831131299783923],["wake",-10.83162501105952],["danger",-10.831920243403381],["understanding",-10.832366677279477],["westward",-10.832683568431785],["jet",-10.833263746585821],["Hong",-10.833536450173764],["Jam",-10.833615599178714],["windows",-10.83388912549708],["Hay",-10.834035703400428],["Industry",-10.834761127907303],["Hero",-10.835269208017513],["profile",-10.835281895565315],["lemur",-10.835621369068164],["shield",-10.835889333156622],["pole",-10.83596235164978],["sculpture",-10.836270451869737],["aged",-10.836648558669243],["bone",-10.836666650087722],["sank",-10.837617699716244],["360",-10.838413415670423],["agricultural",-10.838459791094984],["Mississippi",-10.838523865379091],["Ranger",-10.839194369300728],["regain",-10.839499321490678],["grave",-10.839780478188366],["Portland",-10.839926724890972],["punk",-10.839972935061727],["trust",-10.840499963177965],["mayor",-10.840541091798599],["bright",-10.840840026024232],["boys",-10.840876975174073],["Halo",-10.840899207900328],["dress",-10.840930695135874],["submitte",-10.842630403591961],["feed",-10.842687387696628],["displaye",-10.84269811147988],["helicopter",-10.84305816368248],["Campbell",-10.843469621244072],["Born",-10.84369211203989],["Saturday",-10.843815909655746],["Independent",-10.84420878763569],["horror",-10.844574193027492],["ix",-10.844707996585734],["Marie",-10.845017186426844],["plus",-10.845048781844172],["enters",-10.845280723268413],["survivors",-10.845527323380463],["situate",-10.846234535354045],["communist",-10.846464716475072],["guide",-10.84647730435547],["Fu",-10.846490928023627],["earn",-10.847240040328547],["arriv",-10.847479870670082],["Villa",-10.848494897749768],["restoration",-10.848786593330836],["fifteen",-10.849224419518336],["Seven",-10.849691837869313],["Credit",-10.849831588078679],["distinctive",-10.850764223678578],["tornado",-10.852196314995458],["illness",-10.853454273780393],["Roy",-10.853982530288963],["virtual",-10.854102065720411],["wheel",-10.855469737040853],["ynasty",-10.855893569306687],["assemble",-10.856106811860926],["helping",-10.856517855928432],["ammunition",-10.856802136290884],["clean",-10.857383778445843],["churche",-10.857863988940519],["context",-10.858604991718602],["Ban",-10.858766813290348],["update",-10.858847605450887],["Rob",-10.85895982196545],["VI",-10.860440060636169],["dramatic",-10.860658191942026],["strict",-10.861390477059818],["aimed",-10.86267661267121],["fourteen",-10.86294999007418],["spiritual",-10.862966133726395],["celebration",-10.862981342838072],["tune",-10.86307395364492],["Bel",-10.863144501337407],["Liberal",-10.863585037691646],["Enterprise",-10.86372086191081],["wish",-10.863840337953768],["artistic",-10.863846638958158],["fled",-10.863893743636488],["suspende",-10.864012109943722],["stem",-10.864675507260086],["particle",-10.865374774180868],["Historic",-10.865645512733861],["Tor",-10.866298190166184],["Graham",-10.866473298486735],["idae",-10.866622123621916],["exile",-10.866756647094817],["skull",-10.866883042910079],["cho",-10.866920438414896],["dancer",-10.867266817341905],["Cold",-10.867325279563866],["assiste",-10.868007677280968],["mobile",-10.868188376753594],["Tennessee",-10.868371171154457],["viation",-10.868447824904948],["Louisiana",-10.868760113745562],["charter",-10.869350984211652],["Honor",-10.869619682138616],["CE",-10.870011019993001],["complet",-10.870043943024267],["bonus",-10.870541814216072],["portrait",-10.871890317581798],["telling",-10.872733233738458],["Warren",-10.872779168712302],["underground",-10.872799051188974],["cargo",-10.873778620802437],["horn",-10.873814828037535],["rap",-10.874210662253052],["Missouri",-10.874216239385326],["queen",-10.874282820580092],["earthquake",-10.874607649671422],["Labour",-10.874645657521302],["etting",-10.874649866191955],["loose",-10.874690603386473],["cult",-10.87505403155593],["Tamil",-10.875114461767435],["employment",-10.875190460777532],["Montreal",-10.875555906992275],["1906",-10.875699549526761],["Bor",-10.87668407825215],["stick",-10.876869077888074],["proceed",-10.877719934190983],["Ger",-10.877837594824873],["mature",-10.878638914602984],["VII",-10.879007019583577],["plain",-10.87918788445399],["jazz",-10.879368725479894],["Depression",-10.879699362196197],["Season",-10.879736224637746],["grey",-10.879947268164639],["arch",-10.880541818466787],["ken",-10.880960836636046],["Ber",-10.881326082686225],["Hart",-10.881335417227962],["commence",-10.88247623718016],["1870",-10.88263124458051],["legend",-10.883415401754327],["guitarist",-10.88371071305335],["Mitchell",-10.884057382642482],["worn",-10.884159241583536],["replac",-10.884774237748616],["donate",-10.885087859456469],["Harvey",-10.885611520914072],["ABC",-10.885612462214805],["Sub",-10.886256842882327],["Ridge",-10.886525584618436],["dozen",-10.88680781639031],["tape",-10.887200569859651],["spore",-10.887224166713102],["reward",-10.887644541028454],["abilitie",-10.887899963469156],["theater",-10.888141383778194],["pulle",-10.888899863231858],["fifty",-10.88917311373648],["radical",-10.889955865655013],["substitute",-10.890833242343266],["quiet",-10.89092808331382],["Fall",-10.891689159985383],["Bus",-10.891786571552833],["administrative",-10.891952486220134],["fields",-10.892179316383203],["hipping",-10.8922891384457],["Business",-10.8923700663563],["minimal",-10.892520952137277],["recruit",-10.892738669350036],["Cook",-10.892857109486686],["circumstance",-10.89474274597346],["rice",-10.89483810765909],["Jimm",-10.895697518297087],["surger",-10.896191979318868],["ace",-10.89641814917469],["artwork",-10.89690930917308],["strengthen",-10.8974310699699],["defender",-10.89745655425232],["instruction",-10.897780039394029],["ick",-10.898499970027341],["Representative",-10.898736225753309],["Get",-10.899000438947846],["drove",-10.899049941324144],["bronze",-10.899136706356884],["rivers",-10.89920343322704],["temporari",-10.899306719905294],["procedure",-10.899537346247545],["Cuba",-10.900125428833096],["opped",-10.900361266993425],["Bros",-10.900828369403307],["behaviour",-10.901141520214452],["thinking",-10.901434833035399],["rebuilt",-10.901937965546784],["stretch",-10.902154665308556],["regime",-10.902636184263441],["Hindu",-10.902767149553345],["variant",-10.902994687176875],["replie",-10.903151157037058],["disorder",-10.903168491504077],["Hell",-10.903378658052482],["Bal",-10.903391324242946],["crest",-10.903521436299187],["victorie",-10.90409381656582],["Let",-10.904141823909708],["topic",-10.90417365878988],["Sol",-10.904185695323955],["fallen",-10.904230935340541],["inhabitant",-10.90424973238881],["tale",-10.904366700405674],["coverage",-10.905066450047748],["ruling",-10.90534600450112],["revolt",-10.905972043929374],["Mont",-10.905986810337676],["wire",-10.906513192467347],["flee",-10.907240509542415],["fixed",-10.90746749769755],["ownership",-10.907920355663702],["boss",-10.908187814314724],["Gate",-10.908391453925514],["ack",-10.909645638980551],["illustrate",-10.910940960673212],["practical",-10.911106099629842],["Files",-10.911149644799844],["ubbed",-10.911327445954857],["Mat",-10.911607524777288],["conversion",-10.911736798729466],["basin",-10.911762908244828],["mechanism",-10.91182067852884],["Arizona",-10.912037673693781],["cousin",-10.912970761607387],["maneuver",-10.913256024147385],["armore",-10.913398447464944],["representation",-10.913517148156489],["cur",-10.913724361539767],["colonie",-10.913953215886675],["ification",-10.91424221359104],["execution",-10.914398513606784],["Dylan",-10.914485304030228],["kar",-10.915137741563353],["spotted",-10.915317349468857],["Billy",-10.915327345580078],["Bureau",-10.915337172727028],["rebellion",-10.915731824268903],["Cu",-10.9158244444842],["WC",-10.91631862091538],["elaborate",-10.916516149059795],["Tokyo",-10.916562191862848],["Real",-10.916673544716689],["similarit",-10.91667739649083],["frequenc",-10.91691854345564],["absolute",-10.916918560509277],["parish",-10.916944846291608],["philosoph",-10.9170923478081],["preferr",-10.917167127206408],["quest",-10.917455856126967],["loan",-10.917637719369592],["marks",-10.917710833635887],["signature",-10.917737263666481],["twin",-10.918017627141714],["airline",-10.918402225403696],["dominant",-10.91843061459888],["Athletic",-10.91895936491667],["prove",-10.919984704887604],["gam",-10.919999787470104],["vast",-10.920079486751371],["lab",-10.920175881931776],["payment",-10.920388908539643],["songwriter",-10.921132949788081],["uch",-10.921589135924634],["solar",-10.921897143864344],["musician",-10.922117411953458],["typhoon",-10.922233360726235],["Nine",-10.922683579642232],["mus",-10.923026447247365],["Such",-10.923046231486005],["Ali",-10.923211598547462],["printe",-10.923675952295927],["Sony",-10.923719163396376],["Take",-10.924427713888829],["embark",-10.924470906579206],["missile",-10.924715695030843],["Val",-10.924743894220818],["smoke",-10.925648757454287],["feud",-10.925841914197882],["densit",-10.926365821418692],["Indies",-10.926807721752485],["aki",-10.927199081927576],["flagship",-10.928757279015633],["cable",-10.929799266771429],["Murphy",-10.930052889649778],["Soul",-10.930483123553689],["Tag",-10.930635278735238],["Oklahoma",-10.930878942403325],["suite",-10.931223037240272],["riders",-10.931629298963005],["gang",-10.93172351282874],["reinforcement",-10.931808876385283],["cannon",-10.932020055487058],["Delaware",-10.932564100682574],["check",-10.932584305595821],["Juan",-10.933272564514466],["forty",-10.933435142634725],["oured",-10.93344204893695],["marking",-10.933695972126229],["ants",-10.933874082930403],["Well",-10.934871764080011],["vis",-10.934923000511619],["legislature",-10.935022308537073],["addresse",-10.935042669184224],["deaths",-10.935340277169992],["Federation",-10.935448118364429],["Iraq",-10.935879552326622],["Sk",-10.936447430711663],["universal",-10.937100705244886],["Prize",-10.937526560935499],["obvious",-10.93793292808244],["Switzerland",-10.938349406590856],["waves",-10.939035447044484],["Broadway",-10.939095936999303],["insiste",-10.939658434958751],["dissipate",-10.939913334419485],["baby",-10.940206567259317],["Amy",-10.94033182478337],["excellent",-10.941334722450746],["invade",-10.941661148330079],["reporter",-10.94170105342339],["Officer",-10.941965957356082],["tribes",-10.94205604779048],["manufacture",-10.94208767651273],["Yo",-10.942293497101016],["Bull",-10.942486731085525],["frigate",-10.942524887526949],["yield",-10.942552535421168],["riot",-10.942629537705901],["bearing",-10.943310113879331],["1901",-10.943515812094711],["metric",-10.94426915593861],["sphere",-10.944590791294921],["announcement",-10.944902470947877],["badl",-10.944959637188761],["Rico",-10.945449102921664],["journal",-10.945635143549003],["Baker",-10.946702838170154],["believ",-10.94702487657494],["storage",-10.947527022644937],["suggestion",-10.947646073962929],["nations",-10.947668925186328],["quarterback",-10.947914418037179],["Fred",-10.948084393864201],["racial",-10.948225890418131],["impression",-10.949253192894822],["apply",-10.949802334197287],["shells",-10.950534834672286],["striking",-10.95092757363831],["Tar",-10.951323416361667],["settler",-10.951329422806445],["stole",-10.95152808890087],["uncle",-10.951708100789316],["Owen",-10.951777960858799],["1903",-10.951807032167014],["legac",-10.95189896784834],["1902",-10.952496360244272],["Hor",-10.952497967020534],["lacke",-10.952742400764762],["val",-10.953402463435996],["emotion",-10.953444996034438],["cloud",-10.953470678575606],["cutting",-10.953558956355167],["Shakespeare",-10.95390965735895],["Leslie",-10.954308560550594],["relocate",-10.954408794725502],["neighbor",-10.95513059762233],["Baby",-10.955177548595014],["select",-10.955654202931534],["commentar",-10.95567209970581],["useful",-10.955977724609198],["degrees",-10.95610267092573],["farmer",-10.956162507544812],["kW",-10.956238129187664],["Glen",-10.956811928591321],["Perry",-10.956983770161585],["branche",-10.95727065834878],["app",-10.957435700828645],["biographer",-10.957540206097274],["pretty",-10.95775397666229],["theatrical",-10.958123445251232],["rian",-10.958263385121917],["architect",-10.95839422937465],["float",-10.958846191675956],["minorit",-10.959477412530815],["armour",-10.959573112078118],["Mag",-10.959772392994328],["Nixon",-10.960250038674353],["altitude",-10.960250134641093],["cave",-10.960410797531761],["shop",-10.96075166225849],["sunk",-10.961420833529704],["Atlanta",-10.961957946008376],["105",-10.962664361602492],["03",-10.962861061493584],["edit",-10.962980761209813],["shorte",-10.963050024495569],["adopt",-10.963627101216629],["Band",-10.964248428595997],["Actor",-10.964342613799047],["casting",-10.96455982816304],["portrayal",-10.964626825903142],["Know",-10.964728011362233],["Jonathan",-10.965405020668864],["Denmark",-10.965414159780536],["Trust",-10.965863408561948],["Gray",-10.965970259689296],["negotiate",-10.966425712164686],["enhance",-10.966472887320304],["govern",-10.966698572947692],["performer",-10.967128543722174],["Baseball",-10.967233692969028],["Rihanna",-10.967514627825627],["sang",-10.967782759305859],["Vi",-10.967953406760532],["Hugh",-10.968143942435045],["reconnaissance",-10.968169682258026],["Report",-10.968388194548798],["altere",-10.968457257655414],["customer",-10.968863933430256],["egg",-10.96942246064739],["Friday",-10.969472349319043],["ritual",-10.969654980282169],["Type",-10.970097471930591],["Miss",-10.970417204336975],["Abbey",-10.970551542006476],["MS",-10.970669743162556],["Hal",-10.971041599734711],["shock",-10.971328259148947],["conventional",-10.971346331304677],["Fighter",-10.97148575588309],["Johnny",-10.97164226441411],["familiar",-10.971688661945281],["Small",-10.971799769992176],["Shaw",-10.972050505760397],["Hudson",-10.972246692365957],["whils",-10.972714900973372],["sail",-10.973006139177574],["remix",-10.973198902071697],["knee",-10.973476942677419],["Cardinal",-10.974836729097403],["holiday",-10.976129908861632],["Campaign",-10.976129937345359],["organism",-10.976685139276638],["Karl",-10.976895550239636],["offense",-10.977059899576812],["villain",-10.977099855106811],["š",-10.977460980990774],["Drive",-10.977526173453276],["enliste",-10.977630391752436],["apolis",-10.977988965715753],["Kurt",-10.978080012958593],["emphasis",-10.978377899832871],["friendship",-10.978687530817034],["researcher",-10.978698682857708],["Arnold",-10.978731815976168],["saurus",-10.978816959925293],["exposure",-10.97916933885411],["zer",-10.979260874014894],["feather",-10.979420125383895],["courts",-10.979441595154178],["osted",-10.979518457168822],["placing",-10.979645144119864],["pack",-10.979973475253741],["190",-10.980048266587726],["delegate",-10.980084509481424],["backing",-10.98030716712761],["ative",-10.980520093409346],["continental",-10.980755107515423],["ignore",-10.98079009662705],["dancing",-10.98203206379591],["acclaim",-10.982522975750797],["inherit",-10.982664045706048],["Wayne",-10.983076745172017],["convert",-10.983231320081451],["Bach",-10.983507842106558],["Finn",-10.983632042633179],["taste",-10.983855591101182],["Obama",-10.983947497919981],["Railroad",-10.984034816954086],["Communist",-10.984188348531568],["cinema",-10.984269204953192],["touch",-10.984549696173278],["mechanical",-10.984591017729993],["Potter",-10.984659364243171],["Snow",-10.985087789659417],["Israeli",-10.985351034824674],["garner",-10.98540893012212],["constitution",-10.985438948418523],["Keith",-10.985715954319382],["eighteen",-10.985719537891379],["AC",-10.98644684447552],["Universal",-10.98656702299483],["mining",-10.9869858432209],["strengthene",-10.987023830988187],["abandon",-10.987354886591621],["Internet",-10.987451668977915],["electron",-10.98776417783025],["gathere",-10.988112352993435],["Rachel",-10.988403118537917],["routine",-10.989274548654977],["186",-10.989470061863106],["mines",-10.989531186611709],["Reserve",-10.989678892351662],["Spring",-10.989751939830047],["Express",-10.989892562768972],["Bat",-10.989904572475936],["expect",-10.99000847368931],["suburb",-10.990050720781628],["Dun",-10.990056413878804],["conceive",-10.990630496085394],["progresse",-10.99088603658783],["pioneer",-10.991828073042534],["Madagasca",-10.992266293577103],["rebound",-10.992594553614541],["Pearl",-10.993325597006965],["external",-10.993586349460386],["ón",-10.993642505019643],["Peace",-10.99403470062888],["Natural",-10.99422800247593],["Nor",-10.994381166206583],["Champion",-10.994556623762195],["Beat",-10.995440182484522],["Off",-10.99596606186692],["Kirk",-10.996016410306549],["Impact",-10.996090583859548],["Tracy",-10.99624616239195],["gal",-10.996278495823182],["mainland",-10.996752398732813],["secretary",-10.996851526849426],["wage",-10.996940846172748],["infection",-10.997132566440538],["demolishe",-10.997650442895509],["empire",-10.998440428777887],["Eventual",-10.998462220694787],["Our",-10.998480514514926],["Birmingham",-10.998882917333848],["readers",-10.999011685834233],["Emil",-10.999150251903643],["employ",-10.999200544815217],["eeking",-10.99975794772504],["indicat",-11.000020511787275],["ranium",-11.000753258258856],["sitting",-11.000836171195079],["conversation",-11.00109823809047],["dvertising",-11.001112861761328],["warship",-11.001214777210716],["lavery",-11.001651963557538],["Sar",-11.001738000524382],["authorize",-11.001765676089956],["reduction",-11.002012634002256],["Blood",-11.002131880832787],["expense",-11.0024298840964],["Leonard",-11.00245748871405],["Belgian",-11.00256690699797],["lists",-11.0027837608916],["acoustic",-11.002874084764866],["alter",-11.003534643734955],["artificial",-11.003763127343538],["Defence",-11.003781060710455],["Troph",-11.004654334868722],["McCartney",-11.005099302836967],["coache",-11.005217019152084],["talking",-11.005226111782878],["attraction",-11.005955933717122],["Mur",-11.006088954714672],["constitutional",-11.00622850736467],["Phoenix",-11.006435139891552],["crashe",-11.006629335135564],["Morrison",-11.006645377159462],["deposit",-11.007106295789196],["cup",-11.007481265801513],["stein",-11.008195787306837],["Secret",-11.008605866874214],["aging",-11.008966759137262],["roots",-11.009087946159681],["Boat",-11.009186022285569],["magic",-11.009500341961864],["Blues",-11.00988536772563],["desert",-11.010036504471309],["experimental",-11.010200854487682],["vary",-11.01087705196673],["educational",-11.01117003533218],["liquid",-11.011382863619858],["Classic",-11.012362777316568],["deliberate",-11.012371843206495],["depiction",-11.012450551007895],["wider",-11.012516458830959],["atomic",-11.012622048801227],["fragment",-11.01294357850182],["mor",-11.013444104351297],["Connecticut",-11.013595731782834],["funny",-11.01376586435411],["favourite",-11.014133989847906],["Shortl",-11.014301038837363],["dish",-11.014318348017525],["offices",-11.014679062075857],["trigger",-11.014884771090735],["demande",-11.015181833938684],["Eve",-11.01518228995787],["Anti",-11.015882763097178],["kov",-11.01592529437007],["prototype",-11.015967051361553],["Chan",-11.015968854756093],["gray",-11.016009483173416],["Mother",-11.016083267991068],["impose",-11.016085020972021],["Euro",-11.016091430558065],["Todd",-11.016294530175994],["coup",-11.016432691399812],["aerial",-11.016446485756202],["oversea",-11.016744917108323],["Ontari",-11.016777542285165],["electrical",-11.01681363853881],["dome",-11.017473554820205],["micro",-11.018150842189002],["Fan",-11.018335810218673],["ranks",-11.019262032155734],["Unit",-11.020654199317608],["strategic",-11.020782074517633],["manga",-11.021019288006714],["delivery",-11.021493793986133],["Canterbury",-11.021712909734621],["Stan",-11.021816524482885],["withdrawal",-11.02229330337208],["sheet",-11.022342860705086],["sacrifice",-11.022350151584277],["Lucas",-11.022736426585741],["imperial",-11.022985475258832],["wins",-11.023022136421506],["edite",-11.023110213134558],["tempo",-11.023239079000186],["Bobby",-11.023919588990374],["Community",-11.023986623175766],["removal",-11.024038425820951],["col",-11.024192965942314],["liberal",-11.024542010181362],["sung",-11.024697326187361],["Jupiter",-11.024887532811494],["heir",-11.024949561702837],["Fleming",-11.02497949232802],["mountains",-11.025680106451059],["liner",-11.025736629500216],["tur",-11.025916940862079],["lease",-11.027096705830804],["Napoleon",-11.027145928287988],["cluster",-11.027465691383933],["aftermath",-11.027621946233605],["Convention",-11.027709086440229],["eared",-11.027893072286387],["iness",-11.027997421523462],["Works",-11.028034306314442],["armie",-11.028367431238282],["Sel",-11.028702983592627],["gender",-11.028958078378334],["corn",-11.029057281076998],["please",-11.029227170070918],["acknowledged",-11.029639631402116],["Shu",-11.029806768618059],["Rain",-11.029943811051538],["bridges",-11.030384069887958],["Foreign",-11.030388490365802],["Ultimate",-11.030415893223065],["Dog",-11.03057218150438],["350",-11.030748907164615],["reduc",-11.030902502487438],["complaint",-11.031217224158532],["restling",-11.031413707456236],["educate",-11.031733585125561],["demo",-11.032728259183209],["feeding",-11.032926135952524],["pitcher",-11.033225248753062],["UEF",-11.033499408862562],["welcome",-11.034257879427699],["mail",-11.034704039610094],["ava",-11.034750294204994],["emphasize",-11.034789020337346],["Greg",-11.034985248882165],["blow",-11.03547377058937],["processe",-11.036306633286394],["amateur",-11.036324343387726],["failing",-11.036787371511597],["competitive",-11.037227721719479],["Personal",-11.038513909410966],["decay",-11.038613000245299],["Transport",-11.038765417414432],["PS",-11.03884338222204],["sburg",-11.038993311016885],["arts",-11.039364340393496],["Windows",-11.039439570379962],["ä",-11.039786282965371],["Say",-11.04005709618548],["Mint",-11.040293360805126],["Vancouver",-11.04045202427572],["participant",-11.040452024684175],["jurisdiction",-11.04091349228812],["Swift",-11.040913762358539],["walking",-11.040932437572142],["Players",-11.041139739482237],["proportion",-11.041324188814169],["Oak",-11.041326475663107],["Angelo",-11.041360936044004],["publishing",-11.041540780735238],["qualified",-11.041903832956493],["trailer",-11.041972608511823],["ratio",-11.04236763799857],["nce",-11.042423360105388],["eagle",-11.043452498276029],["fault",-11.044788825875353],["pale",-11.04508700030247],["Bernard",-11.045099319799938],["shall",-11.045184728422338],["Rio",-11.045836785282816],["revolution",-11.046395707552126],["fantasy",-11.046467800559608],["moon",-11.046585689904484],["heading",-11.046999085204801],["operator",-11.04741953633864],["radiation",-11.047420546869809],["membership",-11.047422667666735],["Marvel",-11.0474950713654],["streak",-11.047868643248805],["Triple",-11.048572618188558],["putting",-11.048707261397233],["Administration",-11.048791201110834],["Inc",-11.049139269233658],["TNA",-11.049183603953725],["tenure",-11.049268296281141],["Village",-11.049868940358666],["grass",-11.05024723395958],["dogs",-11.050452010953936],["Trail",-11.050497166862762],["extratropical",-11.050587253992573],["Bradman",-11.050596131433785],["revise",-11.050809428728336],["rum",-11.050938987287015],["Portuguese",-11.0511200288313],["gre",-11.05138510425073],["bag",-11.051510988324498],["hydrogen",-11.05160714518756],["alcohol",-11.051681241278072],["eruption",-11.052069280359099],["Rights",-11.052136930140438],["nic",-11.052141092922184],["assembly",-11.05247312338643],["creek",-11.052533257665317],["Alice",-11.052664942713378],["serial",-11.05281784892766],["Social",-11.05293857617541],["provincial",-11.053454297586827],["valuable",-11.053454886344676],["Local",-11.054181803366642],["parliament",-11.054220787832763],["gill",-11.054352031779365],["displace",-11.055508055318603],["watershed",-11.055554159042963],["ongoing",-11.055647167472461],["125",-11.056675406342666],["Pakistan",-11.056899228495977],["Gary",-11.057011414414438],["burne",-11.057075722374034],["battlecruiser",-11.057169527881271],["structural",-11.057254340835074],["rick",-11.057320785391251],["gram",-11.057354272198868],["intercept",-11.05741277065772],["Vol",-11.057438620488757],["possesse",-11.057824138995002],["steps",-11.058557319433826],["Grey",-11.05903676400563],["inhabit",-11.059125147377413],["ave",-11.059168182483631],["dynamic",-11.059184085644699],["utter",-11.059278427881079],["distant",-11.05933375374387],["Dick",-11.059342389562001],["Dwight",-11.059550163481498],["riding",-11.05956083213466],["1860",-11.059994666480728],["exceed",-11.060007890930226],["Hardy",-11.060040121211173],["intellectual",-11.060509006878505],["keyboard",-11.060932668117552],["Cho",-11.06107021320123],["blocks",-11.06130134294406],["Shin",-11.061417778774556],["mushroom",-11.061432401761346],["Trans",-11.061678850711935],["intervention",-11.061907423371556],["architectural",-11.061911179187941],["1896",-11.062105259998154],["drugs",-11.062113531994587],["Hampshire",-11.062846297923553],["Side",-11.06296629121196],["ˈ",-11.062991128915847],["Bird",-11.063021533450483],["trace",-11.06355526834899],["Oliver",-11.063709539458696],["bal",-11.063810319301865],["worship",-11.063814112250439],["gui",-11.064086947226752],["enberg",-11.064387592259557],["guarantee",-11.065208075685517],["disturbance",-11.065685782089158],["Alaska",-11.066169611495171],["gets",-11.06640570298037],["Edinburgh",-11.066627958793585],["NCAA",-11.066635102805122],["identical",-11.066635846491877],["ré",-11.066794159037299],["birthday",-11.066796163257813],["examination",-11.067132067427366],["Collins",-11.067376088660005],["Professor",-11.067575501144455],["explosive",-11.06758107979169],["Marge",-11.067671223471098],["promotional",-11.06787227018761],["voting",-11.068017753079491],["AL",-11.068041013575922],["rix",-11.068207769637368],["automatic",-11.068532681972918],["ped",-11.068718005841927],["Kar",-11.06936109191578],["Trade",-11.069385093409927],["Helen",-11.069402143689421],["bones",-11.069970727000243],["blind",-11.070071254098668],["jump",-11.070489384577815],["ensis",-11.070543960507784],["restriction",-11.070781525315315],["mistake",-11.07078746895335],["muscle",-11.070930359660888],["rivalr",-11.070932493863015],["decorate",-11.071564896542109],["accommodate",-11.071651559725936],["voyage",-11.072328524432216],["medicine",-11.072831905084769],["ears",-11.072884182017345],["170",-11.072958830068863],["banks",-11.073112216447319],["compet",-11.073264199333916],["Near",-11.073374974050735],["lanes",-11.073707259054963],["neighbour",-11.074211822834833],["anime",-11.074280237411855],["cruise",-11.074619578054964],["Work",-11.074638989600274],["ale",-11.074696655545555],["conquer",-11.074756135285046],["duration",-11.075174209162522],["parody",-11.075209303884677],["CO",-11.075324650659063],["uck",-11.07548021462753],["1898",-11.07601872679689],["Dann",-11.076101623500971],["Armenian",-11.07612963367394],["Deep",-11.076451332559508],["Flying",-11.07648923031983],["Victorian",-11.076492144769892],["imming",-11.076567713241847],["ideal",-11.076950952613515],["navy",-11.077197132385177],["trend",-11.07778036834851],["JT",-11.077922499174553],["discipline",-11.078059290487765],["Province",-11.078059359011707],["terrain",-11.078078246326058],["condemn",-11.078914105415715],["burial",-11.079416903125288],["Historical",-11.080470895897625],["hitting",-11.080745674464305],["Craig",-11.081466433990201],["Virgin",-11.081527312860509],["servant",-11.082077558627645],["Wii",-11.082572846602272],["Ralph",-11.08286120988257],["eating",-11.083382495499862],["sweet",-11.083431808430763],["Thos",-11.083566466307643],["Argentina",-11.083920695344098],["Nan",-11.08430117705302],["Whit",-11.084482813821285],["01",-11.084640587940068],["fortification",-11.084972986843729],["attending",-11.085308738089314],["shallow",-11.085372030515838],["Yorkshire",-11.085439951935683],["ries",-11.086055989795035],["Jacob",-11.086670459797354],["Johnston",-11.08668892786746],["Performance",-11.086733086821871],["Carlo",-11.08716095405076],["efficient",-11.087649175437718],["Sur",-11.088026314094176],["chord",-11.088200812764756],["capabilit",-11.088271753136222],["Lloyd",-11.08865454689888],["hidde",-11.088764852316864],["styles",-11.088787809042516],["ious",-11.088892929182737],["unclear",-11.088978129790831],["scattere",-11.089114062489026],["magnitude",-11.089138417322918],["shaft",-11.089152463148295],["rom",-11.089389153731593],["Market",-11.090148808983406],["accidental",-11.090210015442368],["Globe",-11.090727818562076],["progressive",-11.091204293045877],["greed",-11.091357909807087],["rarel",-11.091674788378992],["Turner",-11.092603442900277],["Call",-11.092666691851853],["Jerry",-11.093078922551095],["planets",-11.093254366792626],["shut",-11.094020885253398],["stores",-11.094293177566776],["mirror",-11.09448093938043],["drummer",-11.094564022344798],["blast",-11.09487752076268],["succession",-11.095418529573159],["Lang",-11.095886427021638],["1899",-11.096237526373368],["explanation",-11.096434456956562],["Overall",-11.096444027438203],["commitment",-11.096498302527735],["predominant",-11.096556329295659],["Blu",-11.096592930149292],["wishe",-11.09677401931274],["Celtic",-11.097419088766404],["sq",-11.097532566336955],["Metro",-11.097551636818395],["lion",-11.097663812660656],["Bennett",-11.097904270648005],["collaborate",-11.098247904822626],["biograph",-11.098267802363752],["softw",-11.09834874287353],["dust",-11.098456183969674],["react",-11.09866761003385],["Subsequent",-11.098873192033626],["bombs",-11.099005401444977],["leads",-11.099191533420608],["starr",-11.099476444253346],["185",-11.099833177469662],["Hol",-11.100620807990829],["argues",-11.100693154773865],["Finland",-11.101320227805898],["output",-11.101357733187657],["sugar",-11.10152991155579],["Kate",-11.101691391376868],["prohibit",-11.101714495350041],["monaster",-11.101814607048789],["statistic",-11.102203001401598],["Voice",-11.102340251808124],["Penn",-11.102597069053918],["lawsuit",-11.103747649537471],["polar",-11.103881824162503],["Common",-11.104097254715253],["Champions",-11.104140514752844],["Mission",-11.10454869441631],["ique",-11.104708400904979],["repeat",-11.104920052646062],["grossing",-11.105384797113917],["Grace",-11.105524967468298],["warfar",-11.10589676753548],["cleare",-11.105902191416956],["forth",-11.10671613237156],["Norfolk",-11.106761768652213],["cabinet",-11.10701385036062],["prospect",-11.107136541742285],["Syria",-11.107574229939223],["reluctant",-11.107843800109269],["rounds",-11.107977655115764],["quit",-11.108256327376548],["willing",-11.108260408765647],["Official",-11.108703738326428],["Judge",-11.108785363841637],["Burton",-11.108832523006342],["transporte",-11.108909619312573],["trading",-11.1089864806123],["referr",-11.109144886782119],["suspect",-11.109781858297119],["eritage",-11.110120217743878],["turbine",-11.110186888572034],["ruler",-11.11037159477021],["Queensland",-11.110631905772156],["presentation",-11.110638600181726],["recall",-11.111058399069828],["argu",-11.111197171323145],["Link",-11.111739325261416],["Artist",-11.112076177104157],["precipitation",-11.112167570882075],["Hawaii",-11.11220465801079],["Nicholas",-11.112288290243015],["banne",-11.112317462693031],["Style",-11.113168435619258],["Barry",-11.11344070826565],["AP",-11.11346552421323],["Next",-11.114728231933782],["Still",-11.115420344363656],["tomb",-11.115567519141829],["uz",-11.115630871480542],["Ros",-11.11580744300419],["stress",-11.115846582347444],["Brazilian",-11.116148765578455],["Brothers",-11.11638135275713],["physic",-11.116424146207908],["bore",-11.117150246679227],["hir",-11.1177249743888],["march",-11.11795417446925],["athletic",-11.118133213599918],["compliment",-11.118249843465279],["Broadcast",-11.118355406303781],["crystal",-11.11837540628801],["agenc",-11.118467441274085],["activist",-11.118967808036157],["LP",-11.1190929141335],["questione",-11.119258591179813],["Vincent",-11.119388602082328],["Davies",-11.119470985937042],["inus",-11.119471092751244],["stern",-11.119834849072141],["Catherine",-11.120130233234278],["Emmy",-11.120131643448687],["Medical",-11.120639544564842],["Harbor",-11.120801430826564],["NA",-11.120954916291952],["Sweet",-11.12113153928184],["Guinea",-11.121143849425206],["habit",-11.12115610819782],["Opera",-11.12118428362528],["eastward",-11.121658784955084],["hang",-11.122182438510299],["Hunt",-11.122279922668312],["1850",-11.122421507835355],["Mis",-11.122592757992276],["pursuit",-11.123323737249347],["prefer",-11.123755567187285],["Mayor",-11.124526380985555],["inscription",-11.12467719601262],["Yellow",-11.124684992748502],["imager",-11.124782359573082],["Sega",-11.125212218909507],["Bryan",-11.125302467316434],["copper",-11.125827383455992],["gross",-11.125975673485527],["Kane",-11.126953259445688],["tooth",-11.126970228689991],["Hughes",-11.127132799507336],["beaut",-11.127380970697775],["1897",-11.127381389596625],["Roll",-11.127714225515218],["revive",-11.12785248304743],["Darwin",-11.127951880981517],["Mega",-11.128322309804688],["hybrid",-11.128659681764642],["zu",-11.128998745550835],["Indonesia",-11.129337007963876],["Antonio",-11.129445882608568],["Farm",-11.130041180658846],["package",-11.130643392484131],["wreck",-11.130680272349093],["ancestor",-11.130703425050669],["loud",-11.131103547236398],["mad",-11.131236942425868],["dealing",-11.131245700826796],["nautical",-11.131328165596184],["Box",-11.13147989051702],["mul",-11.131637226187813],["02",-11.132048518908595],["Kon",-11.132093689665862],["Harvard",-11.132700413766921],["proceeded",-11.133222831863906],["gene",-11.133224848499658],["Beginning",-11.133239693429294],["Oslo",-11.133338812025155],["spoken",-11.133404446448651],["Bro",-11.133517650787894],["Mass",-11.133565932346052],["Training",-11.133607399632488],["undertake",-11.134045667126179],["Affair",-11.134232101907404],["Abu",-11.134627860398213],["Cameron",-11.134726420958],["torpedoe",-11.135258394847636],["laborator",-11.135787254689395],["Studio",-11.135927684498595],["survival",-11.136543729338062],["Beck",-11.136652955103333],["legislative",-11.137262750838822],["Swiss",-11.137267479918101],["cul",-11.137298286696392],["statione",-11.137316230619183],["Luke",-11.137843235356904],["collective",-11.13788036204835],["Poe",-11.138247910070337],["voter",-11.13839645335467],["sixteen",-11.139263695476139],["confidence",-11.139300439603677],["lum",-11.139458227496956],["bond",-11.139842979312858],["Son",-11.140083645492396],["Moscow",-11.140316999097006],["dislike",-11.140349766972776],["mammal",-11.140474957258085],["Symphon",-11.140814597819393],["…",-11.140826909216328],["Pittsburgh",-11.140827535279701],["charity",-11.14199183300726],["consume",-11.142054684357685],["ration",-11.142115381427852],["commentator",-11.142358817654928],["nineteen",-11.142358945371594],["Gallery",-11.142360521563152],["initiative",-11.142383682219398],["breast",-11.142455258876575],["talks",-11.142880113970646],["consideration",-11.142956820699709],["advised",-11.143089883994733],["Protestant",-11.143892359487989],["varied",-11.144137342547744],["Susan",-11.144163549574078],["poly",-11.144492451717092],["occupy",-11.144916260622718],["Female",-11.145522547880288],["proof",-11.145543498697926],["supplement",-11.145736948293148],["tribe",-11.145769266861386],["airfield",-11.14589803436893],["interprete",-11.14632880758823],["sisters",-11.146416829213791],["summit",-11.146585976885682],["cor",-11.146945661443434],["Wilhelm",-11.147260909901334],["Orange",-11.147288544824871],["myth",-11.147996348576381],["solve",-11.148445896446425],["Bath",-11.148815880720793],["Junior",-11.14902363031636],["puzzle",-11.149535980983192],["decisive",-11.149535981824219],["burning",-11.149782715935391],["gency",-11.149882641200296],["Tam",-11.150020703561518],["autumn",-11.150051113267185],["Terry",-11.15020105641273],["tonnes",-11.150209878499641],["celebrit",-11.150565581567669],["Liz",-11.150848007922162],["Upper",-11.150860946991374],["Zone",-11.151531183262204],["Ren",-11.151789375079776],["Edition",-11.152123341807627],["ú",-11.153058539174475],["Wallace",-11.153200019183656],["Mountains",-11.153417270214607],["recommendation",-11.153427182343862],["audition",-11.153474763470214],["wick",-11.15365399660524],["humor",-11.153697807710726],["Movie",-11.153736606432306],["patron",-11.154025664839306],["Mir",-11.154294859184528],["asset",-11.15445775220871],["Tra",-11.15471715372877],["Section",-11.154730842295535],["trait",-11.154776023255302],["List",-11.155210087754863],["attorney",-11.155211950813651],["filter",-11.155256271422488],["chemistr",-11.155593454452877],["explicit",-11.15624741498117],["accessibl",-11.156486105871888],["photography",-11.156509907588305],["mechanic",-11.156519127442968],["evacuation",-11.15729276207861],["Carr",-11.15770577023891],["inning",-11.157730374396351],["Boys",-11.157772221705322],["Microsoft",-11.157815047458328],["lyrical",-11.15805290281228],["battles",-11.15836646550909],["programming",-11.158460125033848],["rig",-11.158742626702757],["inclusion",-11.158840784425248],["Formation",-11.158900477633548],["roadway",-11.158901163182971],["Picture",-11.159111322620644],["volcano",-11.159475871085279],["Defense",-11.159882128823853],["trick",-11.160388169318837],["compile",-11.160432586427785],["Malaysia",-11.161053664062177],["Bri",-11.161085451747967],["indeed",-11.161104044169079],["Indonesian",-11.161261836433653],["Gil",-11.161315361312607],["crops",-11.161356316162337],["Description",-11.16196171681938],["Jefferson",-11.16197966129753],["migration",-11.162023075315975],["careful",-11.162127343834879],["harm",-11.162501296445612],["Program",-11.162646276124839],["harbour",-11.163004232969815],["195",-11.163006518393995],["Girls",-11.163041646081343],["Aftermat",-11.163414234455717],["shifte",-11.163526077325692],["Hope",-11.163632653215963],["compromise",-11.163699930826628],["Cast",-11.163914763460557],["mic",-11.164763853441151],["speculate",-11.165062126782146],["conquest",-11.165184434173153],["conservation",-11.165639385594755],["rushe",-11.165795070952274],["export",-11.165992564633271],["Sheffield",-11.166151704063301],["lighting",-11.166680579849064],["prepar",-11.166976450540545],["publications",-11.16699345843698],["Come",-11.167166787446861],["blocke",-11.167191160347471],["ions",-11.16729757421054],["demonstration",-11.167743858121199],["inland",-11.16785294512885],["immigrant",-11.16824850134909],["anticipate",-11.168488971505194],["Pol",-11.168638704126032],["descent",-11.16872211731692],["pine",-11.16878818364742],["ports",-11.16915987421649],["Larry",-11.169306720693452],["closure",-11.169592781219169],["fundamental",-11.169813547368062],["vol",-11.170015465128078],["uncertain",-11.170032845141101],["Gall",-11.170035361449754],["auto",-11.170146195161768],["à",-11.170332154467198],["vulnerabl",-11.170857648101627],["noise",-11.171062037598],["modification",-11.171386965913602],["Zero",-11.171963288809215],["1895",-11.172652809119507],["Gay",-11.172848111390124],["forecast",-11.173743139620939],["Neil",-11.174448157214925],["warrior",-11.174544104054643],["Cyrus",-11.175081674491189],["Herald",-11.175088706948046],["Security",-11.175233292814557],["Tre",-11.175641955659772],["Dallas",-11.175671359018828],["tory",-11.175744495346388],["electro",-11.175932831709884],["Apollo",-11.176116641133945],["elite",-11.176644006825907],["Austin",-11.176665488115471],["lung",-11.176817462315558],["Lost",-11.177536792173488],["founding",-11.177630973768073],["powder",-11.177714239352404],["Together",-11.177714635572674],["drafte",-11.17837462286133],["fisher",-11.17879372144381],["calculate",-11.178902999714701],["follower",-11.179019778646719],["Collection",-11.179311108401727],["Laborator",-11.179339482989574],["hunt",-11.179488638149405],["RNA",-11.179605592712171],["absent",-11.179641535999808],["champions",-11.179644202793964],["participation",-11.179838585515188],["bombardment",-11.17989676390033],["MC",-11.179908719831772],["censor",-11.179925046059886],["pink",-11.180235445764769],["resident",-11.18027329958279],["Nova",-11.180368036776057],["Hunter",-11.18043086287649],["FC",-11.180885386736637],["Amendment",-11.181425950031235],["administer",-11.181600980386035],["Pra",-11.181685248539276],["Com",-11.181928544617028],["Room",-11.18271396887204],["Woman",-11.182960845591687],["Child",-11.183680572346432],["Jun",-11.18382636766228],["activate",-11.183864016743872],["Musical",-11.18408792031578],["finger",-11.184109134268986],["stroke",-11.184180442007452],["jobs",-11.184254176287332],["Gre",-11.184639258535647],["remote",-11.184777248845048],["ple",-11.18501605102462],["girlfriend",-11.185165825498206],["mono",-11.185232748294213],["span",-11.185475001280796],["FBI",-11.185739714968133],["Hills",-11.186084106938265],["Pine",-11.186216887888651],["users",-11.18623280001436],["imprison",-11.187291865923875],["Chelse",-11.187294177653976],["clothes",-11.18738842579481],["significance",-11.187443429970358],["CBS",-11.187772955873388],["brilliant",-11.187820708122501],["aria",-11.188291470939738],["Danish",-11.18835944216529],["onward",-11.188616028383024],["trappe",-11.188891782547774],["marche",-11.18899260129338],["Stock",-11.189585106729313],["gift",-11.189710506774917],["Parsons",-11.189837863016308],["aux",-11.189895950067235],["Gill",-11.190003485789344],["grandfather",-11.190295336322478],["usage",-11.190574961829201],["disband",-11.190766756668339],["uri",-11.190944219237636],["salary",-11.191052392539163],["Allie",-11.19144445504855],["Greater",-11.191509297605219],["Armstrong",-11.191681914074573],["chest",-11.191699107959353],["Horn",-11.1918508945637],["traveling",-11.19247669335094],["tender",-11.19276440902021],["Half",-11.192789950200677],["mixture",-11.193182999192931],["Quebec",-11.19318576078018],["expectation",-11.193308384489194],["Orlean",-11.19372057407223],["wrestler",-11.193924554379619],["mytholog",-11.194794715203084],["bor",-11.194915109409436],["Fisher",-11.194998252633518],["Fund",-11.195312816737003],["dinosaur",-11.195334468549486],["Cathedral",-11.195336462162366],["HD",-11.19592640765607],["terminal",-11.196185452463652],["variable",-11.19633350586816],["Sri",-11.196502598566838],["bats",-11.196858044895295],["rely",-11.197271319545832],["suffer",-11.19730801994353],["Cultural",-11.198572240127024],["recurring",-11.198587270945815],["essay",-11.199256715792703],["benea",-11.199574255787425],["Spider",-11.199653560233827],["Authorit",-11.199658087187334],["respond",-11.199722574168629],["diverse",-11.199829769105971],["Pal",-11.200090663697818],["Past",-11.200168446541372],["Fourth",-11.200634020811236],["Buffalo",-11.201308437081856],["115",-11.202008285272289],["Name",-11.202601824529921],["advertisement",-11.202947803663506],["Sho",-11.20295535615408],["aunt",-11.203139707671072],["mood",-11.203153933183057],["Pam",-11.20321437198315],["Salt",-11.203509575242208],["Guitar",-11.203975396477365],["destination",-11.204013040612647],["FIF",-11.204370568138987],["killer",-11.204767743561995],["beating",-11.204948492532981],["organic",-11.205005418376548],["Magic",-11.205272620240903],["revival",-11.20559843963802],["coordinate",-11.205945758429014],["commanding",-11.206040527668444],["grid",-11.20659571793955],["corporate",-11.206622208270288],["ere",-11.206625915208008],["trough",-11.206695305776321],["owing",-11.207239160577519],["Tyler",-11.207254607060289],["Var",-11.20733967261787],["None",-11.207707480359485],["precise",-11.207799986214617],["oriente",-11.207818888044603],["Rap",-11.207839132497277],["sailor",-11.208021724852891],["variation",-11.208056744590731],["joke",-11.208518212168105],["Spirit",-11.208652592092584],["Agency",-11.208659137547405],["sick",-11.208877384440132],["circular",-11.208891147478592],["Utah",-11.209023950262809],["Clarke",-11.209087621557966],["molecule",-11.209983817692933],["fortress",-11.210632448546686],["Stuart",-11.21111230138481],["unexpected",-11.211198481347608],["cathedral",-11.211625030739125],["Harold",-11.211648030642198],["nice",-11.212499819525455],["Marc",-11.212773406642729],["avi",-11.21287798396826],["saving",-11.21325493410067],["Charlotte",-11.213270121875144],["installation",-11.213319776715132],["Constantine",-11.213379373230422],["velocit",-11.213996386345116],["acre",-11.214117033605891],["Regional",-11.214451592366512],["Cricket",-11.214830160411179],["Serbian",-11.215026437952737],["transportation",-11.215669858702864],["beaten",-11.215929192818237],["Isle",-11.216504447590328],["Muhammad",-11.216564523137505],["descendant",-11.216668734630026],["appreciate",-11.216796020684782],["Disc",-11.217076388908009],["biological",-11.217100578833683],["gear",-11.217107119453722],["Athen",-11.21724453912384],["Associate",-11.217665538504647],["Richmond",-11.217666585179318],["Evil",-11.218026089289845],["isotope",-11.218137186895419],["kilometer",-11.218217216668526],["1889",-11.218440393512816],["atus",-11.218656724757965],["upset",-11.218714354706545],["Metropolitan",-11.218767770455045],["realise",-11.219547359577586],["dissolve",-11.219678150998229],["charte",-11.21981991223059],["discharge",-11.220048368746738],["airing",-11.220059805449111],["Sonic",-11.22136248882882],["prince",-11.221385174371619],["diplomatic",-11.221546930777716],["rowned",-11.221846299235736],["1894",-11.2220054395694],["Rod",-11.222031259056866],["Hans",-11.222037204758074],["substance",-11.222159885335643],["109",-11.22246033817448],["sailing",-11.222665468074661],["Tang",-11.223088084263187],["iva",-11.223154528316353],["scope",-11.223513109400766],["dive",-11.223741537631902],["impressive",-11.223779491568099],["requir",-11.224058522118678],["rains",-11.224644257153585],["oxide",-11.22527245798057],["Bible",-11.225469185545123],["agricultur",-11.22550199167198],["1000",-11.225897047903558],["Scientology",-11.225962045916393],["Executive",-11.2259620460392],["scholarship",-11.226168594779926],["screenplay",-11.226201221423269],["empty",-11.226518638885661],["Mason",-11.227449149513367],["accord",-11.227670065562256],["1891",-11.228201135408266],["Freedom",-11.229307621329788],["competitor",-11.229857504082894],["millimeter",-11.229858522294656],["mac",-11.22993443112866],["clan",-11.22995356278889],["neutral",-11.230001182641217],["captur",-11.230329481142645],["heritage",-11.230337629431208],["gle",-11.230772889270431],["240",-11.230828752772208],["YouTube",-11.230993361686256],["Der",-11.231007096630831],["Pictures",-11.231241383616565],["Books",-11.23139322707992],["dependent",-11.231405635100689],["ransportation",-11.231491213955092],["Bulgarian",-11.231598692791232],["outcome",-11.232001586595523],["Grade",-11.232203155798178],["Yu",-11.232274726963016],["Control",-11.23249247671969],["inger",-11.232901290933457],["romance",-11.233234901326327],["lip",-11.233298309531321],["implemente",-11.233381125816031],["continent",-11.233551151476794],["recruite",-11.233669779441543],["prices",-11.234128261662594],["Christianit",-11.234358370916548],["para",-11.234477143941103],["bypass",-11.235110808299833],["permit",-11.235791567507],["Pete",-11.235998569441271],["venture",-11.23603700243939],["seventeen",-11.236574484925203],["Charts",-11.23659627047197],["Count",-11.236836927452748],["telephone",-11.2371379168016],["Kyle",-11.237147964787688],["confusion",-11.237195875485227],["bowler",-11.237206968085326],["golden",-11.23722083668636],["Baron",-11.237285769077157],["unle",-11.237509607739835],["Chapel",-11.237638563620923],["Advance",-11.237784054542852],["bishop",-11.237789817800863],["hurt",-11.237976719285921],["1892",-11.23826793370364],["assert",-11.238850246912904],["Want",-11.2388790218973],["evident",-11.239381328557972],["Cardif",-11.239398225546298],["switch",-11.239535098819367],["happen",-11.239638045020119],["rapper",-11.239725037148993],["Newton",-11.239777881375357],["municipalit",-11.239871905078841],["advanc",-11.239939007504436],["categorie",-11.2399443828347],["barrier",-11.240005820865235],["goods",-11.240106047290416],["fold",-11.240222780086047],["Shiva",-11.240278538366788],["Typhoon",-11.240507756481772],["Register",-11.240530979314126],["mast",-11.240739379488796],["dwarf",-11.240777579125446],["Walt",-11.240879536078623],["cemeter",-11.24115029932155],["Kal",-11.241169915430515],["bulk",-11.241418184709758],["complaine",-11.241525430965996],["scenario",-11.241635470191515],["measurement",-11.242064637835076],["mineral",-11.242285914497135],["southeastern",-11.24269270312237],["timber",-11.242767810133735],["relation",-11.242879366889927],["1800",-11.243003428221822],["Conservation",-11.243332832513198],["Kill",-11.243378940328828],["gods",-11.243506792292806],["pregnan",-11.243750526455475],["Rhodes",-11.2437705079032],["realistic",-11.243886456582018],["admit",-11.244313846524658],["easie",-11.244704033831999],["Territor",-11.244769663437712],["Ruth",-11.24494900522162],["extinct",-11.244991815716153],["poster",-11.245014323187966],["mask",-11.245219938477566],["Sox",-11.24548912433505],["urged",-11.245616206075372],["theorie",-11.245653810954396],["devoted",-11.245924513552193],["logo",-11.246171495276645],["holes",-11.246217177547184],["refugee",-11.246335087083285],["elli",-11.246429035277089],["Orchestra",-11.246726055010242],["illustration",-11.24732191743931],["stuff",-11.247573036465726],["Justin",-11.247823526560808],["infrastructure",-11.2479198405557],["crews",-11.247955016140722],["witness",-11.248197725831982],["Islamic",-11.248450970622285],["constitute",-11.24895193442962],["dimension",-11.248970170309697],["Until",-11.248997279965117],["Cavalry",-11.249565279682855],["Ground",-11.24993975764772],["Wisconsin",-11.250134126379802],["Code",-11.25038542660518],["user",-11.250507772977318],["104",-11.25087364584827],["rent",-11.250934217794175],["Mil",-11.25101574690145],["Oscar",-11.251107315354268],["Rat",-11.251358663524707],["commemorate",-11.251374422289178],["eligible",-11.25184253364031],["lifetime",-11.252001349978299],["ante",-11.252035525913666],["ordinar",-11.252403009658078],["literal",-11.252632902559018],["Fish",-11.252702181266317],["Nar",-11.252766490643808],["Nature",-11.252893580048415],["Actress",-11.252984786312055],["Reich",-11.253293842898],["Ker",-11.253465563618796],["paint",-11.253519559845813],["lava",-11.254036989738637],["⁄",-11.254696416368395],["resort",-11.254732121944958],["Without",-11.254963442014084],["Sport",-11.255525620139874],["knocke",-11.255707446926865],["Airlines",-11.255825941726329],["Jerusalem",-11.255840254112949],["Boeing",-11.256008760984189],["scandal",-11.256319171416033],["kills",-11.256382020478945],["₹",-11.256412663882443],["peninsula",-11.25641282008374],["angular",-11.25652183489846],["Rad",-11.25686641689905],["101",-11.25709195264384],["lasting",-11.257432234954331],["switche",-11.257523080756968],["Pierre",-11.257621265642356],["strange",-11.257739484562475],["rejoin",-11.257773097701195],["stretche",-11.257880218491966],["trio",-11.257932384885404],["Flag",-11.258101708117264],["commit",-11.258107712852631],["Panzer",-11.258169152824035],["Father",-11.258625270315457],["Bur",-11.258926877736375],["cash",-11.259141986023348],["Montgomery",-11.25927963827138],["450",-11.259790578997194],["pupil",-11.260393770354082],["census",-11.260433061599691],["Draft",-11.260628665018132],["nix",-11.260696424575922],["handling",-11.260920202008773],["flows",-11.260936569044368],["oppos",-11.261075973723095],["Stevens",-11.261335810593065],["hosts",-11.26181585845093],["rider",-11.262250574804117],["Branch",-11.262587562092033],["Kid",-11.263156447896336],["burst",-11.263179665154055],["Barnes",-11.26322574058688],["Cemeter",-11.26335015492602],["inducte",-11.263465193218325],["Donald",-11.26380526042373],["mbar",-11.263841998379025],["proceeding",-11.263889576008104],["Fight",-11.264112830854419],["naming",-11.264836555987905],["retail",-11.265294490328577],["Legend",-11.265573537861343],["ock",-11.26560385370161],["Scots",-11.266358565578482],["cards",-11.266435726320246],["Edwards",-11.26680939557447],["Leader",-11.266840868038912],["Hop",-11.266985445495763],["alert",-11.26699235772471],["Bon",-11.267343857834243],["possess",-11.26749182449381],["ake",-11.26789315965043],["cylinder",-11.268509600573497],["Support",-11.269084573853444],["Century",-11.269089317470634],["assessment",-11.269129308651642],["Saturn",-11.269458507173685],["onic",-11.269614034720927],["dinner",-11.2696600674289],["Grove",-11.269780420676929],["Rama",-11.270019395609149],["epic",-11.270232377883246],["Attorney",-11.270249724923573],["hostile",-11.270368137709314],["Turkey",-11.270371281100964],["Sherman",-11.27042676032662],["travell",-11.270658573798631],["Brooks",-11.270860496981982],["mud",-11.270860683569676],["scrap",-11.270894541047998],["MacArthur",-11.270970381347475],["gue",-11.271011686133475],["preced",-11.27101865546712],["Again",-11.271115694441832],["directors",-11.271254008244208],["Gra",-11.27185323559251],["grain",-11.271944628561522],["Kur",-11.271989217350274],["Baltic",-11.271995236798208],["manufacturer",-11.27203327955587],["1888",-11.27206407761269],["volcanic",-11.27214991039805],["crop",-11.272348741966631],["interact",-11.272811066347238],["root",-11.27282122245191],["speculation",-11.273160634107136],["lesson",-11.273475478409793],["ER",-11.273604758045373],["fortune",-11.273666575341084],["fatal",-11.273849080109093],["bitter",-11.273862616095823],["Czech",-11.274321892833683],["counterpart",-11.274533927898025],["Las",-11.274719012194625],["Ivan",-11.27552414939837],["GameSp",-11.276102662447304],["enforce",-11.276374347708725],["Warrior",-11.276656617150131],["rushing",-11.277194186523197],["Resident",-11.277240823318305],["keeper",-11.277270831487405],["Pink",-11.277401461699265],["priorit",-11.277487173974254],["autobiograph",-11.277552856446635],["belong",-11.277603452046627],["documente",-11.277631321973166],["amendment",-11.277850267000897],["Gro",-11.278002727425255],["tough",-11.27822900682893],["Wells",-11.278284217749064],["magnetic",-11.27849775466321],["Stand",-11.278756695599471],["aga",-11.278799539462605],["manufactur",-11.278980675489658],["galax",-11.279046856352586],["surge",-11.279508745211103],["rendere",-11.279827111577571],["thrown",-11.27993801727129],["batte",-11.280349406079601],["observer",-11.280628886493556],["utstanding",-11.280654127689207],["Reagan",-11.281342271992285],["Burns",-11.281464448631647],["spare",-11.281507540075939],["highlighte",-11.281609681070575],["Mind",-11.282068433546801],["Action",-11.282741593119365],["Ring",-11.28342215646915],["harsh",-11.283504013182085],["pu",-11.283877679945427],["promot",-11.284165450253663],["Nation",-11.284371514236952],["Writer",-11.284871597819773],["hell",-11.284900761138076],["anagement",-11.284912975022497],["elect",-11.28492032883767],["lighter",-11.285421191525385],["distinction",-11.28557276540551],["arena",-11.285829311176867],["Para",-11.285851415370619],["Falls",-11.286034183190736],["concurrent",-11.28619039495848],["Thames",-11.286332965900549],["separation",-11.286645474665068],["Glee",-11.286822721128111],["Tribune",-11.28722906871494],["Romney",-11.287229948011426],["Article",-11.287234750506833],["Shah",-11.288357930161297],["suspension",-11.28900446902674],["intent",-11.289146874713918],["Lin",-11.28923478324949],["loved",-11.289282365165132],["metre",-11.289290454876728],["Miles",-11.28955411699941],["texts",-11.290032393465832],["doctrine",-11.290185890667098],["hence",-11.290428573979575],["leaf",-11.290465389494722],["mont",-11.290726952955186],["Organization",-11.290799623395923],["disagree",-11.290851780702955],["companion",-11.291451532403896],["ERA",-11.291641319244977],["rocket",-11.291726073163552],["distinguish",-11.29194383823653],["transform",-11.292043383477921],["custom",-11.292219171754375],["suspected",-11.292472502165115],["rumor",-11.292520587960226],["1865",-11.292529024087248],["Barbara",-11.293656501216802],["DJ",-11.293895068153493],["chu",-11.294021246138623],["Greate",-11.294322777296042],["Comedy",-11.294630736390939],["homosexual",-11.294953134523734],["Springs",-11.29505935001669],["smith",-11.295105762707733],["bull",-11.295142396285499],["hopping",-11.295254571687689],["graph",-11.29538030511565],["NATO",-11.29556738789708],["Shadow",-11.296149010874505],["Against",-11.296324610376486],["belonging",-11.296750704344577],["myster",-11.297289392252123],["Duch",-11.297407349474655],["Nancy",-11.297483160693304],["978",-11.297903900878815],["Fer",-11.29818983931045],["Animal",-11.298513060970267],["renewe",-11.298572478674743],["Constantinop",-11.298883321765484],["complicated",-11.29975850559315],["vital",-11.300107329931723],["shortage",-11.301056523609207],["cattle",-11.30150238949229],["Cyclone",-11.301525252635129],["steep",-11.302066088021057],["Thor",-11.30316948652099],["miss",-11.303216665955464],["alive",-11.303376220043011],["Swan",-11.303427480676557],["physician",-11.303457708495667],["diamond",-11.303488741432023],["Portugal",-11.3039012001283],["Ernest",-11.304501751275147],["transit",-11.304540415389674],["blockade",-11.304543545986206],["bears",-11.304728795651888],["Gene",-11.304766608911253],["absorbe",-11.305493012226078],["definite",-11.305592567399959],["Reed",-11.306065797823749],["rape",-11.307900000296563],["OS",-11.307977819332557],["chen",-11.308184229337487],["ography",-11.308216948355614],["transmission",-11.308273667102192],["noble",-11.308689437146235],["pleasure",-11.30873238383944],["sinking",-11.308775543782893],["concerning",-11.309003628221738],["pose",-11.30913530536738],["painter",-11.309222625622276],["Kam",-11.309568060730982],["cite",-11.309653359778164],["Continental",-11.309934640288056],["Eye",-11.309996437566056],["Newcastle",-11.310116928858486],["Scar",-11.310256302062594],["whale",-11.310699788289098],["Rogers",-11.310811345420351],["disable",-11.311016730869557],["Future",-11.311133980461811],["VIII",-11.311162726689437],["NC",-11.31132887943781],["trap",-11.31140475923479],["Ser",-11.311512022201935],["Drake",-11.312132003484566],["Cro",-11.312378517471405],["choir",-11.31245185072462],["roller",-11.313011217285744],["corps",-11.31335417392155],["Bright",-11.313416567414237],["ersonnel",-11.313672952253201],["ologist",-11.313852956851653],["Heavyweight",-11.314205917167829],["mates",-11.31433886290997],["José",-11.314770445510316],["Joint",-11.315715521826544],["taxe",-11.315790346090292],["overlook",-11.315931501280438],["millimetre",-11.315996741699514],["massacre",-11.316435641472143],["demographic",-11.316646191893224],["Adventure",-11.316973907565703],["Liberty",-11.317277102935893],["dreadnought",-11.317807242834842],["Tur",-11.318219205391138],["dispatche",-11.318307807160474],["NL",-11.318519902432872],["PR",-11.318781031944312],["depart",-11.318786152212096],["infant",-11.318851845107808],["Ancient",-11.319025374237377],["Eight",-11.319346108246933],["Marshal",-11.319347733349954],["boyfriend",-11.319532287610631],["sham",-11.319577733009623],["goddess",-11.319635218657314],["Cornwall",-11.31967534099665],["Standard",-11.319681215682778],["Robin",-11.31979157073949],["ceiling",-11.320245561731326],["1864",-11.320733555132325],["Tournament",-11.320856600499445],["shipment",-11.320941149229961],["Low",-11.321013471976674],["random",-11.32103499839697],["masse",-11.321096234820583],["Commissioner",-11.321270801037954],["Sex",-11.321281906448457],["Make",-11.321386359653651],["horizontal",-11.322137400756855],["Cena",-11.322537679423643],["fusion",-11.322617594659798],["ambassador",-11.322689505705409],["Howe",-11.322798930533892],["genuine",-11.323504430399167],["por",-11.323629883510385],["Archbishop",-11.323644856675038],["conspirac",-11.323834458098148],["consumption",-11.32391387184655],["batterie",-11.324307562534633],["Isaac",-11.325221027251645],["flesh",-11.325232799930964],["limb",-11.325478955490127],["judicial",-11.325753230499242],["rifle",-11.325762369195232],["colored",-11.32621642673415],["indigenous",-11.326678475241366],["ule",-11.326727506239715],["exhaust",-11.32678270679154],["pictures",-11.327010049744583],["Career",-11.327046912882865],["juvenile",-11.327595981837483],["reunite",-11.328116653286289],["Energy",-11.32821098683332],["flash",-11.328630018351246],["Leicester",-11.32944215433104],["therap",-11.32978175087294],["Monte",-11.329947510864898],["ballot",-11.330155238474632],["remake",-11.330173568278589],["Capital",-11.330229087342822],["Serb",-11.3303319707362],["parliamentar",-11.330455859757068],["Kenneth",-11.330496304777],["uni",-11.330567901150019],["Plant",-11.330633228493015],["industrie",-11.330684019668908],["deputy",-11.330715810829265],["asserted",-11.330744462316364],["Boulevard",-11.331291707642034],["Malcolm",-11.331291778625282],["remarkabl",-11.331389857367135],["morph",-11.331612897070357],["territorial",-11.331658908959458],["cook",-11.331995821701664],["cre",-11.332214057477229],["111",-11.332362906211996],["Conservative",-11.332390112825728],["sensitive",-11.332526653636338],["ashore",-11.332862115939262],["lium",-11.332956032707834],["columns",-11.333376214272644],["Pedro",-11.333765987522359],["Meteorological",-11.333768923032045],["Lower",-11.334223428240271],["resignation",-11.334471463624574],["relat",-11.33465051796458],["Joan",-11.33474311934048],["Chamberlain",-11.335002147344348],["referee",-11.335060967001342],["utilize",-11.335160079090503],["Minor",-11.335677377865743],["excess",-11.336041313519889],["terminate",-11.336106839404543],["nephew",-11.33624074344427],["doors",-11.33648291467772],["ferry",-11.336500046787437],["premise",-11.336861544128318],["width",-11.33690044448751],["Carol",-11.336950070379192],["cry",-11.337002745444966],["vocalist",-11.337022733469269],["murdered",-11.337260203144652],["mixing",-11.337377142545673],["afford",-11.33742411890089],["Yugoslavia",-11.33784580836074],["Strait",-11.338488209807522],["punishment",-11.338757665197296],["Machine",-11.338874348964069],["DOT",-11.339308282300955],["Dublin",-11.340161761587616],["Serbia",-11.34085104709916],["Fat",-11.341255096191361],["shadow",-11.341418271682741],["Lou",-11.341424101933548],["bert",-11.341524235104746],["fluid",-11.341530754955912],["Origin",-11.341775392346676],["Anton",-11.341785207381104],["Where",-11.341884291132079],["Ven",-11.341893914279332],["loade",-11.342052054190697],["Turn",-11.342448796356248],["Electronic",-11.34246673959885],["Round",-11.342549719058404],["hunter",-11.343245576707725],["Was",-11.343344602710236],["introduc",-11.343404818849624],["routing",-11.343470688256417],["collision",-11.343710368375355],["lik",-11.34397302877111],["gotte",-11.344000443118777],["ă",-11.344050871143475],["aku",-11.344061096686769],["debri",-11.344240940511614],["ngry",-11.344365335428567],["Crystal",-11.344527785182361],["corresponding",-11.344583691531753],["screening",-11.344991202123431],["Julian",-11.34524555816149],["Years",-11.345358009192234],["Pet",-11.345491111458887],["varie",-11.34624405859816],["Rush",-11.34635587533948],["petition",-11.346424005670517],["Gor",-11.346430492901131],["Michel",-11.346687619124346],["carve",-11.346816186822952],["Number",-11.346895862135664],["movies",-11.347005179890798],["Publish",-11.347380861168254],["hills",-11.347576014934898],["revolutionar",-11.347606728757373],["Eddie",-11.348100142558906],["facult",-11.348102352930537],["remov",-11.348476679383623],["prayer",-11.348537019534021],["Friends",-11.348581695608278],["threatening",-11.348727693153009],["dropping",-11.348728836140012],["Kaiser",-11.348735704368423],["sville",-11.348741828268288],["roster",-11.348781070585233],["Bradley",-11.348807087467979],["disappointed",-11.3488760588137],["Pac",-11.349292483549934],["pounder",-11.34933765500093],["Dennis",-11.35025257907914],["nurse",-11.350497926285593],["jar",-11.350514311552313],["kilogram",-11.350607243033457],["Youth",-11.351025212857834],["immun",-11.351440410531318],["zero",-11.352288995839082],["worthy",-11.35277872429273],["Angle",-11.353107789587149],["corridor",-11.35312663164272],["stones",-11.353347453261165],["vicinit",-11.353519037185261],["releas",-11.353617668513445],["Romanian",-11.353743433403125],["Political",-11.354388884140713],["sentiment",-11.354414147796977],["Burke",-11.355000943119315],["Dakota",-11.35502061220574],["calm",-11.355655784532855],["thunderstorm",-11.355663076332018],["undergo",-11.3561960216255],["Jake",-11.356639827257807],["Services",-11.35686312649298],["Brad",-11.357182407221131],["Bed",-11.357217771630292],["Devil",-11.357419882001077],["arker",-11.357483513889067],["skill",-11.357731658745987],["prop",-11.357777373936761],["igan",-11.357838093983883],["Springfield",-11.358003373174878],["sustain",-11.358387414756134],["Morning",-11.358791224433714],["Alliance",-11.3588326091595],["stops",-11.358901154222483],["Tommy",-11.35895291080515],["loyal",-11.359121059971795],["Historian",-11.359222281482497],["corporation",-11.359275489582547],["inaugural",-11.359453764438467],["Stage",-11.359474155591226],["honest",-11.359915399421247],["gathering",-11.36047296040025],["220",-11.361057795370751],["Range",-11.361231349120462],["Filming",-11.361250199261455],["jaw",-11.361630966781107],["sheep",-11.361701238262697],["Chuck",-11.362395369891534],["Wagner",-11.36263244588891],["convicte",-11.36277011310236],["consumer",-11.362924207349343],["reconstruction",-11.363272745726295],["Curtis",-11.363447956263958],["Zu",-11.363872386727603],["Stra",-11.364052838978088],["Studies",-11.364165461895873],["Sean",-11.364233221506193],["Gibraltar",-11.36454445233913],["mansion",-11.364622137971224],["Break",-11.364774531089633],["milk",-11.365013397401686],["Blake",-11.365147486842577],["congregation",-11.365182614432157],["mysterious",-11.365200423907059],["rotation",-11.36628824595326],["Montana",-11.366483883864252],["rier",-11.367018961434216],["rounded",-11.36752836262415],["Large",-11.36753545958435],["Arena",-11.367537118931683],["Brand",-11.367631753871086],["silent",-11.367642428013411],["isle",-11.36773320532862],["Cincinnati",-11.367739343115243],["Hull",-11.367849020532066],["Malta",-11.36821662865523],["exterior",-11.36837954937695],["spider",-11.368380708763159],["jam",-11.368467646873277],["barrel",-11.368517749686013],["wonder",-11.368548520286431],["Rear",-11.368601766816013],["Friedrich",-11.369039048392358],["gunner",-11.369243305579964],["én",-11.369828765203028],["improv",-11.370528029817049],["Hood",-11.370649853346865],["touche",-11.370662895935942],["arned",-11.371288157177402],["1840",-11.371410728215965],["torture",-11.371924377877178],["itz",-11.372266850005378],["Canuck",-11.373570392000119],["brook",-11.37392880980056],["labour",-11.374004021671439],["adapt",-11.374566063596763],["dual",-11.3746115436103],["mutual",-11.374806801396273],["Luc",-11.37494428026503],["meal",-11.374990876936732],["Character",-11.37542881829988],["Kra",-11.375790714933546],["Kan",-11.37630115142894],["rag",-11.376555260465015],["skeleton",-11.376715146261446],["Bla",-11.376831999156494],["Than",-11.377204640438327],["Electric",-11.37735246864769],["Dec",-11.37771959986619],["Watch",-11.377852744097186],["spite",-11.378362152493171],["cker",-11.378899426166553],["Normandy",-11.378955258105705],["ivity",-11.378958520338628],["variations",-11.379062284815337],["outline",-11.379141329291166],["Shield",-11.379334730497488],["Olivia",-11.379389099633961],["Ter",-11.379767245228958],["stunt",-11.37982922011174],["enthusiastic",-11.380039603326523],["patent",-11.380141624060705],["occurr",-11.380197389868076],["Maine",-11.380205132124793],["unite",-11.380319033502369],["domain",-11.38041820711863],["knight",-11.38053927920164],["genera",-11.38068310445368],["centered",-11.380770434773442],["175",-11.380808661498222],["armoure",-11.380897492289533],["swept",-11.381199756079031],["Tree",-11.38213023192408],["1887",-11.382231633582077],["nquiry",-11.38235780011236],["Afghanistan",-11.382570667252093],["tools",-11.382827929413809],["rode",-11.383024065451066],["installment",-11.38326485662633],["vic",-11.383282201120483],["Josh",-11.383291043032195],["Yugoslav",-11.384137900365307],["Twitter",-11.384519415073285],["Madison",-11.38452206801506],["lat",-11.38495071186266],["populate",-11.385173721394256],["Circle",-11.385189699010398],["invent",-11.385374009996262],["exploit",-11.385385721447886],["Any",-11.385477127043895],["102",-11.38556470241275],["outdoor",-11.385636464687593],["Edmund",-11.385832263804636],["Bears",-11.385964751540861],["fatalit",-11.386101038309267],["filmmaker",-11.38648480224936],["psychological",-11.386490534728706],["linear",-11.386984668054637],["stance",-11.387232628471551],["Lion",-11.387234580352144],["ives",-11.387577903628133],["printing",-11.387590764533504],["gauge",-11.388478648714658],["Revolutionar",-11.388517592343979],["Herbert",-11.388557232854208],["Eli",-11.388713862377939],["1863",-11.389080353385467],["Orton",-11.389092541526772],["varying",-11.389187339471052],["reject",-11.38932614871679],["Leon",-11.389754349218396],["grosse",-11.38988207418116],["Planet",-11.390747526562683],["Former",-11.390868471349842],["remixe",-11.391275819984838],["exclude",-11.391524789999604],["Technology",-11.39169054921912],["chumacher",-11.39170888129599],["Milan",-11.391806026904298],["Deput",-11.391816243604968],["Alexandr",-11.391884581285009],["relieved",-11.39216165613787],["Kor",-11.39216514161382],["ological",-11.392300904008035],["Brooklyn",-11.392435846593344],["Gregory",-11.39267136773545],["stabilit",-11.393108930154396],["Kil",-11.393865132558155],["Eagle",-11.39407840434469],["Bab",-11.394474561726351],["Vegas",-11.394641882398371],["JNA",-11.394774404887931],["fungus",-11.394993679670872],["parks",-11.395167074844403],["Factor",-11.395377888409119],["spell",-11.395748422289962],["Brook",-11.396122617949542],["Mercury",-11.396303770515567],["Bear",-11.39632478974507],["viewing",-11.396726891962953],["Auto",-11.396741970215757],["Rich",-11.39715508420592],["Scout",-11.39731257867895],["deployment",-11.397396460232198],["exploration",-11.397679013398925],["Leeds",-11.397704735391729],["Alberta",-11.3977951437928],["coincide",-11.398098064825346],["peer",-11.398604051411098],["assassination",-11.398992913425168],["sharks",-11.39925239617526],["Urban",-11.399365233332936],["rac",-11.399422122332847],["Solar",-11.399990399604583],["McKinley",-11.400262914507021],["decoration",-11.400285643383388],["Princeton",-11.400286987408172],["Hearts",-11.400455661924255],["nationalist",-11.400816731300152],["participat",-11.400816883476509],["teenager",-11.400862760977887],["harbor",-11.400926251329153],["assignment",-11.401339554727677],["markets",-11.401408392891035],["Inside",-11.401462429211577],["intermediate",-11.401602500728524],["intelligent",-11.402910668137899],["Hubbard",-11.402911143691224],["Sultan",-11.403559129133637],["Ellen",-11.403964789471118],["twentie",-11.40403181492163],["induce",-11.404090510844004],["Mann",-11.404187435802982],["ramp",-11.404788707868164],["Note",-11.405191485345888],["MLB",-11.40537671210947],["measur",-11.405408745885211],["Phillie",-11.4055992057187],["bombard",-11.405614746253459],["laying",-11.405864211164005],["Holland",-11.405996763211812],["Brien",-11.406702769877425],["Kir",-11.406775856366124],["ome",-11.406820332951138],["challenging",-11.406896056956114],["diagnose",-11.406896057685739],["enormous",-11.40689702187924],["NASA",-11.406908277861726],["Ghost",-11.407158778145906],["disappeare",-11.40746537854294],["α",-11.407741190878639],["dying",-11.408310517842708],["1884",-11.408343840246307],["worse",-11.408898531215463],["acquisition",-11.409561836478264],["insurance",-11.409561918115816],["Glasgo",-11.40956314782607],["Mix",-11.409783936818778],["Computer",-11.410244579585747],["tool",-11.410460160552105],["Belle",-11.410797272944336],["rush",-11.41081111527295],["cus",-11.410831603733964],["declaration",-11.410987849101515],["gravit",-11.41120241518221],["Titan",-11.411579216737803],["Gang",-11.412102413505458],["martial",-11.41223844350144],["cclaimed",-11.412946292725593],["accumulate",-11.4132776171379],["fitting",-11.413445614556913],["ə",-11.413445882605345],["Comics",-11.413506336199472],["uka",-11.413600316594874],["sharing",-11.414272857793048],["cotton",-11.414348287477331],["Tunes",-11.414584107459197],["ail",-11.414620912270816],["Total",-11.414690284775883],["Raj",-11.414720512923726],["monster",-11.414756861377542],["Theater",-11.414917073286762],["coastline",-11.414921184792295],["excessive",-11.414978658877864],["Alpha",-11.415954014179722],["realis",-11.416256204049287],["complement",-11.416565170740903],["allegation",-11.417602258679239],["punt",-11.41805167009046],["sending",-11.419030258928085],["Iran",-11.419051466252519],["steppe",-11.419311648561505],["Kot",-11.419613514713674],["violation",-11.419628586051829],["Buddhist",-11.419651685656024],["outlet",-11.419715842589465],["extract",-11.419915745140738],["uprising",-11.419991308733106],["750",-11.420126354352682],["currenc",-11.420228614387579],["Fifth",-11.420297470610034],["BCE",-11.420373328905548],["lian",-11.42046151568551],["accelerate",-11.420483962870676],["contacte",-11.420872676076396],["boom",-11.42097177565827],["ided",-11.420981110130523],["Tintin",-11.421012067824861],["flame",-11.421018288436944],["explode",-11.421146020346274],["accomplishe",-11.421268126195237],["inform",-11.421381394441187],["Ottawa",-11.42165328320442],["confused",-11.422511090943132],["Dur",-11.4225528675419],["ough",-11.422642560159643],["Non",-11.424014047722538],["outstanding",-11.424258614274244],["Austro",-11.424352512001438],["surprising",-11.424366453346996],["Percy",-11.424381216100501],["ruly",-11.424924995863801],["Millennium",-11.425029528720597],["Lie",-11.425075093901846],["Westminster",-11.425097153364973],["arose",-11.42512106362995],["Theodore",-11.425338526970567],["diversit",-11.425486998319364],["widow",-11.425966449452087],["Strong",-11.426112361552867],["eeper",-11.426361582792254],["collector",-11.426494363660284],["vel",-11.426726512482443],["Month",-11.42677108450998],["1877",-11.427367290041623],["Kat",-11.427536678579864],["municipal",-11.427831604921277],["thanks",-11.42787456352685],["exceptional",-11.428117697725748],["CEO",-11.428663751459203],["Denver",-11.4292019879923],["Letter",-11.429680709433942],["radius",-11.429808591609],["Mercedes",-11.429877981629783],["outfit",-11.4300336153893],["Cloud",-11.430059721694258],["Gothic",-11.430158485377529],["judges",-11.43040704716125],["jersey",-11.430468323353299],["Manuel",-11.430525025587617],["Cam",-11.43075412491443],["ates",-11.430829045118244],["Ari",-11.430880778782104],["endorse",-11.430942375156455],["Current",-11.431156489872727],["1876",-11.431208052066182],["Ellis",-11.4312465088246],["myself",-11.431368894903564],["medals",-11.43137469772397],["Otto",-11.431722985426049],["hopes",-11.431795265954829],["SH",-11.431811191200394],["Islam",-11.43204846487383],["seal",-11.432470723114196],["Basketball",-11.432512556186378],["conviction",-11.43254438423857],["Nevada",-11.432612170793268],["Franco",-11.433023843956631],["Steam",-11.433848457296234],["saint",-11.43403008841103],["Les",-11.434421413407662],["motive",-11.434594015531825],["Cox",-11.434656836328445],["surpasse",-11.434680359238396],["Albany",-11.43500781480441],["prompting",-11.435274498331427],["Rosa",-11.435500950793314],["lover",-11.435689587854522],["aggregate",-11.435813346715278],["hypothesis",-11.43582773260933],["RIA",-11.435849546887473],["defendant",-11.435938484737502],["oversee",-11.43618396992585],["Crime",-11.436248564692034],["submerge",-11.436796806376003],["battlefield",-11.437008969319464],["Ronald",-11.437309036034577],["Emma",-11.437342756927702],["Ages",-11.437552471746951],["navigation",-11.437844197925847],["Gloucester",-11.437990145748742],["Bas",-11.438389229688145],["motif",-11.438681616474323],["Face",-11.439587039982687],["ghost",-11.44000513449492],["recipient",-11.440740233314308],["Barcelon",-11.440740233935372],["revenge",-11.441099029317652],["ł",-11.441643752493174],["135",-11.441847481304539],["Barr",-11.44201034036631],["ester",-11.442268658265721],["Wil",-11.442419650855324],["cock",-11.442547607648379],["laps",-11.442740325698221],["icon",-11.443100612502942],["quarters",-11.443137445858314],["kids",-11.443334633022868],["kit",-11.443516469407927],["notion",-11.443520397647385],["Bosnia",-11.44354157874595],["beer",-11.443625652954497],["integrated",-11.443742547264252],["clip",-11.443856981562861],["privilege",-11.444188515592145],["Lamb",-11.44441146464094],["Chester",-11.444781225226969],["specialist",-11.445085512105656],["Cher",-11.445194678745775],["elevated",-11.44530067626225],["emission",-11.445434122169743],["Weather",-11.44557737632505],["retreate",-11.445826759419912],["Composition",-11.445897714885508],["etic",-11.446019516219128],["angel",-11.446133197701162],["Pokémon",-11.44626320191805],["dimensional",-11.44629571675856],["arrow",-11.446336114380912],["Store",-11.446748916835194],["Economic",-11.446928577186128],["Petr",-11.447278642781903],["bacteria",-11.447738357532018],["127",-11.44814906529083],["Churchill",-11.448233561998041],["authentic",-11.448342808154392],["Foster",-11.4497603928481],["Punk",-11.449776499515007],["Char",-11.449918034115495],["moto",-11.45033937966282],["EC",-11.450525097709132],["Gates",-11.450942695330664],["abundant",-11.451120950714229],["molecular",-11.451120968930404],["allocate",-11.451269001853017],["Kit",-11.451319436313053],["Canyon",-11.451565564862662],["lesser",-11.45173883706055],["Delta",-11.451745098245485],["precede",-11.451781337733456],["1875",-11.451813975463002],["donation",-11.452320553014065],["emerg",-11.452420917085991],["lim",-11.452449575161586],["Geoffr",-11.452596456771786],["confine",-11.45271865119357],["nstructed",-11.452797390290492],["Viet",-11.453432454510772],["compar",-11.453507452318474],["cubic",-11.453581807873222],["Spin",-11.45358615897441],["waite",-11.453749609934636],["Tigers",-11.453800439612785],["Malay",-11.453931951630704],["Mari",-11.453973778620908],["Jamaica",-11.454093971906435],["Mun",-11.454195350526785],["clergy",-11.454323910119246],["steer",-11.454347884779018],["230",-11.454369251996226],["Quest",-11.454615322663859],["FM",-11.454904827255989],["Body",-11.455135133882363],["Len",-11.455145082590644],["Blair",-11.455220178903097],["vegetation",-11.455303816964054],["convey",-11.455313430762025],["troop",-11.4553210729234],["ingham",-11.455594016454693],["Qui",-11.455662873845782],["shirt",-11.455734121249645],["Train",-11.455859128093898],["Nash",-11.456803142811218],["RBI",-11.456883159170662],["finest",-11.456925701566165],["Labor",-11.45720019408822],["Raymond",-11.457405067225945],["Wei",-11.457866239096877],["Marines",-11.457933815308003],["Marsh",-11.458154784288688],["lac",-11.458698337079849],["Appeal",-11.458803333656952],["Sara",-11.458804559680395],["fected",-11.458964412575884],["offshor",-11.459040429983393],["ister",-11.459077164919815],["consciousness",-11.45923250128785],["165",-11.459583918022563],["Parkway",-11.459710768400551],["archaeological",-11.460214907655363],["instant",-11.460448876508348],["ides",-11.460484919607726],["weakness",
[...]
