{"version":"1.0","truncation":null,"padding":null,"added_tokens":[{"id":0,"special":true,"content":"[PAD]","single_word":false,"lstrip":false,"rstrip":false,"normalized":false},{"id":1,"special":true,"content":"[UNK]","single_word":false,"lstrip":false,"rstrip":false,"normalized":false},{"id":2,"special":true,"content":"[CLS]","single_word":false,"lstrip":false,"rstrip":false,"normalized":false},{"id":3,"special":true,"content":"[SEP]","single_word":false,"lstrip":false,"rstrip":false,"normalized":false}],"normalizer":{"type":"NFKC"},"pre_tokenizer":{"type":"Sequence","pretokenizers":[{"type":"Whitespace"},{"type":"BertPreTokenizer"}]},"post_processor":null,"decoder":null,"model":{"type":"Unigram","unk_id":1,"vocab":[["[PAD]",0.0],["[UNK]",0.0],["[CLS]",0.0],["[SEP]",0.0],["s",-2.9358269812683666],["the",-3.1413637956983322],[",",-3.270183186462372],["a",-3.449578793612451],[".",-3.4730918478587203],["t",-3.5126120835486585],["o",-3.5369386812038126],["d",-3.602131250346625],["of",-3.892920089625358],["and",-3.964699573406797],["@",-4.0373568919128715],["in",-4.151129631979607],["e",-4.2226095131543975],["n",-4.236144566642231],["i",-4.4193313375881615],["=",-4.520600431614385],["\"",-4.6118621994154765],["y",-4.702430214951249],["was",-4.822766427244771],["'",-4.954413001572242],["-",-5.009476401831515],["ing",-5.01367436130761],["The",-5.04168240339464],["r",-5.159310028834195],["ly",-5.2436049078968825],["for",-5.254691647963583],["that",-5.289759622411303],["with",-5.341919121186892],["by",-5.3754171559079005],[")",-5.441596566458207],["(",-5.442204745195838],["he",-5.683108978363439],["his",-5.69454881232264],["from",-5.743003539109644],["A",-5.8621458457516145],["were",-5.937753098261725],["m",-5.965817886438064],["I",-6.001205725202526],["l",-6.0037201056661935],["In",-6.109848468594276],["had",-6.119198269892399],["which",-6.191884615490766],["be",-6.196088360968224],["h",-6.2711745086705335],["f",-6.283918588355233],["u",-6.3294465457446645],["are",-6.37218844620832],["not",-6.45788112166494],["but",-6.48742247437802],["one",-6.5249120993081196],["S",-6.52802751918289],["her",-6.537842079767014],[";",-6.558730463880769],["first",-6.563414667785517],["their",-6.58441931533828],["–",-6.5873366822762645],["w",-6.605011589351292],["its",-6.606932912980486],[":",-6.61136967065077],["also",-6.619578712645092],["c",-6.663568604143711],["who",-6.680811422342979],["have",-6.7006914081276125],["g",-6.7501629398008305],["two",-6.754857018084612],["He",-6.761233108915896],["has",-6.772913054742363],["1",-6.781678071324752],["been",-6.786964640819827],["time",-6.852340713589985],["after",-6.904241789010387],["2",-6.918587544930704],["this",-6.925563857644079],["out",-6.951195590394033],["b",-6.9573702539027416],["would",-6.963200558273261],["other",-6.969541779522851],["into",-6.997453671091558],["over",-7.036442933781613],["ies",-7.048626431860665],["more",-7.053765148654783],["T",-7.0567942217954975],["k",-7.06573764359822],["all",-7.069639105243182],["up",-7.108509908542102],["p",-7.1225010414909224],["M",-7.128957726742724],["3",-7.149693832101164],["B",-7.174943278412616],["him",-7.174989037382941],["when",-7.178898146079625],["most",-7.217475200382486],["game",-7.232397841628151],["ever",-7.236963653328015],["during",-7.242806494461753],["only",-7.273543251682012],["than",-7.286839865492288],["about",-7.301590957150912],["while",-7.307819037776662],["C",-7.308159476998137],["new",-7.3104770418291665],["4",-7.315124935021048],["5",-7.3166881765631935],["between",-7.330083588611551],["film",-7.331902675735385],["On",-7.3319096896670075],["later",-7.3357562650086],["three",-7.342860057404048],["where",-7.349973959899938],["through",-7.366582408993816],["D",-7.369406624194898],["release",-7.387905353872453],["th",-7.391278510001648],["season",-7.400584749657634],["though",-7.4112796855199985],["New",-7.416128793149788],["made",-7.444777650064408],["000",-7.457158236982018],["some",-7.457170835153654],["R",-7.4646920195697515],["year",-7.47311912410809],["such",-7.486919681007839],["part",-7.489638317816663],["second",-7.497513226477148],["can",-7.5041522710393505],["before",-7.506087284646217],["number",-7.5074079678687635],["state",-7.515161932018449],["/",-7.545285528574041],["This",-7.549773607025363],["album",-7.5499852058602155],["O",-7.556214603891288],["used",-7.557288262931884],["under",-7.558358291784456],["man",-7.568257095714186],["well",-7.570606937632123],["song",-7.573100809297079],["years",-7.593815850860503],["6",-7.596017823681397],["being",-7.600970154447689],["episode",-7.601528205402774],["there",-7.605905931874464],["against",-7.618989311362265],["E",-7.62112644320602],["team",-7.6245559258074636],["H",-7.626326662328536],["P",-7.638642437702817],["U",-7.64342576541171],["includ",-7.652965798909369],["became",-7.656399639668045],["—",-7.6698779740196645],["United",-7.679060832757527],["series",-7.684633882499643],["both",-7.6886827240040105],["After",-7.688814529363338],["end",-7.696729750697992],["work",-7.705356463234963],["8",-7.715038096454659],["like",-7.715711741883686],["early",-7.718379017224745],["10",-7.733386067943936],["four",-7.743854394895612],["7",-7.745901722966845],["American",-7.753697784677502],["W",-7.756287293130844],["force",-7.77625128084887],["place",-7.783783434673536],["said",-7.787373049990309],["day",-7.790249866874589],["could",-7.795400037588948],["them",-7.79565246711603],["many",-7.796605603894738],["several",-7.801432377032832],["19",-7.814028600968111],["did",-7.815330492350364],["F",-7.8167600827146675],["known",-7.822500583506432],["N",-7.828853426489443],["15",-7.836357848054204],["how",-7.8426936735561075],["began",-7.848474698329744],["area",-7.855624461394429],["9",-7.870260304929603],["base",-7.87092435418983],["z",-7.873222210101515],["back",-7.878983080278484],["She",-7.885231425874075],["G",-7.891112444384927],["until",-7.892044229953585],["War",-7.893734493214767],["calle",-7.895282142874903],["use",-7.8963275799619765],["found",-7.904329047875642],["war",-7.911968152009646],["million",-7.918576266819155],["receive",-7.920626561089216],["high",-7.922875740838778],["final",-7.923805612101374],["L",-7.926576091234397],["group",-7.941064634603178],["men",-7.944775181911888],["18",-7.945532778750303],["British",-7.948713818685368],["large",-7.949831294837164],["long",-7.95435778522117],["12",-7.955214874090389],["0",-7.959348014052981],["$",-7.966843641464461],["along",-7.966925015972935],["people",-7.970982005912948],["music",-7.976453354913096],["player",-7.977585385647286],["original",-7.980053634078139],["side",-7.981930268377134],["May",-7.985855137868192],["any",-7.9906476706273075],["How",-7.993426858352619],["September",-7.998649287811768],["World",-8.000286380932899],["took",-8.005157518412883],["16",-8.007336933977415],["same",-8.008038814155348],["Al",-8.016911839245775],["line",-8.020575889041028],["because",-8.020695329872883],["may",-8.026480209377038],["K",-8.027413112059673],["August",-8.028587053315132],["States",-8.032687721391197],["around",-8.04288132993595],["led",-8.04375098904922],["each",-8.046991255111076],["near",-8.048285116431382],["life",-8.049526512895758],["continue",-8.055818254470045],["v",-8.058650461217438],["John",-8.05890685658773],["these",-8.05892778151251],["following",-8.06637035955246],["off",-8.068365662869288],["October",-8.087359982219494],["describe",-8.10108792595596],["way",-8.107910202227378],["km",-8.109726399833983],["able",-8.109816751721063],["main",-8.110185558518504],["single",-8.111665086407324],["five",-8.113058018339434],["show",-8.118361325692884],["century",-8.118894190961619],["US",-8.122230362724409],["city",-8.12373623360682],["what",-8.13052374673091],["world",-8.130602137758157],["J",-8.130747305677406],["down",-8.131390970346665],["]",-8.133347367303372],["20",-8.133683941387801],["[",-8.135422030598491],["11",-8.139686751104307],["June",-8.14129660915249],["ship",-8.145859537992656],["less",-8.156737743630316],["name",-8.158495233321222],["%",-8.160711589594824],["July",-8.161015637567642],["November",-8.16748818449064],["17",-8.169028670982138],["since",-8.173532508747794],["form",-8.176127500178087],["will",-8.180846481505851],["March",-8.184024942635967],["April",-8.186337605527678],["York",-8.191864053082176],["own",-8.195967887090097],["due",-8.207833739491823],["North",-8.214710006643095],["um",-8.215879050904192],["home",-8.216878179813532],["system",-8.220519234837564],["character",-8.220751905539508],["result",-8.225939453885033],["left",-8.228135273055326],["now",-8.233559011656103],["per",-8.234410904631739],["attack",-8.236706211367974],["During",-8.237102999028533],["V",-8.237652695887181],["government",-8.23872651440101],["school",-8.24057749095048],["30",-8.24255028714044],["played",-8.244139442193338],["complete",-8.244183670221963],["December",-8.246388512450999],["third",-8.247147591632796],["14",-8.252613027709009],["much",-8.255990911993074],["play",-8.260988046857863],["January",-8.262449301838934],["another",-8.268835447561532],["wrote",-8.269636342643603],["South",-8.270924064655873],["When",-8.2800815489344],["month",-8.280089123119996],["change",-8.28116332583923],["head",-8.281295569956798],["won",-8.283456965361726],["included",-8.288862583988589],["power",-8.28892955012028],["position",-8.291412391805137],["band",-8.29332658103931],["record",-8.302659158889448],["late",-8.304475018778254],["general",-8.307517854751373],["top",-8.309507926233884],["make",-8.310009446631229],["13",-8.310169214483158],["species",-8.310834653615784],["title",-8.310903262075776],["family",-8.3140633260571],["produce",-8.314794954702787],["previous",-8.324954810685828],["water",-8.326289967066359],["named",-8.327974676873621],["building",-8.32845920271544],["last",-8.329163934472222],["just",-8.33202335999519],["version",-8.332139755794499],["become",-8.336130779445275],["video",-8.336897550186226],["very",-8.337392440424773],["service",-8.34120416772333],["support",-8.342954094372606],["include",-8.34304364228716],["They",-8.343459168455942],["age",-8.348731746887402],["German",-8.353196485983997],["six",-8.353258516682692],["north",-8.363106624825663],["death",-8.365346080920114],["still",-8.365881937457278],["cause",-8.372454413384641],["25",-8.374970707070181],["even",-8.376616475983118],["By",-8.377142975579469],["ity",-8.378692822625617],["those",-8.379068153289195],["held",-8.383495897152612],["create",-8.384466306545201],["Februar",-8.385268568692014],["major",-8.386502336768258],["issue",-8.387257540122919],["role",-8.389909909873726],["small",-8.390127251722094],["next",-8.391592814990425],["short",-8.391720285826638],["best",-8.392658172038386],["order",-8.398954139446866],["performance",-8.399802239305627],["take",-8.40446062399856],["public",-8.408193726771533],["wide",-8.409533532643795],["match",-8.409629873113468],["event",-8.415371098727414],["His",-8.415924510284995],["100",-8.416785199651956],["National",-8.416992214612543],["town",-8.41826264538009],["storm",-8.41861851061145],["built",-8.42246904620223],["former",-8.422914638376783],["There",-8.423637827736037],["French",-8.425413152523594],["return",-8.42591792791152],["came",-8.426736893486723],["book",-8.427819257433312],["2010",-8.428478487898971],["No",-8.433994193228703],["half",-8.434348734106857],["local",-8.441854849816208],["house",-8.443140199327564],["For",-8.452443311893676],["land",-8.453086528721412],["again",-8.453924968605591],["attempt",-8.45777711275496],["remain",-8.46374697641256],["south",-8.466054140006607],["production",-8.471510184354788],["you",-8.476967967755812],["period",-8.480336287090514],["2008",-8.481427179518015],["often",-8.48636665214842],["2009",-8.486865105993127],["old",-8.487725894103104],["All",-8.489600132362407],["field",-8.50172772766842],["2011",-8.50353215437688],["among",-8.505823628556366],["career",-8.507543576395511],["review",-8.515953475009166],["&",-8.52213837320181],["England",-8.522187846300731],["story",-8.524077542498897],["members",-8.528321890800495],["level",-8.52926415563533],["further",-8.530200937253982],["games",-8.536956247187948],["point",-8.53805625151532],["damage",-8.541043677468876],["feature",-8.54219707413457],["ritten",-8.542356327242647],["different",-8.54292897634195],["King",-8.543881688951604],["West",-8.544013672801496],["2007",-8.545115591977142],["considere",-8.545178381959603],["official",-8.549471011290843],["having",-8.550969348641729],["City",-8.555736171106666],["days",-8.559688876070526],["total",-8.560062599003242],["River",-8.56462128357564],["English",-8.565728755790277],["went",-8.573246538635912],["One",-8.574046875307978],["fire",-8.57593344007799],["history",-8.578002730860094],["moved",-8.583464262939737],["2012",-8.583511554844714],["24",-8.587815653303437],["II",-8.589875218762085],["London",-8.59421112798245],["increase",-8.59592804364296],["similar",-8.597321502723764],["lead",-8.601021042499333],["club",-8.60170168467456],["without",-8.601717473365852],["track",-8.605838121571873],["east",-8.61217557083884],["full",-8.617247459116339],["run",-8.619619609511668],["Universit",-8.619903047903597],["action",-8.621831682387477],["case",-8.62339500569334],["gave",-8.636453171252963],["design",-8.63757289315986],["week",-8.63869799415895],["given",-8.642609889341768],["air",-8.645358105102643],["right",-8.647446306464694],["publishe",-8.648330459776535],["control",-8.650129294456464],["While",-8.652022655876678],["west",-8.652459445142295],["defeat",-8.653042450564959],["close",-8.655608392258943],["50",-8.65775807369602],["company",-8.662227288646749],["believe",-8.662324981493326],["stage",-8.662354169141107],["returne",-8.667964566953595],["initial",-8.669686676448134],["light",-8.670266945044087],["great",-8.671517289302507],["27",-8.671971501037373],["highe",-8.672784270417264],["using",-8.67394682682965],["lost",-8.674276851528393],["reported",-8.67705456057554],["State",-8.679077083761754],["2006",-8.682331925078968],["21",-8.684548056882544],["making",-8.68725805050897],["real",-8.689214193979915],["particular",-8.690559119605508],["22",-8.694872328606968],["stead",-8.695280619923176],["According",-8.69823532197179],["low",-8.699085835768797],["development",-8.699241064672144],["reache",-8.703654080782234],["common",-8.704754480430624],["allow",-8.706414083171797],["country",-8.706674766979368],["red",-8.7070577514342],["never",-8.710442350222172],["father",-8.710887525722388],["recorde",-8.711351332610942],["General",-8.712772037214124],["suggest",-8.721486291936845],["Australia",-8.723100262567913],["term",-8.724905760826367],["aircraft",-8.727167212046611],["writing",-8.728630921479285],["William",-8.729575584937653],["body",-8.730622432095625],["military",-8.73400504705674],["himself",-8.734137583562262],["2013",-8.734473858643359],["get",-8.74303966402379],["good",-8.743953505070682],["toward",-8.75505838399744],["These",-8.75528457565625],["popular",-8.758239920920289],["live",-8.759605593824874],["announce",-8.760097232637193],["James",-8.760167620476917],["develope",-8.767227788325386],["28",-8.768556316222247],["X",-8.772145966142864],["Park",-8.772621680621036],["America",-8.774973037675744],["children",-8.775847824702907],["class",-8.776576578324995],["style",-8.77818755482418],["effect",-8.778249709215112],["tour",-8.778809141294081],["win",-8.779674098609398],["ships",-8.78218815772686],["race",-8.783251200289483],["Army",-8.783342052539494],["political",-8.78434495461432],["project",-8.78655773053569],["Division",-8.786865443225993],["League",-8.79261792781773],["George",-8.794573937081317],["population",-8.795308455143378],["influence",-8.796752997481917],["remaine",-8.797984883412493],["Australian",-8.79830988419659],["present",-8.802539350398616],["sent",-8.806879370446136],["23",-8.807752326970029],["away",-8.807970374725452],["tropical",-8.808236620415338],["strong",-8.80954526775738],["felt",-8.809844089142512],["campaign",-8.809928897229485],["40",-8.810235996246764],["across",-8.812983791288712],["range",-8.813138164525688],["region",-8.817802646262757],["Street",-8.819033978493232],["car",-8.820550401600649],["route",-8.826542177278746],["night",-8.826708956181637],["ground",-8.82816033325177],["26",-8.832069334607363],["appearance",-8.833257841216037],["noted",-8.83330475303023],["either",-8.835409084809031],["eight",-8.839063509568415],["television",-8.83937875448683],["kille",-8.83980794718984],["national",-8.842927929784485],["battle",-8.843170091177479],["within",-8.843848912933474],["County",-8.845859948833853],["Air",-8.846951227286],["seen",-8.848074616294715],["With",-8.850985504051454],["2005",-8.851768232393411],["Japanes",-8.852584017221394],["successful",-8.852771984208198],["should",-8.854053556830026],["road",-8.854645853822776],["eventual",-8.858124115515878],["born",-8.859290061855758],["Road",-8.860810165869312],["various",-8.86133447041],["’",-8.861642736929685],["performe",-8.862692831673783],["replace",-8.862987293711365],["followe",-8.864598156277287],["success",-8.86581247970413],["member",-8.866129053895845],["face",-8.866644472389165],["law",-8.866895774704666],["2014",-8.87379929224314],["fight",-8.874139737485248],["served",-8.879028985192063],["x",-8.880023582174458],["characters",-8.88023835035665],["white",-8.883664368645332],["ally",-8.885074732514315],["taken",-8.886952008258028],["29",-8.890382430859882],["contain",-8.890501520989776],["start",-8.890690064498628],["little",-8.893885590383231],["locate",-8.895015676418184],["direct",-8.895310657805721],["addition",-8.896017112662278],["establishe",-8.898374954062788],["Star",-8.899203200792817],["significant",-8.89957942440103],["together",-8.904159496782349],["operation",-8.905932037564975],["human",-8.907645921478984],["appeared",-8.91180167156878],["experience",-8.913015169587162],["front",-8.913636112942898],["station",-8.916508667384553],["East",-8.917209955912],["site",-8.918524030182148],["debut",-8.919374110815033],["mid",-8.920092303546001],["chart",-8.921359188762013],["earlie",-8.922577830622696],["black",-8.924316012042997],["put",-8.924480460973905],["Michael",-8.925024829864652],["entire",-8.926433688868581],["does",-8.926758643524655],["open",-8.927437140378133],["!",-8.928153584978485],["San",-8.929067252672303],["example",-8.93112608745161],["songs",-8.931830875235507],["Man",-8.932032311489607],["miles",-8.932141208815235],["women",-8.932852629337905],["La",-8.933109240205047],["dded",-8.935359578276971],["Royal",-8.938259172889216],["Island",-8.940124396941897],["elected",-8.941597383261014],["once",-8.94372495730268],["decided",-8.944237381730725],["average",-8.946475818160902],["give",-8.94882393700194],["require",-8.949304969714467],["ness",-8.951306738166249],["starte",-8.95284459369858],["feet",-8.9580069512222],["forme",-8.959672054611904],["House",-8.96031432989481],["help",-8.961122920585591],["David",-8.964161826882851],["praise",-8.964736813569514],["Z",-8.967122082982955],["involve",-8.969351832087865],["seven",-8.97437171798525],["France",-8.976071004233827],["element",-8.977283526519876],["far",-8.98049537932297],["Some",-8.981948955696794],["important",-8.986079651035801],["free",-8.991940059187563],["report",-8.993294946099107],["capture",-8.994319115668699],["rock",-8.99441768911608],["points",-8.9945660718327],["met",-8.994956479398963],["Robert",-9.001924674829722],["playing",-9.002546818070567],["Other",-9.003233095407492],["2004",-9.003892876386574],["thought",-9.005598588061172],["rather",-9.008376738477446],["scene",-9.009160481462377],["opene",-9.015645738806619],["brother",-9.015822635919285],["behind",-9.016082191129339],["31",-9.017070436209302],["upon",-9.018345143481524],["ran",-9.019390205545665],["construction",-9.020415430211358],["gun",-9.021202255350074],["Indian",-9.02128315526362],["pre",-9.024794026974773],["section",-9.025817561766987],["2015",-9.02935730717231],["features",-9.03014478605545],["You",-9.03069745324108],["crew",-9.032122863362645],["structure",-9.032823531301329],["every",-9.033208913958875],["School",-9.03594395504014],["office",-9.036671329818244],["sold",-9.038669603443443],["rest",-9.040367006497288],["subsequent",-9.040624240556264],["highway",-9.040729647017837],["difficult",-9.04200281644782],["list",-9.043091092641275],["relationship",-9.043924874225192],["heavy",-9.04433667184578],["200",-9.04460632072079],["election",-9.04510941585598],["leading",-9.04604550652958],["current",-9.047135240158653],["leave",-9.047939970097401],["Henry",-9.048426813628208],["art",-9.048452996993296],["arrive",-9.051132538583422],["look",-9.053994949438884],["young",-9.055427222007104],["mph",-9.057789000244581],["Battle",-9.057903450227963],["cover",-9.058726113089254],["500",-9.059958943089855],["interest",-9.062634298433721],["program",-9.063770219063773],["special",-9.06417028418019],["Best",-9.064801212442458],["2000",-9.06481321836931],["fourth",-9.065167717855214],["modern",-9.065589884763005],["Music",-9.06562109324622],["post",-9.06846443017791],["working",-9.069015817350852],["Black",-9.070165351246082],["party",-9.070784443375437],["love",-9.071149202073647],["almos",-9.072282457858424],["scored",-9.07505011094572],["worke",-9.075822059256792],["brought",-9.077296922651849],["guns",-9.077340398473567],["anti",-9.077660609854776],["command",-9.077694165541532],["cast",-9.079003986622768],["shot",-9.080771862914316],["individual",-9.081525909027905],["our",-9.08173357259657],["wife",-9.082317685868373],["wante",-9.083465550363618],["court",-9.08382899704476],["mother",-9.084202904832292],["effort",-9.084803211227092],["provided",-9.087390678061706],["female",-9.087789894635772],["business",-9.088077099365856],["least",-9.08856929901223],["process",-9.088586556963772],["problem",-9.089242446970188],["Washington",-9.091096818611126],["novel",-9.091412856997627],["j",-9.09204397176662],["cost",-9.093442855732496],["ended",-9.097564726089109],["claim",-9.097744034545485],["recording",-9.099737392312164],["Paul",-9.100898904865028],["star",-9.101610567356097],["victor",-9.10478124597823],["artist",-9.106400694715786],["European",-9.106753778761743],["allowe",-9.107265000698199],["Europe",-9.109117561972473],["critics",-9.109435420918755],["studio",-9.110295290455841],["troops",-9.11068038206813],["designed",-9.111587835213614],["lower",-9.112696659701637],["Despi",-9.113636189164419],["army",-9.113748402811538],["material",-9.114263320474514],["island",-9.115125387106291],["joine",-9.116866668160286],["2003",-9.117140259414334],["Follow",-9.119288735555669],["location",-9.127416167812278],["President",-9.129027996009615],["weeks",-9.129832059732955],["communit",-9.130352310279358],["bridge",-9.132434638336589],["condition",-9.133223707701779],["goal",-9.134310953792962],["Force",-9.135095992793183],["hurricane",-9.135950075537005],["First",-9.1380680507431],["urned",-9.139112181712557],["person",-9.140699009800482],["Cup",-9.140790222571454],["opening",-9.141191766612021],["passe",-9.141439055252674],["Japan",-9.144453569873804],["plan",-9.144977676462563],["director",-9.145286858671474],["voice",-9.145510042685576],["positive",-9.14578279723774],["king",-9.14742131778776],["lack",-9.149320533209805],["piece",-9.149537995967332],["Two",-9.152103219949716],["Her",-9.156879575382298],["ous",-9.158110108903252],["soon",-9.159313432646035],["ve",-9.16098069813113],["appear",-9.161327256110063],["finished",-9.162630151121505],["39",-9.16645835467811],["Le",-9.1665843807566],["introduce",-9.167528135183815],["advance",-9.16778457247449],["times",-9.168365635110845],["ter",-9.168817314520895],["come",-9.168914674854614],["saying",-9.16908105748374],["division",-9.17100317070685],["Route",-9.17117292116913],["sound",-9.171934390250895],["regular",-9.172714244675772],["move",-9.175613850486501],["space",-9.176810721590249],["runs",-9.177098462255657],["pent",-9.177914899977921],["self",-9.178222788586265],["signed",-9.178585688031264],["works",-9.178824501095098],["length",-9.18096977470289],["possible",-9.185540853844321],["availabl",-9.186051646756992],["southern",-9.188217503470291],["ation",-9.188295918499087],["figure",-9.188446564037006],["movement",-9.19133057209063],["model",-9.192579236439817],["training",-9.19298155861488],["hours",-9.192987303547557],["keep",-9.193312021481324],["White",-9.193602082358835],["2001",-9.195128513285821],["From",-9.195254966590129],["International",-9.19549204713693],["vocal",-9.197914608405352],["Charles",-9.198369291055403],["Red",-9.20247829228967],["decision",-9.2048076513925],["ought",-9.205323719668842],["Thomas",-9.205689075263889],["Kingdom",-9.207030020172022],["church",-9.208570798561338],["Hall",-9.208676850164597],["Navy",-9.209181721851055],["°",-9.210134880705944],["friend",-9.210850919242448],["60",-9.210970123353826],["claimed",-9.211622199893213],["Sea",-9.212746460992648],["league",-9.21300498381423],["turn",-9.213037383052324],["raise",-9.213655782026187],["magazine",-9.21452150552102],["round",-9.215098376616448],["taking",-9.215194396470428],["going",-9.21644888416371],["cut",-9.21901276033588],["surface",-9.221298711870274],["contract",-9.22149397249297],["minutes",-9.221531119312376],["activit",-9.222301136530197],["northern",-9.229999173458408],["theme",-9.23002572934139],["find",-9.233161143428774],["letter",-9.233552734529557],["2002",-9.233788488955618],["international",-9.234317332325816],["study",-9.235009161514652],["carrie",-9.235574935955437],["Canada",-9.235695877045767],["explain",-9.235758378468843],["nine",-9.237162528607701],["Award",-9.23819837415978],["language",-9.238807205729401],["share",-9.238982696521488],["Peter",-9.24082397350722],["agree",-9.24313396108036],["need",-9.243704099453016],["central",-9.24719145431704],["score",-9.24878231647969],["wood",-9.248945708300948],["California",-9.250751803968027],["immediate",-9.254582783843144],["must",-9.25461477619832],["outside",-9.256033105830921],["Court",-9.26208413863813],["personal",-9.262576259033127],["better",-9.263424919603217],["size",-9.26655209988736],["rule",-9.266582227778974],["enough",-9.269751545784054],["India",-9.26985855317327],["rdered",-9.271437982663231],["Great",-9.272531291663412],["room",-9.274010347394103],["commercial",-9.274200670927842],["idea",-9.274238205487533],["reduce",-9.275591688594524],["Union",-9.277508204197439],["units",-9.279803644606368],["sked",-9.280335918226672],["award",-9.280817513865058],["according",-9.282419915671554],["above",-9.284580408814879],["Smith",-9.285131439389486],["35",-9.285567161260449],["daughter",-9.287750686532094],["beginning",-9.288793687623174],["relative",-9.289958389954531],["fact",-9.290044849173798],["additional",-9.291523755687209],["conduct",-9.291684010058045],["Game",-9.294725165742719],["1990",-9.294899673444956],["park",-9.295277938555108],["speed",-9.295461798152093],["Richard",-9.295559804066423],["animal",-9.298022086044059],["board",-9.299074203695337],["sub",-9.299849676857527],["social",-9.30031059817023],["faile",-9.300690090820591],["port",-9.301735956883153],["Company",-9.301933983569542],["abilit",-9.303686582589313],["response",-9.303943906843067],["NY",-9.30524272642619],["ves",-9.30534204462093],["winds",-9.308602895146715],["College",-9.309828257685924],["pressure",-9.31128748466707],["coast",-9.312149112083933],["evidence",-9.312865233828026],["Act",-9.314112746008659],["Church",-9.314276710197616],["mission",-9.314771778946556],["loss",-9.316509131166631],["despite",-9.318605253043383],["poor",-9.318909832564241],["date",-9.320344366371982],["village",-9.320602648107375],["High",-9.321592139821455],["type",-9.322638293526518],["fall",-9.323375045023603],["Los",-9.32351261679139],["?",-9.323776682962578],["view",-9.323777457172675],["£",-9.324275498286262],["UK",-9.32513829460401],["musical",-9.325804077311126],["soldier",-9.326858275204055],["directe",-9.327011497670837],["hard",-9.327611756833305],["subject",-9.328644804344883],["Hill",-9.328691502225062],["media",-9.329385690640942],["river",-9.330075544405679],["Germany",-9.331792273126387],["sometime",-9.332260956283985],["And",-9.332737095071549],["told",-9.333004160082591],["western",-9.333516135280334],["80",-9.335169557112152],["develop",-9.338054739205962],["flight",-9.339877742599498],["center",-9.340150724059185],["Western",-9.341130290152774],["future",-9.341131282787828],["recent",-9.341592971532616],["Final",-9.341626268557405],["fleet",-9.342051713844276],["Championship",-9.342488976719887],["perform",-9.344126447005529],["market",-9.344693760947287],["charge",-9.344955348950673],["reason",-9.347752578601412],["ell",-9.348350221266397],["Roman",-9.35256161802446],["peak",-9.354141136493597],["Grand",-9.355407003926109],["latter",-9.355651731403093],["propose",-9.356107372049587],["football",-9.356361608118693],["eastern",-9.356540857109072],["engine",-9.357494703966129],["Times",-9.361108377938304],["writer",-9.361487345834293],["fund",-9.361529943873748],["police",-9.361869652712768],["64",-9.361984148714892],["ball",-9.363701537227907],["provide",-9.365243324490049],["That",-9.36556848138777],["pop",-9.366542047924511],["alread",-9.367516439958779],["tell",-9.368589516922952],["Y",-9.372828615097019],["summer",-9.372845237680199],["1970",-9.373260626605171],["Most",-9.375552058640626],["past",-9.377461413788987],["radio",-9.377572878766637],["1980",-9.377629625676214],["meeting",-9.37826183512531],["lines",-9.37849632306043],["Britain",-9.379438796419054],["Brown",-9.379994219812339],["actual",-9.382890433855058],["money",-9.383151595131766],["food",-9.383881513261604],["president",-9.384052058211955],["rating",-9.384169563095893],["account",-9.384191524261556],["larges",-9.385705924364343],["act",-9.385943078430925],["whom",-9.386230367488002],["might",-9.387363350782532],["limited",-9.387653119103453],["course",-9.388224446675082],["estimated",-9.388501091994199],["associate",-9.388635137395514],["trade",-9.391065341976542],["compare",-9.39173961057555],["amount",-9.39274303774562],["Virginia",-9.393276885097077],["specific",-9.39333376263629],["want",-9.394739350801533],["staff",-9.394913832846504],["Later",-9.395911833455836],["write",-9.396225708548284],["45",-9.398218530303495],["practice",-9.399587877146079],["via",-9.4024787803081],["especiall",-9.403373785887814],["respective",-9.40442728713982],["Bay",-9.404480423098027],["manage",-9.404674891943445],["audience",-9.405757162674856],["1999",-9.40607419210792],["Soviet",-9.407871501245314],["Lake",-9.41193458899236],["join",-9.4121513203044],["becoming",-9.412490199422704],["entered",-9.413083467610742],["Early",-9.415245814382935],["ley",-9.415908387577138],["Awards",-9.417158688441123],["promote",-9.417635617289227],["Christian",-9.418027236562784],["winning",-9.418439401944147],["active",-9.418713881763704],["test",-9.418808651031489],["percent",-9.418986298532312],["visit",-9.419940001847408],["appointed",-9.420323268217851],["certain",-9.421974132429204],["brief",-9.421980289023294],["research",-9.422822461279052],["reference",-9.426310029674418],["Day",-9.426447818780268],["Jackson",-9.42725199146005],["operate",-9.427393461978832],["authorit",-9.42784589597263],["concert",-9.430607522887719],["rate",-9.430952466829542],["related",-9.431294516134676],["ounded",-9.43228389726109],["woman",-9.433820511509008],["Edward",-9.435015264373124],["flood",-9.435482382577439],["larger",-9.436640256701816],["interview",-9.437114503072175],["key",-9.438989356248666],["clear",-9.439303753316047],["Love",-9.44149370063994],["Rock",-9.442256785416793],["My",-9.443446062689995],["leaving",-9.443730576675243],["70",-9.44505361902375],["cell",-9.445696529589112],["script",-9.445705168628171],["marrie",-9.447021571372128],["Club",-9.447322144851519],["destroye",-9.448376103267265],["thus",-9.449474990923658],["refuse",-9.450645035366051],["Spanis",-9.450802057095194],["God",-9.453504652117028],["approximate",-9.45484733981089],["probabl",-9.456145252356727],["Association",-9.456480310661782],["ending",-9.458735276100203],["running",-9.459188758709612],["students",-9.460557871217722],["intended",-9.461599685767537],["serve",-9.461918270200636],["natural",-9.462648799318893],["1960",-9.462972058282569],["Party",-9.463305245978916],["lyric",-9.463447712707836],["é",-9.464729431530815],["broadcast",-9.466220510154713],["fish",-9.466707199563333],["leader",-9.466792027867271],["private",-9.469931422068504],["overall",-9.47031671496015],["Chicago",-9.471279517981529],["professional",-9.471797550408978],["studie",-9.47221788651443],["coming",-9.47321993624561],["TV",-9.473770495427674],["image",-9.475173153970704],["producer",-9.476860218365331],["critical",-9.47718206946888],["forward",-9.481253502745577],["helpe",-9.48146005187371],["1998",-9.48273112445654],["Chinese",-9.482906935498312],["trial",-9.483967388170518],["Council",-9.484075555806118],["detail",-9.48568994488029],["child",-9.486507485147612],["singer",-9.486986129275135],["commander",-9.487218608290258],["manager",-9.487566089590503],["mixe",-9.487905270889865],["spread",-9.488140438990586],["planne",-9.48901658311471],["300",-9.489153918514353],["shape",-9.489188338018371],["Second",-9.490461965745382],["effective",-9.490778939071399],["gold",-9.49495919307616],["Many",-9.495723095537208],["Dr",-9.496124478483798],["awarde",-9.497278880510468],["Mary",-9.498745602678984],["Russian",-9.499963229493824],["typical",-9.500311910434403],["longer",-9.500314506683726],["pay",-9.500636255028512],["annual",-9.501001645252597],["fans",-9.502717305374247],["meet",-9.504004630937198],["traditional",-9.504278419908061],["increasing",-9.505275766709987],["living",-9.505648606290578],["Johnson",-9.505985715905776],["supporte",-9.506053808508131],["break",-9.507372277486605],["improve",-9.50839135163439],["read",-9.508844598814195],["drive",-9.509012802723909],["Pacific",-9.509823732001198],["guitar",-9.511355820944592],["ice",-9.511479512588359],["fifth",-9.511774840831478],["History",-9.513539307502484],["Lord",-9.515391713672347],["wall",-9.517041444963171],["represent",-9.517227259134321],["Billboard",-9.519195259665059],["Queen",-9.519434436927614],["value",-9.520040269276432],["90",-9.521081418493988],["double",-9.522706785826301],["separate",-9.522786240101361],["El",-9.523720118964766],["Canadian",-9.524087280113495],["competition",-9.5249106507307],["scenes",-9.527957939072381],["ex",-9.52843656147354],["declare",-9.530212926808316],["others",-9.532659646793963],["stone",-9.533786395719552],["Record",-9.534382902861731],["32",-9.536104823293783],["Since",-9.5382099034565],["fell",-9.538626480038209],["Atlantic",-9.538921333289453],["copies",-9.539314923069742],["minute",-9.539360544303182],["pilot",-9.539930775840109],["Squadron",-9.539952716302405],["suffere",-9.540595961155468],["1997",-9.540683105474972],["extende",-9.541429161459346],["exist",-9.54257157516863],["Mark",-9.543516912226552],["75",-9.543730318015713],["themsel",-9.54560540034605],["portion",-9.549246531253763],["dance",-9.549453428467158],["Florida",-9.54959490620718],["wind",-9.551688344544539],["Both",-9.552745858348736],["word",-9.553260736679563],["tons",-9.553759053797421],["measure",-9.553903705902092],["ment",-9.553956336105715],["Highway",-9.55449194510451],["whe",-9.555732280632872],["escape",-9.55650393336508],["pro",-9.557951212480246],["think",-9.55795592158614],["countri",-9.560062341838416],["states",-9.56039628193612],["pair",-9.560723306423016],["itsel",-9.560881693584104],["target",-9.561032862865748],["alway",-9.561568765225717],["prevent",-9.561691991860705],["upper",-9.561801199090104],["hour",-9.561814269946849],["cyclone",-9.56408001498218],["deal",-9.564131343702723],["purchase",-9.564443043778159],["Italian",-9.564847709636638],["centre",-9.565562942762167],["frequent",-9.565872331844238],["Texas",-9.566297493838032],["status",-9.56697967825522],["parent",-9.567246117564984],["Don",-9.568009909228529],["health",-9.56875238250196],["approach",-9.569276843679596],["historian",-9.569373184631853],["deep",-9.570305993160723],["bar",-9.571380412854756],["Center",-9.571397909702148],["China",-9.572098008791246],["Africa",-9.572625513023496],["network",-9.572911285581313],["rights",-9.573113692451681],["But",-9.574670968611796],["removed",-9.575985257345907],["Year",-9.576323214485136],["indicate",-9.576738331522202],["enter",-9.5767655894767],["know",-9.576928900123661],["Green",-9.578861003095309],["Olympic",-9.579196943199417],["prior",-9.581764080236415],["00",-9.581832479783923],["something",-9.582632427310486],["offere",-9.582651073141585],["ill",-9.583003307753515],["launche",-9.584033868455007],["eeded",-9.584436363177176],["unit",-9.585215707157916],["Jack",-9.587086462875206],["coach",-9.588787515953708],["Martin",-9.590652187257286],["ranke",-9.592036406511896],["avoid",-9.5923064587761],["discovere",-9.59250819437262],["organization",-9.593982612237209],["stars",-9.596542933369113],["composed",-9.597493648506196],["nature",-9.598263923031572],["Earth",-9.601537221460063],["pass",-9.602171967603164],["cross",-9.604735430047256],["III",-9.60502876223934],["Sir",-9.606212777216701],["inspired",-9.608130802009791],["Big",-9.60872906518481],["minor",-9.608814708687678],["33",-9.608969953910261],["referre",-9.6089802713194],["con",-9.609061422750623],["potential",-9.609815944256427],["officers",-9.610010477708324],["matche",-9.61059279545413],["Empire",-9.610807930613255],["moving",-9.611871326942737],["reveale",-9.612114065492813],["Tom",-9.612207747093734],["Central",-9.613136750593075],["access",-9.614148518737352],["1995",-9.617538158753174],["occur",-9.617565126075993],["qualit",-9.61796276216937],["numerous",-9.618253173337132],["conclude",-9.620333957039866],["male",-9.621069537535455],["territor",-9.621653705760005],["impact",-9.621983655919712],["scale",-9.624039387008493],["whole",-9.624291691253411],["Angele",-9.62431998523351],["1st",-9.624783884635683],["ville",-9.625875048258772],["shows",-9.626110897505626],["Test",-9.626220779132298],["participate",-9.627238777348676],["maller",-9.628069819852723],["liste",-9.628490120584726],["Congress",-9.628682161017444],["castle",-9.629069407078308],["Group",-9.629786737670406],["sister",-9.631428647642753],["plot",-9.632257521858966],["legal",-9.63279212519481],["achieve",-9.633043030784215],["yard",-9.634308844955079],["Film",-9.634604857993079],["information",-9.635067041949583],["reach",-9.635743035388996],["occurre",-9.635919216867881],["collection",-9.636662742913229],["com",-9.637646934709212],["college",-9.637974837287887],["2016",-9.639309075311916],["earned",-9.640013769822882],["1996",-9.640060686676458],["Go",-9.640598314694637],["parts",-9.641406066440283],["depression",-9.642194058786606],["ll",-9.64264746444878],["Greek",-9.643045427007099],["bill",-9.64309371747424],["officer",-9.643257452930344],["divide",-9.643536299653466],["standard",-9.64398000511093],["ham",-9.6440946939875],["hold",-9.644260839631185],["session",-9.644583164333401],["vehicle",-9.645055123147213],["decline",-9.645145029127221],["direction",-9.646593333502262],["observe",-9.647108365426357],["primar",-9.648153166811387],["economic",-9.648693893535995],["discover",-9.649912245158314],["mouth",-9.649920632673014],["confirm",-9.651671212196383],["Minister",-9.651729385603021],["tracks",-9.651955038455133],["travel",-9.65340356325701],["severe",-9.654108800602385],["author",-9.654888343983561],["37",-9.655218315738022],["plans",-9.655978908389088],["culture",-9.656890888190475],["Team",-9.657295911881713],["complex",-9.657384824019653],["expected",-9.657705831579296],["Tour",-9.657812590397091],["industry",-9.659019769122247],["1994",-9.659022614780048],["feel",-9.659229004604926],["36",-9.659418501065035],["matter",-9.659608141293296],["Sun",-9.659662376580997],["situation",-9.660069783733476],["independent",-9.660475429742652],["horse",-9.660664039850948],["border",-9.660689831160337],["DVD",-9.661697836275003],["majorit",-9.661705869125111],["Corps",-9.662850044083177],["attention",-9.663212207287634],["marked",-9.663400820971113],["education",-9.66384228833938],["variet",-9.663949947675],["Under",-9.665265201586452],["Time",-9.667014515736462],["science",-9.668672506128337],["lived",-9.674431131498768],["giving",-9.675238805251427],["commente",-9.675246655911478],["press",-9.675359044411284],["Stone",-9.675536904154741],["kind",-9.676249353610151],["marriage",-9.677276118315389],["ance",-9.67779185482817],["recover",-9.679443533564958],["dead",-9.680214099308218],["beat",-9.680824527871756],["metal",-9.681308285328875],["adult",-9.68169767801554],["edition",-9.68178391293172],["mass",-9.68181458468114],["newspaper",-9.681856021660298],["yards",-9.68202427000309],["Michigan",-9.683609772477489],["Bridge",-9.683627857863247],["ary",-9.683941998943542],["sales",-9.684554179762536],["attacke",-9.684652211983186],["appears",-9.68591831846636],["Chris",-9.6863565694358],["combine",-9.687307493280166],["capital",-9.687554642354852],["normal",-9.687839792254973],["goals",-9.688130013500878],["engineer",-9.689114327256576],["sequence",-9.689152383255461],["facilit",-9.690549668473166],["product",-9.690672633072309],["1940",-9.691097962578192],["Wales",-9.691311740123066],["distance",-9.691317810454079],["rough",-9.692534002696853],["religious",-9.692582546394895],["below",-9.692597430683282],["covere",-9.693769684482398],["Old",-9.694005127390438],["concept",-9.69525252651378],["Hot",-9.695592772037722],["38",-9.696414484339638],["attende",-9.69694499511372],["owned",-9.6971941956672],["purpose",-9.69777296847796],["object",-9.69810511461627],["movie",-9.698505220146776],["question",-9.698562596351445],["middle",-9.69897490824449],["moment",-9.700512663965643],["shown",-9.70175890584511],["Ma",-9.702474546744394],["district",-9.70281527380664],["heart",-9.703190790873592],["camp",-9.704844851633649],["Major",-9.705701907470276],["nable",-9.70618209455582],["source",-9.706635735377757],["rapid",-9.7078339461672],["Over",-9.708241239115495],["takes",-9.70892850002034],["focus",-9.709605501823692],["Q",-9.709725242692283],["Scott",-9.710282418810177],["Super",-9.71348514064682],["serious",-9.713717746502562],["jury",-9.713944252322708],["African",-9.714138320548],["foot",-9.715335898536827],["notes",-9.716072713209968],["decade",-9.716486365819321],["constructed",-9.718136559740225],["captain",-9.718382332786138],["Several",-9.718640798890444],["1992",-9.719603835785664],["schedule",-9.720035756059705],["energy",-9.721232562226097],["financial",-9.721356245601447],["method",-9.722704489543368],["call",-9.72489332039807],["chief",-9.725224811077155],["inch",-9.72536080941431],["wing",-9.729380357136225],["argue",-9.731048769148027],["closed",-9.731155805328026],["48",-9.734682047394347],["physical",-9.736164695545195],["Fox",-9.73669053424152],["screen",-9.73756770354166],["Service",-9.73888202404587],["function",-9.740728271897117],["temperature",-9.741093320521],["47",-9.742088937850085],["host",-9.742140087286957],["Mexico",-9.743113913711447],["crosse",-9.743325026884175],["Like",-9.744320168887722],["ive",-9.745793593627331],["sign",-9.746716696231436],["challenge",-9.746883036675138],["societ",-9.747631181800553],["learn",-9.74914924075833],["films",-9.74994335002938],["Line",-9.75030877461523],["stating",-9.750591170637504],["defense",-9.75136481493262],["400",-9.751576442611059],["Frank",-9.751710423463342],["tried",-9.751883193442216],["train",-9.752042722778892],["1930",-9.75209604973356],["Latin",-9.753087687501843],["20th",-9.75350813923263],["friends",-9.75357092748718],["color",-9.753870261648899],["combat",-9.755643602740074],["49",-9.756142449972346],["elling",-9.757361259078547],["Madonna",-9.757373678433185],["twenty",-9.759028499800248],["assigne",-9.759187821563197],["1993",-9.759370692933514],["conflict",-9.759937451916855],["1991",-9.761615851971255],["Jones",-9.764067798178667],["Scotland",-9.766002826469924],["usuall",-9.766373706681243],["Bill",-9.767337584895179],["broke",-9.767340720281073],["scor",-9.768424932916554],["consider",-9.76985555148839],["accepte",-9.770201806724595],["Department",-9.77105916872316],["34",-9.771065575230736],["46",-9.77183839635152],["Pro",-9.77198577127546],["presente",-9.773952637354306],["words",-9.774604849636665],["Hurricane",-9.775097106166978],["morning",-9.775778498443687],["machine",-9.775979555487144],["mer",-9.776278620487583],["risk",-9.776337508601703],["article",-9.776906434003399],["executive",-9.777193664687141],["tower",-9.777635660376047],["+",-9.778103644205606],["Three",-9.778367158894566],["bound",-9.780220644684663],["Their",-9.780483690708314],["universit",-9.780725405167816],["secure",-9.780958857502876],["responsible",-9.781391567165922],["guest",-9.782355929676585],["build",-9.782538248600021],["Zealand",-9.78287529863736],["Prince",-9.783035642910523],["quickl",-9.783373189413581],["blood",-9.783590254585732],["paper",-9.784138234990463],["droppe",-9.78473422998284],["survive",-9.785588643773945],["Infantry",-9.787180231541358],["kept",-9.787349015760924],["Creek",-9.787577181893612],["inches",-9.787878027035507],["means",-9.792060545453065],["nation",-9.79232688969702],["winter",-9.792391890658903],["agent",-9.79273863891441],["nother",-9.79475144420033],["Societ",-9.795269185999448],["display",-9.795703144777482],["regard",-9.796238134891862],["care",-9.796517819696595],["championship",-9.798014998886229],["forest",-9.798503376950418],["meter",-9.800205602936046],["leg",-9.800269704615205],["square",-9.800903633671222],["Committee",-9.802084655764657],["slight",-9.80282229607861],["Post",-9.803688358838762],["teams",-9.80514099083266],["save",-9.805420205732508],["actor",-9.805520045472447],["Saint",-9.806486235810713],["squadron",-9.807733504494525],["battalion",-9.808947540352714],["onto",-9.809083703487135],["box",-9.809570634713221],["traffic",-9.810675596137719],["Battalion",-9.810974258551887],["follow",-9.81106189836904],["job",-9.812096889929967],["Life",-9.81345392895809],["enjoy",-9.81386391077124],["resulting",-9.814697251444354],["hundred",-9.8166728004841],["content",-9.81685006578236],["engage",-9.817806791610325],["Live",-9.818227136159285],["presence",-9.818991137291686],["ium",-9.819146893095256],["quarter",-9.819343000776039],["Louis",-9.820067342221611],["worker",-9.82046183864375],["older",-9.820863434461904],["maintain",-9.820952177139462],["painting",-9.821672428155392],["1942",-9.82390802179919],["federal",-9.824047254017296],["metres",-9.825485712000681],["couple",-9.825486360835304],["ring",-9.826736420022687],["defence",-9.827677031687584],["storie",-9.827772620639271],["worth",-9.82777829738785],["weight",-9.829566623670113],["speech",-9.829683013971271],["identifie",-9.830276898591622],["han",-9.83098031193231],["More",-9.831044621618602],["viewers",-9.831823473700986],["transfer",-9.832594019289484],["enemy",-9.832936608716613],["royal",-9.833447733113989],["Fort",-9.833649650234625],["greate",-9.833815992073283],["setting",-9.833872039528794],["starting",-9.835002348427535],["seem",-9.835356981877968],["extreme",-9.8356279193399],["Oxford",-9.836061177630162],["Captain",-9.837440023217216],["expresse",-9.837914041038283],["obtain",-9.838670175137354],["ski",-9.838677576322977],["plant",-9.838740845602631],["meaning",-9.840149985042018],["meant",-9.840718400722901],["begins",-9.841115681058735],["Lee",-9.841686495129363],["Chief",-9.843094589275115],["stay",-9.844365365563716],["multiple",-9.84441445408108],["featur",-9.844872348831997],["contemporar",-9.845137743941958],["sex",-9.845417047463437],["hall",-9.845554587212503],["65",-9.84575848236684],["gain",-9.845916370980484],["Boston",-9.845956576406895],["Bar",-9.84605495664334],["Republican",-9.846404635141075],["Harrison",-9.846659645977857],["oppose",-9.847695983126219],["property",-9.848477391056571],["concern",-9.84856337802553],["encounter",-9.849048694489825],["sense",-9.849310354816282],["Southern",-9.84979536502588],["Manchester",-9.849890355125442],["strength",-9.84994230982926],["paid",-9.850670044464886],["inside",-9.850788852546888],["primarily",-9.85164056005222],["prominent",-9.851703207818797],["aired",-9.852271638890182],["sexual",-9.852782840033447],["extensive",-9.853395593919368],["designate",-9.853397479567644],["dark",-9.85415128007988],["Before",-9.854259216852737],["Brigade",-9.854668037451937],["threat",-9.854735963377015],["showe",-9.856375543931245],["tradition",-9.856474604997459],["weaken",-9.856975484680712],["peake",-9.857604054813915],["Mar",-9.857616533971227],["Jim",-9.857703328540195],["assist",-9.858503651306627],["acting",-9.85884238611322],["Car",-9.85995751072242],["Little",-9.861479876508245],["Regiment",-9.862910811367543],["Long",-9.862935891968451],["1944",-9.863318374240205],["standing",-9.863395959107484],["reception",-9.863573318262645],["3rd",-9.863642819968396],["blue",-9.86374948383522],["tournament",-9.8637537212738],["Vietnam",-9.865199152589806],["Cross",-9.865992606613736],["Ben",-9.868702038254368],["invasion",-9.86933105589373],["rying",-9.869828434380528],["van",-9.87028759688287],["passenger",-9.870480228805846],["electric",-9.870570760276722],["historical",-9.87063801360654],["companies",-9.872452134976184],["Academ",-9.874663845384788],["BBC",-9.875041676329708],["makes",-9.875613964443959],["ized",-9.87578481426286],["younge",-9.876731782617766],["gas",-9.877143557643171],["Series",-9.879745656520933],["label",-9.8800229506726],["powerful",-9.880691769086276],["volume",-9.880907964761205],["reflect",-9.88128375350671],["floor",-9.881812532713052],["poem",-9.882063068949257],["Catholic",-9.882942115064601],["candidate",-9.883198091694851],["Games",-9.883369180060258],["difference",-9.884516059580793],["Home",-9.885097009722912],["books",-9.88528863398021],["premiere",-9.886983328997125],["formation",-9.887264784913295],["speak",-9.887266210677003],["maximum",-9.888605233623064],["quick",-9.8886971779559],["passing",-9.888811523530238],["things",-9.888978381049979],["Paris",-9.889362215999261],["naval",-9.890223224640103],["contribute",-9.890450874371549],["ver",-9.890610397679822],["Port",-9.890932786947186],["55",-9.891034511398507],["Middle",-9.891310931085883],["boat",-9.891626605576626],["weather",-9.891827088058943],["transport",-9.892542944087637],["Joseph",-9.892690944581055],["1945",-9.894875094372686],["disease",-9.894897244144056],["Ital",-9.895349679575848],["hospital",-9.895859359585355],["1920",-9.896452669269694],["Entertainment",-9.896516910423422],["innings",-9.896590399444982],["Museum",-9.89725644936721],["policy",-9.898530093210553],["1941",-9.900056113627276],["calling",-9.901371709263042],["Stephen",-9.902685792944217],["big",-9.902787355760257],["wise",-9.903338960981827],["vessel",-9.903772998954382],["armed",-9.904519705300919],["opportunit",-9.90465548738981],["52",-9.906242103879784],["thousand",-9.906616448476871],["150",-9.906823346896852],["nominated",-9.907339107353183],["Williams",-9.908219398308173],["Art",-9.909298122761468],["struck",-9.90981939259579],["acquire",-9.910752117181904],["inter",-9.911221655231165],["railway",-9.911285912510312],["contrast",-9.911976497743035],["birth",-9.912925260414047],["Ka",-9.913890915063204],["Con",-9.914904139325085],["background",-9.915144140261786],["caus",-9.915542540954739],["Production",-9.916167919140845],["protect",-9.916447687648962],["writers",-9.916641006443697],["Avenue",-9.917332415371353],["theory",-9.917494049222844],["battleship",-9.917499367190375],["treatment",-9.917641505105582],["reaching",-9.917733612439443],["ja",-9.918701939927162],["landing",-9.918932301078689],["student",-9.91991285102551],["bring",-9.920194237243338],["search",-9.92025504757171],["Becau",-9.92045075304389],["governor",-9.920790611755447],["retire",-9.920870193667064],["proved",-9.920904355008895],["Victoria",-9.922138211965596],["succeed",-9.922192236991759],["platform",-9.922615334202407],["Though",-9.922926644528388],["gaine",-9.92301984480059],["husband",-9.923554717143796],["foreign",-9.924127407704171],["Ireland",-9.924312209809985],["incident",-9.924621291377301],["begin",-9.924699534052026],["criticize",-9.924982314835612],["draft",-9.92532367678869],["stock",-9.925881222916209],["Republic",-9.92706161641131],["kill",-9.928286475891333],["houses",-9.928444252763661],["comic",-9.928568463319412],["native",-9.93085498869334],["laid",-9.932035150783365],["1989",-9.933010494587805],["establish",-9.9332351282629],["rich",-9.934190031395586],["gen",-9.934958097286778],["contact",-9.93569566827028],["surrounding",-9.936333852907401],["Show",-9.936827493055278],["recognize",-9.93696637604215],["sixth",-9.938257856253575],["1943",-9.938650396945672],["fuel",-9.939722756260583],["ceremon",-9.940225085104995],["44",-9.940678996780942],["visual",-9.941484796990155],["county",-9.941781312879199],["reaction",-9.943620592069385],["green",-9.943784863290512],["cruiser",-9.943950202158018],["organize",-9.944208008818983],["says",-9.94488450342197],["true",-9.944890357891627],["tree",-9.945707748155051],["citie",-9.946745839760027],["stop",-9.947336438365966],["website",-9.947768518816119],["secret",-9.947774206174039],["growth",-9.948013350248589],["Sam",-9.948509460057167],["fighter",-9.948816964981898],["records",-9.948944803628011],["Tropical",-9.949101339336744],["else",-9.950128982487335],["soundtrack",-9.950273759564158],["Valley",-9.951313513120216],["heavi",-9.951545919334114],["agreement",-9.95242341856145],["broad",-9.952578741016813],["dependence",-9.952682884553587],["supplie",-9.953240287374204],["Pa",-9.953772076825427],["offer",-9.954572704063448],["41",-9.95481422612783],["mind",-9.955342106963336],["equal",-9.955851753664883],["nomination",-9.955954699774876],["Van",-9.956344937786575],["Parliament",-9.956347587668276],["your",-9.958622625641564],["Dutch",-9.958929123425428],["murder",-9.959133406906545],["hire",-9.95950347856606],["focuse",-9.959625506743155],["residents",-9.962258392143584],["Week",-9.96290447035987],["vote",-9.96462249920071],["artillery",-9.964662912136705],["negative",-9.965925821279086],["Young",-9.967458649024184],["strike",-9.967594815849935],["Through",-9.967699719460587],["medical",-9.968389149054067],["define",-9.968709225324982],["alone",-9.970177081513357],["reign",-9.97048620127626],["creat",-9.971029137215636],["credit",-9.97105840204134],["comment",-9.971076475277686],["Carolina",-9.97112282280682],["uses",-9.972630020263983],["Top",-9.973981407516845],["failure",-9.974178895552736],["apparent",-9.975186582329965],["usual",-9.97531309853067],["senior",-9.975779198492898],["Governor",-9.976077397527988],["What",-9.97717842571359],["sources",-9.977211504127922],["represente",-9.977995353189264],["multi",-9.978352713287602],["limit",-9.978500525587181],["computer",-9.978777875642557],["affected",-9.979143713957933],["birds",-9.979313996099672],["spring",-9.980069775549584],["Fleet",-9.98054545924775],["Song",-9.980886743983545],["technique",-9.982651168414332],["kilometre",-9.983136481001228],["reviewer",-9.983986584378256],["formal",-9.985165763675766],["equipment",-9.985556427963083],["capacit",-9.986767935832324],["raid",-9.987623842539502],["pattern",-9.987805411000354],["Blue",-9.988010249899665],["600",-9.989715460430057],["serving",-9.990547108050128],["famous",-9.991467756342796],["approache",-9.992157386712393],["occupie",-9.992173501048235],["Admiral",-9.9923546598024],["greates",-9.99246335428392],["wicket",-9.9937718280635],["connect",-9.993781428992941],["Korean",-9.994057413705276],["page",-9.994115727503033],["Football",-9.994217694212663],["42",-9.994454645033406],["mile",-9.99455428527481],["Operation",-9.994588122162211],["mean",-9.994821985878804],["degree",-9.99538661505952],["feeling",-9.995398896305819],["Duke",-9.99550273642562],["weapons",-9.995653182111067],["wave",-9.995941627399487],["request",-9.99676850954844],["except",-9.99698458247426],["Castle",-9.997544545379359],["consiste",-9.997616534610504],["Bond",-9.997891438989702],["Mean",-9.998676108490825],["settlement",-9.99872764194134],["Northern",-9.999241165138672],["offensive",-9.999294328381291],["56",-9.999421471604697],["table",-9.999844605685247],["Storm",-10.000516100664859],["Prime",-10.00103684875212],["demand",-10.002045715336205],["Government",-10.003063293426086],["Upo",-10.00400642194582],["firm",-10.00469192238561],["struggle",-10.004906172991944],["slow",-10.005010060354728],["thick",-10.005185205054058],["thing",-10.005472921780711],["statement",-10.005713406860831],["killing",-10.006382616761703],["destroy",-10.007370306272435],["Homer",-10.008021073421833],["District",-10.008031926092713],["Mac",-10.00888015484424],["4th",-10.009984802433333],["grew",-10.010247950379838],["Men",-10.010560985992207],["BC",-10.010604864444817],["prisoner",-10.011400667505733],["sky",-10.01157974712342],["drama",-10.013614627517164],["deck",-10.014154686689228],["edge",-10.014244458079164],["maintaine",-10.015717301613753],["chi",-10.016098374597341],["factor",-10.016553075012274],["committee",-10.01684839161784],["girl",-10.01707743097217],["core",-10.01740042348533],["hop",-10.017432836674912],["Short",-10.018557327067851],["1987",-10.018886624331808],["Scottish",-10.01896390525432],["System",-10.019971772602755],["85",-10.02016582990437],["aspect",-10.021048080093024],["SR",-10.021223612353891],["chance",-10.022851758538287],["1988",-10.023359720847257],["Tech",-10.023540938471468],["hill",-10.023998814691495],["Fantasy",-10.024809424434162],["Chart",-10.025015333307639],["master",-10.02539345096925],["store",-10.025764191578551],["street",-10.026052942911557],["proposal",-10.02632509850502],["rail",-10.026847342113237],["bodies",-10.027320686076411],["visite",-10.027653763345642],["intersection",-10.027722972297587],["Background",-10.027925636024468],["bank",-10.028140535945324],["rise",-10.029226525790158],["treat",-10.02933056942305],["rainfall",-10.031291023322538],["supply",-10.032128561147564],["composition",-10.032631261099647],["incorporate",-10.032693077343604],["interchange",-10.033270750946084],["aid",-10.033551070393736],["therefore",-10.0340987397285],["assault",-10.034247995639657],["cap",-10.035534496640445],["twice",-10.036675294427265],["Polish",-10.036786944290117],["43",-10.038487390253318],["billion",-10.038494671910842],["losing",-10.038872834226037],["58",-10.039193113028597],["Joe",-10.040837028286704],["Senate",-10.040870675100095],["consecutive",-10.041024454991254],["compete",-10.042545417658213],["Christmas",-10.043245671684712],["heard",-10.043299254347117],["Festival",-10.043923521319103],["flag",-10.044389683818904],["opinion",-10.045291265156083],["Mike",-10.045421297962134],["Eastern",-10.046999172193445],["connection",-10.04710550880129],["chosen",-10.048250806764969],["Light",-10.04847439570532],["fiction",-10.048505396425336],["76",-10.048708553572617],["chose",-10.049117218801713],["Wilson",-10.050330903576175],["headquarter",-10.050447327186049],["origin",-10.051149567869713],["repair",-10.051334712272537],["tail",-10.051910771476647],["Pennsylvania",-10.052326912804867],["fine",-10.052436557261071],["ide",-10.052497073055394],["lap",-10.053079165164382],["text",-10.053447092830591],["expansion",-10.053533185611913],["CD",-10.053821548244002],["Taylor",-10.054416457549504],["Studios",-10.054493442183151],["camera",-10.054521879073413],["genre",-10.054571044386034],["herself",-10.054811442168248],["names",-10.05602921216673],["Due",-10.056786824058976],["rain",-10.057697803969864],["unknown",-10.058095004622809],["crime",-10.058735180001266],["1986",-10.061740640027624],["extra",-10.062466787137597],["Up",-10.063212190411138],["Alexander",-10.063263413721796],["Allied",-10.06340716405582],["Each",-10.063611044019444],["hands",-10.063704509134732],["nothing",-10.064197069122695],["environment",-10.064335483629822],["storyline",-10.064781899055449],["reserve",-10.065141222925044],["fellow",-10.065220122707451],["silver",-10.065917430756416],["simply",-10.066695099964411],["che",-10.066727639374324],["extend",-10.068927232384459],["adopte",-10.069569226398132],["genu",-10.06966027066741],["simple",-10.07025381626582],["growing",-10.070683632642915],["arms",-10.070836630316117],["holding",-10.071073361406494],["hair",-10.071532011304129],["SS",-10.072668173034293],["Night",-10.072954598880052],["consist",-10.07347052578828],["zone",-10.074064404118237],["opposition",-10.07422924860556],["crossing",-10.074715783601675],["Civil",-10.074928317954466],["95",-10.075197225057746],["civil",-10.075265337710515],["northeast",-10.075533373141585],["q",-10.07591734714796],["leaders",-10.0776385422186],["trees",-10.078274018604152],["council",-10.078322403276646],["draw",-10.07836083602442],["stood",-10.078811604624656],["tax",-10.079105091186994],["opponent",-10.079383974806897],["rated",-10.07950864618281],["basis",-10.080422789002272],["á",-10.080668664259496],["semi",-10.080979207150838],["fired",-10.08242525300884],["boy",-10.082683269208507],["MD",-10.083208187891536],["defend",-10.083641081551137],["accept",-10.084478491445125],["gate",-10.085225558634574],["Reception",-10.085253192048036],["budget",-10.085602673985703],["Railway",-10.085681324771432],["cultural",-10.085683960392158],["split",-10.087095784564621],["honor",-10.087573151005218],["expedition",-10.088366590406888],["Further",-10.089589209265627],["Irish",-10.089666593410788],["exchange",-10.090005693765246],["mon",-10.090066298950473],["Bob",-10.090649375098492],["Institute",-10.090857537984055],["containe",-10.091046886217038],["Doctor",-10.09203925449704],["choice",-10.092209163452742],["flying",-10.093978915262971],["abandone",-10.094393208575704],["9th",-10.094975141475324],["Ocean",-10.095236245723324],["administration",-10.095437054138815],["Harry",-10.096045001376941],["message",-10.096232672409382],["Jersey",-10.097598210608375],["unique",-10.098699595031574],["filmed",-10.099466376576723],["segment",-10.099869895724622],["Spain",-10.101026884819584],["rescue",-10.10113963383654],["criticism",-10.101153358028402],["Su",-10.102254261874698],["creation",-10.102805429784949],["beyond",-10.102841672453218],["considerabl",-10.102884875813078],["restore",-10.103292372233343],["drawn",-10.10341002766054],["convince",-10.10409636215854],["carrier",-10.104412048661576],["comes",-10.104972548402053],["doing",-10.105667354467963],["Four",-10.105699001121176],["Coast",-10.105860403643542],["93",-10.106174994677644],["rival",-10.106183005408079],["debate",-10.107182171009814],["assume",-10.107567671305238],["flow",-10.10773670752248],["coin",-10.10812008409591],["possibly",-10.110954360709714],["verse",-10.111610130273828],["motion",-10.112787001002593],["arrangement",-10.11329476067108],["Columbia",-10.114157100071592],["province",-10.114314084278485],["follows",-10.115377159216537],["Elizabeth",-10.116422802017631],["commissione",-10.116758505876767],["necessar",-10.11772170287362],["Wood",-10.117789164816118],["regarde",-10.118091832952437],["Can",-10.118744313210971],["broken",-10.118964079358737],["critic",-10.120250636204508],["advantage",-10.120438779441093],["warning",-10.120704048523724],["Out",-10.120914590999252],["Town",-10.120936372048957],["block",-10.122205998957797],["peace",-10.124039036638761],["Commission",-10.125275893297179],["Cambridge",-10.126161443223047],["mounte",-10.126174166969639],["favor",-10.127134684800735],["arrange",-10.127417436314783],["approve",-10.127477803378005],["walls",-10.127853686184785],["bird",-10.127996465934402],["item",-10.128046324819096],["Board",-10.128918952090942],["1985",-10.12896770094528],["counter",-10.12911022703863],["data",-10.12930212147821],["1968",-10.129369617261146],["personnel",-10.131191822443261],["repeated",-10.13183958773916],["Point",-10.132016924493584],["51",-10.132188911152001],["franchise",-10.132255944110579],["rear",-10.132883451970057],["desire",-10.13342822949398],["ldest",-10.133599253742306],["Arthur",-10.134364126354123],["twelve",-10.134675826664147],["nuclear",-10.1347328497362],["grante",-10.134986567904685],["Andrew",-10.136128235443211],["grow",-10.136273246608845],["accompanie",-10.136973368375655],["54",-10.137459223360294],["conference",-10.137486986174755],["management",-10.137530592082141],["surrender",-10.137830225212676],["Album",-10.13800790178798],["characteristic",-10.138346882291769],["leadership",-10.138476449654544],["parallel",-10.138592801991791],["800",-10.13861316003154],["Ohio",-10.139182675677942],["iron",-10.1392769034469],["graphic",-10.139463990891997],["actors",-10.13974387129821],["von",-10.141117143282266],["occasion",-10.141534443340003],["path",-10.141638378495308],["passes",-10.141663542500712],["contest",-10.14217464576089],["infantry",-10.142766794253047],["Will",-10.142907329336056],["description",-10.14293796260714],["settle",-10.142999755365922],["ong",-10.14343822732374],["Georgia",-10.14528849496909],["Li",-10.145716742627807],["Secretary",-10.146175500703416],["composer",-10.146543110793255],["crowd",-10.147716488897181],["oday",-10.148114764995942],["link",-10.148223906593202],["finding",-10.148525985316217],["perfect",-10.148632760647175],["northwest",-10.148642947669874],["1984",-10.149087888081835],["Single",-10.149102161564326],["ancient",-10.149749026944987],["Also",-10.150170667367894],["horses",-10.15075239907078],["ecurity",-10.150997644765422],["benefit",-10.151848017756603],["permanent",-10.152410395091085],["collapse",-10.15257175562709],["caught",-10.152843992114226],["vi",-10.153237494916658],["Order",-10.1539717675934],["Law",-10.154383222794761],["expande",-10.154435899258655],["Philadelphia",-10.15450640846248],["newly",-10.154528297185262],["height",-10.154971887603402],["Science",-10.156419645952814],["reform",-10.157106151872924],["arrival",-10.15724897286122],["96",-10.157288563862243],["alternative",-10.157775483315469],["Russia",-10.158068322358465],["lay",-10.159273439492226],["fast",-10.159481058270128],["centuri",-10.160290927036],["breed",-10.160340435736813],["comedy",-10.16093623690053],["brown",-10.16135255877936],["7th",-10.1623739922736],["solo",-10.162471069854792],["sell",-10.162973812952949],["Radio",-10.164008042482555],["ger",-10.164174504004777],["mentioned",-10.16471084267265],["Walter",-10.16511634989771],["stations",-10.1655726390867],["mountain",-10.165737234461323],["Never",-10.165767041681574],["investigation",-10.1658607665484],["seventh",-10.166508177003493],["ric",-10.16741144216384],["determined",-10.167652384886628],["5th",-10.167726458524607],["familie",-10.168068231749283],["reveal",-10.168090830074537],["Asia",-10.168186437049327],["planet",-10.168800328678762],["66",-10.169318318051703],["affair",-10.169362669241465],["quite",-10.170508333325376],["fair",-10.17103013064668],["Grant",-10.17112629480014],["generation",-10.171137685100888],["defensive",-10.171240786212914],["1967",-10.172327059596197],["People",-10.172793805035665],["bus",-10.173368538040421],["finish",-10.173842621714789],["recommend",-10.174463695851765],["Pre",-10.174516801707476],["trip",-10.175414163538177],["encourage",-10.175482065357425],["rejecte",-10.17557524506075],["Development",-10.175679798942683],["producers",-10.175685515459858],["occasional",-10.176579134574752],["prison",-10.176603995707092],["Square",-10.178052524083212],["sides",-10.178499975161365],["Dan",-10.179056487335494],["shooting",-10.179633881494809],["Ottoman",-10.179765272377695],["Among",-10.179887892567638],["Liverpoo",-10.180094773369255],["colour",-10.180853735518069],["Hu",-10.180915227710027],["refer",-10.181347032817381],["wild",-10.18285180105477],["Office",-10.182927889954192],["Nintendo",-10.182949900368575],["Lewis",-10.18308702317287],["watch",-10.18391841834363],["emerge",-10.18434917236387],["plays",-10.184430377940705],["Ten",-10.184887704373123],["attribute",-10.18529809811283],["protection",-10.1855235793039],["Field",-10.1859449671123],["turret",-10.186093117810431],["formula",-10.186673951804954],["temple",-10.186903306024368],["econom",-10.187168723904989],["Carl",-10.187973847916405],["dollar",-10.18809715450285],["piano",-10.188663088525995],["casualt",-10.189266563843434],["Lieutenant",-10.189642013775535],["Additional",-10.190128602306705],["protecte",-10.192700317416946],["urban",-10.192737675388097],["instrument",-10.193327999189119],["ang",-10.193693475400634],["supporter",-10.194060373480644],["transferr",-10.194378238121585],["ization",-10.194731153544248],["Lincoln",-10.194792178267967],["touchdown",-10.195525585984559],["flat",-10.196238765126628],["faste",-10.196288922853746],["gradual",-10.196806671301802],["appeal",-10.19776734203822],["Har",-10.197928808101473],["98",-10.19848128438955],["specimen",-10.198971648864196],["ard",-10.199682897641782],["device",-10.199839702947127],["Gulf",-10.200033717929056],["dedicated",-10.200234446539824],["invite",-10.200567827305099],["brigade",-10.200569238215705],["Jewish",-10.202569637113038],["ful",-10.202776198280452],["ji",-10.203066580133784],["Anderson",-10.203508650589965],["skin",-10.2039298363136],["intensit",-10.203932102776708],["Good",-10.204516197376305],["Francisco",-10.204597535235843],["Miller",-10.204655499859904],["Jean",-10.205139393444753],["graduate",-10.205893405834807],["plants",-10.205967879141529],["connected",-10.206418187160331],["Steve",-10.206671332291554],["Bank",-10.206725051147927],["victim",-10.206795855199553],["Pop",-10.206813131959402],["carry",-10.207788440639783],["1969",-10.208463010147128],["Earl",-10.208489012679333],["publication",-10.208638788224162],["62",-10.209100464765486],["partial",-10.209343322576363],["rank",-10.211167868192959],["ultimatel",-10.211345289009921],["craft",-10.211412632720581],["household",-10.212619299652356],["Carey",-10.212624664144327],["Disney",-10.212626148449683],["Brian",-10.21279634370462],["Davis",-10.21295811858573],["eyes",-10.213118483776208],["derive",-10.215465082054255],["Emperor",-10.216879102057781],["ker",-10.218092827073088],["Book",-10.218311991756964],["torpedo",-10.218700770915941],["Conference",-10.218707996787103],["HMS",-10.218974488707746],["PlayStation",-10.219143419804455],["1914",-10.21942755281961],["branch",-10.219894136003711],["1918",-10.22116751655792],["representative",-10.222002183805694],["promise",-10.222095006950425],["1982",-10.222574625483563],["73",-10.222774035398553],["120",-10.224059178007492],["1971",-10.224193859177392],["disc",-10.224374328594376],["guard",-10.22442314730411],["count",-10.224482815860494],["goes",-10.22514842457879],["watche",-10.225306483030643],["escort",-10.225801921775181],["controlle",-10.226276015199444],["1966",-10.226488760723548],["receiv",-10.227619557229412],["1972",-10.227761318424106],["grade",-10.227777545043054],["constant",-10.227903077803889],["super",-10.228444850726609],["1979",-10.228705164631515],["Bell",-10.229478734750256],["promotion",-10.229923193668045],["provid",-10.230293714729155],["farm",-10.23091269684744],["analysis",-10.230932335763889],["yellow",-10.231543637827842],["injure",-10.23184770399865],["sports",-10.233119643333087],["editor",-10.233304264076759],["83",-10.233551435232917],["submarine",-10.233715618901048],["throw",-10.234538805945121],["stream",-10.234826686159726],["accident",-10.234953990535724],["department",-10.235362795111854],["cancel",-10.235934354342048],["riving",-10.236689298484885],["trains",-10.236938535906035],["applie",-10.23769329765365],["document",-10.237831551554535],["fruit",-10.238719936843282],["ensure",-10.238998509348027],["ridge",-10.239196207755144],["1965",-10.239243298158893],["steel",-10.23988091518847],["NHL",-10.240453317547844],["FA",-10.240499441828739],["notable",-10.240643875197451],["#",-10.240711763331525],["systems",-10.241167795296874],["unusual",-10.241179094879254],["walk",-10.241696499031525],["surprise",-10.242168845546523],["61",-10.243225300185891],["combination",-10.243360484987477],["Boy",-10.243526918260896],["que",-10.243711854097942],["cha",-10.244102837257282],["1975",-10.2441280292013],["ban",-10.244462305273059],["upgrade",-10.244582904466984],["religion",-10.2461324072376],["Original",-10.24613999861163],["Onc",-10.247072850163672],["types",-10.24722077904094],["bomb",-10.247403772541547],["57",-10.24797051900898],["53",-10.248009509791968],["Gold",-10.248052937364555],["Christ",-10.24840486608515],["singing",-10.248841403170049],["headed",-10.24998593811995],["Han",-10.250306287122005],["Hollywood",-10.250347070391419],["decide",-10.252020704379243],["narrow",-10.25206164033429],["lane",-10.253750072189957],["boats",-10.25376988172899],["Station",-10.254008604669899],["1974",-10.25430578203402],["shore",-10.2543762861573],["hotel",-10.25454407192975],["mar",-10.254597195423495],["ideas",-10.254852377269954],["credite",-10.254999884685308],["protest",-10.255098378259888],["digital",-10.25620592910321],["entrance",-10.256652609672829],["IV",-10.256973347264024],["assistant",-10.257557014436447],["price",-10.258351158826843],["lives",-10.258575995830663],["1973",-10.25905895081175],["pit",-10.259330501102264],["Democratic",-10.259825552960908],["Way",-10.26022586471783],["destroyer",-10.260770831729712],["Singapore",-10.261050633050326],["cricket",-10.261214616176492],["250",-10.261576650676979],["67",-10.261810059356359],["programme",-10.262217543425434],["ends",-10.262285057803687],["59",-10.262539805111556],["mark",-10.2630254735236],["72",-10.263483042338393],["Daily",-10.264312234892058],["Press",-10.264324627563925],["turns",-10.264756355076269],["Between",-10.265126319097387],["Lady",-10.26571919930615],["Supreme",-10.266192195736101],["vision",-10.267082972397006],["domestic",-10.26777828290364],["1976",-10.268230606358927],["generate",-10.268264756861361],["rose",-10.270415463190018],["belief",-10.27056148436482],["judge",-10.27142418344404],["phase",-10.272060774791827],["task",-10.27302179895679],["launch",-10.273089482110933],["Lu",-10.273563435922105],["99",-10.273708655820526],["garden",-10.274092278276619],["passage",-10.275659168169],["basic",-10.275903039170437],["grant",-10.275940863036865],["Colonel",-10.27649712784698],["Rose",-10.276537800748827],["Age",-10.277487079160709],["employe",-10.278893322327923],["pound",-10.279272065330161],["pitch",-10.279523692428794],["Wall",-10.279894229702291],["wait",-10.28064644156687],["Women",-10.281366076631631],["fille",-10.281625101473843],["literature",-10.281884691558187],["knot",-10.282041097352188],["berg",-10.282091204746068],["Summer",-10.282539703025222],["union",-10.28343207667419],["exact",-10.28358523921444],["Muslim",-10.283622648618518],["unlike",-10.283962398326688],["coal",-10.284829418324552],["Mount",-10.285643118382348],["slave",-10.285709938405908],["viewe",-10.285798883579549],["echnology",-10.28595804959827],["Clark",-10.286206195738318],["flower",-10.286210045211973],["adding",-10.2866197051006],["scientific",-10.287098123703885],["Matt",-10.287215998053465],["Daniel",-10.287774362704159],["principal",-10.287842691587834],["Beyoncé",-10.287971393564732],["Simon",-10.288213307411322],["introduction",-10.288765013570139],["actress",-10.288842963208431],["unsuccessful",-10.289168666860018],["museum",-10.289289259178858],["consists",-10.28943689391757],["habitat",-10.289887147183697],["responsibilit",-10.290151894188815],["arm",-10.29036339246051],["resistance",-10.290897606808022],["Gar",-10.290970270650888],["converte",-10.291110224775611],["cited",-10.29163527364718],["Special",-10.29190571681974],["channel",-10.292193384898647],["prepared",-10.292897201893908],["reputation",-10.292995946762781],["68",-10.29309655594183],["distinct",-10.294208020615772],["adaptation",-10.294565582798883],["burn",-10.295044613656913],["rename",-10.295452053295428],["selection",-10.295552667105712],["drew",-10.295600654850833],["ated",-10.295702463709734],["anything",-10.296707707949365],["Cape",-10.296730508438833],["shire",-10.297757693113677],["campus",-10.297860290906621],["sequel",-10.29871037257597],["distribution",-10.299605482155632],["losse",-10.299729144635032],["possibilit",-10.300522967045884],["communication",-10.300848978594576],["Kentuck",-10.301364576605312],["straight",-10.302063280905983],["daily",-10.302833575064007],["1946",-10.302983214362976],["gameplay",-10.30300742726284],["1981",-10.303395787921069],["journalist",-10.30356932697446],["realize",-10.30372203750824],["87",-10.30389609671074],["knew",-10.30395005643518],["produc",-10.305164122678084],["Airport",-10.306203261561322],["Who",-10.306241322365603],["−",-10.306450019447293],["driver",-10.307162316666274],["here",-10.307542726384286],["perhap",-10.307783589709288],["freeway",-10.308099275298787],["1950",-10.308265062018808],["capable",-10.30862493313317],["sample",-10.308730595569461],["PA",-10.309719690601742],["extension",-10.31006409931752],["Norway",-10.310173649939658],["survey",-10.310965141917054],["mine",-10.311326118177048],["canal",-10.311334423869818],["industrial",-10.311759443739616],["reading",-10.311957792278092],["map",-10.313316397391949],["bomber",-10.313380228427103],["Golden",-10.314011134878125],["existence",-10.314485676003494],["didn",-10.31518751852235],["1917",-10.316416317406123],["register",-10.316496647976777],["shell",-10.316694265410975],["preserve",-10.31673353434989],["fun",-10.317043206194311],["southeast",-10.317332283172885],["cold",-10.317532717689035],["hip",-10.317589318850878],["roads",-10.317688885271407],["operating",-10.318185008458203],["joint",-10.31846881557446],["63",-10.318808125844493],["responde",-10.318915129150469],["Bowl",-10.318983180496152],["mode",-10.319742106441975],["Public",-10.319761444075924],["Massachusetts",-10.319862537437034],["Rome",-10.320615382800526],["missing",-10.321465822900992],["contribution",-10.321488498022125],["collected",-10.321753368230464],["asily",-10.321942830013121],["turning",-10.32195363042984],["6th",-10.321981800261456],["controvers",-10.322089423572878],["journey",-10.322115553024735],["spot",-10.322229477016165],["depth",-10.322720928025404],["knowledge",-10.322722462453516],["politic",-10.323256836824427],["option",-10.323308901673839],["internal",-10.324289544042314],["depend",-10.325078910817382],["Video",-10.326063814406238],["700",-10.326110492376005],["burie",-10.326243019942504],["stadium",-10.326412712366938],["77",-10.326462532358493],["theatre",-10.327877700502087],["Even",-10.328022405178315],["provides",-10.328312166911646],["entry",-10.328734986297924],["finds",-10.329270962701608],["lies",-10.329735683986453],["curve",-10.33002908854218],["tank",-10.330362326327156],["Ray",-10.33078779235386],["Main",-10.331238010616575],["1948",-10.33136710223424],["bass",-10.331967455319441],["hat",-10.33264408741495],["owner",-10.332750791920695],["retaine",-10.333034465214954],["compound",-10.333703023791466],["About",-10.334599767832547],["winner",-10.334738960656825],["fear",-10.335695621116074],["festival",-10.335969964044857],["Dark",-10.336231392336783],["Par",-10.336532552169327],["association",-10.336536757562632],["78",-10.336560274824066],["Mu",-10.337816819974174],["69",-10.337961905368825],["End",-10.338099496586402],["islands",-10.338829375284847],["79",-10.339046451432665],["bowl",-10.340491060402734],["depict",-10.340591344336337],["calls",-10.340979993157589],["chapter",-10.34170401954323],["und",-10.341886461276301],["sustaine",-10.341962361429164],["Power",-10.342364670031916],["fresh",-10.34251474199543],["Moore",-10.343601663618522],["learned",-10.343728608577441],["Byzantine",-10.34380063366878],["pursue",-10.34385533169496],["1978",-10.34397249093035],["drop",-10.345084850436923],["ington",-10.345502586199371],["surround",-10.345710310533592],["baseball",-10.34597087880139],["moderate",-10.345989383334427],["sentence",-10.346208858296833],["inner",-10.346364130316944],["warm",-10.346975792272483],["violence",-10.347065427814144],["Imperial",-10.347470986284296],["94",-10.349054412813391],["Du",-10.34941056919629],["handle",-10.349643764193752],["bottom",-10.349786993776103],["Justice",-10.349858631148233],["MTV",-10.350514120694656],["Bart",-10.350603841939167],["institution",-10.35089376803628],["breeding",-10.351354746405503],["Jay",-10.352105558102096],["tube",-10.3522037565664],["Director",-10.352467429443921],["carrying",-10.352847342139915],["technical",-10.353040524512052],["penalt",-10.353183368212328],["strateg",-10.3536787254032],["Arab",-10.354006790194923],["safet",-10.354031652546167],["Sunday",-10.354381946084919],["accuse",-10.355163643396242],["Cor",-10.355360498203158],["entitle",-10.355373795746827],["coastal",-10.355590494284657],["code",-10.355609322911285],["Naval",-10.356334329351752],["Sydney",-10.357235088173514],["1977",-10.357692686579819],["opera",-10.358461904223459],["Maryland",-10.35883730366711],["landfall",-10.35953608024176],["plate",-10.359735334729088],["exhibit",-10.359747829391878],["classic",-10.360250925629032],["signal",-10.360381648669659],["Water",-10.360877616274063],["raising",-10.361693977667809],["wear",-10.361701903329472],["scheme",-10.361899514399335],["Poland",-10.363034560382907],["1950s",-10.363601894290511],["AD",-10.363725147969554],["afterward",-10.365375073051448],["ride",-10.36542848181357],["experiment",-10.365912359555827],["Not",-10.366989914153471],["application",-10.367567436321137],["symbol",-10.36826163161742],["southwest",-10.368441045525847],["playoff",-10.368807146418852],["1963",-10.369229279285793],["Col",-10.369242517493973],["Albert",-10.369259723008994],["Alan",-10.370551571200942],["showing",-10.370801065310369],["resource",-10.37081562520461],["88",-10.370923420782868],["demonstrate",-10.371166113823973],["Space",-10.371402286178615],["Recording",-10.371586454443154],["protein",-10.371841494579556],["gu",-10.372511610122384],["Theatre",-10.372553223950531],["battery",-10.373444197721815],["favour",-10.373648912689246],["secondar",-10.374424127369872],["expand",-10.374800244011771],["gar",-10.375728042442873],["Far",-10.375862955991094],["bigge",-10.376409876264738],["quipped",-10.376669877587561],["Moon",-10.377103521980057],["denie",-10.378551117383036],["acres",-10.379078125342623],["Fire",-10.379375912748168],["Mulder",-10.380396463052822],["Gordon",-10.38040106150226],["dominate",-10.380754436203418],["Simpsons",-10.380810085111957],["interested",-10.38097582949319],["evening",-10.380977600926935],["lake",-10.381768569586198],["respect",-10.382498909157253],["file",-10.3826533730714],["cycle",-10.38287931674687],["scientist",-10.384708671003457],["delivere",-10.385626638935245],["attract",-10.385821980524309],["improvement",-10.386345499503403],["74",-10.386920038478628],["progress",-10.387544133887571],["transition",-10.388027820156116],["stoppe",-10.388285358789098],["Stadium",-10.388800365979801],["roof",-10.389774398046018],["Just",-10.38983330187078],["venue",-10.390233755949112],["wealth",-10.390600028286832],["exercise",-10.391143206111334],["1962",-10.391834987839744],["1919",-10.392049287707904],["lands",-10.392077442793202],["partner",-10.392989229685487],["honour",-10.393777058269082],["substantial",-10.393875305296545],["online",-10.394118609794628],["essential",-10.396302378757932],["civilian",-10.396795199807087],["fashion",-10.397117348795637],["commission",-10.39727827089074],["argument",-10.397556779792987],["Prior",-10.398066310199392],["Adam",-10.398420888813767],["boundar",-10.399461886325007],["97",-10.399605810086456],["1938",-10.400285109694408],["glass",-10.401264822425661],["Sound",-10.40135143261004],["adapted",-10.402556563800342],["86",-10.402762314467587],["Egypt",-10.403109319718551],["chemical",-10.40313166496624],["Critical",-10.403315693848345],["UN",-10.403360150140037],["Free",-10.403535403498418],["threatene",-10.405723031538873],["mere",-10.40615269255322],["installe",-10.406201350964048],["exclusive",-10.406311452732604],["Command",-10.406776684467484],["sufficient",-10.406831883925761],["pick",-10.407517741499268],["ach",-10.407765608548381],["establishment",-10.40816054236978],["Eric",-10.408456031718782],["download",-10.40866193314292],["replacement",-10.408680774815654],["kingdom",-10.408786470810192],["employee",-10.40909180247833],["Your",-10.409246638173029],["relief",-10.409515314820714],["dispute",-10.410063596068614],["animate",-10.411652271069357],["door",-10.412060774323146],["mention",-10.413574647333204],["lan",-10.413720547628028],["duty",-10.41389083594075],["acid",-10.414000923079783],["bu",-10.414872922045593],["deploy",-10.415022361664455],["weak",-10.415026188311266],["component",-10.41543160052782],["les",-10.415566972025012],["Tony",-10.415789111133435],["continu",-10.416053776457618],["equivalent",-10.4161747053903],["eliminate",-10.416598840324532],["Cha",-10.41660010858121],["ung",-10.416775420588706],["airport",-10.417398320224057],["teacher",-10.417922446051707],["Memorial",-10.418408389309313],["ised",-10.419076874232339],["Chi",-10.419124128384123],["portraye",-10.41916219057883],["rang",-10.419749091241323],["Girl",-10.420139282184659],["89",-10.420278604921155],["academic",-10.420357429880033],["1956",-10.421132098160259],["Part",-10.421358037009416],["admitted",-10.421594496858312],["visible",-10.42204409673814],["belt",-10.422080863015273],["Songs",-10.422670685284537],["catch",-10.422983942209342],["Garden",-10.423143977848172],["recalle",-10.423172237870528],["global",-10.423217881388425],["importanc",-10.423287185720962],["classification",-10.423731062108068],["Norman",-10.423878997614102],["NBA",-10.424051220152483],["retreat",-10.425314910791437],["Beach",-10.425945657433145],["Mountain",-10.426242691410012],["IGN",-10.427654754900422],["buy",-10.427880939728466],["Hungarian",-10.428144926479844],["picture",-10.42902235524913],["departure",-10.429154996518417],["remainder",-10.429412199755138],["librar",-10.429999794073922],["Plot",-10.430554403135192],["plane",-10.430867626751724],["1936",-10.431277035210952],["armor",-10.43158294971806],["Militar",-10.431658773047994],["Douglas",-10.43191749507402],["Play",-10.43238404778139],["Hamilton",-10.432418281502697],["misse",-10.43250573304823],["distribute",-10.432516478886592],["Sky",-10.432659867736879],["arreste",-10.433102556019042],["wearing",-10.433705604973746],["manner",-10.433773673570279],["attache",-10.43385937852713],["celebrate",-10.434020056484512],["retain",-10.434201293057848],["brain",-10.434512693320555],["seek",-10.43533435048534],["convoy",-10.435945284774203],["proper",-10.43608794571372],["poet",-10.43632343906263],["Ross",-10.43728538850896],["ready",-10.43739001685616],["designer",-10.437718886966945],["Ham",-10.438086078905231],["UTC",-10.438327501609068],["relations",-10.438857718318213],["observation",-10.439249208559284],["Philip",-10.439313763636784],["Kennedy",-10.43953212997014],["attain",-10.44029505233105],["preparation",-10.440604001861548],["Base",-10.440926840711748],["talk",-10.441114633078794],["qua",-10.441393765734512],["Mill",-10.441449469667447],["Bush",-10.441735399486468],["jo",-10.442075714873516],["Roger",-10.442343808267593],["chorus",-10.442365475988776],["emotional",-10.442581406651966],["voted",-10.442615508943733],["drug",-10.44304325930864],["tunnel",-10.443178905776303],["classe",-10.443952660452128],["Kent",-10.4439836028204],["Fame",-10.44423795047017],["1961",-10.444284151093708],["suit",-10.444337563831947],["Forest",-10.444356297795444],["describ",-10.444714195169018],["Giant",-10.445159299242793],["champion",-10.445184702748886],["Revolution",-10.445262282851155],["memor",-10.445648558844056],["drawing",-10.446084744768127],["intention",-10.446193335326235],["par",-10.446582663653466],["Howard",-10.44660289915386],["laste",-10.446937174215453],["Death",-10.44696657907264],["sites",-10.447302874747313],["outer",-10.447541700749225],["climate",-10.448151298204378],["Land",-10.448666909866109],["Maria",-10.449443189542839],["youth",-10.44965532994057],["AAF",-10.450220159946957],["Arts",-10.450321176889437],["1953",-10.451705876447388],["pan",-10.451732286689785],["medal",-10.451976171711262],["corner",-10.452077088432608],["Adams",-10.452147122713225],["safe",-10.452182455584902],["Today",-10.452248669386629],["determine",-10.452392942575948],["everyth",-10.452489405530017],["Media",-10.452766602834815],["instance",-10.453226235053425],["cent",-10.453266459242451],["exception",-10.45328590737173],["climb",-10.453881135172068],["84",-10.454031738314372],["Magazine",-10.454053218935853],["sole",-10.454126582241724],["dutie",-10.454627724265753],["rural",-10.455416228577167],["Project",-10.455738115573455],["Tim",-10.455825052955934],["Back",-10.45595331347166],["remember",-10.456985079449794],["breaking",-10.457121247391285],["explore",-10.457154942695388],["Initial",-10.457670554882425],["Ver",-10.457702077571941],["decrease",-10.457707084961706],["singles",-10.457902645134542],["roles",-10.458076362569269],["Five",-10.458261373641045],["Master",-10.458391118114314],["involv",-10.458908962695135],["views",-10.459119764550366],["rules",-10.460036897813222],["notice",-10.46012391874254],["brand",-10.460151970812564],["identity",-10.460583119476953],["Scully",-10.460772989521985],["stronge",-10.460940908065204],[">",-10.461544854549878],["cars",-10.461646257454959],["moral",-10.46210593246452],["Norwegian",-10.462582602767123],["Hitler",-10.462582604503444],["160",-10.462826792129556],["recognition",-10.462854243902033],["Head",-10.46426078414779],["discusse",-10.464393746414792],["correct",-10.464471284628083],["regiment",-10.465120320953076],["Ann",-10.465358438056523],["freedom",-10.465461635045237],["130",-10.465898077698405],["1947",-10.466862254700832],["eighth",-10.467522391512622],["soul",-10.467630992284763],["1937",-10.467660352816397],["conclusion",-10.467787559178479],["patrol",-10.468440944255425],["1958",-10.468510672322868],["regional",-10.468608113630193],["Ryan",-10.468695744118616],["step",-10.468760134500792],["concerned",-10.46905246484709],["Dis",-10.469788996052962],["convention",-10.46989953978074],["founder",-10.470134380291169],["spirit",-10.470706982383767],["Research",-10.471377993018974],["committe",-10.471445059524568],["enemie",-10.471714503405035],["WWE",-10.471974285330006],["04",-10.472222512688164],["Mexican",-10.472757502263734],["execute",-10.472887131154613],["Ken",-10.473692202210895],["DE",-10.474053798670829],["ticket",-10.474102853938051],["1957",-10.47414955192402],["delay",-10.474511867681649],["91",-10.476426900916119],["ical",-10.476721740461103],["certifie",-10.47696199064548],["Assembly",-10.477421446912178],["memorial",-10.478038252191661],["visitor",-10.478761291291525],["1910",-10.479670692799923],["row",-10.479862623445026],["82",-10.480085838289975],["bury",-10.480675800849774],["Cleveland",-10.480785120367711],["Dean",-10.480841392011277],["Pan",-10.481173834043734],["Rolling",-10.481249007450758],["Illinois",-10.48250731266519],["sons",-10.483410779497246],["restaurant",-10.48356698140128],["offers",-10.485271912543821],["tanks",-10.485282451993188],["someone",-10.485364042817523],["behavior",-10.485468137014067],["prey",-10.485913752895899],["grand",-10.485967947289877],["shoot",-10.486081829370068],["string",-10.486867271587537],["Arsenal",-10.48781721887192],["<",-10.488616152755009],["intelligence",-10.488616152778157],["Sha",-10.488833416219784],["hearing",-10.489114957428917],["criminal",-10.489149144813497],["sale",-10.489438559926743],["Ku",-10.49011575725647],["solution",-10.490639718232655],["izing",-10.491010214566517],["atmosphere",-10.49101683910068],["foundation",-10.491061077734114],["panel",-10.491302297884781],["predict",-10.49136605431406],["Kong",-10.491394011319544],["Review",-10.491973092219759],["kick",-10.49199877477435],["phone",-10.492110827764566],["circulation",-10.492621756877359],["1959",-10.4937519860294],["Stanley",-10.494008252116487],["”",-10.494762617819918],["Bruce",-10.49494271433281],["Sal",-10.495125690257524],["doctor",-10.495378165377065],["load",-10.495763275027338],["ju",-10.49585239560668],["bow",-10.495912903272778],["favorite",-10.496141827624472],["principle",-10.496652680449811],["valley",-10.496760792366903],["cal",-10.496953155944123],["Third",-10.496979488343815],["Max",-10.497866507451857],["Morgan",-10.497877222004986],["literar",-10.498870299186768],["attend",-10.499041506972437],["Family",-10.49933016410313],["resume",-10.499432012063847],["Allen",-10.499982331720023],["inspiration",-10.500551407699113],["terminus",-10.500792543660918],["81",-10.500827632501224],["Kevin",-10.500948068883474],["trouble",-10.50137630003444],["documentar",-10.501409272181933],["1954",-10.501416500181024],["Iron",-10.501607474377925],["opposite",-10.501762047878284],["successor",-10.501805082460281],["Per",-10.502128718369663],["Mediterranean",-10.502566747801295],["completion",-10.502847412396713],["supposed",-10.503143753670242],["1955",-10.503200464769419],["Channel",-10.503380434137187],["throne",-10.50358478578944],["circle",-10.503738638585832],["Bristol",-10.5044611643156],["bough",-10.504650245947664],["“",-10.50500115526401],["Release",-10.505006212174472],["poste",-10.505007805892598],["Beatles",-10.505625486480877],["SBN",-10.505826765402123],["ō",-10.506114470045276],["massive",-10.507035070860521],["expose",-10.507160374899064],["classified",-10.507296404682439],["mal",-10.507473575838938],["surviv",-10.507666020246026],["Premier",-10.507902359265323],["Korea",-10.508285590543226],["sistance",-10.509045124211527],["possession",-10.509338379136492],["card",-10.509679264801173],["arc",-10.509774214561576],["saile",-10.510166744056265],["exit",-10.510969376991014],["patient",-10.511073927323071],["minister",-10.511475201785064],["electronic",-10.511931912022023],["ö",-10.51194704483445],["citizens",-10.512171613917303],["deliver",-10.512257077143746],["Bishop",-10.512350791282495],["weapon",-10.513044370669252],["income",-10.513131270332085],["spoke",-10.513206085356437],["Marine",-10.514268732191251],["Anne",-10.514451587461496],["thirty",-10.51452996061832],["merchant",-10.515362720766502],["án",-10.515863843599748],["dated",-10.516605819311566],["Jeff",-10.516895383695122],["talent",-10.517719295648632],["downtown",-10.517923583802052],["roll",-10.518488586135366],["objective",-10.518979448615164],["×",-10.519733381791022],["destruction",-10.519733704013127],["dating",-10.520012982130952],["interior",-10.520048903915015],["acts",-10.520602742188554],["Cap",-10.521105609148346],["ranking",-10.521334429699749],["Nick",-10.52402630374067],["Six",-10.524593700345042],["Temple",-10.524660803782847],["Robinson",-10.524709711593184],["Lisa",-10.525557580430782],["PC",-10.52594347786687],["gone",-10.526125891648798],["males",-10.526630954241908],["creator",-10.526642829282212],["propertie",-10.526890045316863],["Americans",-10.528426806505918],["begun",-10.530105451971917],["Jane",-10.530744948075803],["alleged",-10.530749937255994],["Inter",-10.53147808563895],["batt",-10.531553662046726],["1952",-10.531799282589152],["address",-10.531981052081807],["bringing",-10.532812506460589],["16th",-10.532941855104326],["restrict",-10.533148278259674],["Francis",-10.533445674505098],["earning",-10.533528880936682],["CR",-10.533576695655645],["Now",-10.533953958295244],["sort",-10.534113727591357],["withdraw",-10.534185295674543],["trained",-10.534629362499933],["Horse",-10.535531868341021],["13th",-10.535772308766134],["romantic",-10.535809341627846],["laws",-10.536248007851277],["Philippine",-10.536408217075305],["finishing",-10.536439682814711],["dismisse",-10.536539954253316],["garrison",-10.53664070533219],["narrative",-10.537479600285984],["frame",-10.537995671701202],["commande",-10.538449007348344],["DNA",-10.538549421574508],["Oregon",-10.539995047944839],["cavalry",-10.540000595789618],["Unlike",-10.540678628098657],["Television",-10.541973442568615],["1933",-10.542259152602325],["Construction",-10.542527975261969],["Winter",-10.542647318568656],["profit",-10.543123686261584],["Similar",-10.54337185989949],["borough",-10.543518439810658],["discuss",-10.545388452212867],["71",-10.545531946344012],["Nelson",-10.54593810140586],["shark",-10.546246231958449],["Tower",-10.546764242598783],["110",-10.547336661841541],["fitte",-10.548440049102238],["gay",-10.5491806041977],["heat",-10.54951170451019],["investigate",-10.551529815982338],["Sweden",-10.552158516341796],["ear",-10.552215484659147],["homes",-10.552674803569042],["Ex",-10.552961712451175],["flank",-10.553617355327567],["1935",-10.554141865567713],["Patrick",-10.554174926013943],["eleven",-10.554555265469485],["Around",-10.555028111060366],["animation",-10.556717648303241],["Toronto",-10.556737356424708],["staye",-10.556869805257703],["Jon",-10.55751601587235],["Ron",-10.557843969714625],["Welsh",-10.559564302164949],["1949",-10.559636476172159],["1951",-10.560164546758108],["Del",-10.560459028250182],["fictional",-10.561585237377768],["collect",-10.56183307070615],["controversial",-10.562152980695746],["Tri",-10.562206727107167],["ure",-10.56247204506408],["pool",-10.562596960346346],["Kim",-10.56269128427051],["chain",-10.562833063007085],["appointment",-10.563273136550634],["ck",-10.563508112166295],["estimate",-10.563616426879465],["protagonist",-10.563841795600734],["predecessor",-10.564703723921948],["92",-10.565369900233586],["outbreak",-10.565452832059899],["hope",-10.565705946873786],["Knight",-10.565780516987939],["Cal",-10.565836884242358],["organisation",-10.56609910239427],["Sports",-10.566271924744429],["sure",-10.56638639993293],["anniversar",-10.56643009479367],["rebel",-10.567134076544372],["Jordan",-10.567291060239704],["dates",-10.569053162447615],["seeing",-10.569141811960883],["photograph",-10.569511013025034],["classical",-10.569836027907337],["Matthew",-10.569940121635472],["consistent",-10.570038047358748],["orbit",-10.570270319109529],["Victor",-10.570434132191128],["basketball",-10.57048575182254],["soil",-10.57160574298818],["spin",-10.571775062269523],["Ru",-10.57245468381597],["Netherlands",-10.572952385897429],["wor",-10.572999806141015],["Mon",-10.573301123797446],["giant",-10.57358103541505],["Engineer",-10.57428181870201],["remark",-10.574792817272405],["mitted",-10.575315934341912],["chamber",-10.576314377111792],["sleep",-10.57705907295969],["Every",-10.577647920743546],["monument",-10.578036497855486],["architecture",-10.57861673326364],["Morris",-10.58066920435987],["lock",-10.580748403171375],["enable",-10.58197663698594],["cancer",-10.582419081469677],["cloth",-10.5832541505884],["Centre",-10.583290290839765],["pitche",-10.583573557892626],["fossil",-10.584016848198635],["MP",-10.584122758074574],["sharp",-10.584182809034937],["teaching",-10.584324935158895],["license",-10.584388522809265],["listing",-10.585557211846108],["temporar",-10.58566184096382],["1900",-10.585858051495665],["injurie",-10.586274445347554],["Russell",-10.586900329988588],["tries",-10.586902982046864],["waters",-10.587230705788127],["pure",-10.587294994472277],["discussion",-10.58749365887543],["ested",-10.587531844360242],["Jews",-10.58830898238276],["solid",-10.588470857761461],["Wild",-10.588833968507213],["absence",-10.588855362426235],["Nations",-10.589257283889536],["athlete",-10.590327506617736],["Wright",-10.591060666151717],["comparison",-10.591213587727994],["Cole",-10.591232945880922],["reverse",-10.591294738358807],["hoped",-10.591322022241116],["ile",-10.59156455475846],["Class",-10.591693739808525],["Librar",-10.592356694284728],["Cat",-10.59254448678332],["requeste",-10.592968734298797],["delaye",-10.593119681439589],["carbon",-10.593612822428884],["seeme",-10.593746751538514],["folk",-10.5941045552327],["involvement",-10.59428510280165],["Santa",-10.594790566295078],["Thompson",-10.596540527806544],["Vice",-10.596914646304821],["worst",-10.596988803448344],["Simpson",-10.597215899705507],["category",-10.597431261570346],["sport",-10.597790057515235],["Late",-10.597956565167285],["Croatian",-10.598567793305135],["earth",-10.598774011394868],["Track",-10.599050447303057],["neck",-10.599365011581124],["Murray",-10.599738865866644],["chairman",-10.600104970967958],["ich",-10.600499428500331],["NFL",-10.600790612230647],["í",-10.600925518531378],["Puerto",-10.601002230948087],["picke",-10.601522693997945],["Race",-10.601738135940426],["Indiana",-10.601776146920354],["pushe",-10.60198166465688],["remnant",-10.602493842219952],["Network",-10.602806580322005],["Carter",-10.603320182867808],["Hav",-10.60394085151437],["personalit",-10.603998643290033],["NBC",-10.604626213927068],["09",-10.605028751265099],["Kelly",-10.605355126410206],["Persian",-10.605845909853667],["Commander",-10.606262192413967],["vice",-10.606313554643243],["angle",-10.606999941859764],["Federal",-10.607025212692033],["presidential",-10.607407871016884],["Th",-10.607919050139014],["requirement",-10.60830778288594],["medieval",-10.608482771325665],["recognise",-10.60854900927654],["weekend",-10.608652669746487],["fur",-10.609219796730205],["Modern",-10.60940507854242],["residence",-10.60964083303825],["Anna",-10.609730861794866],["Alex",-10.610967404935023],["justice",-10.611312814875589],["heads",-10.611419901293795],["imp",-10.611583729506833],["intense",-10.611770775794657],["Constitution",-10.61258080239617],["Hospital",-10.61269623983667],["retirement",-10.612858398825544],["politician",-10.613609291865174],["siege",-10.613972450711698],["emergenc",-10.61398827019808],["allie",-10.61420735087457],["tension",-10.614208132884086],["remove",-10.614576221691587],["Within",-10.614630191178504],["portray",-10.61603672981064],["Parker",-10.616226604054555],["modified",-10.616494185167587],["crash",-10.616871343940716],["deeme",-10.616931119065708],["express",-10.617310652537984],["Heart",-10.618728384134378],["gap",-10.61884753962325],["painte",-10.618995208921657],["Silver",-10.619141293177972],["isolate",-10.620122027081742],["ninth",-10.620261322171599],["900",-10.620949424743932],["Police",-10.621521548322574],["realit",-10.622278911551625],["USA",-10.622325906910065],["evolve",-10.622426675724716],["06",-10.62259677152529],["revenue",-10.622807198566774],["Bre",-10.622921165062442],["Batman",-10.623383835229387],["negotiation",-10.623657900275754],["1913",-10.623793129851919],["suffering",-10.62463729806121],["Bad",-10.625373360471345],["Harris",-10.62575449225243],["falling",-10.625756391744897],["pur",-10.625880259382226],["Guard",-10.62626061878964],["ó",-10.62627536242811],["Last",-10.626368379839658],["Berlin",-10.626657343104343],["sponsor",-10.626755317185504],["cool",-10.627076881194212],["musicians",-10.628453562810135],["lowly",-10.628804842423431],["Here",-10.629277428634936],["Palace",-10.629762185152925],["Thus",-10.630196496367894],["1926",-10.630429663031974],["historic",-10.631465508934838],["engagement",-10.632007664526926],["virus",-10.632359037107427],["landed",-10.632525549026482],["Design",-10.633196954180587],["crown",-10.63334692813239],["convection",-10.633419422042763],["colony",-10.633877679265968],["Bu",-10.634526358376812],["legislation",-10.634960252944932],["Jesu",-10.635112564112783],["07",-10.635574270879607],["ultimate",-10.635656389432413],["wine",-10.635793651969818],["audio",-10.636425334179568],["1934",-10.636570268075001],["push",-10.637042495564334],["1921",-10.637261832194078],["Education",-10.637866319259496],["Houston",-10.639004385192282],["Des",-10.639018822509193],["aboard",-10.639197222984258],["qui",-10.639361272161047],["dialogue",-10.639599299788966],["layer",-10.64022919346552],["girls",-10.640287981151815],["separated",-10.640895999788233],["stands",-10.640914267535596],["powers",-10.642240692672392],["designation",-10.642242975777249],["tenance",-10.642295167234375],["everyone",-10.64229817643258],["Mid",-10.64267223071417],["Corporation",-10.64270027658766],["poll",-10.643824902571378],["mate",-10.644344686907326],["Jan",-10.644453037937177],["Warner",-10.645063398065139],["mental",-10.64516403918524],["plannin",-10.64518985860163],["monarch",-10.645233695901544],["copy",-10.645289295927116],["starre",-10.646364655188068],["08",-10.646405616759653],["Mor",-10.646987243638183],["huge",-10.647102140995267],["resemble",-10.648513407692148],["acted",-10.648659306700628],["Down",-10.648702698389187],["sudden",-10.649249057221871],["Samuel",-10.649576357348698],["Swedis",-10.649632415027169],["colonial",-10.64963280369893],["Commonwealth",-10.649893870288683],["format",-10.650273331358095],["lose",-10.651086454859184],["1912",-10.65141771072927],["Camp",-10.651894003184946],["rooms",-10.652057713153221],["coat",-10.652734506345823],["arrest",-10.653283914246575],["qualify",-10.653638801320358],["Critic",-10.653721720047995],["sector",-10.654230393610172],["colleague",-10.654334658293061],["Treat",-10.65490300192383],["1932",-10.654910705047618],["railroad",-10.655062354200586],["universe",-10.655231402998258],["mount",-10.65555387564486],["Along",-10.655646130839774],["Gaga",-10.656469128576147],["Medal",-10.656860769510342],["treate",-10.65688212043999],["Anthon",-10.657416079000754],["Asian",-10.658115558307145],["Croatia",-10.658200752671043],["longes",-10.658304454236749],["Angel",-10.65945753209637],["Phil",-10.659920995850753],["console",-10.660341694459579],["Rick",-10.660772016760504],["ence",-10.660902371231973],["180",-10.661434543530401],["nickname",-10.661604325288442],["polic",-10.661628577469818],["Holy",-10.66165210569813],["concentrate",-10.662447179477946],["intersect",-10.662676341092967],["dale",-10.662821879302449],["ways",-10.663027175174012],["eggs",-10.663109036888645],["handed",-10.663112546330384],["evacuate",-10.663174233385382],["votes",-10.66370261312815],["beautiful",-10.663744730228753],["Fair",-10.664014143734729],["hunting",-10.664250630986238],["seize",-10.66485728417301],["defende",-10.664928948827061],["depicte",-10.664948504103691],["Che",-10.666483389445796],["insect",-10.666580373591035],["facing",-10.66687810925886],["Jaso",-10.667306640993148],["RAF",-10.667339362355374],["explosion",-10.667559910800136],["anyone",-10.667658639480093],["Gilbert",-10.66788612175424],["influential",-10.668911799064869],["Israel",-10.669659981197961],["Journal",-10.670258228486794],["Democrat",-10.670414442963086],["emperor",-10.670431713907755],["costume",-10.670771450722228],["professor",-10.670821527046053],["Writing",-10.671710872797595],["lift",-10.671843980907424],["Detroit",-10.672350722285373],["lic",-10.67249501381203],["pen",-10.672514662657052],["Pope",-10.673091954018737],["Sta",-10.673370319830013],["violent",-10.67356171274086],["pull",-10.673784261258689],["reinforce",-10.67389690362154],["Frederick",-10.67437989133584],["ram",-10.67518401086768],["rising",-10.67531219992912],["charges",-10.675723194483293],["tribute",-10.675754555645897],["Player",-10.676082092825105],["Bra",-10.676242299467928],["bell",-10.676595935117618],["forcing",-10.676642844269445],["squad",-10.676767573304305],["firing",-10.676858742913979],["guilt",-10.677235157218922],["1929",-10.678405764687893],["mix",-10.678715521669309],["ocean",-10.678814905299369],["DC",-10.679561159118983],["developer",-10.679580883983142],["childhood",-10.679940566504461],["elder",-10.68031016813885],["1911",-10.680693869980487],["Khan",-10.680935103691613],["hull",-10.681355475778098],["criticise",-10.68150664313917],["Plan",-10.682027582038991],["looke",-10.6820506257556],["Clinton",-10.682077090190988],["shift",-10.68391912926067],["Lane",-10.684025364721027],["tracted",-10.684319845098948],["Dream",-10.684374233825396],["interaction",-10.684424460888389],["Germans",-10.684641235521884],["owners",-10.684761243740516],["Egyptian",-10.684922651629057],["spend",-10.68514013229231],["concentration",-10.685250559883483],["Ju",-10.685755480585689],["comprise",-10.686548176323123],["hole",-10.686549875861173],["1931",-10.687138581807012],["Spears",-10.687333433094638],["Ki",-10.687677898905468],["Xbox",-10.687885207813391],["Princess",-10.688298656995933],["1922",-10.688449771212213],["Nielsen",-10.68881347186955],["Dance",-10.689310218676816],["watching",-10.689445874103848],["diameter",-10.689489882142441],["provision",-10.689601897310865],["Stewart",-10.68979051869903],["Melbourn",-10.689871858183507],["wooden",-10.690359969386034],["alternate",-10.690476517810923],["Ya",-10.690678351473496],["sight",-10.690725652197571],["Building",-10.690738568025933],["asks",-10.691163552530712],["favorabl",-10.691506640580544],["genetic",-10.691673045454275],["flew",-10.692077447356525],["pain",-10.692154051680788],["ology",-10.69264399912053],["Pu",-10.693632914768378],["Anglo",-10.693640939969322],["USS",-10.693910016420988],["gan",-10.693983212435954],["uniform",-10.694065399409633],["window",-10.694465593513796],["resigned",-10.694600102534649],["stable",-10.69510024434652],["pointed",-10.695136579133546],["shots",-10.695471883652914],["advocate",-10.695529626442868],["evil",-10.695779678818742],["notabl",-10.696001342832503],["pace",-10.696949408204846],["environmental",-10.697178277018343],["Guy",-10.697292234077182],["afternoon",-10.697319363842809],["Ball",-10.697545420436509],["Lennon",-10.698369774809443],["Austria",-10.69862388098602],["Category",-10.698625343392353],["radar",-10.698693051731071],["impresse",-10.6987456458166],["cease",-10.698842341641855],["error",-10.69917241141872],["Evans",-10.699386830207477],["linke",-10.70055098765439],["attempting",-10.702489867831767],["closer",-10.702621141320046],["lowes",-10.702975720127633],["footage",-10.703545110286301],["lawyer",-10.703907416947985],["Pat",-10.704265549621127],["Nazi",-10.704699839864386],["ame",-10.70478979824218],["hood",-10.704815576897417],["routes",-10.704935014694144],["teeth",-10.7057566712684],["Colorado",-10.706551163020173],["balance",-10.707126813721732],["collaboration",-10.707218154321552],["Turkish",-10.707871150506726],["extent",-10.708535302571478],["grounds",-10.708620034601017],["easy",-10.708678229126585],["Foundation",-10.709223035761037],["offering",-10.709249802692346],["affect",-10.709522870786003],["circuit",-10.70953093717353],["persuade",-10.709614080907683],["Wind",-10.709826226400649],["Brazil",-10.709860203205736],["Dave",-10.710129984735588],["ston",-10.710715766111722],["Mario",-10.710747593694187],["Sarah",-10.710847272716189],["junior",-10.711194463372902],["resolve",-10.71142977030198],["understand",-10.711578274482013],["resolution",-10.711631656451159],["margin",-10.711701940152908],["superior",-10.71262105790451],["Baltimore",-10.713192978162253],["Die",-10.713511859966914],["happene",-10.7138682630791],["Greec",-10.71408934165419],["occupation",-10.714442063964114],["column",-10.714879536650972],["junction",-10.714901415885794],["streets",-10.71523117707461],["accompany",-10.715511851656414],["wrong",-10.715823385909262],["hal",-10.715910462743913],["Cooper",-10.71623515457332],["confront",-10.716834988712696],["140",-10.716835481139794],["militia",-10.716868009833478],["salt",-10.716932102912628],["190",-10.717092120883258],["ven",-10.71737002017101],["prime",-10.717754136709912],["Story",-10.718139505334365],["hear",-10.718270956688455],["motor",-10.718339665532808],["exhibition",-10.719635873458452],["Guardian",-10.719891144880005],["alignment",-10.720484854927104],["interpretation",-10.720849258388458],["Wal",-10.72100911730013],["disaster",-10.721902220431026],["Senator",-10.722622922971805],["residential",-10.72263270958111],["alliance",-10.723614432392633],["beam",-10.723670671087369],["Sullivan",-10.723922084370301],["log",-10.724336006944409],["departe",-10.72442878115255],["poetr",-10.724846957772773],["detect",-10.725610237216694],["Somerset",-10.725947481325624],["loop",-10.725972603162557],["10th",-10.726505391257806],["Iowa",-10.726935639290243],["ü",-10.727118877343504],["changing",-10.727206866148757],["continuous",-10.727767212660059],["highlight",-10.728007420130806],["Marshall",-10.728372200138143],["Key",-10.729132180712977],["conservative",-10.729352891752725],["happy",-10.729842724707392],["partie",-10.730767078365826],["trans",-10.730974535786865],["appropriate",-10.73105457365823],["ster",-10.731370346344537],["Canal",-10.731429512533008],["drum",-10.73177826371793],["organ",-10.732819003569482],["signing",-10.732976002183733],["Gen",-10.733418857538714],["creative",-10.733544071743388],["var",-10.73403695064205],["informe",-10.734624541419619],["prize",-10.734650887032888],["Wrestling",-10.73474608485818],["Mad",-10.735117179276656],["dream",-10.73519844796021],["grown",-10.735327741136174],["identify",-10.735449761512687],["evolution",-10.736080082603337],["testing",-10.73614236904955],["1928",-10.73639428493838],["satellite",-10.736814801164083],["boiler",-10.737476726908278],["toll",-10.737885383117584],["rus",-10.73797775671285],["taught",-10.738274708906285],["truck",-10.738663512193327],["wings",-10.739371669742724],["creature",-10.739606274725151],["EP",-10.739769941199077],["Miami",-10.739892956931552],["racing",-10.740274326314186],["erect",-10.740481879695395],["ballad",-10.741050595668417],["volunteer",-10.741206695440015],["Austrian",-10.741951518850126],["Open",-10.742029025765813],["drums",-10.74220597792688],["trail",-10.742316525836284],["Area",-10.742327137274053],["dangerous",-10.742394988474622],["Place",-10.742624384778205],["mill",-10.743847290173791],["1925",-10.745014928224043],["Confederate",-10.745043630357646],["wedding",-10.745048192841846],["witnesse",-10.74562271992391],["Pen",-10.745746397336193],["northward",-10.746107733232293],["prevente",-10.746400450025067],["Hungar",-10.746785529464393],["teammate",-10.747053731746991],["Peninsula",-10.74711162008694],["drink",-10.747406146688196],["answer",-10.747654969864342],["maker",-10.748007976000306],["bands",-10.748245900916306],["crisi",-10.748446571444898],["medium",-10.7485419603004],["simultaneous",-10.748838046734917],["shelter",-10.748840953533119],["tourist",-10.748900411490983],["Ministr",-10.749199321900502],["Seattle",-10.749529640752275],["1890",-10.749987703329598],["initiate",-10.750178444484785],["moves",-10.750182513978817],["withdrew",-10.75056687946415],["3D",-10.750572225836436],["permission",-10.750644006677824],["chase",-10.750977993898417],["choose",-10.751535805800158],["originate",-10.752174712310929],["Trek",-10.752597539280517],["1924",-10.75397742026485],["Mel",-10.754501969577786],["Dam",-10.754722818261794],["Front",-10.754885282250239],["clock",-10.75517024905431],["tier",-10.755822068934371],["Ram",-10.756187355556818],["melod",-10.75658475119732],["print",-10.757430846828932],["existe",-10.75784175100015],["veteran",-10.757864844251337],["apartment",-10.75828073175944],["Mal",-10.758397539287479],["thirteen",-10.758562035810499],["Mars",-10.75862503075648],["ā",-10.758662945633466],["dense",-10.758777781438695],["platinum",-10.758912589038243],["advice",-10.760977669010744],["towns",-10.761747943203279],["predator",-10.761885060819552],["doubt",-10.761924260767646],["skills",-10.76200491078178],["ix",-10.762329059761374],["Alabama",-10.762408203062229],["monitor",-10.762427053373774],["mainstream",-10.76291913190773],["shoulder",-10.762935073088498],["labor",-10.763044238022195],["Shi",-10.763700920251212],["faith",-10.763929753672638],["Caribbean",-10.764161348349733],["ask",-10.764800453352166],["sounds",-10.765372239452038],["legs",-10.766691576086874],["Charlie",-10.76767993726375],["burg",-10.767715643900857],["Country",-10.768061859717626],["merge",-10.768563552242286],["brick",-10.768732106758375],["expensive",-10.76873668320712],["expression",-10.768761263182387],["citing",-10.768870591430659],["Belgi",-10.76887218019305],["illegal",-10.769191123640642],["Lawrence",-10.769439585164259],["shear",-10.76988267111146],["spending",-10.770166836148068],["housing",-10.770381267498117],["holds",-10.770559929479704],["mini",-10.77073978437696],["Hard",-10.77079325070028],["Pass",-10.77090342401089],["landscape",-10.771261252597338],["rap",-10.771292219464634],["Yankee",-10.772265735730969],["achievement",-10.772518946481991],["marry",-10.772736910661006],["hockey",-10.772969631572032],["seats",-10.77306708569218],["suicide",-10.773681875376639],["Minnesota",-10.774391278562707],["prepare",-10.774513960864631],["1923",-10.774605454594521],["⁄",-10.775100059958788],["attitude",-10.775126382694943],["Dead",-10.775150704610613],["publisher",-10.77644694969208],["approval",-10.776502860453665],["ić",-10.776653539924585],["locomotive",-10.77694615754873],["Run",-10.776974316372339],["prompte",-10.77718577322899],["tenth",-10.777461761094775],["compilation",-10.777596666002614],["debt",-10.777629115742906],["Apple",-10.77777285476378],["vertical",-10.778349874894303],["ethnic",-10.778390367409388],["organise",-10.778929300533857],["Health",-10.779369674687304],["triple",-10.779570813074944],["symptom",-10.78007315578244],["finance",-10.780130840294191],["ura",-10.780405281806537],["closing",-10.780446348602126],["Sch",-10.780450440221669],["examine",-10.781188749712243],["false",-10.781843611286767],["perspective",-10.781864058755946],["ika",-10.782097485874662],["minimum",-10.782579457712995],["abuse",-10.782837728064623],["adventure",-10.784104724181574],["neighborhood",-10.78438665044],["Township",-10.785027585381478],["Grammy",-10.785088936395034],["differ",-10.785211506991372],["Crown",-10.785725994766945],["rates",-10.785764091664014],["Hotel",-10.786303547592363],["ight",-10.786706966349168],["bear",-10.786766223897235],["wound",-10.786869725703022],["km2",-10.787013043901384],["Den",-10.787200770867564],["Soon",-10.78732604076534],["consequence",-10.78779569863519],["armament",-10.787946532275416],["regulation",-10.788031935568121],["statue",-10.788076739737386],["Much",-10.789766543402695],["adjacent",-10.790014127235331],["Staff",-10.790061938215704],["Gu",-10.79006594798761],["blame",-10.790192623722746],["scholar",-10.790240937507786],["05",-10.79068139178109],["factors",-10.790784903154858],["Human",-10.790979270596335],["Guide",-10.79104343664202],["steal",-10.79180355877693],["definition",-10.791916312015925],["Are",-10.792236360683562],["Dieg",-10.792435646085055],["Return",-10.792689507564933],["USD",-10.792821221349708],["travele",-10.79313904627325],["Raw",-10.793185434152967],["owed",-10.793566735799008],["funeral",-10.793617414949367],["isation",-10.793681555181609],["Flight",-10.793834805364874],["Mer",-10.79391161508256],["Christopher",-10.794412323241744],["Dor",-10.794429254098151],["authors",-10.794902282892085],["characterize",-10.795049587678514],["photo",-10.795464465832413],["palace",-10.79555442700329],["partnership",-10.795702355447307],["strip",-10.79579939244061],["chair",-10.795984560159136],["Walker",-10.796497715195585],["instrumental",-10.796534997513687],["scholars",-10.798166790761716],["translate",-10.798643475910112],["dresse",-10.798684742666676],["Native",-10.79914648246587],["*",-10.799522174902354],["standards",-10.799726714063244],["Ford",-10.799885871669247],["Fu",-10.800802461312887],["Children",-10.800978354126276],["lam",-10.801273240400203],["aware",-10.80135345899393],["hook",-10.801679015504893],["Interstate",-10.80173178836796],["attendance",-10.802520383058217],["Saxon",-10.80409101464192],["1908",-10.804345299162708],["Wing",-10.804828231596215],["Edge",-10.804968978425126],["ken",-10.80506884586103],["runner",-10.805158003401171],["priest",-10.805373979003814],["expert",-10.805377211834585],["elevation",-10.805728144695617],["1905",-10.805795487546332],["intensifie",-10.806166123880931],["1909",-10.806278228431843],["fill",-10.806364826842374],["Benjamin",-10.806454466241622],["tion",-10.806599676944604],["rhythm",-10.807949847330852],["Legacy",-10.808286318882656],["Gun",-10.80860146690764],["lieutenant",-10.808654203310972],["Ice",-10.808734118825587],["percentage",-10.80960598837827],["Hockey",-10.809763820124054],["translation",-10.81027689745779],["aggressive",-10.810489201174416],["alien",-10.810593060775233],["smooth",-10.811004054572829],["orchestra",-10.811241316138805],["suitabl",-10.811328377381987],["Roosevelt",-10.812697113792407],["entertainment",-10.81270800378206],["Kansa",-10.813843262117569],["construct",-10.814287570546178],["983",-10.814363687221537],["Alfred",-10.814915181752902],["asking",-10.814954817684956],["beach",-10.815318174575024],["operational",-10.815942754994886],["Chronicle",-10.816404464023599],["istic",-10.81642784896746],["accurate",-10.816728128508164],["tactic",-10.816821021743449],["divorce",-10.817001483982512],["ble",-10.817080343166662],["investment",-10.817151222130832],["Wolf",-10.817274126668096],["Manhattan",-10.817497716865708],["Franklin",-10.81798495450457],["quote",-10.818411002129483],["manuscript",-10.819353898339333],["races",-10.819434191442882],["covering",-10.820621955854909],["oxygen",-10.82097600622403],["distinguishe",-10.821472466447076],["bombing",-10.821524092426188],["21st",-10.82236952019506],["Dragon",-10.822500055571238],["Digital",-10.823065704020689],["stra",-10.823099660632035],["concrete",-10.823810414582727],["perceive",-10.825052066522115],["truth",-10.825253142508924],["chapel",-10.825674810900816],["advisor",-10.82572728918414],["phrase",-10.826421484629908],["Margaret",-10.826456246152269],["1907",-10.826778447714446],["aged",-10.826837509701392],["interesting",-10.82693915559475],["impossibl",-10.827140607561017],["DS",-10.827279437850823],["meat",-10.82740595320166],["faction",-10.827487137527232],["anger",-10.827742052733138],["guy",-10.828356281956538],["Steven",-10.828580470264653],["wake",-10.828762411237589],["danger",-10.828793818558687],["ize",-10.828876564872912],["travelle",-10.829181569805193],["understanding",-10.829677471959707],["westward",-10.82996068228644],["Hong",-10.830782922425623],["windows",-10.830985591548435],["Jam",-10.831206244863786],["Hay",-10.83126038477969],["Industry",-10.832039555617104],["profile",-10.832554848716107],["jet",-10.8327235910707],["Hero",-10.832793862903635],["lemur",-10.832898255666354],["shield",-10.833167767784829],["360",-10.833479026928366],["sculpture",-10.833548388775608],["bone",-10.83370735011258],["Vi",-10.833850985540844],["sank",-10.834882613315383],["agricultural",-10.835743527838956],["Mississippi",-10.83580229631524],["Ranger",-10.836428736645818],["regain",-10.836685597392758],["grave",-10.837086412511557],["Halo",-10.837189405627612],["Portland",-10.837207477698318],["punk",-10.8372720216382],["boys",-10.837752916808878],["mayor",-10.837795114934718],["trust",-10.837950210625753],["bright",-10.838080717191481],["pole",-10.83823812684787],["dress",-10.838360810695722],["Bel",-10.83866678809624],["displaye",-10.83995749855491],["submitte",-10.839982843072695],["feed",-10.840117222670287],["helicopter",-10.840336594618439],["Campbell",-10.84074505089415],["Born",-10.840985608233211],["Saturday",-10.841094339414838],["Independent",-10.841489666431631],["horror",-10.84185559985586],["enters",-10.841977804992851],["Marie",-10.842362895823275],["plus",-10.842404917305073],["survivors",-10.842799071936277],["earn",-10.843351298046436],["situate",-10.843515522321606],["communist",-10.843738680368652],["arriv",-10.844113815449562],["guide",-10.84415131031732],["Villa",-10.845898502037041],["restoration",-10.846064420488274],["fifteen",-10.846887086149813],["Credit",-10.847102357946017],["Seven",-10.84721024784958],["1880",-10.847513168342207],["distinctive",-10.848043680336136],["tornado",-10.849474697477955],["illness",-10.850760228357977],["Roy",-10.851267520535881],["virtual",-10.851380496860262],["assemble",-10.853386240010309],["helping",-10.853792080081952],["ammunition",-10.854080584123324],["wheel",-10.854249893579466],["ynasty",-10.854381125324377],["clean",-10.854677200956067],["churche",-10.85511204890577],["context",-10.855871806963354],["Rob",-10.856103617408618],["VI",-10.856460763704241],["update",-10.856610875628165],["Ban",-10.85672232779537],["dramatic",-10.858059918710616],["strict",-10.8586877754588],["Bull",-10.858952903972511],["aimed",-10.860030474018227],["spiritual",-10.860095984879806],["fourteen",-10.86022842124829],["celebration",-10.86026058038226],["tune",-10.860527066651006],["Liberal",-10.86088341516502],["fled",-10.860885955894494],["Enterprise",-10.860999292741521],["wish",-10.861116238057612],["artistic",-10.86115102702961],["suspende",-10.861290688020723],["stem",-10.861910694678343],["particle",-10.862628137006753],["Historic",-10.862956349628188],["cho",-10.863395609562673],["Cold",-10.863749447970783],["Graham",-10.863752313394592],["exile",-10.864039852060507],["skull",-10.864163536318348],["dancer",-10.86423572000518],["assiste",-10.865258801616449],["idae",-10.865270370687835],["mobile",-10.865468130030727],["Tennessee",-10.865649602461477],["viation",-10.865912859182355],["Louisiana",-10.866038547381667],["charter",-10.866575901248947],["complet",-10.867323035681455],["Honor",-10.867635216130838],["bonus",-10.86782063352073],["portrait",-10.86916872343834],["telling",-10.869273339896996],["186",-10.869378705950806],["underground",-10.870058516517028],["Warren",-10.870059495071583],["cargo",-10.871061721768648],["horn",-10.871131512791148],["Missouri",-10.871495778842585],["queen",-10.871501274538574],["earthquake",-10.871886093594428],["Labour",-10.871923824673072],["loose",-10.87196943779971],["Tamil",-10.87239080119998],["marine",-10.872570949574804],["1906",-10.872611555634343],["Montreal",-10.872833897021463],["employment",-10.873486094378077],["cult",-10.873538364597763],["etting",-10.873669148899737],["Bor",-10.874224020835825],["stick",-10.874264047081052],["proceed",-10.875004844362639],["Ger",-10.87535600684772],["mature",-10.875916332389473],["Hart",-10.876123611829987],["jazz",-10.876640980310473],["grey",-10.876783930985878],["Depression",-10.87697779312904],["Season",-10.877017255088228],["plain",-10.877038441412859],["VII",-10.877417155262815],["arch",-10.877659473053042],["CE",-10.877962240210287],["1870",-10.87955384516113],["commence",-10.879753177430668],["legend",-10.880554787448258],["guitarist",-10.880989020125375],["Mitchell",-10.881334680609708],["worn",-10.881445476324295],["Ber",-10.881486015330298],["replac",-10.8818931335384],["donate",-10.882368600750459],["ABC",-10.882777165697195],["Harvey",-10.88288995182307],["MS",-10.88365335942077],["Ridge",-10.883812068131675],["spore",-10.883935536820518],["dozen",-10.88408259445211],["tape",-10.884637000487775],["reward",-10.884870061659601],["theater",-10.885382408911855],["abilitie",-10.885563246278888],["pulle",-10.886209793665632],["fifty",-10.886451530744198],["radical",-10.887234811216592],["fields",-10.887276571438758],["substitute",-10.88811156377081],["quiet",-10.888216473026846],["Fall",-10.88907311278039],["administrative",-10.889230917026058],["hipping",-10.88951602872418],["Business",-10.889648106315374],["minimal",-10.88980040086252],["recruit",-10.890017910505758],["Cook",-10.890076366946282],["rice",-10.890985762807437],["circumstance",-10.892020994882948],["Ash",-10.892036741294849],["Jimm",-10.892976215047995],["surger",-10.893432856171934],["artwork",-10.894167925926803],["Get",-10.894529876326025],["defender",-10.894634759529614],["strengthen",-10.894712379373754],["app",-10.894837177254008],["instruction",-10.895059550303113],["Representative",-10.896014656686717],["drove",-10.896299754818198],["bronze",-10.896415137270093],["temporari",-10.896612827019645],["procedure",-10.896815777175942],["Bros",-10.89706508619739],["opped",-10.897157622066956],["Cuba",-10.897413898999558],["behaviour",-10.8984199511156],["thinking",-10.898677089628968],["rivers",-10.898990440550033],["Let",-10.899111313367644],["rebuilt",-10.899203737899384],["stretch",-10.899435903450492],["regime",-10.89991050282985],["Hindu",-10.900045307093876],["variant",-10.90027333970945],["Hell",-10.900350303473164],["replie",-10.900429582612606],["disorder",-10.900443859079136],["tale",-10.9006985236949],["ace",-10.900769325814878],["fallen",-10.901510466618415],["inhabitant",-10.901534492553584],["crest",-10.901538329128552],["topic",-10.901553553940868],["Sol",-10.90181496705375],["victorie",-10.901918372984376],["coverage",-10.902344170068638],["ruling",-10.902624219628223],["wire",-10.902851788784007],["revolt",-10.903250452646553],["Mont",-10.90367383169153],["boss",-10.90445341116489],["flee",-10.90454258574873],["fixed",-10.904593115813526],["ownership",-10.905196816311491],["Yo",-10.905324581582658],["Gate",-10.905824309968207],["illustrate",-10.908219068005394],["practical",-10.908378636830154],["Files",-10.908427756546129],["basin",-10.908511436807714],["ubbed",-10.90858679883177],["conversion",-10.90897974699839],["mechanism",-10.909099063168398],["Arizona",-10.909316104469367],["Bal",-10.909990685389406],["cousin",-10.910248168247396],["maneuver",-10.910534464119227],["armore",-10.910575656030215],["representation",-10.910740408932398],["colonie",-10.911237526219818],["execution",-10.911678351320617],["Dylan",-10.91176326054578],["Cu",-10.912254586243183],["Billy",-10.912538205263552],["spotted",-10.912595368293568],["Bureau",-10.912615933630832],["ification",-10.912963656039402],["rebellion",-10.913010402908036],["ants",-10.913642190459626],["elaborate",-10.913794673785446],["Real",-10.91382070512914],["Tokyo",-10.913840501058129],["quest",-10.913880544795973],["frequenc",-10.91419697439186],["absolute",-10.914196991745982],["parish",-10.91422941484085],["philosoph",-10.914285663719276],["similarit",-10.914395966173643],["WC",-10.914413285747322],["marks",-10.914667936041912],["signature",-10.915015694469327],["twin",-10.915145204565007],["mus",-10.915179137799681],["loan",-10.915259747664127],["dominant",-10.915708860664108],["airline",-10.915824246879179],["Athletic",-10.916237793720265],["Bus",-10.916337556221555],["vast",-10.91739638820847],["prove",-10.917649149086827],["payment",-10.917821863309829],["songwriter",-10.918445070337066],["oured",-10.918955222271393],["solar",-10.919174985432328],["musician",-10.919275255751298],["typhoon",-10.919511791821549],["lab",-10.919833285217877],["Nine",-10.920187450404566],["Such",-10.920298908319435],["Sony",-10.920979898786102],["printe",-10.921014847885068],["ack",-10.921680931688964],["embark",-10.921753506284434],["Take",-10.92175367771054],["Dar",-10.921796978292061],["missile",-10.92199407459049],["Ali",-10.922039442548362],["Val",-10.922144053329383],["preferr",-10.922660740552281],["uch",-10.92271429889477],["smoke",-10.922926019696956],["feud",-10.923110249661159],["densit",-10.923639732403903],["Indies",-10.924022944281704],["flagship",-10.92603746281645],["gam",-10.927010612002142],["cable",-10.92708929210428],["Murphy",-10.92733130447931],["Tag",-10.927430168395627],["Soul",-10.927759147857472],["Oklahoma",-10.928157373339424],["gang",-10.928214873814756],["suite",-10.928516004466397],["reinforcement",-10.929089262710297],["riders",-10.929337981973148],["cannon",-10.929510745004727],["aki",-10.929736789305352],["Delaware",-10.929842616610976],["check",-10.929858877899397],["Cho",-10.930361422202818],["forty",-10.930417745645189],["deaths",-10.930475206195961],["Juan",-10.930554024128048],["marking",-10.930997510347325],["vis",-10.932027564112495],["Well",-10.932035968658859],["Sub",-10.932039781148076],["legislature",-10.932300739473147],["addresse",-10.93230590926078],["Federation",-10.932726435677422],["Iraq",-10.933139217674142],["ick",-10.933551613897041],["universal",-10.934379136457128],["Prize",-10.934804722872332],["obvious",-10.93521135906315],["Switzerland",-10.93562783752703],["waves",-10.935901957632627],["Broadway",-10.93637269480843],["insiste",-10.936940332018716],["dissipate",-10.93719125735152],["baby",-10.93745877476916],["Amy",-10.93758602839949],["excellent",-10.938613172543416],["Officer",-10.93865934938868],["reporter",-10.938971594023755],["invade",-10.939068254281043],["tribes",-10.939206249774998],["manufacture",-10.939444192876856],["riot",-10.939746172145668],["frigate",-10.939803302913731],["yield",-10.939830964472064],["bearing",-10.94058139843617],["1901",-10.940768707300608],["Rico",-10.941491904874578],["Sk",-10.941577395433315],["sphere",-10.941908864338838],["badl",-10.941910982704595],["announcement",-10.942194322395068],["nations",-10.9426048646005],["journal",-10.942914174806965],["Baker",-10.943958706018737],["believ",-10.944310131124018],["storage",-10.9448062182258],["suggestion",-10.944953539356646],["quarterback",-10.945187472022372],["Fred",-10.945288560390912],["racial",-10.94549879838314],["impression",-10.946532026857724],["shells",-10.947402625856725],["apply",-10.94746234154096],["striking",-10.948206000943607],["settler",-10.948432140069968],["stole",-10.948808274247735],["1903",-10.948910877096926],["uncle",-10.948985622834467],["Owen",-10.949056579507225],["legac",-10.949176162849497],["Tar",-10.949594739423953],["1902",-10.949597551380757],["lacke",-10.94998616350518],["emotion",-10.950718990676474],["cutting",-10.950824257863108],["cloud",-10.950906113704534],["Shakespeare",-10.951186914201495],["Leslie",-10.951587037081966],["relocate",-10.951678256819777],["neighbor",-10.952408962134434],["Baby",-10.952425127175546],["select",-10.952878521347607],["degrees",-10.95296459825476],["useful",-10.953258470582721],["commentar",-10.953265894534447],["kW",-10.953367694754117],["farmer",-10.953438326948508],["kar",-10.953701090612771],["Glen",-10.954125399577],["Perry",-10.954259885172258],["branche",-10.954541950980577],["metric",-10.954662902889302],["biographer",-10.954769230720391],["pretty",-10.955032119564237],["theatrical",-10.955401901448566],["Band",-10.955709396786506],["architect",-10.955835817795778],["Mag",-10.956090470521662],["float",-10.95612598637612],["armour",-10.956852517965032],["minorit",-10.957251282128034],["sail",-10.957489679458247],["Nixon",-10.957528521382297],["altitude",-10.9575286085844],["′",-10.957953954082118],["sunk",-10.958690081201063],["sang",-10.958700647164687],["Atlanta",-10.959236381547505],["shop",-10.95986387016474],["shorte",-10.960172388953655],["adopt",-10.960905489047223],["Tor",-10.961253760692163],["Actor",-10.961606377455595],["Know",-10.961641279474652],["casting",-10.96185299166132],["portrayal",-10.961906009601861],["edit",-10.96215513618079],["Jonathan",-10.96268365619698],["Denmark",-10.962692765164448],["Trust",-10.963152994713898],["Gray",-10.963226759438374],["performer",-10.963687045795968],["negotiate",-10.963703876391477],["enhance",-10.963749649199546],["govern",-10.963977781729383],["Baseball",-10.964512655569148],["Rihanna",-10.96479305878804],["Hugh",-10.965429468330928],["reconnaissance",-10.965433585858474],["Report",-10.965674119410732],["altere",-10.965728965371138],["customer",-10.966141545474589],["Friday",-10.966752438915217],["ritual",-10.966933367925792],["egg",-10.967215143745086],["Type",-10.967375821432654],["osted",-10.967480691520324],["Miss",-10.967571437034323],["Abbey",-10.967829869191455],["03",-10.96844403609849],["conventional",-10.968608643190649],["shock",-10.968612881620324],["Fighter",-10.968763278580251],["familiar",-10.968814144633058],["Johnny",-10.968916609101226],["Small",-10.969085343567997],["Shaw",-10.969088700177991],["Hal",-10.969277697102303],["Hudson",-10.969525041950927],["whils",-10.969993508072946],["knee",-10.970015913155525],["remix",-10.970473779878716],["105",-10.971101593903423],["Cardinal",-10.972115159701588],["apolis",-10.972522701453858],["holiday",-10.973408340490604],["Campaign",-10.973408369155882],["zer",-10.973589322747962],["Karl",-10.973601057966583],["organism",-10.973953191505377],["offense",-10.974339367582274],["villain",-10.974405324394645],["cave",-10.974506363762124],["Drive",-10.974885104852348],["enliste",-10.974910509510774],["Kurt",-10.975082635262854],["š",-10.97520505629556],["courts",-10.975642756319134],["emphasis",-10.975659847449453],["researcher",-10.97597175722387],["friendship",-10.975977065705717],["Arnold",-10.976010186732607],["saurus",-10.976039761994326],["backing",-10.976434164718068],["exposure",-10.976447221474675],["feather",-10.976703096050963],["placing",-10.977136311117484],["delegate",-10.977362183332682],["forth",-10.977879104813836],["continental",-10.97803468433871],["ignore",-10.97807034962874],["dancing",-10.979306844291983],["inherit",-10.979965971659286],["acclaim",-10.980001131924704],["Wayne",-10.980355665800326],["convert",-10.980510841648801],["Bach",-10.980867449873594],["Finn",-10.980874838457748],["taste",-10.981149233878504],["Obama",-10.981225929544774],["Railroad",-10.981313504893825],["val",-10.981435340116079],["Communist",-10.981465208050098],["cinema",-10.98154757961378],["touch",-10.981820723648244],["mechanical",-10.981861813410896],["Potter",-10.981928846176467],["Snow",-10.98220757259184],["garner",-10.982686365783007],["constitution",-10.982710150290039],["Israeli",-10.982718970632398],["Keith",-10.982763032489702],["eighteen",-10.982997992453745],["Universal",-10.983845464418383],["mining",-10.98427334175965],["strengthene",-10.98434423693092],["abandon",-10.9846332181137],["Internet",-10.98473010540034],["pol",-10.984948389810093],["electron",-10.98504446251363],["gathere",-10.985412799027003],["Spring",-10.98558358040508],["Rachel",-10.98568462117522],["ative",-10.986058291074201],["routine",-10.986552174072823],["mines",-10.986912710829689],["Reserve",-10.986957605763518],["Bat",-10.98698935842861],["Express",-10.987168810852943],["expect",-10.987299190130571],["suburb",-10.98732803653017],["conceive",-10.987908970717385],["progresse",-10.98815943838992],["pioneer",-10.989106494822565],["Madagasca",-10.989544724478016],["rebound",-10.989877723102229],["Pearl",-10.990568417259412],["ón",-10.99072983973194],["external",-10.990864782717207],["Peace",-10.991312815381285],["Nor",-10.991449815694576],["Natural",-10.991526578317448],["Champion",-10.992452749722286],["Beat",-10.992657427644161],["Off",-10.993364670402192],["Impact",-10.99337251476109],["Kirk",-10.993452906521402],["Tracy",-10.993524233403745],["Hor",-10.993804102135837],["mainland",-10.994077530435666],["secretary",-10.99413289853614],["infection",-10.99441156329805],["wage",-10.994557578471856],["demolishe",-10.994928707320145],["empire",-10.99571885966742],["Eventual",-10.99574066106338],["Our",-10.995749418638296],["Emil",-10.995944820059595],["Birmingham",-10.996161348088279],["readers",-10.996190905874913],["employ",-10.996477364515027],["Championships",-10.997061557312604],["indicat",-10.997271424904733],["Sar",-10.997580470994837],["eeking",-10.997939495930286],["ranium",-10.998066295111709],["sitting",-10.998113118779969],["conversation",-10.998376668909703],["dvertising",-10.998391256297513],["warship",-10.998667917134021],["lavery",-10.998906471636118],["authorize",-10.999229666233104],["reduction",-10.999291145012089],["Blood",-10.999431276976297],["expense",-10.999708316240785],["Leonard",-10.999737373507642],["Mur",-10.999786711794236],["Belgian",-10.999846822173073],["acoustic",-11.000152518646527],["alter",-11.000771128546294],["artificial",-11.001041558279384],["Defence",-11.001059597214612],["Troph",-11.00193276195515],["McCartney",-11.002377737977541],["coache",-11.002475384232529],["talking",-11.002500860672756],["gal",-11.002718906012388],["attraction",-11.0032383546376],["constitutional",-11.003514071185911],["Phoenix",-11.00371357051461],["crashe",-11.0039044189688],["Morrison",-11.003926087169123],["deposit",-11.004422724269357],["cup",-11.004772036346587],["lists",-11.005291291718695],["Secret",-11.005883302739509],["stein",-11.006155492761165],["roots",-11.006350958558954],["Boat",-11.006461041722634],["aging",-11.006626015497282],["Blues",-11.006729104019279],["magic",-11.006781123867427],["pu",-11.007153404603084],["desert",-11.007316725681696],["experimental",-11.00747052472253],["vary",-11.007888420374883],["kov",-11.008109072310539],["educational",-11.008454272044407],["liquid",-11.008646039250303],["wider",-11.009117871209119],["deliberate",-11.00964847486018],["Classic",-11.009652282431768],["depiction",-11.009735250073986],["atomic",-11.009941964468023],["mor",-11.010057724979568],["fragment",-11.010085880585237],["offices",-11.010727048555673],["Connecticut",-11.01087416321835],["funny",-11.01104055901039],["favourite",-11.011413115628283],["trigger",-11.012147401362874],["Eve",-11.01228557791074],["demande",-11.012450880304801],["Anti",-11.013205284768897],["gray",-11.013209159116222],["prototype",-11.013246100631488],["Qu",-11.013295430477292],["Euro",-11.0133567646841],["Chan",-11.01337476017932],["impose",-11.013379081657662],["Todd",-11.013526570742568],["coup",-11.013711494556961],["aerial",-11.013725346903264],["Mother",-11.013853788258496],["oversea",-11.014025266102351],["Ontari",-11.014056232285693],["electrical",-11.014057177967034],["Fan",-11.014319004563822],["micro",-11.015901290489037],["ranks",-11.016249131785376],["strategic",-11.018178966532805],["wins",-11.0182228394677],["delivery",-11.018727718079777],["Canterbury",-11.018991340687442],["Stan",-11.019005768800588],["Unit",-11.01904984508348],["sung",-11.01952670862304],["withdrawal",-11.019572529105766],["sacrifice",-11.019628403864857],["sheet",-11.01971295318647],["Lucas",-11.019959883425098],["imperial",-11.020263659054162],["tempo",-11.020551447818601],["eared",-11.02068055010486],["edite",-11.020791720127121],["liner",-11.02087252536168],["Bobby",-11.021229594467918],["Community",-11.021265012643536],["removal",-11.021317433395103],["liberal",-11.021820390559057],["heir",-11.022041861177161],["Jupiter",-11.022165963567756],["Fleming",-11.022258174320715],["mountains",-11.02272549673619],["lease",-11.024400279068875],["Napoleon",-11.024424322155312],["cluster",-11.024744349941946],["aftermath",-11.024898450653504],["Convention",-11.024986678092809],["corn",-11.02503560647044],["iness",-11.025136660986686],["Works",-11.025223928786417],["col",-11.025696806435985],["armie",-11.025805099738923],["350",-11.026140034057258],["gender",-11.026242421898495],["please",-11.02649754147324],["bridges",-11.026661234276023],["acknowledged",-11.026743065189088],["Shu",-11.026825855065525],["manga",-11.027044564683827],["Rain",-11.02731105413369],["Foreign",-11.027666905566662],["Ultimate",-11.027694287537695],["Dog",-11.02769619953255],["reduc",-11.02819437204231],["complaint",-11.028490547868183],["restling",-11.028695032761277],["educate",-11.029012367265516],["demo",-11.030154803942782],["feeding",-11.030202444616723],["pitcher",-11.03037967727413],["UEF",-11.030762233107868],["dish",-11.031261566084435],["welcome",-11.031536206445022],["emphasize",-11.032067266403043],["arts",-11.032238248534927],["cur",-11.032273934325357],["Greg",-11.03227981900577],["blow",-11.032894184370301],["processe",-11.033530500033443],["amateur",-11.03360339681042],["failing",-11.034492942003853],["competitive",-11.034506152872712],["fewer",-11.034983096649473],["ries",-11.035315358943713],["Personal",-11.035650630936367],["decay",-11.035892264411864],["mail",-11.036254795666938],["sburg",-11.036637771874464],["Windows",-11.036699337682872],["ä",-11.03681763752223],["Say",-11.037059823444249],["Vancouver",-11.037730455211939],["participant",-11.037730455624398],["Transport",-11.037732195603976],["Mint",-11.037801679504238],["Players",-11.03818030939879],["jurisdiction",-11.03819192322736],["Swift",-11.038192192901121],["walking",-11.038208927223348],["proportion",-11.03860922721525],["Angelo",-11.038725589302501],["publishing",-11.038840436137189],["Oak",-11.038847555344223],["qualified",-11.039163112368676],["trailer",-11.039249580533637],["ratio",-11.039723482290816],["eagle",-11.040664951230692],["fault",-11.042213167067281],["Bernard",-11.042376671004629],["pale",-11.042691934121098],["Rio",-11.043241113829483],["shall",-11.043246080859689],["revolution",-11.043384927051662],["fantasy",-11.043746231145523],["heading",-11.04398776305679],["moon",-11.044020173684743],["membership",-11.044694681903655],["operator",-11.044697830635803],["radiation",-11.04469879723544],["Marvel",-11.044776283924083],["streak",-11.04514715442415],["Inc",-11.045356635969895],["Triple",-11.045853413589963],["putting",-11.045982574422906],["greed",-11.045988114190074],["Administration",-11.046069631894897],["TNA",-11.046475438925082],["tenure",-11.046545757812577],["Village",-11.047149163231488],["rum",-11.047232033369578],["grass",-11.047566859946116],["dogs",-11.047672490414527],["Trail",-11.047736388499779],["extratropical",-11.047866795020212],["Bradman",-11.047875956345974],["revise",-11.04809263198354],["Portuguese",-11.048398459767036],["AL",-11.048645545080856],["bag",-11.048842287204339],["hydrogen",-11.04888545034219],["alcohol",-11.0489426863127],["Rights",-11.049317784411215],["eruption",-11.049348202484694],["uck",-11.049604526212025],["assembly",-11.049743614923505],["creek",-11.04981158142993],["Alice",-11.049943960165127],["serial",-11.050017999160278],["Mat",-11.050123266362835],["Social",-11.050215460400798],["provincial",-11.050732728500886],["valuable",-11.050733305887139],["170",-11.05102099186971],["gill",-11.051078232470488],["parliament",-11.051361294792988],["Local",-11.051460670347263],["zu",-11.052300794924847],["displace",-11.052778470485613],["watershed",-11.05282712912835],["ongoing",-11.052921187299074],["Pakistan",-11.054159165137847],["Gary",-11.054167882248986],["rick",-11.0542216142754],["battlecruiser",-11.054449092483846],["structural",-11.05453296528918],["intercept",-11.05468941288066],["Vol",-11.0549304746439],["possesse",-11.055101242233313],["utter",-11.055442298462445],["steps",-11.055585918524947],["burne",-11.055656714555482],["Grey",-11.056354898791334],["inhabit",-11.056442262912544],["Dick",-11.05650720094711],["dynamic",-11.056522210582397],["distant",-11.05660799478968],["1860",-11.056816363164632],["riding",-11.056826240982268],["Dwight",-11.056828576364552],["AC",-11.056942303981993],["Hardy",-11.057282863627282],["exceed",-11.057302839571058],["125",-11.057598418785634],["intellectual",-11.057787605228718],["AP",-11.058153315827171],["blocks",-11.058187899051152],["keyboard",-11.05821229995207],["Shin",-11.058445165598368],["pack",-11.058572653531558],["mushroom",-11.058710835056447],["drugs",-11.0590799653701],["1896",-11.059130655990689],["intervention",-11.059185870735966],["architectural",-11.059189334947742],["Trans",-11.059214687622596],["enberg",-11.059297304892125],["ré",-11.059683139692817],["gram",-11.059934371142951],["Hampshire",-11.060124737334032],["Bird",-11.060206187555663],["ˈ",-11.060243938896232],["ava",-11.060460458509775],["Side",-11.060712042450909],["Oliver",-11.060972992897444],["trace",-11.061055644122717],["worship",-11.061185154811357],["185",-11.061589521405939],["bal",-11.061752807039323],["gui",-11.062443393575464],["guarantee",-11.06248650662219],["gets",-11.062690042224698],["disturbance",-11.062964220005505],["Alaska",-11.063448280825657],["Edinburgh",-11.063906383964396],["identical",-11.063914979371244],["NCAA",-11.063946472366244],["birthday",-11.0640801950393],["examination",-11.064410169395215],["Collins",-11.064651809158738],["ped",-11.064703532716496],["Marge",-11.064795315001977],["Professor",-11.064853932068322],["explosive",-11.06485958286717],["promotional",-11.065151465600458],["voting",-11.065340404812456],["automatic",-11.0658111674576],["Trade",-11.066651969382214],["Helen",-11.06665614079843],["bones",-11.06711557684056],["rix",-11.06733064203588],["blind",-11.06734109098452],["ensis",-11.067879322337166],["jump",-11.067940890643598],["mistake",-11.06805125947937],["restriction",-11.068071385833518],["rivalr",-11.068169408264998],["muscle",-11.068209042737351],["tur",-11.068800993146025],["decorate",-11.068846813715716],["accommodate",-11.068929910516243],["anime",-11.069258485406152],["voyage",-11.069606977820714],["ears",-11.06961949972353],["banks",-11.069945081932893],["medicine",-11.070110383311839],["compet",-11.070344723174511],["lanes",-11.070878706797759],["neighbour",-11.071490187158178],["Work",-11.071789029815287],["cruise",-11.071976022016432],["conquer",-11.072028190636498],["Sel",-11.072416603003559],["duration",-11.072439112582625],["parody",-11.072487565418852],["Near",-11.07273908938416],["1898",-11.073069109986747],["Armenian",-11.073417165725399],["Dann",-11.073443675254227],["Deep",-11.073666070695522],["imming",-11.073672290342628],["Flying",-11.073773310768122],["Victorian",-11.073812766518444],["ideal",-11.073820175893786],["navy",-11.074477513591269],["trend",-11.075023417540859],["ave",-11.075305445932486],["discipline",-11.075337721366504],["Province",-11.075337788629927],["terrain",-11.075365634194897],["condemn",-11.07619367436191],["burial",-11.076718719445115],["Historical",-11.07770915115609],["hitting",-11.077962608806946],["Craig",-11.078744771663926],["Virgin",-11.078804626238709],["Nan",-11.078880273616456],["servant",-11.079370628605695],["Wii",-11.079832765794315],["Ralph",-11.08013964078032],["Thos",-11.080673823125679],["sweet",-11.080711461882094],["Whit",-11.080751637735238],["eating",-11.080881312889503],["Argentina",-11.081199495981782],["fortification",-11.082251345507661],["shallow",-11.082312413883454],["attending",-11.082585592191315],["Yorkshire",-11.082720180717622],["Sur",-11.083203341859106],["01",-11.08363055765271],["rian",-11.083691756950717],["Johnston",-11.083993268752003],["Performance",-11.084011533462915],["Jacob",-11.084098924487837],["ale",-11.084221162937066],["styles",-11.084399625737433],["efficient",-11.084927492605896],["Carlo",-11.085022051733532],["ious",-11.085041944190483],["chord",-11.085055999966759],["capabilit",-11.085546886482902],["hidde",-11.085558360863768],["rarel",-11.085874133337503],["Lloyd",-11.085932975409058],["unclear",-11.086258071616957],["scattere",-11.08639341059632],["magnitude",-11.086416850759443],["shaft",-11.086430613669293],["accidental",-11.087276705438562],["Market",-11.087427890707126],["Globe",-11.08800443660911],["nic",-11.088321752219716],["progressive",-11.088484209430252],["Call",-11.08930237318138],["Turner",-11.089881018787672],["planets",-11.090151307245433],["stores",-11.090238690800291],["Jerry",-11.090357481236289],["shut",-11.091701344206438],["mirror",-11.091759369865104],["drummer",-11.091842528392931],["blast",-11.091998324994972],["succession",-11.092683330924645],["Lang",-11.09313296048812],["1899",-11.093253937270434],["sq",-11.093382751868596],["explanation",-11.093713004490922],["Overall",-11.093732685492794],["commitment",-11.093778166537437],["predominant",-11.093834632347985],["wishe",-11.094227745526409],["leads",-11.094247494412249],["Blu",-11.094401814789254],["Celtic",-11.094697407049296],["Metro",-11.094837910762314],["Bennett",-11.095182701152257],["collaborate",-11.095526111790273],["biograph",-11.095543358484683],["softw",-11.095624786471452],["lion",-11.095635027693177],["starr",-11.09564149432471],["bombs",-11.0958885351013],["Subsequent",-11.09615162296685],["react",-11.096207373732925],["JT",-11.09652875365703],["dust",-11.09666751772248],["argues",-11.097340084955498],["rom",-11.098141927884473],["Finland",-11.098597624347427],["output",-11.098659588879556],["sugar",-11.098802957989012],["prohibit",-11.098991224499333],["monaster",-11.099093084378818],["thre",-11.099120765746303],["Kate",-11.099127457105663],["Dun",-11.099252898773056],["statistic",-11.099505660497421],["Voice",-11.099619232981475],["Penn",-11.099810849313283],["Kar",-11.099949684861121],["ique",-11.100476500560932],["NA",-11.100992590345097],["lawsuit",-11.10102867864029],["Champions",-11.10121716563538],["Common",-11.101534174888437],["Mission",-11.101705717768684],["Hol",-11.101832521985262],["repeat",-11.10220410471009],["grossing",-11.102662261813467],["polar",-11.102719875707951],["Grace",-11.102749642484739],["warfar",-11.103129207140894],["cleare",-11.103153912871644],["rounds",-11.103982376024991],["Norfolk",-11.104038526962015],["cabinet",-11.104292114796332],["prospect",-11.104412991512174],["Syria",-11.104837726377742],["reluctant",-11.10511762798644],["quit",-11.105365527600291],["willing",-11.105536491847026],["Official",-11.105982167899914],["gre",-11.106063511005914],["Judge",-11.106064322834666],["Burton",-11.106111407048513],["referr",-11.106137550847045],["transporte",-11.106177854071264],["trading",-11.106264639825302],["suspect",-11.107066250252371],["ruler",-11.107215097444733],["eritage",-11.107413891519837],["turbine",-11.10746530826486],["cul",-11.10751845027552],["presentation",-11.107906611344758],["Queensland",-11.107917234715174],["hir",-11.10809533045521],["recall",-11.108236194840105],["argu",-11.108377500909604],["Link",-11.109000081970937],["prefer",-11.109287866660598],["Artist",-11.10934785734922],["precipitation",-11.109446003787202],["Hawaii",-11.10948197260586],["Nicholas",-11.109566536439768],["banne",-11.109651729733748],["Style",-11.110446892963594],["Barry",-11.110710887230614],["nce",-11.110904060096882],["02",-11.111350391481832],["inus",-11.111603855413602],["Next",-11.112019899476621],["Still",-11.112697502421364],["tomb",-11.113060065624342],["stress",-11.113126775874091],["Brazilian",-11.113427230620964],["Brothers",-11.113586976350696],["physic",-11.113709215103857],["bore",-11.114317711770259],["LP",-11.114786639120831],["march",-11.115248711870269],["compliment",-11.115391452927565],["athletic",-11.1154115778677],["Broadcast",-11.115650884088755],["crystal",-11.115652083909952],["Ros",-11.115740078338767],["activist",-11.116031635822118],["stern",-11.116135232509876],["questione",-11.116528847367311],["Vincent",-11.11666751761366],["Davies",-11.11675680867599],["hang",-11.116924613687232],["agenc",-11.116972838903521],["solve",-11.117205621835604],["Catherine",-11.117408676772275],["Emmy",-11.117409968755588],["Medical",-11.117918015252599],["Harbor",-11.118082077162809],["habit",-11.118394535938078],["Sweet",-11.118409980345987],["Guinea",-11.118421556213505],["Opera",-11.118430058334699],["1850",-11.118924949785555],["eastward",-11.118936839254395],["Hunt",-11.11975682078975],["med",-11.12006130975664],["Mis",-11.120484738698346],["pursuit",-11.120613558890543],["imager",-11.121651183119038],["Mayor",-11.121757023084069],["inscription",-11.121955754001085],["Yellow",-11.121964037307968],["Sega",-11.122589167005335],["Bryan",-11.122602829364137],["copper",-11.12310195277097],["gross",-11.123256984135864],["mad",-11.123547277971948],["tooth",-11.12367973381744],["Kane",-11.124249365264145],["Hughes",-11.124409340694475],["1897",-11.124434352801632],["beaut",-11.124660762724021],["Roll",-11.124985855072087],["revive",-11.125131362347535],["Darwin",-11.125198183465994],["Mega",-11.125729581318657],["hybrid",-11.125938110824178],["Indonesia",-11.126600252422556],["Antonio",-11.126725466110392],["Farm",-11.127285455923747],["package",-11.127889890226788],["wreck",-11.127963785651207],["ancestor",-11.12798186625073],["dealing",-11.128514618991677],["nautical",-11.128690930242287],["Box",-11.128753182022685],["loud",-11.12875619030396],["Kon",-11.12891227204225],["Harvard",-11.129978819122574],["Mass",-11.130268342589222],["undertake",-11.130272518882174],["proceeded",-11.130493556071135],["Beginning",-11.13051827131956],["Oslo",-11.130619423857205],["spoken",-11.13070853756826],["Training",-11.130892023721032],["Affair",-11.1315102621965],["Abu",-11.131679661499932],["Cameron",-11.132004793140815],["torpedoe",-11.132528394288796],["lum",-11.132592429483495],["laborator",-11.13306653562903],["Studio",-11.133363152086174],["survival",-11.133828057342225],["Beck",-11.133983649608242],["Bro",-11.134079968856934],["statione",-11.134521436039329],["legislative",-11.134541181773578],["Swiss",-11.134545900044367],["Poe",-11.1349989595609],["collective",-11.135160014077748],["Luke",-11.135375443041447],["voter",-11.135407118443093],["confidence",-11.136578698762328],["sixteen",-11.136926322357088],["Son",-11.137043527996955],["bond",-11.137262053726186],["Moscow",-11.137595430536132],["dislike",-11.137619657117613],["poly",-11.137657829976842],["mammal",-11.137752036688418],["Symphon",-11.138092820706838],["Pittsburgh",-11.138105971940503],["proof",-11.138738111490142],["ions",-11.139136507652122],["charity",-11.139269762426686],["consume",-11.139411398765743],["commentator",-11.139637243396026],["nineteen",-11.139637376805611],["Gallery",-11.139638924175749],["initiative",-11.13966279190695],["breast",-11.139730735551794],["talks",-11.13983359775013],["advised",-11.14021731924499],["consideration",-11.140245067426765],["varied",-11.14111144983181],["Protestant",-11.141170786279067],["Susan",-11.141441099658625],["occupy",-11.142194692000816],["Female",-11.142800921781523],["sisters",-11.143001010627252],["supplement",-11.143015255977033],["cor",-11.143149160753673],["airfield",-11.143189577852725],["tribe",-11.14320112267753],["interprete",-11.14368639350775],["summit",-11.143866849387456],["myth",-11.144635930435513],["Orange",-11.144640431321314],["Wilhelm",-11.144704753261504],["Bath",-11.145432725470467],["Tam",-11.145580973020099],["gency",-11.146116555155432],["Junior",-11.146302042218693],["puzzle",-11.146814411938536],["decisive",-11.146814412749515],["burning",-11.147063581965146],["autumn",-11.147329545140115],["tonnes",-11.147463128105985],["Terry",-11.14748026844605],["celebrit",-11.147844012503791],["Liz",-11.148049092650291],["Upper",-11.14812472976147],["mic",-11.14864693187768],["Zone",-11.148746052624983],["Edition",-11.149402074497456],["rig",-11.149909851609502],["ú",-11.150332421504693],["wick",-11.150348369510734],["Mountains",-11.150378864512074],["Wallace",-11.150478391454111],["recommendation",-11.15070249726049],["audition",-11.150757019130857],["humor",-11.151008498339312],["Movie",-11.151179021874118],["patron",-11.151303150558416],["asset",-11.151848994360453],["Section",-11.152010958280904],["List",-11.152249166425385],["trait",-11.152263541827924],["Mir",-11.152424914520882],["attorney",-11.152490381740048],["filter",-11.152534572687754],["chemistr",-11.152840054667228],["explicit",-11.153525845917336],["photography",-11.153741328200596],["accessibl",-11.153770914131321],["Boys",-11.153772518421034],["mechanic",-11.153806624948785],["battles",-11.153984405253489],["evacuation",-11.154571326709064],["Carr",-11.154894948938653],["gene",-11.15493586833924],["Microsoft",-11.155093470916563],["lyrical",-11.155234423525236],["inning",-11.155395846937902],["programming",-11.15573850221245],["inclusion",-11.156119215545878],["Formation",-11.156177590980754],["roadway",-11.156207324747939],["Picture",-11.156547471984322],["volcano",-11.156754257171617],["Defense",-11.15716059634126],["compile",-11.157728190841127],["trick",-11.157774982329219],["Gil",-11.158307474463308],["Malaysia",-11.158317427942071],["indeed",-11.158377071421196],["crops",-11.158393677472112],["Indonesian",-11.158555944991557],["harm",-11.158907653249223],["Description",-11.159240147749903],["Jefferson",-11.159258157044952],["migration",-11.15930247815556],["careful",-11.159400797670088],["Program",-11.15991696425738],["Girls",-11.159982538092923],["Tra",-11.160070977190042],["Aftermat",-11.160170190580018],["harbour",-11.160282663935838],["Hope",-11.160480031137052],["shifte",-11.160794163420071],["compromise",-11.160971549585422],["speculate",-11.162340487132806],["conquest",-11.162459432717565],["Cast",-11.16270247300801],["conservation",-11.162917988880546],["export",-11.163288793177422],["Sheffield",-11.163430092058238],["lighting",-11.163506551330533],["publications",-11.163859536779077],["prepar",-11.164257587845036],["blocke",-11.164465876913045],["Come",-11.164705878817193],["demonstration",-11.165023623150866],["immigrant",-11.165526948459727],["ports",-11.16554304055289],["pine",-11.165668050705351],["anticipate",-11.165767274598593],["descent",-11.16603651890827],["Gall",-11.166255641019589],["MC",-11.166582138885506],["Larry",-11.166584841319777],["closure",-11.16687133631925],["inland",-11.166924528609481],["fundamental",-11.167092047928428],["uncertain",-11.16733328385444],["auto",-11.167508025200227],["à",-11.167610585403349],["1895",-11.167639898583804],["vol",-11.167657301893524],["rushe",-11.168097484050243],["vulnerabl",-11.168136071480433],["noise",-11.168383475893727],["modification",-11.168665373138381],["Zero",-11.16925806147281],["Gay",-11.16989015095626],["tory",-11.170593745824984],["forecast",-11.171028485610762],["Ren",-11.171106078321735],["Tre",-11.171158253331463],["Neil",-11.171712064165355],["warrior",-11.171822527455024],["Cyrus",-11.172359988616178],["Herald",-11.172367005062261],["Security",-11.172485269755857],["Dallas",-11.172947928039301],["electro",-11.173056596208422],["Apollo",-11.173254466058935],["elite",-11.173285621889718],["lung",-11.173601405040438],["mul",-11.173761706997949],["Austin",-11.173943835387863],["Gre",-11.174509544286433],["Lost",-11.174534845183864],["founding",-11.174836062075773],["powder",-11.174992670287194],["Together",-11.17499306801765],["uz",-11.175337727979377],["follower",-11.175486222736946],["drafte",-11.1755738157139],["FC",-11.17563939202044],["fisher",-11.17601258082519],["calculate",-11.176183732451193],["hunt",-11.176219356146118],["avi",-11.176506606209877],["Collection",-11.176589776895915],["champions",-11.17659393500873],["Laborator",-11.176618224103017],["Com",-11.176646679684154],["RNA",-11.176909671974679],["absent",-11.176919125376855],["Pra",-11.177021422031824],["participation",-11.177117073599325],["bombardment",-11.177176402867255],["censor",-11.177178473547489],["pink",-11.177590180989101],["Child",-11.17763337877837],["resident",-11.177734416549715],["Hunter",-11.177774085115669],["Nova",-11.178182461741557],["Amendment",-11.178704380203278],["administer",-11.178850307272064],["Room",-11.17999496771457],["iva",-11.18016371620779],["Woman",-11.180239775754291],["span",-11.180662188116862],["jobs",-11.18090067435502],["Jun",-11.181040801196826],["activate",-11.181149853664063],["Musical",-11.181200495871764],["stroke",-11.18146228967706],["finger",-11.18156232656973],["remote",-11.182065556289126],["girlfriend",-11.182446308186613],["Hills",-11.182470247669027],["Pine",-11.182852402790452],["FBI",-11.183017815505693],["Past",-11.1832957828938],["users",-11.183417074966172],["imprison",-11.184568974177122],["Chelse",-11.184572487687241],["clothes",-11.184666851289297],["significance",-11.184708853421277],["CBS",-11.185003049168547],["brilliant",-11.18509913847192],["aria",-11.18528443887578],["Danish",-11.185637854271928],["onward",-11.18591597379232],["bor",-11.186154030713077],["trappe",-11.186313112437407],["marche",-11.186690952621769],["Stock",-11.186863988557628],["Parsons",-11.18710027137125],["gift",-11.18715616613253],["Gill",-11.187466697813498],["grandfather",-11.187574755888196],["usage",-11.187843115322845],["disband",-11.188036715152458],["salary",-11.188331159680237],["Horn",-11.188335682272037],["Greater",-11.188711928474767],["Armstrong",-11.188957853452486],["chest",-11.188972775392756],["traveling",-11.189757752402441],["tender",-11.18989195262865],["Half",-11.19005926332632],["mixture",-11.190461294532295],["Quebec",-11.1904642249537],["expectation",-11.190585413596185],["HD",-11.190923491927077],["Allie",-11.190964431753251],["Orlean",-11.190999021406297],["wrestler",-11.19119271007599],["mytholog",-11.192051085158166],["Fisher",-11.192252570224625],["Fund",-11.192307093894366],["Cathedral",-11.192614958330037],["dinosaur",-11.192628297707952],["terminal",-11.193464538789186],["variable",-11.193610326584523],["bats",-11.194095584147561],["rely",-11.194217922000208],["suffer",-11.194587548581842],["Cultural",-11.195850613641742],["recurring",-11.195885449753685],["Sri",-11.19602234541675],["essay",-11.19654986051017],["Fourth",-11.196766405146885],["benea",-11.196855556777201],["Spider",-11.196932378642199],["Authorit",-11.196982194155137],["respond",-11.197003614244105],["diverse",-11.19709324744842],["aux",-11.197270791837322],["aunt",-11.197589609816625],["ple",-11.19784326658148],["Buffalo",-11.19858677307797],["Name",-11.19997966267196],["uri",-11.200053678581707],["advertisement",-11.200227086825663],["mood",-11.200392750199784],["Salt",-11.200912987712744],["killer",-11.201191350919249],["Guitar",-11.201253855632839],["destination",-11.20129120841331],["Sho",-11.201397787832548],["FIF",-11.201660049669638],["beating",-11.202231062155665],["organic",-11.20229045360615],["Magic",-11.202533396644913],["115",-11.202787785995895],["revival",-11.202893221073829],["oriente",-11.20307535058402],["sick",-11.203143075727372],["coordinate",-11.203222531884617],["commanding",-11.203274857620178],["grid",-11.203789043102883],["trough",-11.203814027584828],["corporate",-11.203860518943907],["owing",-11.204285838802996],["Tyler",-11.204533035993416],["precise",-11.205078439644367],["ere",-11.205222340279736],["sailor",-11.205297593204698],["variation",-11.2054926907423],["mono",-11.205706025249157],["Var",-11.205794035747857],["Agency",-11.205908924256114],["Spirit",-11.205924074700508],["joke",-11.205950383283836],["circular",-11.206169578410211],["Utah",-11.206299973162112],["Clarke",-11.206357571270303],["None",-11.206533954981968],["molecule",-11.207262263162875],["nice",-11.207422281166592],["fortress",-11.207916323331666],["Stuart",-11.208391494566518],["unexpected",-11.208477604954119],["Marc",-11.208602891750338],["cathedral",-11.20890346188066],["Harold",-11.208928212285201],["saving",-11.210479988359996],["dive",-11.210517864101838],["Charlotte",-11.21054855025319],["installation",-11.21059764441964],["Constantine",-11.210657711695193],["velocit",-11.211288865440753],["acre",-11.211362908315973],["Pam",-11.211657786537431],["Regional",-11.21173698760719],["Cricket",-11.212109721009195],["Serbian",-11.212318335222617],["transportation",-11.21307006480614],["beaten",-11.213206272072348],["Athen",-11.213235541751338],["109",-11.213408550299018],["240",-11.213664554673095],["Muhammad",-11.213842954034893],["descendant",-11.213949364360927],["appreciate",-11.214074398907737],["biological",-11.214327312969028],["Isle",-11.214413725302512],["Disc",-11.21449249966588],["1889",-11.214728401569218],["Associate",-11.2149439694414],["Richmond",-11.21494502426594],["Yu",-11.215042975112073],["Evil",-11.215266156412145],["gear",-11.215483876669296],["kilometer",-11.215495651245575],["rowned",-11.215859597342892],["upset",-11.216005184072799],["Metropolitan",-11.216046201336386],["realise",-11.21659160459971],["airing",-11.216649892734234],["charte",-11.216927728339297],["atus",-11.216947705988229],["dissolve",-11.216956857506247],["discharge",-11.217324301813651],["Sonic",-11.218623279597644],["prince",-11.218821635658603],["diplomatic",-11.218826385375731],["1894",-11.218986492952],["Rod",-11.219323095241258],["substance",-11.219432656642056],["Hans",-11.219967886891373],["Tang",-11.220084579899158],["scope",-11.220696350885671],["impressive",-11.22106879682506],["requir",-11.22133789062896],["rains",-11.221481123085962],["1000",-11.221615552913022],["oxide",-11.222468561537406],["Bible",-11.222745183563056],["agricultur",-11.222772603878106],["Scientology",-11.223240476852718],["Executive",-11.223240476975723],["scholarship",-11.223450675374258],["screenplay",-11.223483723429776],["empty",-11.223797052003043],["Mason",-11.22471772575835],["accord",-11.224948660530863],["Rap",-11.224986155949539],["1891",-11.225111132250007],["Freedom",-11.226585460028733],["ransportation",-11.226607359368002],["neutral",-11.227075694836376],["lip",-11.227096987424598],["competitor",-11.227135934267604],["millimeter",-11.227136958177333],["clan",-11.227311136521223],["heritage",-11.227603317997534],["captur",-11.227606773406468],["Der",-11.228054765165451],["Books",-11.22819817890831],["YouTube",-11.228271863397321],["Pictures",-11.22835027720868],["inger",-11.228423867676884],["dependent",-11.228640447474863],["Bulgarian",-11.228887080992955],["outcome",-11.229368288339124],["Grade",-11.229480500811682],["Control",-11.229773739578073],["romance",-11.230498487138773],["implemente",-11.23066163305208],["continent",-11.230828971003211],["recruite",-11.230944950728068],["prices",-11.230977120277178],["Rad",-11.230980832537593],["permit",-11.231755083633304],["NC",-11.232184967267266],["bypass",-11.232589857308383],["Christianit",-11.23263375724392],["Pal",-11.232657264860935],["unle",-11.232682095726808],["Charts",-11.233340054183625],["Pete",-11.233374481314065],["dome",-11.233618381567517],["venture",-11.233688571493794],["seventeen",-11.233852911553821],["Count",-11.234047053110245],["hurt",-11.234289647711043],["telephone",-11.23441635378446],["bowler",-11.234422637162561],["Kyle",-11.2344255823594],["confusion",-11.234471830664813],["golden",-11.234500627735429],["Baron",-11.234591451470067],["sailing",-11.234705792025022],["mac",-11.234764263050298],["Chapel",-11.234893213899085],["Advance",-11.235060921367866],["1892",-11.235147022850038],["bishop",-11.235228488137],["goods",-11.235375696345537],["para",-11.23570188270558],["assert",-11.236131114105174],["Want",-11.236147777802891],["switch",-11.236305160340354],["evident",-11.236659758698433],["Cardif",-11.23667653041474],["Newton",-11.236969263790925],["happen",-11.237081975852389],["advanc",-11.237218423312346],["categorie",-11.237222814365637],["municipalit",-11.23724266384005],["fold",-11.23728165580489],["barrier",-11.237284069960513],["Walt",-11.237511619684401],["rapper",-11.237565321972104],["Shiva",-11.237568235798712],["Typhoon",-11.2377861874177],["Register",-11.23780923377421],["dwarf",-11.238018337060232],["cemeter",-11.238428773990403],["bulk",-11.238716441945744],["complaine",-11.238803448611957],["scenario",-11.238913908847877],["ake",-11.239331696620763],["measurement",-11.239351255903856],["mineral",-11.239560435827695],["1800",-11.239727226950022],["southeastern",-11.239976446501021],["timber",-11.24004629972955],["relation",-11.240293325772878],["admit",-11.240381674534277],["Conservation",-11.240611287033936],["Kill",-11.240667720129132],["gods",-11.240729313088968],["Kal",-11.240819039257378],["Rhodes",-11.24093314507665],["pregnan",-11.241028795520176],["realistic",-11.241198642393876],["Ruth",-11.241415630530586],["Territor",-11.242042391524382],["poster",-11.242097110235203],["extinct",-11.2422692572914],["mask",-11.242405520410367],["CO",-11.242498057350623],["urged",-11.242498895092211],["easie",-11.24255991015248],["Sox",-11.242756904666177],["devoted",-11.24309682435218],["holes",-11.243228779559143],["logo",-11.24355276625947],["Nar",-11.243605818516802],["refugee",-11.243612544440545],["crews",-11.24365202914787],["theorie",-11.243966920000364],["Orchestra",-11.244004501227401],["illustration",-11.244601602786243],["user",-11.24465104237592],["stuff",-11.244856265064957],["ante",-11.244893814526224],["Justin",-11.245197866925665],["infrastructure",-11.245198450150921],["witness",-11.24548519945664],["Islamic",-11.245729818310291],["constitute",-11.246231382805835],["dimension",-11.246247280737077],["Until",-11.246275701809068],["Cavalry",-11.246843710520839],["Mil",-11.246857779506259],["Ground",-11.24716572062253],["Wisconsin",-11.247412556465495],["Ker",-11.24817998446925],["Oscar",-11.24838910387423],["commemorate",-11.24865252021621],["Code",-11.24899767898857],["eligible",-11.249120964580808],["lifetime",-11.2492814156065],["literal",-11.249297171663741],["ordinar",-11.249680696479055],["Fish",-11.24995549827953],["Nature",-11.250114767244355],["rent",-11.250171059008942],["Actress",-11.250263186193232],["Reich",-11.25057774046405],["paint",-11.250765584552472],["resort",-11.252008005490776],["lava",-11.2522424717842],["Without",-11.252271711154126],["Sport",-11.252895177571403],["knocke",-11.253082375948425],["gle",-11.25308365456997],["Airlines",-11.253107664647416],["Jerusalem",-11.253118685049644],["kills",-11.253179596163601],["commit",-11.253190825142736],["Boeing",-11.253286558118955],["scandal",-11.253598587117251],["₹",-11.253691094818592],["peninsula",-11.253691242493453],["angular",-11.253737802103878],["rejoin",-11.25469277229179],["switche",-11.254757873684799],["lasting",-11.254774627225242],["Pierre",-11.254897487118718],["strange",-11.255049923990706],["stretche",-11.25515401981851],["Flag",-11.255201999258313],["trio",-11.255212599917462],["Panzer",-11.255447802715597],["450",-11.255733526879101],["Bur",-11.255899528066063],["Father",-11.255908437810067],["cash",-11.256432019620476],["Montgomery",-11.256558069207552],["flows",-11.257696692606613],["hosts",-11.257703976742757],["census",-11.257711510673799],["pupil",-11.257860001416478],["Draft",-11.257901840272805],["handling",-11.25819874162076],["oppos",-11.258375141670802],["Stevens",-11.258388862191925],["ock",-11.25882321690283],["Branch",-11.259865134353177],["Kid",-11.260284282362708],["scrap",-11.260309910891037],["burst",-11.260442059877077],["Barnes",-11.260504903630572],["OS",-11.260566479814617],["Cemeter",-11.260628062542672],["inducte",-11.260744003095791],["mbar",-11.261027085067028],["Donald",-11.261083366253098],["ER",-11.261136217227914],["proceeding",-11.261167225057216],["Fight",-11.261303207504376],["naming",-11.261685587429211],["rider",-11.262349155133162],["retail",-11.262572187515305],["Edwards",-11.26310175334919],["mast",-11.263347277426094],["cards",-11.26337114599573],["Scots",-11.263631597157767],["preced",-11.26385124547586],["Leader",-11.264118368164931],["alert",-11.264264094982366],["possess",-11.264771568231922],["Bon",-11.264926272544045],["dinner",-11.265512534242042],["cylinder",-11.26578802927812],["Support",-11.266364989767865],["Century",-11.266367748072895],["assessment",-11.266408497330591],["1888",-11.266586874949061],["Saturn",-11.266735206014626],["mud",-11.26708294693784],["Grove",-11.267157673935674],["directors",-11.267199559456113],["Attorney",-11.267528155857995],["epic",-11.267536637222678],["hostile",-11.26764556338587],["Turkey",-11.267649707457828],["Rama",-11.267660563573287],["Sherman",-11.267704136726632],["Kur",-11.267890321091388],["travell",-11.268007631182549],["Brooks",-11.268222036657459],["MacArthur",-11.268249215856667],["Again",-11.268271153173469],["gue",-11.268763620075397],["Gra",-11.268869128602155],["manufacturer",-11.269202098159377],["Baltic",-11.26927360574086],["volcanic",-11.269428453592914],["grain",-11.269620588781363],["Las",-11.269749411722964],["root",-11.269763036044877],["crop",-11.270403869095631],["speculation",-11.270439254254203],["lesson",-11.270798953181007],["fortune",-11.27103886207351],["fatal",-11.271046767609215],["bitter",-11.271148084367994],["interact",-11.271269315102863],["Czech",-11.27160031814823],["counterpart",-11.271830564354591],["onic",-11.272330959871518],["1885",-11.27244642723331],["μm",-11.272732249218256],["Ivan",-11.272850455387559],["GameSp",-11.273446128404427],["enforce",-11.273659066309593],["Warrior",-11.273935040289587],["Pink",-11.27432583005224],["Resident",-11.27451925479103],["keeper",-11.274541510080947],["rushing",-11.274543128851136],["autobiograph",-11.274895660259347],["documente",-11.274908274540294],["Stand",-11.275055662033926],["belong",-11.275065634741019],["amendment",-11.275129107121472],["priorit",-11.275382309377544],["Wells",-11.275383898883907],["tough",-11.27540287575896],["magnetic",-11.275782711540845],["manufactur",-11.276260127632822],["galax",-11.276324889894736],["rendere",-11.277105937766489],["Gro",-11.277170284687678],["surge",-11.277172389415146],["thrown",-11.277283922542868],["observer",-11.277502436708577],["batte",-11.277539059800379],["Burns",-11.27860477524752],["Reagan",-11.278620661220954],["spare",-11.278703411946307],["highlighte",-11.278928752309572],["Mind",-11.279027647028986],["hell",-11.279116217032694],["Action",-11.280102046637197],["harsh",-11.280773011863744],["Ring",-11.281084709541501],["Nation",-11.281847381185882],["Writer",-11.282150004107377],["anagement",-11.282194289425066],["elect",-11.2825314558172],["loved",-11.282647364899898],["lighter",-11.282675414544162],["distinction",-11.282854528585304],["Falls",-11.283076891462528],["arena",-11.283274166481373],["concurrent",-11.283442463004047],["PR",-11.283514226182135],["Thames",-11.283609483883493],["separation",-11.283924040210284],["Glee",-11.284102121944613],["Tribune",-11.284507499665411],["Romney",-11.284508376112798],["Article",-11.28451320042222],["utstanding",-11.284688566621341],["Shah",-11.284747861203615],["hence",-11.28549258520162],["Lin",-11.285685012392445],["suspension",-11.286282897907181],["intent",-11.286422877907075],["metre",-11.28671719099604],["texts",-11.286770358363263],["Miles",-11.287039582808118],["promot",-11.287110830161765],["doctrine",-11.287464321518296],["leaf",-11.287741761093333],["Organization",-11.288077914635807],["disagree",-11.28812625879916],["companion",-11.288775850186907],["ERA",-11.288921845085405],["distinguish",-11.289133234684611],["rocket",-11.289160201402506],["transform",-11.289381961109683],["custom",-11.289502487696705],["1865",-11.289542070523584],["suspected",-11.289743840524407],["rumor",-11.289809903845082],["104",-11.290232234292555],["DJ",-11.290893695498394],["Barbara",-11.291038449986468],["chu",-11.291541417058953],["mont",-11.291550539804119],["Greate",-11.291658789518785],["Comedy",-11.291904112966002],["homosexual",-11.292229391469515],["smith",-11.292298438556628],["bull",-11.29246645716253],["hopping",-11.292530462060274],["Bri",-11.29268491865902],["NATO",-11.29284728953635],["Shadow",-11.293427370718035],["Against",-11.293601046352274],["belonging",-11.294028446522928],["Duch",-11.294152058135289],["978",-11.29418695790623],["Springs",-11.294306333779032],["myster",-11.294567765330674],["Nancy",-11.294765760195595],["Gene",-11.295602848212006],["Animal",-11.295791482151397],["Constantinop",-11.295850360881763],["renewe",-11.295851309013205],["complicated",-11.29703617929038],["Hop",-11.297150531207748],["vital",-11.297239166096013],["shortage",-11.298332268484003],["cattle",-11.298780820846716],["Cyclone",-11.298803616860116],["steep",-11.299382588780539],["miss",-11.299859334139637],["Thor",-11.299926093327041],["rape",-11.300097098257288],["alive",-11.300678308036105],["physician",-11.30073640235195],["Swan",-11.300925097762988],["diamond",-11.300927416531582],["Portugal",-11.301179629811053],["bears",-11.301684327295497],["Ernest",-11.301780177062163],["transit",-11.301941809614101],["blockade",-11.301942607201216],["absorbe",-11.302786471560943],["definite",-11.30282867152496],["Reed",-11.303341109034779],["Para",-11.304565634369677],["transmission",-11.305552261600392],["ography",-11.305955602253242],["noble",-11.305990257909794],["pleasure",-11.306010921223052],["sinking",-11.306058558266026],["concerning",-11.306280594315897],["painter",-11.306341694476792],["pose",-11.30680927934202],["Eye",-11.30714586425136],["Continental",-11.307213149126774],["Newcastle",-11.30740415414827],["Rogers",-11.307718051469099],["Kam",-11.307735679262052],["VIII",-11.30810669114155],["whale",-11.30813010320362],["disable",-11.308288683035485],["Future",-11.3084123567263],["Ser",-11.308451793514582],["chen",-11.30858129667266],["cite",-11.308936386487934],["Scar",-11.308997385667372],["Drake",-11.309408598632231],["choir",-11.30972919690724],["roller",-11.310180417359128],["Bright",-11.310653186587361],["101",-11.310954979137858],["ersonnel",-11.310973147595917],["Heavyweight",-11.311484476805486],["taxe",-11.31164418795159],["José",-11.312048774128169],["aga",-11.312898705288344],["corps",-11.31292224002628],["Joint",-11.312994550340044],["millimetre",-11.313275280086662],["overlook",-11.313402246790783],["mates",-11.31351139350436],["massacre",-11.31371653441595],["demographic",-11.313924718661987],["Tur",-11.314042974512635],["Adventure",-11.31440762777872],["Liberty",-11.31455532850428],["trap",-11.314825209372914],["dreadnought",-11.31508567024175],["dispatche",-11.315585742527848],["depart",-11.315722517315255],["infant",-11.316114855924699],["ule",-11.316228463179717],["Ancient",-11.316303805170596],["Eight",-11.31658948780241],["Marshal",-11.316621706271171],["boyfriend",-11.316812183507363],["goddess",-11.31691364685776],["Cornwall",-11.316953879544538],["Standard",-11.3169621029484],["por",-11.317127942727582],["Robin",-11.317136574608039],["ceiling",-11.317523994233323],["elli",-11.317819205539253],["1864",-11.318039826126089],["Tournament",-11.318135037237901],["shipment",-11.318255434495597],["random",-11.31830625934169],["masse",-11.318327772368994],["NL",-11.318484629594323],["Low",-11.318530900462331],["Commissioner",-11.31854524449969],["Sex",-11.318596120353506],["Fer",-11.318636046283345],["Make",-11.318747872694418],["dropping",-11.318759728936547],["horizontal",-11.319415546565246],["Howe",-11.319795747254364],["Cena",-11.319799148532528],["fusion",-11.31990146181143],["ambassador",-11.31996793655102],["genuine",-11.320784949388859],["Archbishop",-11.320804636545818],["conspirac",-11.32112854714867],["consumption",-11.321192302757058],["batterie",-11.3216461988157],["flesh",-11.321898352506388],["Isaac",-11.322497165308778],["limb",-11.322813439997695],["judicial",-11.323031661020593],["rifle",-11.32320506948211],["colored",-11.323466107208647],["exhaust",-11.323508288481381],["pictures",-11.32390357752957],["indigenous",-11.323962502743157],["Career",-11.324324552362572],["juvenile",-11.324874412581288],["reunite",-11.325394012702604],["Energy",-11.325489417736748],["flash",-11.325912666105674],["Leicester",-11.326720585145395],["Monte",-11.327316244361917],["remake",-11.327420240137009],["ballot",-11.327450966610725],["Capital",-11.327511219957813],["111",-11.327600742182065],["Kenneth",-11.327615190209436],["Serb",-11.32773911361585],["Plant",-11.3278744580944],["parliamentar",-11.327916087764738],["industrie",-11.327962657111836],["deputy",-11.327993520256904],["asserted",-11.32801545733257],["Boulevard",-11.328570138529676],["Malcolm",-11.328570208322665],["remarkabl",-11.328826987930526],["morph",-11.32883978802977],["territorial",-11.328939235977682],["cook",-11.329227640034052],["sensitive",-11.329805084577046],["Conservative",-11.329828854598087],["ashore",-11.330299308730151],["columns",-11.330360679018337],["uni",-11.330850527932274],["Pedro",-11.331044247592864],["Meteorological",-11.331047407205556],["Lower",-11.33132591327007],["resignation",-11.331749411379418],["cre",-11.331774796079266],["relat",-11.331860474692796],["Joan",-11.332006995094314],["Chamberlain",-11.332280587060147],["referee",-11.332339394532813],["utilize",-11.332431637740843],["Minor",-11.332824701609404],["excess",-11.33283988761313],["doors",-11.333177866389224],["terminate",-11.33337422577003],["nephew",-11.333519174382587],["ferry",-11.333772854374075],["cry",-11.333828919003148],["afford",-11.334081263870166],["premise",-11.334139977744274],["Cro",-11.33419960850932],["Carol",-11.334204283972683],["therap",-11.334215841950634],["vocalist",-11.334300897870936],["murdered",-11.334515220091127],["mixing",-11.33465229994107],["Yugoslavia",-11.335125348293133],["Fat",-11.335648716727398],["Strait",-11.335800162771793],["punishment",-11.336036728413536],["Machine",-11.336153392075982],["DOT",-11.336578798574156],["Dublin",-11.337500704909013],["graph",-11.33762554603449],["bert",-11.33767170483658],["Serbia",-11.338115323310092],["fluid",-11.338772614665558],["Anton",-11.33897455164055],["shadow",-11.33901055855057],["Where",-11.339055533465924],["Turn",-11.339066958471653],["Origin",-11.33911109289438],["Pet",-11.339129493660568],["Electronic",-11.339744889804098],["Round",-11.3398506047256],["Was",-11.340171088009077],["Lou",-11.340318011373508],["loade",-11.340345565847151],["hunter",-11.34048884804739],["introduc",-11.340684163668044],["routing",-11.340738209924861],["Ven",-11.340854765632455],["collision",-11.340988799259673],["gotte",-11.341253845898878],["ă",-11.341314107248667],["ngry",-11.341377295539782],["debri",-11.341506703730044],["Years",-11.341728670843747],["Crystal",-11.341805160730527],["corresponding",-11.341861699207817],["ologist",-11.342232627232598],["screening",-11.342259713376304],["Julian",-11.34253237559545],["sville",-11.343031411920578],["jar",-11.343325066550047],["movies",-11.343441863626673],["Rush",-11.343685705279979],["petition",-11.343710214725245],["varie",-11.343861615613221],["Michel",-11.343969847307246],["Gor",-11.344110695394662],["carve",-11.34411651184231],["Number",-11.344175257515506],["hills",-11.344309287002478],["Youth",-11.34440892084236],["Publish",-11.344660450173478],["remov",-11.344738065155072],["revolutionar",-11.344920219878585],["stones",-11.345205287047548],["facult",-11.34529017437949],["Eddie",-11.345378087200721],["Friends",-11.3458001603106],["prayer",-11.345801622736635],["threatening",-11.346005405746283],["Kaiser",-11.346014304385243],["Bradley",-11.34608556064864],["disappointed",-11.346152089935682],["roster",-11.346497166499514],["pounder",-11.346589541352955],["nurse",-11.347421450582992],["Dennis",-11.347526844566335],["kilogram",-11.347885675228987],["immun",-11.34869661205368],["Legend",-11.349186218058287],["zero",-11.349839495911873],["ives",-11.349847382773461],["Angle",-11.350368550838667],["corridor",-11.350405062564558],["worthy",-11.350747762239514],["vicinit",-11.350802169992495],["Romanian",-11.35102326213812],["Political",-11.35166758817022],["sentiment",-11.351669819701598],["stops",-11.351902451083447],["Burke",-11.352278241434178],["Dakota",-11.352299042171477],["undergo",-11.35250903003317],["releas",-11.352524504049052],["prop",-11.352868975457874],["thunderstorm",-11.352992745205032],["Services",-11.35332488714889],["Jake",-11.353927448098034],["igan",-11.353964446715205],["Bed",-11.354205489696497],["arker",-11.354326074666183],["én",-11.354421383309955],["calm",-11.354841979475706],["skill",-11.3548425027505],["Devil",-11.354905301957928],["Brad",-11.35517585746852],["Springfield",-11.355290763308588],["sustain",-11.355580665267976],["Morning",-11.356075072745629],["Alliance",-11.356111088160585],["Tommy",-11.356230931808163],["loyal",-11.356421905752967],["Historian",-11.356505174357153],["corporation",-11.35651384804088],["inaugural",-11.356732195358585],["Stage",-11.356747855750065],["honest",-11.35719094995625],["gathering",-11.357750711856688],["Filming",-11.358519997309717],["220",-11.358522679229713],["Range",-11.358576667382456],["jaw",-11.358962100678994],["sheep",-11.358972318044152],["Chuck",-11.359677239037437],["Wagner",-11.3599108719994],["convicte",-11.360048033286933],["consumer",-11.360104735157345],["reconstruction",-11.360541414509466],["Curtis",-11.360726604450075],["Zu",-11.360890022829915],["Studies",-11.361444603475508],["Sean",-11.361448707094944],["itz",-11.361585516159746],["Gibraltar",-11.36182347398153],["isle",-11.361901695339501],["mansion",-11.36190230770479],["Break",-11.362072019144481],["kel",-11.362311438720923],["Blake",-11.362428890166683],["milk",-11.362460000074885],["congregation",-11.362461045367112],["mysterious",-11.362478955022034],["rounded",-11.362679860103626],["Stra",-11.363037586721571],["rotation",-11.363568090844478],["Montana",-11.36376239529213],["Brand",-11.364612184065745],["jam",-11.364695004498113],["Rear",-11.364700445216243],["Large",-11.364824658413902],["silent",-11.364920945596824],["Cincinnati",-11.365017774051374],["Hull",-11.365160484541217],["arned",-11.365175515877858],["Arena",-11.36521709111257],["Malta",-11.365497273894432],["1840",-11.365611290954238],["exterior",-11.36565798030253],["spider",-11.365677611947415],["wonder",-11.365832238049084],["barrel",-11.365971118998774],["gunner",-11.366316031525729],["Friedrich",-11.366317323214503],["102",-11.366576167699721],["improv",-11.367843849451422],["Hood",-11.367913142143285],["touche",-11.367923871823773],["aku",-11.368233777369213],["Ter",-11.369094152396556],["torture",-11.369202710025743],["Kra",-11.369598351312696],["PS",-11.370497569042543],["brook",-11.370796565779635],["Canuck",-11.370850695899998],["labour",-11.371294856898068],["rier",-11.371443367365941],["Kan",-11.371698214256238],["dual",-11.371720560071935],["adapt",-11.371843488503686],["mutual",-11.3720852573307],["meal",-11.372280274186224],["Character",-11.372707186370306],["Bla",-11.372769048605374],["rag",-11.373309295959764],["Dec",-11.373953426389921],["skeleton",-11.373993674784028],["Electric",-11.374348335901377],["Than",-11.374423404172031],["Watch",-11.37512992175136],["ivity",-11.375444963178698],["196",-11.376058283280415],["Pac",-11.376093710533858],["variations",-11.376153420021108],["spite",-11.376216318646637],["Normandy",-11.376222687891115],["lik",-11.376440953181906],["Shield",-11.376613223527427],["outline",-11.376622825610113],["Olivia",-11.376668412919287],["cker",-11.377070873887327],["stunt",-11.377106219555449],["Maine",-11.37731943318314],["enthusiastic",-11.377323561545087],["patent",-11.377421634788089],["domain",-11.377433798885367],["unite",-11.377552340129078],["knight",-11.377828686200287],["genera",-11.37792433548055],["centered",-11.378014476577055],["armoure",-11.378226863790763],["occurr",-11.378269277327169],["1887",-11.378421256415152],["swept",-11.378462423242471],["lat",-11.378864003549499],["vic",-11.378923153475167],["Tree",-11.37939452829924],["nquiry",-11.379609868286993],["Afghanistan",-11.379849102298685],["tools",-11.379949155932835],["installment",-11.380544167404361],["Josh",-11.380565901114544],["Yugoslav",-11.381415169765127],["Twitter",-11.381797845141413],["Madison",-11.381800491448576],["Any",-11.382194205763529],["populate",-11.382452199830016],["Circle",-11.382468361906984],["exploit",-11.382668785597481],["invent",-11.382902425778596],["outdoor",-11.382945058130659],["Edmund",-11.383107672265663],["Bears",-11.383108092644925],["fatalit",-11.383421628464575],["rode",-11.38358133519963],["filmmaker",-11.383767394030432],["psychological",-11.383770256269631],["linear",-11.38418327627491],["lium",-11.384366848922964],["Lion",-11.384469257284259],["printing",-11.384902374917523],["gauge",-11.385757513023886],["Eli",-11.385778759314352],["Herbert",-11.385836142416164],["1863",-11.386117210124233],["Revolutionar",-11.386138774903095],["1886",-11.38616244606326],["Orton",-11.386370985960305],["varying",-11.386472896986689],["reject",-11.386584117432545],["grosse",-11.38715806396553],["Leon",-11.387249534535142],["Planet",-11.388083175196899],["Former",-11.388141626445304],["Kor",-11.388414000992505],["remixe",-11.388545016019837],["exclude",-11.38880237842422],["Mann",-11.388858536735357],["Technology",-11.388960331573035],["chumacher",-11.388987357994276],["Deput",-11.389091706442859],["Milan",-11.389092764338386],["Alexandr",-11.389142100592991],["relieved",-11.389144738304255],["Brooklyn",-11.389714827276569],["Gregory",-11.389943305185952],["stabilit",-11.39028888529092],["Kil",-11.390718349231404],["parks",-11.391177330822893],["Rich",-11.391348346843767],["Eagle",-11.391538426690156],["Bab",-11.391867619703614],["Vegas",-11.391879265229132],["JNA",-11.39205301107554],["fungus",-11.392272132880748],["Factor",-11.392655859920346],["spell",-11.393167026218055],["Brook",-11.393305849010979],["Mercury",-11.393582165761789],["Bear",-11.393712697323423],["viewing",-11.393947746136138],["Auto",-11.39437481210305],["Scout",-11.394766106948587],["deployment",-11.394839021090293],["Leeds",-11.394854513082713],["exploration",-11.394956807316156],["Alberta",-11.395121650022354],["peer",-11.395240947809295],["coincide",-11.395393025089021],["175",-11.395595260491788],["sharks",-11.396157794532076],["assassination",-11.396270774974045],["Urban",-11.396492623250012],["Solar",-11.397255147948151],["markets",-11.397403375725572],["Hearts",-11.39741146358444],["McKinley",-11.397541347239745],["Princeton",-11.397558502254245],["decoration",-11.397563887290927],["nationalist",-11.397986258895994],["teenager",-11.39807986708122],["participat",-11.398096314664645],["harbor",-11.398204637565252],["intermediate",-11.398881138691562],["assignment",-11.398990618701578],["Inside",-11.399577922038784],["intelligent",-11.400189098994954],["Hubbard",-11.400189573110378],["Sultan",-11.400837575037613],["Ellen",-11.40126643762146],["twentie",-11.401315373394873],["induce",-11.401365055893404],["ided",-11.40212780357017],["dying",-11.402472262008462],["MLB",-11.402617246793755],["measur",-11.402620628936816],["ramp",-11.402776922361909],["bombard",-11.402898324166781],["Phillie",-11.40290605893112],["Holland",-11.403337416626243],["laying",-11.403765918268391],["Brien",-11.403888151680405],["1884",-11.403987554859409],["challenging",-11.404174487891867],["diagnose",-11.404174488619514],["enormous",-11.404175444460082],["NASA",-11.40419108325652],["Ghost",-11.404389807392828],["disappeare",-11.404746748465893],["α",-11.40497639013454],["worse",-11.406155652013357],["Kir",-11.406424125629195],["acquisition",-11.406840267414426],["insurance",-11.406840346232794],["Glasgo",-11.406841587231554],["cus",-11.406956477931036],["Mix",-11.407197750821462],["Computer",-11.40752281077457],["steer",-11.408049380884812],["tool",-11.408165130202786],["rush",-11.408238224882389],["declaration",-11.408265281047816],["Belle",-11.408334792656774],["gravit",-11.408509636028331],["Titan",-11.408857285544332],["Gang",-11.409074506569395],["martial",-11.40951692669255],["cclaimed",-11.409914634510804],["ə",-11.410054308109025],["accumulate",-11.410555241669876],["Comics",-11.410645569408885],["fitting",-11.410754136712859],["uka",-11.410762044967065],["sharing",-11.411550773104436],["cotton",-11.411644015899983],["Tunes",-11.411861765540275],["Dur",-11.41191886846758],["Raj",-11.411951329234974],["Total",-11.411968678192032],["Theater",-11.412180769159125],["monster",-11.412195530190244],["coastline",-11.412215082573965],["excessive",-11.41225775074467],["Kot",-11.412584353434438],["rew",-11.413179993227189],["Alpha",-11.413236219562291],["complement",-11.41371691939009],["sending",-11.414474278148043],["vel",-11.414680501625016],["allegation",-11.414880688085926],["Iran",-11.416508111983077],["punt",-11.416569270442729],["steppe",-11.416609503530424],["violation",-11.416907113169572],["Buddhist",-11.416921181570896],["outlet",-11.41699474554353],["uprising",-11.417276599540571],["currenc",-11.417509609076935],["BCE",-11.417535496757626],["Fifth",-11.417575574518949],["accelerate",-11.417762169577944],["contacte",-11.41812556027233],["boom",-11.418274017165992],["Tintin",-11.418288855952985],["flame",-11.418295114417386],["explode",-11.418424173827674],["accomplishe",-11.418545974091359],["Ottawa",-11.418931822266554],["Franco",-11.41970043275511],["confused",-11.419704733100964],["inform",-11.420008516867444],["Lie",-11.420135234172834],["extract",-11.420193098575934],["outstanding",-11.42146686342055],["Austro",-11.421630950824738],["surprising",-11.421644707403974],["Percy",-11.421659591074226],["Non",-11.421700894298706],["arose",-11.421970139307446],["ome",-11.42197908887708],["Millennium",-11.422307959678411],["Westminster",-11.422375763441863],["Theodore",-11.422614357438666],["diversit",-11.422838064207369],["Month",-11.42312915544905],["eeper",-11.423354150381597],["ruly",-11.423381547042794],["Strong",-11.423396499456175],["ough",-11.42367742629285],["collector",-11.423768363719287],["rac",-11.424299159932891],["1877",-11.424396332503662],["municipal",-11.424998627384255],["thanks",-11.425153726343936],["Mun",-11.425245216112051],["exceptional",-11.425285018721375],["widow",-11.425314915021026],["Ellis",-11.425341873864364],["CEO",-11.425945793039912],["Denver",-11.426480664362183],["Letter",-11.426957033926712],["radius",-11.427086981668246],["Mercedes",-11.427156158353952],["judges",-11.427224254819274],["Cloud",-11.42731140610418],["outfit",-11.42731403842789],["Gothic",-11.42743579929535],["jersey",-11.427746746731923],["Manuel",-11.427803193235668],["Ari",-11.428125461206921],["1876",-11.428162198282397],["endorse",-11.42821939642554],["medals",-11.428223839889617],["Current",-11.428434900123115],["myself",-11.428646957324581],["hopes",-11.428654492556166],["Otto",-11.429040021770355],["Islam",-11.42935996573446],["seal",-11.42957850264567],["Basketball",-11.429790987123031],["conviction",-11.429823791585203],["Nevada",-11.429889294894208],["Les",-11.42989014000656],["Steam",-11.430690845136327],["saint",-11.431095524508143],["Rosa",-11.431308691174547],["127",-11.431389355437677],["motive",-11.431873317266316],["Cox",-11.431915312981786],["surpasse",-11.431930641238747],["Albany",-11.43227963623717],["sham",-11.432305441160924],["Qui",-11.432516087668514],["prompting",-11.43255200647068],["Kat",-11.432723431151267],["lover",-11.43287825954392],["aggregate",-11.433091737852134],["hypothesis",-11.433111835468804],["RIA",-11.433203450187335],["defendant",-11.433231200698067],["Crime",-11.433315748379988],["lus",-11.433404638940392],["oversee",-11.433764957566101],["SH",-11.433812070704967],["submerge",-11.43407564326342],["ates",-11.434082872391317],["battlefield",-11.434297152553778],["Ages",-11.434363911914676],["Bas",-11.434399376949816],["Ronald",-11.434587424259028],["Emma",-11.434619366917051],["navigation",-11.435122215262094],["Gloucester",-11.43526857668489],["motif",-11.435960006553136],["ides",-11.43649382300929],["Face",-11.436884330603071],["width",-11.43708769878426],["ghost",-11.437342032669449],["135",-11.43796129056673],["recipient",-11.438018664250464],["Barcelon",-11.438018664874285],["revenge",-11.438372249483951],["Wil",-11.438766861697314],["laps",-11.439036500360805],["Barr",-11.439086278803554],["quarters",-11.43958989170649],["kit",-11.439772377927145],["cock",-11.439936434546311],["icon",-11.44025495363363],["realis",-11.440337680758788],["kids",-11.440460804156386],["Cher",-11.440575312951243],["beer",-11.44070433531704],["Bosnia",-11.440805112422849],["integrated",-11.44089167478392],["notion",-11.441018245237661],["clip",-11.441341504771895],["privilege",-11.44146694651296],["Lamb",-11.441606508022094],["Chester",-11.442057215169253],["specialist",-11.442363617914147],["emission",-11.44242477324157],["elevated",-11.442478854107193],["Weather",-11.442855716659066],["retreate",-11.443095742144218],["Composition",-11.443177840445237],["Pokémon",-11.44354163285402],["dimensional",-11.443575757773132],["angel",-11.4436138561904],["lim",-11.443963419610562],["Store",-11.444039415789579],["Economic",-11.444252549172687],["arrow",-11.444914118535799],["Char",-11.444924897269726],["bacteria",-11.445008251938448],["Churchill",-11.44551280643381],["authentic",-11.445621243693397],["Kit",-11.446128090050795],["198",-11.446407244262966],["FM",-11.446525938269879],["moto",-11.44698629279401],["Foster",-11.447038839303538],["Punk",-11.447052254023717],["230",-11.447617425572172],["Gates",-11.447957758478381],["abundant",-11.448399381643252],["molecular",-11.448399403149743],["1875",-11.448533430319547],["allocate",-11.448580621668825],["Canyon",-11.448825507801828],["lesser",-11.44899036692549],["Delta",-11.449027749660399],["donation",-11.44938615932557],["emerg",-11.44967057779052],["Enix",-11.449806703408179],["Geoffr",-11.449846140230349],["nstructed",-11.449846443490216],["confine",-11.449984442761437],["Spin",-11.45048792467218],["Mari",-11.450546634286031],["Viet",-11.450608198688542],["waite",-11.4509419737976],["Tigers",-11.4509538589468],["cubic",-11.450969235559782],["Malay",-11.451170826470097],["Jamaica",-11.451358162717],["clergy",-11.451533522869129],["Quest",-11.451803998337237],["compar",-11.452156703565912],["Body",-11.45240241420225],["Blair",-11.452503600001858],["vegetation",-11.452582249911902],["convey",-11.452595601293691],["troop",-11.452750190135534],["Train",-11.452836419623313],["Len",-11.453085657830407],["shirt",-11.453176179690452],["spur",-11.453787618596849],["RBI",-11.454159386556853],["finest",-11.454181147783839],["Nash",-11.454213158691402],["165",
[...]
