{"version":"1.0","truncation":null,"padding":null,"added_tokens":[{"id":0,"special":true,"content":"[PAD]","single_word":false,"lstrip":false,"rstrip":false,"normalized":false},{"id":1,"special":true,"content":"[UNK]","single_word":false,"lstrip":false,"rstrip":false,"normalized":false},{"id":2,"special":true,"content":"[CLS]","single_word":false,"lstrip":false,"rstrip":false,"normalized":false},{"id":3,"special":true,"content":"[SEP]","single_word":false,"lstrip":false,"rstrip":false,"normalized":false}],"normalizer":{"type":"Sequence","normalizers":[{"type":"BertNormalizer","clean_text":true,"handle_chinese_chars":true,"strip_accents":null,"lowercase":false}]},"pre_tokenizer":{"type":"Sequence","pretokenizers":[{"type":"Whitespace"},{"type":"BertPreTokenizer"},{"type":"Digits","individual_digits":false}]},"post_processor":null,"decoder":{"type":"WordPiece","prefix":"##","cleanup":true},"model":{"type":"WordPiece","unk_token":"[UNK]","continuing_subword_prefix":"##","max_input_chars_per_word":100,"vocab":{"[PAD]":0,"[UNK]":1,"[CLS]":2,"[SEP]":3,"!":4,"\"":5,"#":6,"$":7,"%":8,"&":9,"'":10,"(":11,")":12,"*":13,"+":14,",":15,"-":16,".":17,"/":18,"0":19,"1":20,"2":21,"3":22,"4":23,"5":24,"6":25,"7":26,"8":27,"9":28,":":29,";":30,"<":31,"=":32,">":33,"?":34,"@":35,"A":36,"B":37,"C":38,"D":39,"E":40,"F":41,"G":42,"H":43,"I":44,"J":45,"K":46,"L":47,"M":48,"N":49,"O":50,"P":51,"Q":52,"R":53,"S":54,"T":55,"U":56,"V":57,"W":58,"X":59,"Y":60,"Z":61,"[":62,"\\":63,"]":64,"^":65,"_":66,"`":67,"a":68,"b":69,"c":70,"d":71,"e":72,"f":73,"g":74,"h":75,"i":76,"j":77,"k":78,"l":79,"m":80,"n":81,"o":82,"p":83,"q":84,"r":85,"s":86,"t":87,"u":88,"v":89,"w":90,"x":91,"y":92,"z":93,"{":94,"|":95,"}":96,"~":97,"¡":98,"¢":99,"£":100,"¤":101,"¥":102,"§":103,"©":104,"«":105,"®":106,"¯":107,"°":108,"±":109,"²":110,"³":111,"´":112,"µ":113,"¶":114,"·":115,"¹":116,"º":117,"»":118,"¼":119,"½":120,"¾":121,"¿":122,"À":123,"Á":124,"Â":125,"Ä":126,"Å":127,"Æ":128,"Ç":129,"È":130,"É":131,"Ê":132,"Ë":133,"Ì":134,"Í":135,"Î":136,"Ï":137,"Ð":138,"Ñ":139,"Ò":140,"Ó":141,"Ô":142,"Õ":143,"Ö":144,"×":145,"Ø":146,"Ù":147,"Ú":148,"Ü":149,"Ý":150,"Þ":151,"ß":152,"à":153,"á":154,"â":155,"ã":156,"ä":157,"å":158,"æ":159,"ç":160,"è":161,"é":162,"ê":163,"ë":164,"ì":165,"í":166,"î":167,"ï":168,"ð":169,"ñ":170,"ò":171,"ó":172,"ô":173,"õ":174,"ö":175,"÷":176,"ø":177,"ù":178,"ú":179,"û":180,"ü":181,"ý":182,"þ":183,"ÿ":184,"Ā":185,"ā":186,"Ă":187,"ă":188,"ą":189,"Ć":190,"ć":191,"ĉ":192,"Ċ":193,"ċ":194,"Č":195,"č":196,"Ď":197,"ď":198,"Đ":199,"đ":200,"Ē":201,"ē":202,"Ĕ":203,"ĕ":204,"Ė":205,"ė":206,"ę":207,"Ě":208,"ě":209,"ğ":210,"Ġ":211,"ġ":212,"Ģ":213,"ģ":214,"Ĥ":215,"Ħ":216,"ħ":217,"ĩ":218,"Ī":219,"ī":220,"ĭ":221,"į":222,"İ":223,"ı":224,"ĵ":225,"Ķ":226,"ķ":227,"ĸ":228,"ĺ":229,"ļ":230,"Ľ":231,"ľ":232,"Ł":233,"ł":234,"ń":235,"ņ":236,"ň":237,"Ŋ":238,"ŋ":239,"Ō":240,"ō":241,"ŏ":242,"ő":243,"Œ":244,"œ":245,"Ŗ":246,"ŗ":247,"Ř":248,"ř":249,"Ś":250,"ś":251,"Ŝ":252,"Ş":253,"ş":254,"Š":255,"š":256,"Ţ":257,"ţ":258,"ť":259,"ŧ":260,"ũ":261,"Ū":262,"ū":263,"ŭ":264,"ů":265,"ű":266,"ų":267,"ŵ":268,"ŷ":269,"Ź":270,"ź":271,"Ż":272,"ż":273,"Ž":274,"ž":275,"ſ":276,"ƀ":277,"Ɔ":278,"Ƈ":279,"ƈ":280,"Ɖ":281,"ƍ":282,"Ǝ":283,"Ə":284,"Ɛ":285,"ƒ":286,"Ɣ":287,"ƙ":288,"ƛ":289,"ơ":290,"Ƣ":291,"ƥ":292,"ƭ":293,"ư":294,"Ʋ":295,"ƿ":296,"ǀ":297,"ǁ":298,"ǂ":299,"ǃ":300,"ǎ":301,"ǐ":302,"Ǒ":303,"ǒ":304,"ǔ":305,"ǚ":306,"ǜ":307,"ǝ":308,"Ǣ":309,"ǣ":310,"Ǧ":311,"ǧ":312,"Ǫ":313,"ǫ":314,"ǭ":315,"ǰ":316,"ǵ":317,"Ƿ":318,"Ǹ":319,"ǹ":320,"ǽ":321,"Ș":322,"ș":323,"Ț":324,"ț":325,"Ȝ":326,"ȝ":327,"ȟ":328,"ȯ":329,"ȳ":330,"ȷ":331,"ȼ":332,"Ɉ":333,"ɐ":334,"ɑ":335,"ɒ":336,"ɓ":337,"ɔ":338,"ɕ":339,"ɖ":340,"ɗ":341,"ɘ":342,"ə":343,"ɚ":344,"ɛ":345,"ɜ":346,"ɞ":347,"ɟ":348,"ɠ":349,"ɡ":350,"ɢ":351,"ɣ":352,"ɤ":353,"ɥ":354,"ɦ":355,"ɧ":356,"ɨ":357,"ɪ":358,"ɫ":359,"ɬ":360,"ɭ":361,"ɮ":362,"ɯ":363,"ɰ":364,"ɱ":365,"ɲ":366,"ɳ":367,"ɴ":368,"ɵ":369,"ɶ":370,"ɷ":371,"ɸ":372,"ɹ":373,"ɺ":374,"ɻ":375,"ɽ":376,"ɾ":377,"ʀ":378,"ʁ":379,"ʂ":380,"ʃ":381,"ʄ":382,"ʇ":383,"ʈ":384,"ʉ":385,"ʊ":386,"ʋ":387,"ʌ":388,"ʍ":389,"ʎ":390,"ʏ":391,"ʐ":392,"ʑ":393,"ʒ":394,"ʔ":395,"ʕ":396,"ʖ":397,"ʗ":398,"ʘ":399,"ʙ":400,"ʛ":401,"ʝ":402,"ʟ":403,"ʠ":404,"ʡ":405,"ʢ":406,"ʰ":407,"ʱ":408,"ʲ":409,"ʳ":410,"ʷ":411,"ʹ":412,"ʻ":413,"ʼ":414,"ʽ":415,"ʾ":416,"ʿ":417,"ˀ":418,"ˁ":419,"ˆ":420,"ˇ":421,"ˈ":422,"ˌ":423,"ː":424,"ˑ":425,"˔":426,"˕":427,"˖":428,"˘":429,"˚":430,"˜":431,"˞":432,"ˠ":433,"ˢ":434,"ˣ":435,"ˤ":436,"˥":437,"˦":438,"˧":439,"˨":440,"˩":441,"̀":442,"́":443,"̂":444,"̃":445,"̄":446,"̆":447,"̇":448,"̈":449,"̊":450,"̋":451,"̌":452,"̍":453,"̏":454,"̐":455,"̑":456,"̖":457,"̗":458,"̚":459,"̝":460,"̞":461,"̟":462,"̠":463,"̣":464,"̤":465,"̥":466,"̧":467,"̩":468,"̪":469,"̬":470,"̮":471,"̯":472,"̰":473,"̱":474,"̲":475,"̳":476,"̺":477,"̽":478,"͌":479,"͍":480,"͘":481,"͜":482,"͡":483,"΄":484,"Ά":485,"Έ":486,"Ή":487,"Ί":488,"Ό":489,"Ύ":490,"ΐ":491,"Α":492,"Β":493,"Γ":494,"Δ":495,"Ε":496,"Ζ":497,"Η":498,"Θ":499,"Ι":500,"Κ":501,"Λ":502,"Μ":503,"Ν":504,"Ξ":505,"Ο":506,"Π":507,"Ρ":508,"Σ":509,"Τ":510,"Υ":511,"Φ":512,"Χ":513,"Ψ":514,"Ω":515,"ά":516,"έ":517,"ή":518,"ί":519,"α":520,"β":521,"γ":522,"δ":523,"ε":524,"ζ":525,"η":526,"θ":527,"ι":528,"κ":529,"λ":530,"μ":531,"ν":532,"ξ":533,"ο":534,"π":535,"ρ":536,"ς":537,"σ":538,"τ":539,"υ":540,"φ":541,"χ":542,"ψ":543,"ω":544,"ϊ":545,"ό":546,"ύ":547,"ώ":548,"ϑ":549,"ϕ":550,"ϝ":551,"ϟ":552,"ϵ":553,"Ђ":554,"Є":555,"І":556,"Ї":557,"Ј":558,"Љ":559,"Ћ":560,"А":561,"Б":562,"В":563,"Г":564,"Д":565,"Е":566,"Ж":567,"З":568,"И":569,"Й":570,"К":571,"Л":572,"М":573,"Н":574,"О":575,"П":576,"Р":577,"С":578,"Т":579,"У":580,"Ф":581,"Х":582,"Ц":583,"Ч":584,"Ш":585,"Щ":586,"Ъ":587,"Ы":588,"Ь":589,"Э":590,"Ю":591,"Я":592,"а":593,"б":594,"в":595,"г":596,"д":597,"е":598,"ж":599,"з":600,"и":601,"й":602,"к":603,"л":604,"м":605,"н":606,"о":607,"п":608,"р":609,"с":610,"т":611,"у":612,"ф":613,"х":614,"ц":615,"ч":616,"ш":617,"щ":618,"ъ":619,"ы":620,"ь":621,"э":622,"ю":623,"я":624,"ё":625,"ђ":626,"є":627,"і":628,"ї":629,"ј":630,"љ":631,"њ":632,"ћ":633,"ѝ":634,"ў":635,"Ѡ":636,"ѡ":637,"Ѣ":638,"ѣ":639,"ѥ":640,"ѧ":641,"Ѯ":642,"ѹ":643,"҆":644,"ғ":645,"қ":646,"ү":647,"ҳ":648,"ҷ":649,"ӣ":650,"Ө":651,"ө":652,"ӯ":653,"Ӷ":654,"ӷ":655,"Ա":656,"Բ":657,"Գ":658,"Դ":659,"Ե":660,"Զ":661,"Է":662,"Ը":663,"Թ":664,"Ժ":665,"Ի":666,"Լ":667,"Խ":668,"Կ":669,"Հ":670,"Ձ":671,"Ղ":672,"Ճ":673,"Մ":674,"Յ":675,"Ն":676,"Շ":677,"Ո":678,"Պ":679,"Ջ":680,"Ռ":681,"Ս":682,"Վ":683,"Տ":684,"Փ":685,"Ք":686,"Օ":687,"ա":688,"բ":689,"գ":690,"դ":691,"ե":692,"զ":693,"է":694,"ը":695,"թ":696,"ժ":697,"ի":698,"լ":699,"խ":700,"ծ":701,"կ":702,"հ":703,"ձ":704,"ղ":705,"ճ":706,"մ":707,"յ":708,"ն":709,"շ":710,"ո":711,"չ":712,"պ":713,"ջ":714,"ռ":715,"ս":716,"վ":717,"տ":718,"ր":719,"ց":720,"ւ":721,"փ":722,"ք":723,"օ":724,"և":725,"֤":726,"֫":727,"ְ":728,"ֱ":729,"ֲ":730,"ֳ":731,"ִ":732,"ֵ":733,"ֶ":734,"ַ":735,"ָ":736,"ֹ":737,"ֻ":738,"ּ":739,"ֽ":740,"ֿ":741,"ׁ":742,"ׂ":743,"א":744,"ב":745,"ג":746,"ד":747,"ה":748,"ו":749,"ז":750,"ח":751,"ט":752,"י":753,"ך":754,"כ":755,"ל":756,"ם":757,"מ":758,"ן":759,"נ":760,"ס":761,"ע":762,"ף":763,"פ":764,"ץ":765,"צ":766,"ק":767,"ר":768,"ש":769,"ת":770,"ױ":771,"׳":772,"،":773,"ء":774,"آ":775,"أ":776,"ؤ":777,"إ":778,"ئ":779,"ا":780,"ب":781,"ة":782,"ت":783,"ث":784,"ج":785,"ح":786,"خ":787,"د":788,"ذ":789,"ر":790,"ز":791,"س":792,"ش":793,"ص":794,"ض":795,"ط":796,"ظ":797,"ع":798,"غ":799,"ـ":800,"ف":801,"ق":802,"ك":803,"ل":804,"م":805,"ن":806,"ه":807,"و":808,"ى":809,"ي":810,"ً":811,"ٌ":812,"ٍ":813,"َ":814,"ُ":815,"ِ":816,"ّ":817,"ْ":818,"ٔ":819,"١":820,"٧":821,"ٰ":822,"پ":823,"چ":824,"ڈ":825,"ڠ":826,"ک":827,"ڬ":828,"گ":829,"ں":830,"ھ":831,"ہ":832,"ی":833,"ۍ":834,"ے":835,"ە":836,"ܐ":837,"ܒ":838,"ܔ":839,"ܕ":840,"ܗ":841,"ܘ":842,"ܙ":843,"ܚ":844,"ܛ":845,"ܝ":846,"ܠ":847,"ܡ":848,"ܢ":849,"ܣ":850,"ܥ":851,"ܦ":852,"ܪ":853,"ܬ":854,"ܲ":855,"ܵ":856,"ܼ":857,"݂":858,"ँ":859,"ं":860,"ः":861,"अ":862,"आ":863,"इ":864,"ई":865,"उ":866,"ऋ":867,"ए":868,"ऐ":869,"औ":870,"क":871,"ख":872,"ग":873,"घ":874,"ङ":875,"च":876,"छ":877,"ज":878,"ञ":879,"ट":880,"ठ":881,"ड":882,"ण":883,"त":884,"थ":885,"द":886,"ध":887,"न":888,"प":889,"फ":890,"ब":891,"भ":892,"म":893,"य":894,"र":895,"ल":896,"व":897,"श":898,"ष":899,"स":900,"ह":901,"़":902,"ऽ":903,"ा":904,"ि":905,"ी":906,"ु":907,"ू":908,"ृ":909,"ॆ":910,"े":911,"ै":912,"ॉ":913,"ॊ":914,"ो":915,"ौ":916,"्":917,"ॐ":918,"।":919,"॥":920,"१":921,"२":922,"३":923,"ং":924,"অ":925,"আ":926,"ই":927,"এ":928,"ক":929,"খ":930,"গ":931,"ঙ":932,"চ":933,"জ":934,"ট":935,"ড":936,"ঢ":937,"ণ":938,"ত":939,"থ":940,"দ":941,"ন":942,"প":943,"ব":944,"ভ":945,"ম":946,"য":947,"র":948,"ল":949,"শ":950,"ষ":951,"স":952,"হ":953,"়":954,"া":955,"ি":956,"ী":957,"ু":958,"ূ":959,"ে":960,"ৈ":961,"ো":962,"্":963,"ৰ":964,"ਂ":965,"ਅ":966,"ਉ":967,"ਖ":968,"ਘ":969,"ਜ":970,"ਝ":971,"ਦ":972,"ਲ":973,"ਵ":974,"ਸ":975,"ਹ":976,"਼":977,"ਾ":978,"ਿ":979,"ੁ":980,"ੇ":981,"ੰ":982,"ੱ":983,"ખ":984,"ફ":985,"બ":986,"ર":987,"લ":988,"સ":989,"ા":990,"ો":991,"ପ":992,"ର":993,"ୀ":994,"ୁ":995,"ஃ":996,"அ":997,"ஆ":998,"இ":999,"ஈ":1000,"எ":1001,"ஒ":1002,"க":1003,"ங":1004,"ச":1005,"ட":1006,"ண":1007,"த":1008,"ந":1009,"ன":1010,"ப":1011,"ம":1012,"ய":1013,"ர":1014,"ற":1015,"ல":1016,"ள":1017,"ழ":1018,"வ":1019,"ஸ":1020,"ா":1021,"ி":1022,"ீ":1023,"ு":1024,"ூ":1025,"ெ":1026,"ே":1027,"ை":1028,"ோ":1029,"்":1030,"ం":1031,"క":1032,"ఖ":1033,"గ":1034,"జ":1035,"ట":1036,"ఠ":1037,"డ":1038,"త":1039,"థ":1040,"ద":1041,"న":1042,"ప":1043,"బ":1044,"భ":1045,"మ":1046,"య":1047,"ర":1048,"ల":1049,"వ":1050,"ష":1051,"స":1052,"ా":1053,"ి":1054,"ీ":1055,"ు":1056,"ై":1057,"ో":1058,"్":1059,"ಂ":1060,"ಃ":1061,"ಕ":1062,"ಖ":1063,"ಗ":1064,"ಚ":1065,"ಟ":1066,"ಠ":1067,"ಡ":1068,"ತ":1069,"ದ":1070,"ನ":1071,"ಪ":1072,"ಬ":1073,"ಭ":1074,"ಮ":1075,"ಯ":1076,"ರ":1077,"ಱ":1078,"ಲ":1079,"ಳ":1080,"ವ":1081,"ಶ":1082,"ಸ":1083,"ಹ":1084,"ಾ":1085,"ಿ":1086,"ು":1087,"ೇ":1088,"ೋ":1089,"್":1090,"ೞ":1091,"അ":1092,"ങ":1093,"ദ":1094,"ന":1095,"പ":1096,"മ":1097,"യ":1098,"ര":1099,"ള":1100,"വ":1101,"ശ":1102,"സ":1103,"ഹ":1104,"ാ":1105,"ി":1106,"്":1107,"අ":1108,"එ":1109,"ක":1110,"ග":1111,"ජ":1112,"ත":1113,"ධ":1114,"න":1115,"ප":1116,"ම":1117,"ය":1118,"ර":1119,"ල":1120,"ව":1121,"ශ":1122,"හ":1123,"ළ":1124,"්":1125,"ා":1126,"ැ":1127,"ි":1128,"ු":1129,"ේ":1130,"ෝ":1131,"ก":1132,"ข":1133,"ค":1134,"ฆ":1135,"ง":1136,"จ":1137,"ฉ":1138,"ช":1139,"ซ":1140,"ญ":1141,"ฎ":1142,"ฏ":1143,"ฐ":1144,"ฑ":1145,"ณ":1146,"ด":1147,"ต":1148,"ถ":1149,"ท":1150,"ธ":1151,"น":1152,"บ":1153,"ป":1154,"ผ":1155,"ฝ":1156,"พ":1157,"ฟ":1158,"ภ":1159,"ม":1160,"ย":1161,"ร":1162,"ฤ":1163,"ล":1164,"ว":1165,"ศ":1166,"ษ":1167,"ส":1168,"ห":1169,"ฬ":1170,"อ":1171,"ฮ":1172,"ะ":1173,"ั":1174,"า":1175,"ำ":1176,"ิ":1177,"ี":1178,"ึ":1179,"ื":1180,"ุ":1181,"ู":1182,"฿":1183,"เ":1184,"แ":1185,"โ":1186,"ใ":1187,"ไ":1188,"็":1189,"่":1190,"้":1191,"๊":1192,"์":1193,"་":1194,"༌":1195,"།":1196,"ཀ":1197,"ཁ":1198,"ག":1199,"ང":1200,"ཆ":1201,"ཇ":1202,"ཐ":1203,"ད":1204,"ན":1205,"པ":1206,"བ":1207,"མ":1208,"ཙ":1209,"ཚ":1210,"ཛ":1211,"འ":1212,"ཡ":1213,"ར":1214,"ལ":1215,"ས":1216,"ཧ":1217,"ི":1218,"ུ":1219,"ེ":1220,"ོ":1221,"ྟ":1222,"ྡ":1223,"ྣ":1224,"ྤ":1225,"ྥ":1226,"ྱ":1227,"ྲ":1228,"က":1229,"ဂ":1230,"င":1231,"စ":1232,"ဆ":1233,"န":1234,"ပ":1235,"ဗ":1236,"ဘ":1237,"မ":1238,"ယ":1239,"ရ":1240,"လ":1241,"ဝ":1242,"ဟ":1243,"ာ":1244,"ိ":1245,"ီ":1246,"ု":1247,"ူ":1248,"ဲ":1249,"း":1250,"္":1251,"်":1252,"ျ":1253,"ြ":1254,"ှ":1255,"Ⴀ":1256,"Ⴂ":1257,"Ⴃ":1258,"Ⴈ":1259,"Ⴌ":1260,"Ⴕ":1261,"Ⴟ":1262,"ა":1263,"ბ":1264,"გ":1265,"დ":1266,"ე":1267,"ვ":1268,"ზ":1269,"თ":1270,"ი":1271,"კ":1272,"ლ":1273,"მ":1274,"ნ":1275,"ო":1276,"პ":1277,"ჟ":1278,"რ":1279,"ს":1280,"ტ":1281,"უ":1282,"ფ":1283,"ქ":1284,"ღ":1285,"ყ":1286,"შ":1287,"ჩ":1288,"ც":1289,"ძ":1290,"წ":1291,"ჭ":1292,"ხ":1293,"ჯ":1294,"ჰ":1295,"ჱ":1296,"ჲ":1297,"ჳ":1298,"ჴ":1299,"ჵ":1300,"ჶ":1301,"ჷ":1302,"ჸ":1303,"ჹ":1304,"ჺ":1305,"჻":1306,"ሀ":1307,"ለ":1308,"ሐ":1309,"ሓ":1310,"ሕ":1311,"መ":1312,"ማ":1313,"ሥ":1314,"ረ":1315,"ር":1316,"ሰ":1317,"ስ":1318,"ቆ":1319,"ቈ":1320,"በ":1321,"ብ":1322,"ቲ":1323,"ታ":1324,"ት":1325,"ነ":1326,"ና":1327,"ን":1328,"ኖ":1329,"አ":1330,"ኢ":1331,"እ":1332,"ከ":1333,"ኲ":1334,"ዕ":1335,"ዘ":1336,"ዛ":1337,"የ":1338,"ያ":1339,"ይ":1340,"ዮ":1341,"ደ":1342,"ድ":1343,"ጅ":1344,"ገ":1345,"ጉ":1346,"ጵ":1347,"ፈ":1348,"ፍ":1349,"፡":1350,"Ꭰ":1351,"Ꭳ":1352,"Ꭶ":1353,"Ꭸ":1354,"Ꭹ":1355,"Ꮀ":1356,"Ꮃ":1357,"Ꮉ":1358,"Ꮝ":1359,"Ꮿ":1360,"Ᏹ":1361,"ᐊ":1362,"ᑲ":1363,"ᒡ":1364,"ᓘ":1365,"ᚢ":1366,"ᚣ":1367,"ᚦ":1368,"ᚨ":1369,"ᚩ":1370,"ᚬ":1371,"ᚱ":1372,"ᚷ":1373,"ᚹ":1374,"ᚺ":1375,"ᚻ":1376,"ᚼ":1377,"ᚾ":1378,"ᛁ":1379,"ᛃ":1380,"ᛄ":1381,"ᛇ":1382,"ᛋ":1383,"ᛏ":1384,"ᛒ":1385,"ᛗ":1386,"ᛚ":1387,"ᛝ":1388,"ᛞ":1389,"ᛟ":1390,"ᛠ":1391,"ក":1392,"ខ":1393,"គ":1394,"ង":1395,"ច":1396,"ឆ":1397,"ជ":1398,"ញ":1399,"ដ":1400,"ឋ":1401,"ណ":1402,"ត":1403,"ថ":1404,"ទ":1405,"ធ":1406,"ន":1407,"ប":1408,"ព":1409,"ភ":1410,"ម":1411,"យ":1412,"រ":1413,"ល":1414,"វ":1415,"ស":1416,"ហ":1417,"អ":1418,"ឥ":1419,"ឪ":1420,"ឫ":1421,"ឯ":1422,"឵":1423,"ា":1424,"ិ":1425,"ី":1426,"ឹ":1427,"ឺ":1428,"ុ":1429,"ូ":1430,"ួ":1431,"ៀ":1432,"េ":1433,"ែ":1434,"ៃ":1435,"ោ":1436,"ៅ":1437,"ំ":1438,"ះ":1439,"ៈ":1440,"៉":1441,"់":1442,"្":1443,"ᠠ":1444,"ᠣ":1445,"ᠨ":1446,"ᠪ":1447,"ᠮ":1448,"ᠯ":1449,"ᠰ":1450,"ᠴ":1451,"ᠵ":1452,"ᠸ":1453,"ᡝ":1454,"ᡠ":1455,"ᡥ":1456,"ᡨ":1457,"ᡳ":1458,"ᡴ":1459,"ᡵ":1460,"ᴰ":1461,"ᴷ":1462,"ᴺ":1463,"ᵀ":1464,"ᵊ":1465,"ᵑ":1466,"ᵗ":1467,"ᵘ":1468,"ᵝ":1469,"ᵻ":1470,"ᵿ":1471,"ᶑ":1472,"ᶢ":1473,"ᶦ":1474,"ᶴ":1475,"ᶷ":1476,"᷄":1477,"᷅":1478,"᷆":1479,"᷇":1480,"᷈":1481,"᷉":1482,"᷽":1483,"Ḍ":1484,"ḍ":1485,"Ḏ":1486,"ḏ":1487,"ḑ":1488,"ḕ":1489,"ḗ":1490,"Ḣ":1491,"Ḥ":1492,"ḥ":1493,"Ḩ":1494,"ḩ":1495,"Ḫ":1496,"ḫ":1497,"ḭ":1498,"ḱ":1499,"Ḳ":1500,"ḳ":1501,"ḵ":1502,"ḷ":1503,"ḹ":1504,"ḻ":1505,"ḿ":1506,"ṁ":1507,"ṃ":1508,"ṅ":1509,"ṇ":1510,"ṉ":1511,"ṓ":1512,"ṙ":1513,"Ṛ":1514,"ṛ":1515,"Ṝ":1516,"ṝ":1517,"ṟ":1518,"Ṣ":1519,"ṣ":1520,"Ṧ":1521,"Ṫ":1522,"Ṭ":1523,"ṭ":1524,"Ṯ":1525,"ṯ":1526,"ṳ":1527,"ṵ":1528,"Ṽ":1529,"ṽ":1530,"ẃ":1531,"Ẓ":1532,"ẓ":1533,"ẖ":1534,"ạ":1535,"ả":1536,"Ấ":1537,"ấ":1538,"ầ":1539,"Ẩ":1540,"ẩ":1541,"ẫ":1542,"ậ":1543,"ắ":1544,"ằ":1545,"ẵ":1546,"ặ":1547,"ẹ":1548,"ẻ":1549,"ẽ":1550,"ế":1551,"ề":1552,"ể":1553,"ễ":1554,"ệ":1555,"ỉ":1556,"ị":1557,"Ọ":1558,"ọ":1559,"ỏ":1560,"Ố":1561,"ố":1562,"ồ":1563,"ổ":1564,"ỗ":1565,"ộ":1566,"ớ":1567,"ờ":1568,"ở":1569,"ợ":1570,"Ụ":1571,"ụ":1572,"ủ":1573,"Ứ":1574,"ứ":1575,"ừ":1576,"ử":1577,"ữ":1578,"ự":1579,"ỳ":1580,"ỵ":1581,"ỹ":1582,"ἀ":1583,"ἁ":1584,"ἂ":1585,"ἃ":1586,"ἄ":1587,"ἅ":1588,"Ἀ":1589,"Ἁ":1590,"Ἄ":1591,"Ἅ":1592,"ἐ":1593,"ἑ":1594,"ἒ":1595,"ἔ":1596,"ἕ":1597,"Ἐ":1598,"Ἑ":1599,"Ἔ":1600,"Ἕ":1601,"ἠ":1602,"ἡ":1603,"ἢ":1604,"ἤ":1605,"ἥ":1606,"ἦ":1607,"ἧ":1608,"Ἠ":1609,"Ἡ":1610,"ἰ":1611,"ἱ":1612,"ἲ":1613,"ἳ":1614,"ἴ":1615,"ἵ":1616,"ἶ":1617,"ἷ":1618,"Ἰ":1619,"Ἱ":1620,"Ἶ":1621,"ὀ":1622,"ὁ":1623,"ὂ":1624,"ὃ":1625,"ὄ":1626,"ὅ":1627,"Ὁ":1628,"Ὄ":1629,"ὐ":1630,"ὑ":1631,"ὔ":1632,"ὕ":1633,"ὖ":1634,"ὗ":1635,"Ὕ":1636,"ὡ":1637,"ὣ":1638,"ὤ":1639,"ὥ":1640,"ὦ":1641,"Ὠ":1642,"Ὡ":1643,"Ὦ":1644,"ὰ":1645,"ὲ":1646,"ὴ":1647,"ὶ":1648,"ὸ":1649,"ὺ":1650,"ὼ":1651,"ᾓ":1652,"ᾰ":1653,"ᾳ":1654,"ᾶ":1655,"ᾷ":1656,"᾿":1657,"ῆ":1658,"ῇ":1659,"Ὲ":1660,"ῐ":1661,"ῑ":1662,"ῖ":1663,"Ὶ":1664,"ῠ":1665,"ῥ":1666,"ῦ":1667,"Ῥ":1668,"ῳ":1669,"ῶ":1670,"ῷ":1671,"‐":1672,"‑":1673,"‒":1674,"–":1675,"—":1676,"―":1677,"‖":1678,"‘":1679,"’":1680,"‚":1681,"‛":1682,"“":1683,"”":1684,"„":1685,"‟":1686,"†":1687,"‡":1688,"•":1689,"…":1690,"‰":1691,"′":1692,"″":1693,"※":1694,"‼":1695,"‿":1696,"⁄":1697,"⁊":1698,"⁰":1699,"⁺":1700,"ⁿ":1701,"₁":1702,"₂":1703,"₃":1704,"₄":1705,"₡":1706,"₣":1707,"₤":1708,"₦":1709,"₧":1710,"₨":1711,"₩":1712,"₫":1713,"€":1714,"₱":1715,"₴":1716,"₹":1717,"ℂ":1718,"℃":1719,"ℓ":1720,"ℕ":1721,"№":1722,"ℛ":1723,"ℝ":1724,"℞":1725,"™":1726,"ℤ":1727,"℥":1728,"ℵ":1729,"⅓":1730,"⅔":1731,"⅙":1732,"⅛":1733,"⅜":1734,"⅝":1735,"⅞":1736,"Ⅱ":1737,"←":1738,"↑":1739,"→":1740,"↓":1741,"↔":1742,"↗":1743,"↘":1744,"↦":1745,"↪":1746,"↵":1747,"⇄":1748,"⇌":1749,"⇒":1750,"⇪":1751,"∀":1752,"∂":1753,"∅":1754,"∆":1755,"∇":1756,"∈":1757,"∉":1758,"∊":1759,"∑":1760,"−":1761,"∕":1762,"∖":1763,"∗":1764,"∘":1765,"√":1766,"∝":1767,"∞":1768,"∤":1769,"∩":1770,"∪":1771,"∫":1772,"∴":1773,"∼":1774,"≈":1775,"≠":1776,"≡":1777,"≢":1778,"≤":1779,"≥":1780,"≪":1781,"≫":1782,"≲":1783,"⊂":1784,"⊕":1785,"⊗":1786,"⊙":1787,"⊞":1788,"⊢":1789,"⊣":1790,"⊥":1791,"⋅":1792,"⋆":1793,"⋯":1794,"⌊":1795,"⌋":1796,"⌘":1797,"①":1798,"②":1799,"③":1800,"④":1801,"⑤":1802,"⑥":1803,"⑦":1804,"⑧":1805,"─":1806,"█":1807,"▢":1808,"▲":1809,"▼":1810,"○":1811,"●":1812,"◦":1813,"☄":1814,"★":1815,"☆":1816,"☉":1817,"☧":1818,"☫":1819,"☭":1820,"☽":1821,"☾":1822,"♀":1823,"♂":1824,"♄":1825,"♅":1826,"♆":1827,"♇":1828,"♈":1829,"♉":1830,"♠":1831,"♣":1832,"♥":1833,"♦":1834,"♩":1835,"♪":1836,"♭":1837,"♮":1838,"♯":1839,"⚳":1840,"⚴":1841,"⚵":1842,"⛢":1843,"✡":1844,"✱":1845,"❄":1846,"❅":1847,"❆":1848,"❤":1849,"⟦":1850,"⟧":1851,"⟨":1852,"⟩":1853,"⥇":1854,"⩽":1855,"⫶":1856,"ⱱ":1857,"ⲁ":1858,"ⲛ":1859,"ⲥ":1860,"ⲧ":1861,"ⲩ":1862,"Ⲫ":1863,"ⲱ":1864,"ⴰ":1865,"ⴳ":1866,"ⴷ":1867,"ⴻ":1868,"ⴼ":1869,"ⴽ":1870,"ⵃ":1871,"ⵇ":1872,"ⵉ":1873,"ⵍ":1874,"ⵎ":1875,"ⵏ":1876,"ⵓ":1877,"ⵔ":1878,"ⵕ":1879,"ⵖ":1880,"ⵙ":1881,"ⵛ":1882,"ⵜ":1883,"ⵡ":1884,"ⵢ":1885,"ⵣ":1886,"⸨":1887,"⸩":1888,"、":1889,"。":1890,"々":1891,"〈":1892,"〉":1893,"《":1894,"》":1895,"「":1896,"」":1897,"『":1898,"』":1899,"【":1900,"】":1901,"〒":1902,"〜":1903,"あ":1904,"ぃ":1905,"い":1906,"ぅ":1907,"う":1908,"ぇ":1909,"え":1910,"ぉ":1911,"お":1912,"か":1913,"が":1914,"き":1915,"ぎ":1916,"く":1917,"ぐ":1918,"け":1919,"げ":1920,"こ":1921,"ご":1922,"さ":1923,"ざ":1924,"し":1925,"じ":1926,"す":1927,"ず":1928,"せ":1929,"ぜ":1930,"そ":1931,"ぞ":1932,"た":1933,"だ":1934,"ち":1935,"っ":1936,"つ":1937,"づ":1938,"て":1939,"で":1940,"と":1941,"ど":1942,"な":1943,"に":1944,"ぬ":1945,"ね":1946,"の":1947,"は":1948,"ば":1949,"ぱ":1950,"ひ":1951,"び":1952,"ぴ":1953,"ふ":1954,"ぶ":1955,"ぷ":1956,"へ":1957,"べ":1958,"ぺ":1959,"ほ":1960,"ぼ":1961,"ぽ":1962,"ま":1963,"み":1964,"む":1965,"め":1966,"も":1967,"ゃ":1968,"や":1969,"ゅ":1970,"ゆ":1971,"ょ":1972,"よ":1973,"ら":1974,"り":1975,"る":1976,"れ":1977,"ろ":1978,"わ":1979,"ゑ":1980,"を":1981,"ん":1982,"ァ":1983,"ア":1984,"ィ":1985,"イ":1986,"ゥ":1987,"ウ":1988,"ェ":1989,"エ":1990,"ォ":1991,"オ":1992,"カ":1993,"ガ":1994,"キ":1995,"ギ":1996,"ク":1997,"グ":1998,"ケ":1999,"ゲ":2000,"コ":2001,"ゴ":2002,"サ":2003,"ザ":2004,"シ":2005,"ジ":2006,"ス":2007,"ズ":2008,"セ":2009,"ゼ":2010,"ソ":2011,"ゾ":2012,"タ":2013,"ダ":2014,"チ":2015,"ヂ":2016,"ッ":2017,"ツ":2018,"ヅ":2019,"テ":2020,"デ":2021,"ト":2022,"ド":2023,"ナ":2024,"ニ":2025,"ヌ":2026,"ネ":2027,"ノ":2028,"ハ":2029,"バ":2030,"パ":2031,"ヒ":2032,"ビ":2033,"ピ":2034,"フ":2035,"ブ":2036,"プ":2037,"ヘ":2038,"ベ":2039,"ペ":2040,"ホ":2041,"ボ":2042,"ポ":2043,"マ":2044,"ミ":2045,"ム":2046,"メ":2047,"モ":2048,"ャ":2049,"ヤ":2050,"ュ":2051,"ユ":2052,"ョ":2053,"ヨ":2054,"ラ":2055,"リ":2056,"ル":2057,"レ":2058,"ロ":2059,"ワ":2060,"ヲ":2061,"ン":2062,"ヴ":2063,"ヶ":2064,"・":2065,"ー":2066,"一":2067,"丁":2068,"七":2069,"万":2070,"丈":2071,"三":2072,"上":2073,"下":2074,"不":2075,"与":2076,"丑":2077,"且":2078,"世":2079,"丘":2080,"丙":2081,"东":2082,"丝":2083,"丞":2084,"両":2085,"丨":2086,"个":2087,"中":2088,"丶":2089,"丸":2090,"丹":2091,"为":2092,"主":2093,"丽":2094,"丿":2095,"乃":2096,"久":2097,"么":2098,"义":2099,"之":2100,"乌":2101,"乎":2102,"乐":2103,"乘":2104,"乙":2105,"乚":2106,"乛":2107,"九":2108,"也":2109,"习":2110,"书":2111,"乩":2112,"买":2113,"乱":2114,"乳":2115,"乾":2116,"亀":2117,"亅":2118,"了":2119,"予":2120,"争":2121,"事":2122,"二":2123,"云":2124,"五":2125,"井":2126,"亚":2127,"些":2128,"亜":2129,"亞":2130,"亡":2131,"交":2132,"亦":2133,"亨":2134,"京":2135,"亮":2136,"亰":2137,"人":2138,"什":2139,"仁":2140,"仇":2141,"今":2142,"介":2143,"仔":2144,"仕":2145,"他":2146,"付":2147,"仙":2148,"代":2149,"令":2150,"以":2151,"仪":2152,"们":2153,"仮":2154,"仰":2155,"仲":2156,"件":2157,"任":2158,"份":2159,"伊":2160,"伏":2161,"伐":2162,"休":2163,"会":2164,"伝":2165,"伟":2166,"传":2167,"伪":2168,"伯":2169,"伴":2170,"伸":2171,"似":2172,"佃":2173,"但":2174,"位":2175,"住":2176,"佐":2177,"佑":2178,"体":2179,"何":2180,"余":2181,"佛":2182,"作":2183,"你":2184,"佳":2185,"併":2186,"使":2187,"來":2188,"例":2189,"侍":2190,"侗":2191,"供":2192,"依":2193,"侠":2194,"侨":2195,"侬":2196,"侯":2197,"係":2198,"促":2199,"俄":2200,"俊":2201,"保":2202,"信":2203,"俭":2204,"修":2205,"俱":2206,"俳":2207,"倉":2208,"個":2209,"們":2210,"候":2211,"借":2212,"倪":2213,"倫":2214,"倭":2215,"偃":2216,"假":2217,"偏":2218,"健":2219,"側":2220,"偵":2221,"偽":2222,"傀":2223,"傅":2224,"傑":2225,"傘":2226,"備":2227,"催":2228,"傭":2229,"傳":2230,"傷":2231,"像":2232,"僑":2233,"僕":2234,"僧":2235,"儀":2236,"億":2237,"儒":2238,"儚":2239,"儡":2240,"優":2241,"儿":2242,"允":2243,"元":2244,"充":2245,"兆":2246,"先":2247,"光":2248,"克":2249,"免":2250,"兒":2251,"兔":2252,"兜":2253,"入":2254,"內":2255,"全":2256,"兩":2257,"八":2258,"公":2259,"六":2260,"兰":2261,"共":2262,"关":2263,"兵":2264,"其":2265,"具":2266,"典":2267,"养":2268,"冀":2269,"内":2270,"円":2271,"冉":2272,"册":2273,"再":2274,"冒":2275,"写":2276,"军":2277,"冠":2278,"冥":2279,"冫":2280,"冬":2281,"冯":2282,"决":2283,"冴":2284,"冶":2285,"冷":2286,"净":2287,"准":2288,"凌":2289,"凤":2290,"処":2291,"凪":2292,"凯":2293,"凰":2294,"凱":2295,"凶":2296,"凹":2297,"出":2298,"刀":2299,"刃":2300,"分":2301,"切":2302,"刊":2303,"划":2304,"列":2305,"刘":2306,"初":2307,"判":2308,"別":2309,"利":2310,"别":2311,"到":2312,"制":2313,"刷":2314,"券":2315,"刹":2316,"刺":2317,"刻":2318,"則":2319,"前":2320,"剑":2321,"剛":2322,"剣":2323,"剧":2324,"剩":2325,"副":2326,"割":2327,"創":2328,"劃":2329,"劇":2330,"劉":2331,"劍":2332,"力":2333,"办":2334,"功":2335,"加":2336,"劣":2337,"动":2338,"助":2339,"劳":2340,"勃":2341,"勅":2342,"勇":2343,"勒":2344,"動":2345,"勘":2346,"務":2347,"勝":2348,"勞":2349,"勢":2350,"勳":2351,"勾":2352,"包":2353,"化":2354,"北":2355,"匠":2356,"匹":2357,"区":2358,"医":2359,"區":2360,"十":2361,"千":2362,"升":2363,"午":2364,"半":2365,"华":2366,"协":2367,"卐":2368,"卒":2369,"卓":2370,"協":2371,"单":2372,"卖":2373,"南":2374,"博":2375,"卜":2376,"占":2377,"卡":2378,"卢":2379,"卦":2380,"卫":2381,"印":2382,"危":2383,"即":2384,"却":2385,"卸":2386,"卿":2387,"厂":2388,"厄":2389,"历":2390,"厘":2391,"厚":2392,"原":2393,"厥":2394,"厦":2395,"厩":2396,"去":2397,"县":2398,"参":2399,"參":2400,"叉":2401,"及":2402,"友":2403,"双":2404,"反":2405,"収":2406,"发":2407,"叔":2408,"取":2409,"受":2410,"变":2411,"叛":2412,"叠":2413,"叡":2414,"叢":2415,"口":2416,"古":2417,"句":2418,"只":2419,"叫":2420,"召":2421,"可":2422,"台":2423,"史":2424,"右":2425,"叶":2426,"号":2427,"司":2428,"合":2429,"吉":2430,"同":2431,"名":2432,"后":2433,"向":2434,"吕":2435,"君":2436,"吞":2437,"吟":2438,"吧":2439,"启":2440,"吳":2441,"吴":2442,"吸":2443,"吹":2444,"吾":2445,"呂":2446,"呉":2447,"告":2448,"周":2449,"呪":2450,"味":2451,"呼":2452,"命":2453,"咆":2454,"和":2455,"咖":2456,"咙":2457,"咫":2458,"咲":2459,"咸":2460,"哀":2461,"品":2462,"哈":2463,"哉":2464,"响":2465,"員":2466,"哥":2467,"哮":2468,"哲":2469,"唄":2470,"唐":2471,"唯":2472,"唱":2473,"商":2474,"問":2475,"啓":2476,"啟":2477,"啡":2478,"善":2479,"喇":2480,"喋":2481,"喚":2482,"喜":2483,"喝":2484,"喬":2485,"嘉":2486,"嘘":2487,"噛":2488,"器":2489,"嚣":2490,"嚴":2491,"囁":2492,"囂":2493,"囃":2494,"囚":2495,"四":2496,"回":2497,"因":2498,"团":2499,"団":2500,"図":2501,"国":2502,"图":2503,"圈":2504,"國":2505,"圍":2506,"圏":2507,"園":2508,"圓":2509,"圖":2510,"土":2511,"圣":2512,"圧":2513,"在":2514,"地":2515,"圻":2516,"坂":2517,"均":2518,"坊":2519,"坑":2520,"块":2521,"坚":2522,"坝":2523,"坡":2524,"坤":2525,"坪":2526,"型":2527,"垣":2528,"城":2529,"埔":2530,"域":2531,"執":2532,"培":2533,"基":2534,"堀":2535,"堂":2536,"堅":2537,"堆":2538,"堡":2539,"堤":2540,"堯":2541,"報":2542,"場":2543,"塊":2544,"塔":2545,"塘":2546,"塚":2547,"塞":2548,"塩":2549,"填":2550,"塵":2551,"境":2552,"墓":2553,"墙":2554,"增":2555,"壁":2556,"壌":2557,"壓":2558,"壟":2559,"壤":2560,"士":2561,"壬":2562,"壮":2563,"壯":2564,"声":2565,"壱":2566,"売":2567,"壳":2568,"壷":2569,"壽":2570,"处":2571,"备":2572,"変":2573,"复":2574,"夏":2575,"夕":2576,"外":2577,"多":2578,"夜":2579,"够":2580,"夢":2581,"夤":2582,"大":2583,"天":2584,"太":2585,"夫":2586,"央":2587,"失":2588,"头":2589,"夷":2590,"奇":2591,"奈":2592,"奉":2593,"奎":2594,"奏":2595,"奐":2596,"契":2597,"奔":2598,"奥":2599,"奧":2600,"奪":2601,"女":2602,"奴":2603,"好":2604,"如":2605,"妃":2606,"妇":2607,"妍":2608,"妖":2609,"妙":2610,"妮":2611,"妹":2612,"妻":2613,"姉":2614,"姊":2615,"始":2616,"姑":2617,"委":2618,"姚":2619,"姥":2620,"姦":2621,"姫":2622,"姬":2623,"姿":2624,"威":2625,"娘":2626,"娜":2627,"婁":2628,"婆":2629,"婚":2630,"婷":2631,"嫁":2632,"嬢":2633,"嬴":2634,"子":2635,"孔":2636,"字":2637,"存":2638,"孙":2639,"孛":2640,"孝":2641,"孟":2642,"季":2643,"孤":2644,"学":2645,"孩":2646,"孫":2647,"孵":2648,"學":2649,"宁":2650,"宅":2651,"宇":2652,"守":2653,"安":2654,"宋":2655,"完":2656,"宏":2657,"宗":2658,"官":2659,"宙":2660,"定":2661,"宜":2662,"宝":2663,"实":2664,"実":2665,"客":2666,"宣":2667,"室":2668,"宫":2669,"宮":2670,"宴":2671,"宵":2672,"家":2673,"宸":2674,"容":2675,"宿":2676,"寂":2677,"寄":2678,"密":2679,"寇":2680,"富":2681,"寔":2682,"寗":2683,"寛":2684,"寝":2685,"寞":2686,"察":2687,"寧":2688,"寨":2689,"審":2690,"寬":2691,"寵":2692,"寶":2693,"寸":2694,"对":2695,"寺":2696,"寻":2697,"対":2698,"寿":2699,"封":2700,"射":2701,"将":2702,"將":2703,"尉":2704,"尊":2705,"尋":2706,"對":2707,"導":2708,"小":2709,"少":2710,"尔":2711,"尚":2712,"尧":2713,"就":2714,"尸":2715,"尹":2716,"尺":2717,"尼":2718,"尽":2719,"尾":2720,"局":2721,"居":2722,"届":2723,"屋":2724,"屍":2725,"屑":2726,"展":2727,"屠":2728,"層":2729,"屬":2730,"屯":2731,"山":2732,"屿":2733,"岐":2734,"岑":2735,"岚":2736,"岛":2737,"岡":2738,"岩":2739,"岬":2740,"岭":2741,"岳":2742,"岸":2743,"峰":2744,"島":2745,"崇":2746,"崎":2747,"崔":2748,"崖":2749,"嵐":2750,"嶋":2751,"嶺":2752,"嶼":2753,"巂":2754,"巖":2755,"川":2756,"州":2757,"巡":2758,"工":2759,"左":2760,"巨":2761,"巫":2762,"差":2763,"己":2764,"巳":2765,"巴":2766,"巻":2767,"币":2768,"市":2769,"布":2770,"帆":2771,"师":2772,"希":2773,"帕":2774,"帖":2775,"帝":2776,"帥":2777,"带":2778,"師":2779,"帮":2780,"帰":2781,"帶":2782,"常":2783,"幕":2784,"幡":2785,"幣":2786,"干":2787,"平":2788,"年":2789,"幸":2790,"幻":2791,"幽":2792,"广":2793,"庁":2794,"広":2795,"庄":2796,"庆":2797,"庇":2798,"序":2799,"库":2800,"底":2801,"庖":2802,"店":2803,"庙":2804,"庚":2805,"府":2806,"度":2807,"座":2808,"庫":2809,"庭":2810,"庵":2811,"康":2812,"廉":2813,"廊":2814,"廖":2815,"廟":2816,"廣":2817,"廬":2818,"延":2819,"廷":2820,"建":2821,"廻":2822,"廿":2823,"开":2824,"弁":2825,"式":2826,"弐":2827,"弓":2828,"弔":2829,"引":2830,"弘":2831,"弟":2832,"张":2833,"弥":2834,"弦":2835,"弧":2836,"弱":2837,"張":2838,"強":2839,"弹":2840,"强":2841,"弾":2842,"彌":2843,"当":2844,"录":2845,"彖":2846,"彙":2847,"形":2848,"彦":2849,"彩":2850,"彪":2851,"彬":2852,"彭":2853,"影":2854,"役":2855,"彼":2856,"征":2857,"径":2858,"待":2859,"律":2860,"後":2861,"徐":2862,"徒":2863,"得":2864,"從":2865,"御":2866,"復":2867,"微":2868,"徳":2869,"德":2870,"徹":2871,"徽":2872,"心":2873,"必":2874,"忍":2875,"志":2876,"忘":2877,"応":2878,"忠":2879,"快":2880,"念":2881,"怀":2882,"怎":2883,"怒":2884,"怖":2885,"思":2886,"怡":2887,"急":2888,"性":2889,"怨":2890,"怪":2891,"总":2892,"恆":2893,"恋":2894,"恐":2895,"恒":2896,"恢":2897,"恥":2898,"恩":2899,"恭":2900,"息":2901,"恵":2902,"恼":2903,"悔":2904,"悟":2905,"悠":2906,"悦":2907,"悪":2908,"悫":2909,"悲":2910,"悼":2911,"情":2912,"惑":2913,"惟":2914,"惠":2915,"惡":2916,"想":2917,"愁":2918,"愍":2919,"意":2920,"愚":2921,"愛":2922,"感":2923,"愽":2924,"慈":2925,"態":2926,"慎":2927,"慧":2928,"慰":2929,"慶":2930,"憂":2931,"憎":2932,"憑":2933,"憲":2934,"憶":2935,"應":2936,"懍":2937,"懷":2938,"戈":2939,"戊":2940,"戎":2941,"成":2942,"我":2943,"战":2944,"戦":2945,"戯":2946,"戰":2947,"戴":2948,"户":2949,"戸":2950,"房":2951,"所":2952,"扁":2953,"扇":2954,"扈":2955,"扉":2956,"手":2957,"才":2958,"打":2959,"托":2960,"扶":2961,"找":2962,"承":2963,"技":2964,"抄":2965,"抓":2966,"投":2967,"抜":2968,"択":2969,"护":2970,"报":2971,"披":2972,"抱":2973,"抵":2974,"担":2975,"拉":2976,"拍":2977,"拏":2978,"拐":2979,"拖":2980,"拘":2981,"招":2982,"拜":2983,"拟":2984,"拥":2985,"括":2986,"拳":2987,"拾":2988,"持":2989,"挂":2990,"指":2991,"挑":2992,"挥":2993,"振":2994,"据":2995,"捷":2996,"授":2997,"掛":2998,"採":2999,"探":3000,"控":3001,"掲":3002,"描":3003,"提":3004,"揚":3005,"換":3006,"援":3007,"揺":3008,"摂":3009,"摩":3010,"摸":3011,"撃":3012,"撒":3013,"撞":3014,"播":3015,"撲":3016,"操":3017,"攝":3018,"支":3019,"收":3020,"改":3021,"攻":3022,"放":3023,"政":3024,"故":3025,"敏":3026,"救":3027,"教":3028,"敢":3029,"散":3030,"敦":3031,"敬":3032,"数":3033,"敵":3034,"敷":3035,"數":3036,"文":3037,"斉":3038,"斎":3039,"斗":3040,"料":3041,"斜":3042,"斤":3043,"斩":3044,"斬":3045,"断":3046,"斯":3047,"新":3048,"方":3049,"於":3050,"施":3051,"旅":3052,"旋":3053,"族":3054,"旗":3055,"无":3056,"日":3057,"旦":3058,"旧":3059,"早":3060,"旭":3061,"时":3062,"旺":3063,"昂":3064,"昇":3065,"昌":3066,"明":3067,"昏":3068,"易":3069,"昔":3070,"星":3071,"映":3072,"春":3073,"昭":3074,"是":3075,"昼":3076,"時":3077,"晉":3078,"晋":3079,"晒":3080,"普":3081,"景":3082,"晴":3083,"晶":3084,"智":3085,"暁":3086,"暂":3087,"暖":3088,"暗":3089,"暦":3090,"暮":3091,"暴":3092,"曆":3093,"曜":3094,"曦":3095,"曲":3096,"更":3097,"書":3098,"曹":3099,"曼":3100,"曾":3101,"最":3102,"會":3103,"月":3104,"有":3105,"朋":3106,"服":3107,"朏":3108,"朔":3109,"朗":3110,"望":3111,"朝":3112,"期":3113,"朧":3114,"木":3115,"未":3116,"末":3117,"本":3118,"札":3119,"朱":3120,"朴":3121,"朵":3122,"机":3123,"朽":3124,"杀":3125,"杂":3126,"权":3127,"李":3128,"杏":3129,"材":3130,"村":3131,"杖":3132,"杜":3133,"束":3134,"条":3135,"来":3136,"杨":3137,"杯":3138,"東":3139,"杲":3140,"松":3141,"板":3142,"极":3143,"析":3144,"林":3145,"枚":3146,"果":3147,"枝":3148,"枭":3149,"枯":3150,"架":3151,"柆":3152,"柏":3153,"柔":3154,"柚":3155,"柩":3156,"柱":3157,"柳":3158,"柴":3159,"査":3160,"栄":3161,"标":3162,"栈":3163,"树":3164,"栖":3165,"栗":3166,"栞":3167,"校":3168,"株":3169,"样":3170,"核":3171,"根":3172,"格":3173,"栽":3174,"栾":3175,"桀":3176,"桂":3177,"桃":3178,"案":3179,"桎":3180,"桐":3181,"桑":3182,"桓":3183,"桜":3184,"桥":3185,"桧":3186,"梁":3187,"梅":3188,"梏":3189,"梓":3190,"條":3191,"梦":3192,"梨":3193,"梭":3194,"梯":3195,"械":3196,"梵":3197,"梶":3198,"棋":3199,"棍":3200,"棗":3201,"棘":3202,"棚":3203,"棟":3204,"森":3205,"棲":3206,"棵":3207,"棺":3208,"椅":3209,"植":3210,"椎":3211,"椒":3212,"椛":3213,"検":3214,"椰":3215,"椿":3216,"楊":3217,"楚":3218,"楠":3219,"業":3220,"楯":3221,"極":3222,"楼":3223,"楽":3224,"概":3225,"榆":3226,"榊":3227,"榔":3228,"榛":3229,"榮":3230,"榴":3231,"槐":3232,"様":3233,"槤":3234,"槻":3235,"樂":3236,"樉":3237,"樊":3238,"樓":3239,"樗":3240,"標":3241,"樛":3242,"模":3243,"権":3244,"横":3245,"樱":3246,"樸":3247,"樹":3248,"橋":3249,"橘":3250,"橚":3251,"機":3252,"橫":3253,"橿":3254,"檀":3255,"檜":3256,"檳":3257,"檻":3258,"櫓":3259,"櫻":3260,"權":3261,"欒":3262,"欠":3263,"次":3264,"欣":3265,"欲":3266,"欽":3267,"歌":3268,"歓":3269,"歡":3270,"止":3271,"正":3272,"步":3273,"武":3274,"歩":3275,"歪":3276,"歲":3277,"歳":3278,"歴":3279,"歷":3280,"歸":3281,"死":3282,"殊":3283,"残":3284,"段":3285,"殺":3286,"殻":3287,"殿":3288,"毅":3289,"母":3290,"毎":3291,"每":3292,"比":3293,"毕":3294,"毘":3295,"毛":3296,"毫":3297,"毬":3298,"氏":3299,"民":3300,"气":3301,"気":3302,"氣":3303,"水":3304,"氷":3305,"永":3306,"氾":3307,"汇":3308,"汉":3309,"汐":3310,"汗":3311,"汝":3312,"江":3313,"池":3314,"汤":3315,"汪":3316,"汰":3317,"汶":3318,"決":3319,"汽":3320,"沂":3321,"沃":3322,"沈":3323,"沉":3324,"沌":3325,"沐":3326,"沒":3327,"沖":3328,"沙":3329,"沛":3330,"没":3331,"沢":3332,"沫":3333,"河":3334,"沸":3335,"油":3336,"治":3337,"沼":3338,"沽":3339,"泉":3340,"泊":3341,"法":3342,"泗":3343,"泡":3344,"波":3345,"泣":3346,"泥":3347,"注":3348,"泰":3349,"泾":3350,"洁":3351,"洋":3352,"洛":3353,"洞":3354,"津":3355,"洪":3356,"洲":3357,"活":3358,"派":3359,"流":3360,"浅":3361,"浙":3362,"浚":3363,"浜":3364,"浦":3365,"浩":3366,"浪":3367,"浮":3368,"海":3369,"消":3370,"涙":3371,"润":3372,"涵":3373,"涼":3374,"淇":3375,"淑":3376,"淘":3377,"淡":3378,"淨":3379,"深":3380,"淳":3381,"淵":3382,"淹":3383,"添":3384,"清":3385,"渊":3386,"渚":3387,"減":3388,"渠":3389,"渡":3390,"渣":3391,"渥":3392,"渦":3393,"温":3394,"測":3395,"港":3396,"游":3397,"渾":3398,"湊":3399,"湖":3400,"湯":3401,"湾":3402,"満":3403,"源":3404,"準":3405,"溜":3406,"溢":3407,"溪":3408,"溫":3409,"溶":3410,"滅":3411,"滋":3412,"滑":3413,"滨":3414,"滿":3415,"漁":3416,"漂":3417,"漆":3418,"漏":3419,"漠":3420,"漢":3421,"漫":3422,"漳":3423,"漸":3424,"潘":3425,"潜":3426,"潤":3427,"澄":3428,"澤":3429,"澪":3430,"激":3431,"濃":3432,"濞":3433,"濟":3434,"瀛":3435,"瀬":3436,"灣":3437,"火":3438,"灯":3439,"灰":3440,"灵":3441,"灶":3442,"灼":3443,"災":3444,"灾":3445,"炎":3446,"炬":3447,"炮":3448,"炯":3449,"炷":3450,"炸":3451,"点":3452,"為":3453,"炼":3454,"烈":3455,"烏":3456,"烙":3457,"烟":3458,"烦":3459,"烧":3460,"焉":3461,"焔":3462,"無":3463,"焦":3464,"然":3465,"焼":3466,"煌":3467,"煙":3468,"煜":3469,"照":3470,"煩":3471,"煮":3472,"熊":3473,"熔":3474,"熙":3475,"熟":3476,"熱":3477,"燃":3478,"燈":3479,"燕":3480,"營":3481,"爆":3482,"爪":3483,"爭":3484,"爱":3485,"爲":3486,"爵":3487,"父":3488,"爺":3489,"爻":3490,"爽":3491,"爾":3492,"片":3493,"版":3494,"牌":3495,"牙":3496,"牛":3497,"牡":3498,"牢":3499,"牧":3500,"物":3501,"牵":3502,"特":3503,"犖":3504,"犬":3505,"犯":3506,"狀":3507,"狂":3508,"狐":3509,"狗":3510,"狛":3511,"狡":3512,"狩":3513,"独":3514,"狭":3515,"狱":3516,"狸":3517,"狼":3518,"猛":3519,"猩":3520,"猪":3521,"猫":3522,"献":3523,"猿":3524,"獄":3525,"獅":3526,"獣":3527,"獵":3528,"獻":3529,"玄":3530,"玉":3531,"王":3532,"玖":3533,"玩":3534,"玲":3535,"珂":3536,"珍":3537,"珙":3538,"珠":3539,"現":3540,"球":3541,"理":3542,"琦":3543,"琪":3544,"琬":3545,"琮":3546,"琴":3547,"瑋":3548,"瑙":3549,"瑜":3550,"瑞":3551,"瑠":3552,"瑣":3553,"瑪":3554,"瑾":3555,"璉":3556,"環":3557,"璽":3558,"瓊":3559,"瓜":3560,"瓢":3561,"瓦":3562,"瓩":3563,"瓷":3564,"甘":3565,"甜":3566,"生":3567,"產":3568,"産":3569,"用":3570,"甫":3571,"田":3572,"由":3573,"甲":3574,"申":3575,"男":3576,"町":3577,"画":3578,"甽":3579,"界":3580,"畑":3581,"留":3582,"畜":3583,"畢":3584,"略":3585,"番":3586,"畫":3587,"異":3588,"疾":3589,"病":3590,"症":3591,"痘":3592,"痛":3593,"痴":3594,"瘡":3595,"瘤":3596,"発":3597,"登":3598,"發":3599,"白":3600,"百":3601,"的":3602,"皇":3603,"皙":3604,"皮":3605,"皿":3606,"盆":3607,"盈":3608,"益":3609,"盏":3610,"盐":3611,"监":3612,"盒":3613,"盗":3614,"盘":3615,"盛":3616,"盟":3617,"監":3618,"盤":3619,"盧":3620,"目":3621,"直":3622,"相":3623,"盼":3624,"省":3625,"看":3626,"県":3627,"眞":3628,"真":3629,"眼":3630,"着":3631,"督":3632,"瞬":3633,"瞳":3634,"矢":3635,"知":3636,"矩":3637,"短":3638,"矮":3639,"矯":3640,"石":3641,"砂":3642,"砍":3643,"研":3644,"砖":3645,"砲":3646,"破":3647,"硕":3648,"硝":3649,"硨":3650,"碍":3651,"碗":3652,"碩":3653,"確":3654,"碼":3655,"磁":3656,"磅":3657,"磐":3658,"磨":3659,"磯":3660,"磲":3661,"礁":3662,"礎":3663,"礮":3664,"示":3665,"礼":3666,"社":3667,"祀":3668,"祈":3669,"祐":3670,"祖":3671,"祚":3672,"神":3673,"祠":3674,"祥":3675,"票":3676,"祭":3677,"祺":3678,"祿":3679,"禁":3680,"禄":3681,"禎":3682,"福":3683,"禦":3684,"禮":3685,"禰":3686,"禺":3687,"禾":3688,"秀":3689,"私":3690,"秋":3691,"科":3692,"秒":3693,"秘":3694,"租":3695,"秤":3696,"秦":3697,"移":3698,"程":3699,"稔":3700,"稚":3701,"種":3702,"稲":3703,"稷":3704,"穂":3705,"穌":3706,"積":3707,"穎":3708,"穗":3709,"穢":3710,"究":3711,"空":3712,"突":3713,"窓":3714,"窗":3715,"窟":3716,"竇":3717,"立":3718,"站":3719,"竜":3720,"章":3721,"童":3722,"端":3723,"竹":3724,"竺":3725,"笑":3726,"笔":3727,"笛":3728,"笠":3729,"符":3730,"笨":3731,"第":3732,"笹":3733,"筆":3734,"等":3735,"筋":3736,"筍":3737,"筐":3738,"筑":3739,"答":3740,"策":3741,"筹":3742,"箇":3743,"算":3744,"管":3745,"箪":3746,"箭":3747,"箱":3748,"節":3749,"範":3750,"篇":3751,"篋":3752,"篚":3753,"篤":3754,"簡":3755,"簿":3756,"籃":3757,"籌":3758,"籍":3759,"籠":3760,"米":3761,"籵":3762,"粁":3763,"粉":3764,"粍":3765,"粟":3766,"粥":3767,"粨":3768,"精":3769,"糊":3770,"糎":3771,"糖":3772,"糸":3773,"系":3774,"紀":3775,"約":3776,"紅":3777,"紋":3778,"納":3779,"純":3780,"紘":3781,"紙":3782,"級":3783,"素":3784,"紡":3785,"紫":3786,"細":3787,"紹":3788,"紺":3789,"終":3790,"組":3791,"絆":3792,"経":3793,"結":3794,"絡":3795,"給":3796,"統":3797,"絵":3798,"絶":3799,"綁":3800,"經":3801,"継":3802,"続":3803,"綜":3804,"綠":3805,"維":3806,"綯":3807,"綱":3808,"網":3809,"綸":3810,"綺":3811,"綾":3812,"緋":3813,"総":3814,"緑":3815,"緒":3816,"線":3817,"締":3818,"編":3819,"緩":3820,"緯":3821,"縄":3822,"縊":3823,"縣":3824,"總":3825,"繋":3826,"織":3827,"繼":3828,"續":3829,"红":3830,"级":3831,"纪":3832,"纯":3833,"纲":3834,"纵":3835,"线":3836,"组":3837,"绅":3838,"细":3839,"终":3840,"绍":3841,"经":3842,"给":3843,"统":3844,"继":3845,"绮":3846,"维":3847,"综":3848,"缽":3849,"网":3850,"罗":3851,"罠":3852,"罪":3853,"置":3854,"罰":3855,"罸":3856,"羅":3857,"羊":3858,"美":3859,"群":3860,"義":3861,"羽":3862,"翁":3863,"習":3864,"翔":3865,"翘":3866,"翠":3867,"翡":3868,"翱":3869,"翹":3870,"翻":3871,"翼":3872,"老":3873,"考":3874,"者":3875,"耆":3876,"而":3877,"耕":3878,"耳":3879,"耶":3880,"耿":3881,"聃":3882,"联":3883,"聖":3884,"聘":3885,"聚":3886,"聞":3887,"聡":3888,"聯":3889,"聰":3890,"聲":3891,"職":3892,"肃":3893,"肉":3894,"肖":3895,"肚":3896,"股":3897,"肥":3898,"肩":3899,"育":3900,"胞":3901,"胠":3902,"胡":3903,"胤":3904,"胴":3905,"胸":3906,"能":3907,"脂":3908,"脇":3909,"脈":3910,"脉":3911,"脚":3912,"脩":3913,"脱":3914,"脳":3915,"腎":3916,"腐":3917,"腰":3918,"腹":3919,"腿":3920,"膀":3921,"膺":3922,"臂":3923,"臘":3924,"臚":3925,"臣":3926,"臨":3927,"自":3928,"臭":3929,"至":3930,"致":3931,"臺":3932,"與":3933,"興":3934,"舍":3935,"舎":3936,"舞":3937,"舟":3938,"航":3939,"船":3940,"艦":3941,"良":3942,"色":3943,"艳":3944,"艶":3945,"艺":3946,"节":3947,"芒":3948,"芙":3949,"芝":3950,"芦":3951,"芬":3952,"芭":3953,"芮":3954,"芯":3955,"花":3956,"芳":3957,"芸":3958,"芹":3959,"芽":3960,"苏":3961,"苑":3962,"苗":3963,"苣":3964,"若":3965,"英":3966,"苺":3967,"茂":3968,"范":3969,"茅":3970,"茜":3971,"茶":3972,"茸":3973,"草":3974,"荊":3975,"荒":3976,"荔":3977,"荘":3978,"荥":3979,"荪":3980,"荫":3981,"药":3982,"荷":3983,"荻":3984,"荼":3985,"莉":3986,"莊":3987,"莎":3988,"莘":3989,"莞":3990,"莫":3991,"莱":3992,"莲":3993,"莴":3994,"菇":3995,"菉":3996,"菊":3997,"菜":3998,"華":3999,"菱":4000,"菲":4001,"萌":4002,"萍":4003,"萝":4004,"营":4005,"萧":4006,"萨":4007,"萬":4008,"落":4009,"葆":4010,"葉":4011,"著":4012,"葛":4013,"董":4014,"葦":4015,"葫":4016,"葵":4017,"蒙":4018,"蒭":4019,"蒲":4020,"蒼":4021,"蒿":4022,"蓀":4023,"蓑":4024,"蓝":4025,"蓮":4026,"蔡":4027,"蔭":4028,"蔵":4029,"蕃":4030,"蕉":4031,"蕨":4032,"蕩":4033,"蕭":4034,"薇":4035,"薊":4036,"薔":4037,"薙":4038,"薛":4039,"薩":4040,"薫":4041,"薯":4042,"藍":4043,"藏":4044,"藕":4045,"藝":4046,"藤":4047,"藥":4048,"藩":4049,"藻":4050,"蘄":4051,"蘅":4052,"蘇":4053,"蘑":4054,"蘭":4055,"虎":4056,"虐":4057,"虔":4058,"處":4059,"虚":4060,"虛":4061,"號":4062,"虫":4063,"虹":4064,"蛇":4065,"蛍":4066,"蛙":4067,"蛭":4068,"蜃":4069,"蜡":4070,"蝉":4071,"蝕":4072,"蝶":4073,"融":4074,"螺":4075,"蟲":4076,"蠕":4077,"蠻":4078,"血":4079,"衆":4080,"行":4081,"術":4082,"街":4083,"衙":4084,"衛":4085,"衝":4086,"衡":4087,"衢":4088,"衣":4089,"补":4090,"表":4091,"袁":4092,"袈":4093,"袖":4094,"被":4095,"裁":4096,"裂":4097,"装":4098,"裏":4099,"裔":4100,"裕":4101,"補":4102,"裟":4103,"裳":4104,"裸":4105,"製":4106,"褒":4107,"襄":4108,"襟":4109,"襲":4110,"西":4111,"要":4112,"覇":4113,"見":4114,"規":4115,"視":4116,"覚":4117,"親":4118,"観":4119,"覺":4120,"觀":4121,"观":4122,"角":4123,"解":4124,"触":4125,"觳":4126,"言":4127,"計":4128,"記":4129,"設":4130,"許":4131,"訳":4132,"証":4133,"詔":4134,"詞":4135,"詠":4136,"試":4137,"詩":4138,"話":4139,"誌":4140,"誐":4141,"誒":4142,"誓":4143,"誕":4144,"誘":4145,"語":4146,"誠":4147,"誡":4148,"誦":4149,"說":4150,"説":4151,"読":4152,"誰":4153,"課":4154,"調":4155,"談":4156,"論":4157,"諭":4158,"諷":4159,"諸":4160,"謀":4161,"謁":4162,"謎":4163,"謙":4164,"講":4165,"謝":4166,"謡":4167,"識":4168,"譚":4169,"譜":4170,"警":4171,"議":4172,"護":4173,"讀":4174,"變":4175,"讐":4176,"讓":4177,"计":4178,"让":4179,"议":4180,"许":4181,"论":4182,"讼":4183,"诉":4184,"词":4185,"诗":4186,"诚":4187,"话":4188,"语":4189,"诶":4190,"请":4191,"诺":4192,"读":4193,"课":4194,"谁":4195,"谦":4196,"谭":4197,"谷":4198,"豆":4199,"豊":4200,"豌":4201,"豐":4202,"豚":4203,"象":4204,"豪":4205,"豫":4206,"豬":4207,"豹":4208,"貓":4209,"貝":4210,"貞":4211,"負":4212,"財":4213,"貫":4214,"貴":4215,"費":4216,"賀":4217,"資":4218,"賈":4219,"賊":4220,"賓":4221,"賞":4222,"賢":4223,"賦":4224,"質":4225,"購":4226,"贝":4227,"贞":4228,"财":4229,"贤":4230,"质":4231,"贵":4232,"贺":4233,"贼":4234,"资":4235,"赤":4236,"赭":4237,"走":4238,"赵":4239,"起":4240,"超":4241,"越":4242,"趙":4243,"足":4244,"跆":4245,"跑":4246,"跖":4247,"跟":4248,"跡":4249,"路":4250,"跳":4251,"踊":4252,"踏":4253,"踢":4254,"蹴":4255,"身":4256,"車":4257,"軌":4258,"軍":4259,"軒":4260,"転":4261,"軽":4262,"載":4263,"輔":4264,"輛":4265,"輝":4266,"輪":4267,"輿":4268,"轉":4269,"车":4270,"轩":4271,"转":4272,"辆":4273,"辉":4274,"辛":4275,"辣":4276,"辭":4277,"辯":4278,"辰":4279,"農":4280,"边":4281,"辺":4282,"辽":4283,"达":4284,"辿":4285,"迄":4286,"迅":4287,"过":4288,"迈":4289,"运":4290,"近":4291,"返":4292,"这":4293,"进":4294,"远":4295,"迦":4296,"迪":4297,"述":4298,"迷":4299,"追":4300,"送":4301,"适":4302,"逆":4303,"选":4304,"這":4305,"通":4306,"造":4307,"逢":4308,"連":4309,"逯":4310,"週":4311,"進":4312,"遁":4313,"遇":4314,"遊":4315,"運":4316,"遍":4317,"過":4318,"道":4319,"達":4320,"遗":4321,"遙":4322,"遜":4323,"遠":4324,"遥":4325,"遮":4326,"選":4327,"遺":4328,"遼":4329,"避":4330,"邁":4331,"還":4332,"邊":4333,"邑":4334,"邓":4335,"那":4336,"邦":4337,"邪":4338,"邱":4339,"郁":4340,"郊":4341,"郎":4342,"郑":4343,"郛":4344,"郝":4345,"郡":4346,"部":4347,"郭":4348,"郷":4349,"都":4350,"鄧":4351,"鄭":4352,"酈":4353,"酉":4354,"酒":4355,"酔":4356,"酥":4357,"酱":4358,"酷":4359,"酸":4360,"醋":4361,"醒":4362,"醫":4363,"采":4364,"釈":4365,"釋":4366,"里":4367,"重":4368,"野":4369,"量":4370,"金":4371,"釗":4372,"釣":4373,"鈍":4374,"鈴":4375,"鉄":4376,"鉢":4377,"鉦":4378,"鉱":4379,"鉴":4380,"銀":4381,"銃":4382,"銅":4383,"銓":4384,"銖":4385,"銘":4386,"銳":4387,"鋒":4388,"鋪":4389,"鋼":4390,"錄":4391,"錡":4392,"錦":4393,"錬":4394,"録":4395,"鍋":4396,"鍵":4397,"鎖":4398,"鎧":4399,"鎮":4400,"鏡":4401,"鐘":4402,"鐵":4403,"鐸":4404,"鑒":4405,"钊":4406,"钢":4407,"钦":4408,"钱":4409,"铁":4410,"铎":4411,"铜":4412,"铭":4413,"铺":4414,"锡":4415,"键":4416,"镇":4417,"镗":4418,"镜":4419,"長":4420,"长":4421,"門":4422,"閃":4423,"開":4424,"閏":4425,"閒":4426,"間":4427,"関":4428,"閣":4429,"閨":4430,"闇":4431,"闍":4432,"闕":4433,"闘":4434,"關":4435,"门":4436,"问":4437,"闯":4438,"阁":4439,"阪":4440,"防":4441,"阳":4442,"阿":4443,"陀":4444,"附":4445,"际":4446,"陈":4447,"降":4448,"限":4449,"陛":4450,"院":4451,"陣":4452,"除":4453,"陪":4454,"陳":4455,"陵":4456,"陶":4457,"陸":4458,"険":4459,"陽":4460,"隆":4461,"隊":4462,"階":4463,"隔":4464,"隗":4465,"隠":4466,"隣":4467,"隱":4468,"隴":4469,"隸":4470,"隻":4471,"隼":4472,"雀":4473,"雁":4474,"雄":4475,"雅":4476,"集":4477,"雇":4478,"雉":4479,"雎":4480,"雕":4481,"雙":4482,"雛":4483,"雜":4484,"雞":4485,"離":4486,"難":4487,"雨":4488,"雪":4489,"雲":4490,"雳":4491,"零":4492,"雷":4493,"電":4494,"雾":4495,"需":4496,"霆":4497,"震":4498,"霊":4499,"霍":4500,"霖":4501,"霜":4502,"霞":4503,"霧":4504,"霰":4505,"露":4506,"霸":4507,"霹":4508,"靂":4509,"靈":4510,"青":4511,"靖":4512,"静":4513,"非":4514,"靠":4515,"面":4516,"革":4517,"靴":4518,"靼":4519,"鞋":4520,"鞍":4521,"鞠":4522,"韃":4523,"韋":4524,"韓":4525,"韦":4526,"韩":4527,"韭":4528,"音":4529,"韶":4530,"響":4531,"頃":4532,"項":4533,"順":4534,"須":4535,"頌":4536,"領":4537,"頭":4538,"顆":4539,"題":4540,"額":4541,"顏":4542,"顔":4543,"願":4544,"顯":4545,"项":4546,"顾":4547,"颂":4548,"颊":4549,"颖":4550,"颗":4551,"颜":4552,"風":4553,"颪":4554,"颱":4555,"飄":4556,"风":4557,"飛":4558,"飞":4559,"食":4560,"飯":4561,"飾":4562,"餅":4563,"養":4564,"餓":4565,"館":4566,"饼":4567,"馆":4568,"馒":4569,"首":4570,"香":4571,"馬":4572,"馮":4573,"駆":4574,"駐":4575,"駒":4576,"駙":4577,"駢":4578,"駿":4579,"騎":4580,"騒":4581,"験":4582,"騭":4583,"騰":4584,"騷":4585,"驁":4586,"驚":4587,"驤":4588,"马":4589,"驰":4590,"骨":4591,"骸":4592,"髀":4593,"高":4594,"髪":4595,"鬘":4596,"鬥":4597,"鬪":4598,"鬼":4599,"魂":4600,"魄":4601,"魔":4602,"魚":4603,"魯":4604,"鮑":4605,"鮫":4606,"鮮":4607,"鯖":4608,"鯵":4609,"鰐":4610,"鱀":4611,"鱼":4612,"鲁":4613,"鲤":4614,"鳥":4615,"鳩":4616,"鳳":4617,"鳴":4618,"鳶":4619,"鴉":4620,"鴣":4621,"鴨":4622,"鴻":4623,"鵡":4624,"鵩":4625,"鵬":4626,"鶍":4627,"鶴":4628,"鷓":4629,"鷹":4630,"鷺":4631,"鸚":4632,"鸟":4633,"鸡":4634,"鸭":4635,"鸿":4636,"鹅":4637,"鹹":4638,"鹼":4639,"鹽":4640,"鹿":4641,"麗":4642,"麥":4643,"麵":4644,"麻":4645,"麼":4646,"麾":4647,"黃":4648,"黄":4649,"黎":4650,"黑":4651,"黒":4652,"黙":4653,"黛":4654,"黨":4655,"鼉":4656,"鼎":4657,"鼓":4658,"鼠":4659,"鼻":4660,"齉":4661,"齊":4662,"齋":4663,"齐":4664,"龍":4665,"龙":4666,"ꜛ":4667,"ꜜ":4668,"ꜣ":4669,"ꜩ":4670,"ꜫ":4671,"ꜭ":4672,"ꞅ":4673,"ꞎ":4674,"Ʞ":4675,"ꞵ":4676,"ꦂ":4677,"ꦠ":4678,"ꦯ":4679,"ꦲ":4680,"ꦸ":4681,"ꭓ":4682,"가":4683,"간":4684,"강":4685,"개":4686,"거":4687,"건":4688,"경":4689,"계":4690,"고":4691,"공":4692,"관":4693,"광":4694,"구":4695,"국":4696,"권":4697,"귀":4698,"그":4699,"극":4700,"근":4701,"글":4702,"금":4703,"급":4704,"기":4705,"김":4706,"꺼":4707,"껐":4708,"나":4709,"날":4710,"남":4711,"났":4712,"내":4713,"너":4714,"네":4715,"념":4716,"노":4717,"놔":4718,"눈":4719,"늬":4720,"다":4721,"단":4722,"대":4723,"더":4724,"도":4725,"독":4726,"돌":4727,"동":4728,"디":4729,"딱":4730,"라":4731,"람":4732,"래":4733,"런":4734,"렌":4735,"려":4736,"렬":4737,"로":4738,"록":4739,"론":4740,"루":4741,"류":4742,"르":4743,"를":4744,"리":4745,"립":4746,"마":4747,"막":4748,"만":4749,"말":4750,"명":4751,"목":4752,"무":4753,"문":4754,"물":4755,"미":4756,"민":4757,"믿":4758,"바":4759,"박":4760,"방":4761,"백":4762,"뱅":4763,"버":4764,"범":4765,"법":4766,"별":4767,"병":4768,"보":4769,"복":4770,"봐":4771,"부":4772,"불":4773,"붉":4774,"빅":4775,"빙":4776,"빤":4777,"뿐":4778,"사":4779,"산":4780,"살":4781,"삼":4782,"삿":4783,"상":4784,"새":4785,"색":4786,"서":4787,"성":4788,"센":4789,"소":4790,"쇼":4791,"수":4792,"순":4793,"술":4794,"숫":4795,"스":4796,"시":4797,"식":4798,"신":4799,"실":4800,"쌤":4801,"아":4802,"안":4803,"알":4804,"암":4805,"앙":4806,"애":4807,"앤":4808,"야":4809,"양":4810,"어":4811,"에":4812,"엔":4813,"연":4814,"영":4815,"예":4816,"오":4817,"온":4818,"왜":4819,"용":4820,"운":4821,"울":4822,"원":4823,"위":4824,"유":4825,"은":4826,"을":4827,"음":4828,"의":4829,"이":4830,"인":4831,"일":4832,"자":4833,"장":4834,"재":4835,"적":4836,"전":4837,"점":4838,"정":4839,"제":4840,"조":4841,"종":4842,"좋":4843,"주":4844,"줄":4845,"중":4846,"지":4847,"진":4848,"집":4849,"짓":4850,"징":4851,"차":4852,"천":4853,"청":4854,"체":4855,"쳐":4856,"초":4857,"춘":4858,"충":4859,"치":4860,"커":4861,"코":4862,"킨":4863,"타":4864,"태":4865,"터":4866,"퇴":4867,"투":4868,"트":4869,"특":4870,"파":4871,"판":4872,"퍼":4873,"평":4874,"표":4875,"풍":4876,"피":4877,"하":4878,"학":4879,"한":4880,"합":4881,"해":4882,"행":4883,"향":4884,"허":4885,"헬":4886,"호":4887,"혹":4888,"홀":4889,"화":4890,"회":4891,"후":4892,"희":4893,"ﬀ":4894,"ﬁ":4895,"ﬂ":4896,"ﮭ":4897,"ﮮ":4898,"ﷲ":4899,"ﷺ":4900,"️":4901,"︠":4902,"︡":4903,"ﺒ":4904,"ﻉ":4905,"ﻋ":4906,"ﻔ":4907,"ﻴ":4908,"！":4909,"％":4910,"＆":4911,"（":4912,"）":4913,"，":4914,"－":4915,"／":4916,"１":4917,"２":4918,"３":4919,"４":4920,"６":4921,"：":4922,"＜":4923,"＝":4924,"＞":4925,"？":4926,"Ａ":4927,"Ｃ":4928,"Ｄ":4929,"Ｇ":4930,"Ｉ":4931,"Ｊ":4932,"Ｌ":4933,"Ｍ":4934,"Ｐ":4935,"Ｒ":4936,"Ｘ":4937,"［":4938,"］":4939,"｜":4940,"～":4941,"｢":4942,"｣":4943,"･":4944,"ｰ":4945,"￥":4946,"𐀁":4947,"𐀈":4948,"𐀫":4949,"𐎠":4950,"𐎢":4951,"𐎭":4952,"𐎰":4953,"𐎹":4954,"𐎺":4955,"𐎼":4956,"𐏁":4957,"𐭃":4958,"𐭉":4959,"𐭓":4960,"𐭕":4961,"𒀯":4962,"𒀳":4963,"𝕄":4964,"𝕡":4965,"🖕":4966,"##i":4967,"##n":4968,"##d":4969,"##u":4970,"##r":4971,"##b":4972,"##t":4973,"##o":4974,"##h":4975,"##m":4976,"##a":4977,"##s":4978,"##y":4979,"##e":4980,"##g":4981,"##l":4982,"##Z":4983,"##z":4984,"##ü":4985,"##c":4986,"##p":4987,"##v":4988,"##j":4989,"##w":4990,"##f":4991,"##è":4992,"##ú":4993,"##k":4994,"##P":4995,"##V":4996,"##ö":4997,"##し":4998,"##の":4999,"##ゆ":5000,"##め":5001,"##み":5002,"##0":5003,"##4":5004,"##7":5005,"##M":5006,"##8":5007,"##2":5008,"##5":5009,"##1":5010,"##é":5011,"##A":5012,"##F":5013,"##K":5014,"##9":5015,"##ʲ":5016,"##ː":5017,"##E":5018,"##q":5019,"##6":5020,"##T":5021,"##x":5022,"##ス":5023,"##ラ":5024,"##ɪ":5025,"##ô":5026,"##ñ":5027,"##ó":5028,"##ș":5029,"##č":5030,"##L":5031,"##B":5032,"##O":5033,"##ा":5034,"##G":5035,"##N":5036,"##U":5037,"##ă":5038,"##ə":5039,"##C":5040,"##I":5041,"##S":5042,"##ī":5043,"##D":5044,"##á":5045,"##3":5046,"##R":5047,"##β":5048,"##έ":5049,"##ν":5050,"##υ":5051,"##μ":5052,"##ι":5053,"##む":5054,"##ら":5055,"##о":5056,"##с":5057,"##ы":5058,"##θ":5059,"##ᵻ":5060,"##ū":5061,"##ā":5062,"##ś":5063,"##ジ":5064,"##ュ":5065,"##ア":5066,"##ル":5067,"##フ":5068,"##ァ":5069,"##ン":5070,"##ブ":5071,"##ッ":5072,"##ク":5073,"##ä":5074,"##J":5075,"##Q":5076,"##X":5077,"##Y":5078,"##š":5079,"##ė":5080,"##σ":5081,"##τ":5082,"##ὲ":5083,"##к":5084,"##а":5085,"##т":5086,"##е":5087,"##р":5088,"##и":5089,"##н":5090,"##й":5091,"##H":5092,"##ա":5093,"##յ":5094,"##ս":5095,"##տ":5096,"##ն":5097,"##ի":5098,"##ð":5099,"##χ":5100,"##ˈ":5101,"##ɓ":5102,"##ɛ":5103,"##ʃ":5104,"##ʀ":5105,"##í":5106,"##ø":5107,"##ę":5108,"##W":5109,"##ş":5110,"##ō":5111,"##ა":5112,"##მ":5113,"##რ":5114,"##ი":5115,"##イ":5116,"##ー":5117,"##ツ":5118,"##は":5119,"##に":5120,"##な":5121,"##い":5122,"##Ă":5123,"##ビ":5124,"##シ":5125,"##テ":5126,"##ム":5127,"##해":5128,"##ţ":5129,"##û":5130,"##ž":5131,"##ε":5132,"##ρ":5133,"##π":5134,"##α":5135,"##ο":5136,"##λ":5137,"##κ":5138,"##ί":5139,"##η":5140,"##ς":5141,"##ł":5142,"##ゥ":5143,"##ý":5144,"##노":5145,"##ˠ":5146,"##メ":5147,"##ɔ":5148,"##ʔ":5149,"##ŋ":5150,"##ヒ":5151,"##パ":5152,"##レ":5153,"##æ":5154,"##ǔ":5155,"##ć":5156,"##ê":5157,"##リ":5158,"##ボ":5159,"##ʊ":5160,"##ǧ":5161,"##ɒ":5162,"##д":5163,"##ʒ":5164,"##ù":5165,"##እ":5166,"##ስ":5167,"##የ":5168,"##ē":5169,"##ã":5170,"##ゼ":5171,"##ą":5172,"##ώ":5173,"##у":5174,"##ж":5175,"##м":5176,"##я":5177,"##в":5178,"##ч":5179,"##ं":5180,"##द":5181,"##ि":5182,"##र":5183,"##ό":5184,"##δ":5185,"##ل":5186,"##ز":5187,"##و":5188,"##م":5189,"##ي":5190,"##ا":5191,"##ت":5192,"##ǐ":5193,"##å":5194,"##п":5195,"##ṳ":5196,"##ш":5197,"##ћ":5198,"##ṇ":5199,"##ḍ":5200,"##ʏ":5201,"##ɐ":5202,"##ά":5203,"##ń":5204,"##マ":5205,"##ソ":5206,"##グ":5207,"##ド":5208,"##ë":5209,"##ʾ":5210,"##þ":5211,"##ח":5212,"##מ":5213,"##נ":5214,"##י":5215,"##ו":5216,"##ת":5217,"##â":5218,"##ɡ":5219,"##ʌ":5220,"##ֲ":5221,"##ר":5222,"##ָ":5223,"##ד":5224,"##ร":5225,"##ะ":5226,"##ต":5227,"##ู":5228,"##េ":5229,"##ច":5230,"##ព":5231,"##ウ":5232,"##ェ":5233,"##ệ":5234,"##ư":5235,"##ợ":5236,"##ش":5237,"##ق":5238,"##ʂ":5239,"##バ":5240,"##ग":5241,"##ु":5242,"##न":5243,"##ө":5244,"##ß":5245,"##ử":5246,"##à":5247,"##ř":5248,"##ậ":5249,"##ή":5250,"##オ":5251,"##ύ":5252,"##ᾰ":5253,"##ῐ":5254,"##ъ":5255,"##з":5256,"##ပ":5257,"##ြ":5258,"##င":5259,"##ध":5260,"##ɾ":5261,"##ガ":5262,"##ベ":5263,"##チ":5264,"##ャ":5265,"##ザ":5266,"##れ":5267,"##か":5268,"##ま":5269,"##ざ":5270,"##ʁ":5271,"##ト":5272,"##ゃ":5273,"##ん":5274,"##ね":5275,"##る":5276,"##ằ":5277,"##ů":5278,"##ï":5279,"##φ":5280,"##ủ":5281,"##і":5282,"##ї":5283,"##ь":5284,"##ç":5285,"##ı":5286,"##ț":5287,"##ィ":5288,"##ダ":5289,"##ḥ":5290,"##ǫ":5291,"##ṃ":5292,"##て":5293,"##ր":5294,"##ո":5295,"##ւ":5296,"##գ":5297,"##ी":5298,"##च":5299,"##त":5300,"##ɥ":5301,"##ロ":5302,"##プ":5303,"##ख":5304,"##ण":5305,"##ก":5306,"##า":5307,"##พ":5308,"##อ":5309,"##ง":5310,"##ぎ":5311,"##き":5312,"##ბ":5313,"##ე":5314,"##დ":5315,"##უ":5316,"##د":5317,"##ه":5318,"##ر":5319,"##ى":5320,"##ُ":5321,"##ع":5322,"##ء":5323,"##क":5324,"##ğ":5325,"##ʻ":5326,"##ม":5327,"##ナ":5328,"##ゴ":5329,"##ニ":5330,"##จ":5331,"##ź":5332,"##ल":5333,"##े":5334,"##ब":5335,"##ङ":5336,"##њ":5337,"##ื":5338,"##น":5339,"##ك":5340,"##ة":5341,"##ุ":5342,"##ด":5343,"##ญ":5344,"##ส":5345,"##ิ":5346,"##ห":5347,"##ạ":5348,"##ǎ":5349,"##ូ":5350,"##រ":5351,"##ណ":5352,"##ភ":5353,"##ា":5354,"##ទ":5355,"##ឹ":5356,"##ក":5357,"##ដ":5358,"##ី":5359,"##ォ":5360,"##ő":5361,"##አ":5362,"##ሕ":5363,"##ዛ":5364,"##ብ":5365,"##л":5366,"##ּ":5367,"##פ":5368,"##ע":5369,"##ט":5370,"##ש":5371,"##ק":5372,"##х":5373,"##ḻ":5374,"##ò":5375,"##ջ":5376,"##ħ":5377,"##أ":5378,"##ف":5379,"##ω":5380,"##ῖ":5381,"##짓":5382,"##말":5383,"##ʕ":5384,"##ம":5385,"##த":5386,"##ு":5387,"##ť":5388,"##î":5389,"##ż":5390,"##ہ":5391,"##タ":5392,"##ョ":5393,"##ˌ":5394,"##ن":5395,"##ẩ":5396,"##ヤ":5397,"##キ":5398,"##エ":5399,"##ě":5400,"##س":5401,"##ṵ":5402,"##ḭ":5403,"##ズ":5404,"##ล":5405,"##ท":5406,"##ั":5407,"##ย":5408,"##ค":5409,"##ノ":5410,"##घ":5411,"##व":5412,"##ह":5413,"##つ":5414,"##う":5415,"##ろ":5416,"##ồ":5417,"##Č":5418,"##կ":5419,"##ဟ":5420,"##ာ":5421,"##ဝ":5422,"##ိ":5423,"##န":5424,"##ယ":5425,"##က":5426,"##ὐ":5427,"##ペ":5428,"##セ":5429,"##ц":5430,"##ю":5431,"##б":5432,"##ὶ":5433,"##ל":5434,"##ה":5435,"##เ":5436,"##õ":5437,"##ả":5438,"##œ":5439,"##た":5440,"##Ѡ":5441,"##А":5442,"##Н":5443,"##Ъ":5444,"##ᾶ":5445,"##ʋ":5446,"##ɑ":5447,"##ב":5448,"##ִ":5449,"##א":5450,"##ヴ":5451,"##ṁ":5452,"##ų":5453,"##ギ":5454,"##ʰ":5455,"##こ":5456,"##ใ":5457,"##ث":5458,"##ป":5459,"##ņ":5460,"##ռ":5461,"##ք":5462,"##ե":5463,"##լ":5464,"##ց":5465,"##ˤ":5466,"##ΐ":5467,"##É":5468,"##삿":5469,"##줄":5470,"##다":5471,"##리":5472,"##기":5473,"##ɯ":5474,"##ῦ":5475,"##ृ":5476,"##प":5477,"##ξ":5478,"##ṉ":5479,"##ɨ":5480,"##ְ":5481,"##ֵ":5482,"##ช":5483,"##Е":5484,"##Л":5485,"##Р":5486,"##У":5487,"##С":5488,"##Ь":5489,"##γ":5490,"##ì":5491,"##デ":5492,"##ू":5493,"##म":5494,"##づ":5495,"##ে":5496,"##ন":5497,"##ب":5498,"##З":5499,"##Б":5500,"##О":5501,"##Ы":5502,"##Я":5503,"##ⴻ":5504,"##ⵙ":5505,"##ⴼ":5506,"##ⴽ":5507,"##ђ":5508,"##ន":5509,"##ŭ":5510,"##ط":5511,"##ј":5512,"##љ":5513,"##ơ":5514,"##ấ":5515,"##ẹ":5516,"##サ":5517,"##ῆ":5518,"##ѧ":5519,"##ɕ":5520,"##ワ":5521,"##П":5522,"##վ":5523,"##り":5524,"##ひ":5525,"##ṣ":5526,"##Σ":5527,"##ղ":5528,"##փ":5529,"##խ":5530,"##ÿ":5531,"##щ":5532,"##ọ":5533,"##ŵ":5534,"##ň":5535,"##ʿ":5536,"##く":5537,"##ሀ":5538,"##ገ":5539,"##ረ":5540,"##Ψ":5541,"##հ":5542,"##ج":5543,"##غ":5544,"##ཛ":5545,"##ི":5546,"##ན":5547,"##ถ":5548,"##ศ":5549,"##ɣ":5550,"##Ѣ":5551,"##И":5552,"##ṭ":5553,"##내":5554,"##ַ":5555,"##ᛠ":5556,"##っ":5557,"##ो":5558,"##ऽ":5559,"##स":5560,"##া":5561,"##ত":5562,"##ǒ":5563,"##ح":5564,"##ض":5565,"##फ":5566,"##ぶ":5567,"##ƀ":5568,"##ّ":5569,"##ネ":5570,"##ⴰ":5571,"##ⵎ":5572,"##ⵡ":5573,"##ⵉ":5574,"##ⵜ":5575,"##ֹ":5576,"##ן":5577,"##ﬀ":5578,"##ψ":5579,"##ṅ":5580,"##ễ":5581,"##Ε":5582,"##Φ":5583,"##ὣ":5584,"##ಡ":5585,"##만":5586,"##바":5587,"##라":5588,"##봐":5589,"##ὑ":5590,"##カ":5591,"##г":5592,"##แ":5593,"##ี":5594,"##ば":5595,"##け":5596,"##ṛ":5597,"##ֶ":5598,"##ׁ":5599,"##ỗ":5600,"##ɲ":5601,"##ố":5602,"##ḏ":5603,"##ハ":5604,"##ব":5605,"##ল":5606,"##ী":5607,"##গ":5608,"##ʈ":5609,"##đ":5610,"##Ḥ":5611,"##ǽ":5612,"##ũ":5613,"##ো":5614,"##ʷ":5615,"##ಾ":5616,"##ಲ":5617,"##ು":5618,"##ಕ":5619,"##ʼ":5620,"##え":5621,"##ǂ":5622,"##ِ":5623,"##ז":5624,"##ג":5625,"##դ":5626,"##մ":5627,"##ὴ":5628,"##զ":5629,"##ی":5630,"##ɵ":5631,"##ɬ":5632,"##さ":5633,"##ɖ":5634,"##コ":5635,"##ذ":5636,"##צ":5637,"##Ö":5638,"##պ":5639,"##ミ":5640,"##ẖ":5641,"##კ":5642,"##ო":5643,"##ნ":5644,"##ὔ":5645,"##Ν":5646,"##ி":5647,"##வ":5648,"##ன":5649,"##と":5650,"##ケ":5651,"##モ":5652,"##ゲ":5653,"##כ":5654,"##ლ":5655,"##ძ":5656,"##ֳ":5657,"##হ":5658,"##য":5659,"##ф":5660,"##ង":5661,"##ユ":5662,"##ص":5663,"##ɜ":5664,"##և":5665,"##გ":5666,"##ष":5667,"##삼":5668,"##성":5669,"##자":5670,"##동":5671,"##차":5672,"##ظ":5673,"##Ü":5674,"##ʐ":5675,"##չ":5676,"##ը":5677,"##ĕ":5678,"##ไ":5679,"##ษ":5680,"##ณ":5681,"##ک":5682,"##ḫ":5683,"##Υ":5684,"##Τ":5685,"##Η":5686,"##Κ":5687,"##থ":5688,"##گ":5689,"##Ꮝ":5690,"##Ꭶ":5691,"##Ꮿ":5692,"##ĩ":5693,"##ტ":5694,"##შ":5695,"##ვ":5696,"##ʉ":5697,"##ё":5698,"##Ω":5699,"##َ":5700,"##ْ":5701,"##ḷ":5702,"##ế":5703,"##ピ":5704,"##す":5705,"##ϊ":5706,"##ئ":5707,"##ộ":5708,"##Ι":5709,"##Λ":5710,"##Α":5711,"##Ο":5712,"##론":5713,"##ం":5714,"##డ":5715,"##ో":5716,"##బ":5717,"##ా":5718,"##ご":5719,"##Μ":5720,"##ங":5721,"##ʎ":5722,"##ำ":5723,"##շ":5724,"##թ":5725,"##나":5726,"##타":5727,"##ֿ":5728,"##ם":5729,"##ζ":5730,"##ῶ":5731,"##ዕ":5732,"##ቆ":5733,"##ὰ":5734,"##բ":5735,"##が":5736,"##К":5737,"##ŏ":5738,"##ụ":5739,"##한":5740,"##민":5741,"##국":5742,"##ხ":5743,"##ს":5744,"##ˀ":5745,"##ĭ":5746,"##네":5747,"##ැ":5748,"##න":5749,"##భ":5750,"##గ":5751,"##మ":5752,"##ు":5753,"##ŗ":5754,"##じ":5755,"##ⵇ":5756,"##ⵓ":5757,"##ⵍ":5758,"##も":5759,"##ち":5760,"##М":5761,"##Ó":5762,"##ծ":5763,"##Ꮃ":5764,"##Ꮀ":5765,"##Ꮉ":5766,"##ʝ":5767,"##ˁ":5768,"##य":5769,"##ķ":5770,"##ょ":5771,"##ぬ":5772,"##ɳ":5773,"##ʳ":5774,"##ှ":5775,"##ি":5776,"##প":5777,"##ু":5778,"##র":5779,"##ୁ":5780,"##ର":5781,"##ୀ":5782,"##ម":5783,"##ស":5784,"##학":5785,"##ど":5786,"##Ā":5787,"##ಂ":5788,"##ರ":5789,"##ಗ":5790,"##ข":5791,"##ฑ":5792,"##Œ":5793,"##ા":5794,"##ર":5795,"##ો":5796,"##ખ":5797,"##ﮭ":5798,"##ﻔ":5799,"##ẓ":5800,"##க":5801,"##ள":5802,"##Á":5803,"##Δ":5804,"##ὸ":5805,"##수":5806,"##ാ":5807,"##ഹ":5808,"##є":5809,"##색":5810,"##시":5811,"##ờ":5812,"##थ":5813,"##श":5814,"##용":5815,"##ौ":5816,"##ँ":5817,"##ज":5818,"##ɫ":5819,"##ธ":5820,"##โ":5821,"##ฆ":5822,"##ภ":5823,"##ɴ":5824,"##ֻ":5825,"##ុ":5826,"##º":5827,"##ポ":5828,"##ھ":5829,"##ῷ":5830,"##ɻ":5831,"##چ":5832,"##ڠ":5833,"##ល":5834,"##ួ":5835,"##음":5836,"##날":5837,"##Ц":5838,"##Ј":5839,"##ׂ":5840,"##ị":5841,"##Ρ":5842,"##خ":5843,"##ᵝ":5844,"##ិ":5845,"##ឯ":5846,"##ជ":5847,"##ត":5848,"##ខ":5849,"##Β":5850,"##ञ":5851,"##ἴ":5852,"##ắ":5853,"##Χ":5854,"##Γ":5855,"##사":5856,"##ྣ":5857,"##ல":5858,"##ṝ":5859,"##ว":5860,"##ὼ":5861,"##양":5862,"##ホ":5863,"##ᠣ":5864,"##ᡴ":5865,"##ᡨ":5866,"##ᠪ":5867,"##ᡠ":5868,"##ᡥ":5869,"##ᠠ":5870,"##ǝ":5871,"##థ":5872,"##İ":5873,"##ੁ":5874,"##ਸ":5875,"##ਾ":5876,"##ਂ":5877,"##ਝ":5878,"##ฤ":5879,"##ᵊ":5880,"##ű":5881,"##ሐ":5882,"##ዘ":5883,"##በ":5884,"##ܒ":5885,"##ܐ":5886,"##ە":5887,"##ट":5888,"##ɭ":5889,"##է":5890,"##ǚ":5891,"##へ":5892,"##ঙ":5893,"##ৰ":5894,"##ў":5895,"##そ":5896,"##ா":5897,"##を":5898,"##സ":5899,"##Ά":5900,"##ļ":5901,"##ர":5902,"##ை":5903,"##ؤ":5904,"##វ":5905,"##늬":5906,"##오":5907,"##징":5908,"##어":5909,"##ữ":5910,"##บ":5911,"##ˑ":5912,"##ै":5913,"##화":5914,"##를":5915,"##ः":5916,"##ᡝ":5917,"##ᠴ":5918,"##ᡵ":5919,"##ड":5920,"##ṯ":5921,"##ṟ":5922,"##お":5923,"##ふ":5924,"##ੱ":5925,"##ਜ":5926,"##ਲ":5927,"##ס":5928,"##ⁿ":5929,"##ூ":5930,"##भ":5931,"##ⵃ":5932,"##ⵕ":5933,"##ܔ":5934,"##퍼":5935,"##런":5936,"##스":5937,"##ɰ":5938,"##で":5939,"##ゅ":5940,"##소":5941,"##행":5942,"##ˢ":5943,"##ಭ":5944,"##ང":5945,"##ᚢ":5946,"##ᛏ":5947,"##ᚨ":5948,"##ᚾ":5949,"##ᛁ":5950,"##ᛟ":5951,"##ᚹ":5952,"##ɤ":5953,"##ổ":5954,"##あ":5955,"##ġ":5956,"##ᠨ":5957,"##ᠵ":5958,"##ᠰ":5959,"##ᡳ":5960,"##ǭ":5961,"##Š":5962,"##𐎠":5963,"##𐎼":5964,"##𐎹":5965,"##𐎢":5966,"##𐏁":5967,"##ǵ":5968,"##ѡ":5969,"##ฎ":5970,"##よ":5971,"##Ａ":5972,"##Ｐ":5973,"##ĵ":5974,"##ľ":5975,"##ゾ":5976,"##ɦ":5977,"##ⵔ":5978,"##わ":5979,"##せ":5980,"##ɟ":5981,"##Ζ":5982,"##ȳ":5983,"##თ":5984,"##𒀳":5985,"##Д":5986,"##І":5987,"##남":5988,"##일":5989,"##ἰ":5990,"##ʑ":5991,"##ĺ":5992,"##극":5993,"##장":5994,"##ከ":5995,"##ነ":5996,"##इ":5997,"##ể":5998,"##ర":5999,"##پ":6000,"##ಸ":6001,"##ማ":6002,"##ር":6003,"##ॉ":6004,"##ḹ":6005,"##ˣ":6006,"##투":6007,"##ừ":6008,"##ɹ":6009,"##렌":6010,"##إ":6011,"##ผ":6012,"##ฟ":6013,"##ヂ":6014,"##ぽ":6015,"##ɮ":6016,"##ষ":6017,"##ぼ":6018,"##だ":6019,"##ฝ":6020,"##ះ":6021,"##ប":6022,"##ⲩ":6023,"##ⲥ":6024,"##ⲧ":6025,"##ⲁ":6026,"##ⲱ":6027,"##ⲛ":6028,"##ɽ":6029,"##ழ":6030,"##ﬂ":6031,"##Ø":6032,"##ứ":6033,"##Ī":6034,"##យ":6035,"##э":6036,"##Θ":6037,"##ۍ":6038,"##គ":6039,"##ኢ":6040,"##ሰ":6041,"##ና":6042,"##ይ":6043,"##ⵏ":6044,"##ហ":6045,"##유":6046,"##ぺ":6047,"##ῑ":6048,"##Ë":6049,"##ჱ":6050,"##립":6051,"##보":6052,"##병":6053,"##연":6054,"##대":6055,"##ई":6056,"##ぐ":6057,"##ぅ":6058,"##아":6059,"##ự":6060,"##Ս":6061,"##Հ":6062,"##ោ":6063,"##ធ":6064,"##ៈ":6065,"##ﬁ":6066,"##ὗ":6067,"##Æ":6068,"##ץ":6069,"##ầ":6070,"##Г":6071,"##경":6072,"##려":6073,"##관":6074,"##간":6075,"##문":6076,"##재":6077,"##ὺ":6078,"##ʱ":6079,"##È":6080,"##ـ":6081,"##ཙ":6082,"##ུ":6083,"##ག":6084,"##ซ":6085,"##ᾷ":6086,"##ῳ":6087,"##ぃ":6088,"##٧":6089,"##ἳ":6090,"##げ":6091,"##ȟ":6092,"##や":6093,"##식":6094,"##회":6095,"##ܲ":6096,"##ܠ":6097,"##ܵ":6098,"##ܗ":6099,"##ڬ":6100,"##ϕ":6101,"##ᶴ":6102,"##آ":6103,"##ず":6104,"##명":6105,"##Ě":6106,"##қ":6107,"##ῇ":6108,"##청":6109,"##ⵛ":6110,"##ែ":6111,"##ỏ":6112,"##Ô":6113,"##Т":6114,"##ձ":6115,"##계":6116,"##ំ":6117,"##고":6118,"##ฮ":6119,"##ᛇ":6120,"##ᛋ":6121,"##ᛚ":6122,"##ᚻ":6123,"##ᚱ":6124,"##ᛞ":6125,"##ფ":6126,"##Ĕ":6127,"##인":6128,"##상":6129,"##ぱ":6130,"##ỵ":6131,"##ģ":6132,"##ய":6133,"##ண":6134,"##ヘ":6135,"##ǹ":6136,"##ף":6137,"##ỹ":6138,"##ಿ":6139,"##ಮ":6140,"##ং":6141,"##দ":6142,"##শ":6143,"##ớ":6144,"##ḱ":6145,"##ך":6146,"##ট":6147,"##བ":6148,"##ྲ":6149,"##ぞ":6150,"##ֱ":6151,"##ḗ":6152,"##ɢ":6153,"##Ž":6154,"##ѝ":6155,"##Í":6156,"##커":6157,"##버":6158,"##ც":6159,"##স":6160,"##ச":6161,"##Ｒ":6162,"##Ｇ":6163,"##Ħ":6164,"##ৈ":6165,"##খ":6166,"##Є":6167,"##Ѯ":6168,"##ḳ":6169,"##ి":6170,"##ఠ":6171,"##ম":6172,"##Յ":6173,"##Դ":6174,"##ỳ":6175,"##В":6176,"##წ":6177,"##ོ":6178,"##ெ":6179,"##ட":6180,"##ལ":6181,"##ྤ":6182,"##𐎰":6183,"##ས":6184,"##엔":6185,"##념":6186,"##공":6187,"##원":6188,"##근":6189,"##ĉ":6190,"##ƿ":6191,"##ῠ":6192,"##ẵ":6193,"##ほ":6194,"##ヅ":6195,"##ẽ":6196,"##ক":6197,"##ἱ":6198,"##Ċ":6199,"##ḩ":6200,"##හ":6201,"##ʙ":6202,"##ŷ":6203,"##Π":6204,"##ở":6205,"##ታ":6206,"##ን":6207,"##ቲ":6208,"##ኖ":6209,"##글":6210,"##빙":6211,"##ோ":6212,"##ǣ":6213,"##ṓ":6214,"##ἵ":6215,"##မ":6216,"##ု":6217,"##ဘ":6218,"##ရ":6219,"##း":6220,"##ီ":6221,"##ු":6222,"##ٌ":6223,"##ẻ":6224,"##ฐ":6225,"##օ":6226,"##ீ":6227,"##에":6228,"##개":6229,"##의":6230,"##ܚ":6231,"##ܘ":6232,"##ᚷ":6233,"##ᚩ":6234,"##ᚦ":6235,"##ཡ":6236,"##ਹ":6237,"##이":6238,"##ἶ":6239,"##백":6240,"##ỉ":6241,"##ḑ":6242,"##び":6243,"##ἥ":6244,"##퇴":6245,"##ċ":6246,"##ⴳ":6247,"##స":6248,"##త":6249,"##ల":6250,"##루":6251,"##하":6252,"##ူ":6253,"##စ":6254,"##လ":6255,"##ා":6256,"##ජ":6257,"##ධ":6258,"##ි":6259,"##ය":6260,"##લ":6261,"##સ":6262,"##지":6263,"##Ú":6264,"##ヨ":6265,"##종":6266,"##합":6267,"##운":6268,"##į":6269,"##ེ":6270,"##ſ":6271,"##ὖ":6272,"##뱅":6273,"##𐎺":6274,"##ḕ":6275,"##순":6276,"##ճ":6277,"##ժ":6278,"##ฉ":6279,"##ಟ":6280,"##놔":6281,"##로":6282,"##파":6283,"##Ḣ":6284,"##ɘ":6285,"##პ":6286,"##ʹ":6287,"##ደ":6288,"##µ":6289,"##천":6290,"##ჳ":6291,"##ೇ":6292,"##ಶ":6293,"##ѣ":6294,"##위":6295,"##단":6296,"##ꜜ":6297,"##Î":6298,"##ನ":6299,"##ܼ":6300,"##ܪ":6301,"##희":6302,"##ར":6303,"##복":6304,"##산":6305,"##ᾳ":6306,"##ድ":6307,"##ǜ":6308,"##ḵ":6309,"##ქ":6310,"##쇼":6311,"##𐀁":6312,"##𐀫":6313,"##ぉ":6314,"##ೋ":6315,"##ಬ":6316,"##ɞ":6317,"##전":6318,"##വ":6319,"##ി":6320,"##ശ":6321,"##Đ":6322,"##ለ":6323,"##ದ":6324,"##체":6325,"##불":6326,"##ặ":6327,"##ྡ":6328,"##མ":6329,"##𐭉":6330,"##𐭓":6331,"##𐭃":6332,"##𐭕":6333,"##ً":6334,"##향":6335,"##무":6336,"##트":6337,"##홀":6338,"##ƒ":6339,"##람":6340,"##났":6341,"##ྥ":6342,"##센":6343,"##터":6344,"##Ş":6345,"##ර":6346,"##ზ":6347,"##미":6348,"##ష":6349,"##ề":6350,"##ҷ":6351,"##ӣ":6352,"##ṽ":6353,"##ণ":6354,"##ឪ":6355,"##ʽ":6356,"##ჯ":6357,"##ദ":6358,"##ď":6359,"##ึ":6360,"##ȷ":6361,"##ៅ":6362,"##ॊ":6363,"##ɸ":6364,"##ⵢ":6365,"##ཁ":6366,"##འ":6367,"##ஸ":6368,"##ⴷ":6369,"##ဲ":6370,"##ര":6371,"##ങ":6372,"##ฬ":6373,"##Ǝ":6374,"##호":6375,"##법":6376,"##ᵿ":6377,"##ਿ":6378,"##ੰ":6379,"##ਘ":6380,"##ẫ":6381,"##Â":6382,"##ျ":6383,"##ヌ":6384,"##ප":6385,"##ⵣ":6386,"##평":6387,"##ѹ":6388,"##ں":6389,"##Й":6390,"##ⵖ":6391,"##ぷ":6392,"##ভ":6393,"##ূ":6394,"##ぇ":6395,"##ɺ":6396,"##앙":6397,"##구":6398,"##표":6399,"##록":6400,"##태":6401,"##권":6402,"##도":6403,"##ٰ":6404,"##진":6405,"##ぜ":6406,"##ყ":6407,"##ꦸ":6408,"##ꦲ":6409,"##ꦂ":6410,"##ꦠ":6411,"##ᒡ":6412,"##ᓘ":6413,"##ᑲ":6414,"##ᶦ":6415,"##ት":6416,"##ዮ":6417,"##ጵ":6418,"##ያ":6419,"##छ":6420,"##래":6421,"##ἷ":6422,"##Ś":6423,"##ֽ":6424,"##ᵀ":6425,"##ے":6426,"##వ":6427,"##ܣ":6428,"##ฏ":6429,"##ٍ":6430,"##은":6431,"##을":6432,"##ɚ":6433,"##ම":6434,"##ｰ":6435,"##ჲ":6436,"##ே":6437,"##Ф":6438,"##ឫ":6439,"##ܝ":6440,"##ܢ":6441,"##ṙ":6442,"##ሥ":6443,"##ሓ":6444,"##방":6445,"##울":6446,"##ಠ":6447,"##Ä":6448,"##너":6449,"##피":6450,"##Ē":6451,"##ܡ":6452,"##ܬ":6453,"##집":6454,"##ෝ":6455,"##ව":6456,"##ල":6457,"##살":6458,"##ៀ":6459,"##Х":6460,"##막":6461,"##Ш":6462,"##ኲ":6463,"##앤":6464,"##ៃ":6465,"##허":6466,"##그":6467,"##ܕ":6468,"##Ξ":6469,"##ᠯ":6470,"##ȯ":6471,"##ὡ":6472,"##ठ":6473,"##१":6474,"##ぴ":6475,"##ీ":6476,"##న":6477,"##ȝ":6478,"##ॆ":6479,"##ේ":6480,"##ශ":6481,"##ѥ":6482,"##ὕ":6483,"##실":6484,"##야":6485,"##ἲ":6486,"##ྟ":6487,"##ള":6488,"##ᶷ":6489,"##정":6490,"##Ō":6491,"##ϑ":6492,"##주":6493,"##빤":6494,"##ྱ":6495,"##목":6496,"##적":6497,"##돌":6498,"##ੇ":6499,"##ਵ":6500,"##ந":6501,"##ై":6502,"##ϟ":6503,"##ತ":6504,"##범":6505,"##Ꭸ":6506,"##Ᏹ":6507,"##Ｉ":6508,"##Ｃ":6509,"##Ｄ":6510,"##ᛗ":6511,"##판":6512,"##ǰ":6513,"##ٔ":6514,"##Ｘ":6515,"##Ї":6516,"##신":6517,"##광":6518,"##혹":6519,"##२":6520,"##물":6521,"##뿐":6522,"##ই":6523,"##건":6524,"##쳐":6525,"##서":6526,"##렬":6527,"##점":6528,"##풍":6529,"##జ":6530,"##킨":6531,"##코":6532,"##ළ":6533,"##ү":6534,"##ថ":6535,"##예":6536,"##술":6537,"##ப":6538,"##ﮮ":6539,"##Э":6540,"##Ｌ":6541,"##ద":6542,"##he":6543,"the":6544,"##er":6545,"##in":6546,"##on":6547,"##ed":6548,"##nd":6549,"##or":6550,"##at":6551,"##es":6552,"##ar":6553,"##en":6554,"of":6555,"##an":6556,"##al":6557,"in":6558,"##ing":6559,"##it":6560,"##as":6561,"##is":6562,"and":6563,"to":6564,"##ic":6565,"##ou":6566,"##ion":6567,"##re":6568,"##om":6569,"##il":6570,"##el":6571,"th":6572,"##ec":6573,"##ent":6574,"##st":6575,"##am":6576,"##et":6577,"##ro":6578,"##ad":6579,"##ac":6580,"was":6581,"##ur":6582,"##ol":6583,"on":6584,"The":6585,"##le":6586,"##ly":6587,"##ir":6588,"for":6589,"##id":6590,"##ter":6591,"##iv":6592,"##ig":6593,"##ot":6594,"as":6595,"##ut":6596,"##ow":6597,"##im":6598,"##ith":6599,"##ay":6600,"st":6601,"##em":6602,"##ation":6603,"with":6604,"be":6605,"that":6606,"##ers":6607,"wh":6608,"re":6609,"##ts":6610,"##us":6611,"by":6612,"##ch":6613,"##ce":6614,"al":6615,"##ver":6616,"is":6617,"con":6618,"at":6619,"##ul":6620,"##os":6621,"##and":6622,"##ain":6623,"19":6624,"an":6625,"##her":6626,"fr":6627,"##ag":6628,"##av":6629,"##um":6630,"##est":6631,"##th":6632,"his":6633,"##od":6634,"##ess":6635,"##ct":6636,"he":6637,"from":6638,"##ri":6639,"com":6640,"##un":6641,"20":6642,"##ap":6643,"pro":6644,"##op":6645,"##ere":6646,"##ill":6647,"##ew":6648,"##ist":6649,"su":6650,"##igh":6651,"In":6652,"##ear":6653,"##ies":6654,"##ect":6655,"##ber":6656,"##ld":6657,"##ard":6658,"de":6659,"##if":6660,"##all":6661,"##ak":6662,"##ich":6663,"were":6664,"##oc":6665,"##ate":6666,"##ab":6667,"##pp":6668,"it":6669,"se":6670,"ex":6671,"##ong":6672,"##art":6673,"##ud":6674,"##ort":6675,"ch":6676,"or":6677,"##gh":6678,"##ated":6679,"pl":6680,"sh":6681,"##ity":6682,"##se":6683,"##ive":6684,"##ame":6685,"##ore":6686,"##ant":6687,"had":6688,"##our":6689,"##ack":6690,"St":6691,"##rou":6692,"##ip":6693,"which":6694,"##ast":6695,"##ge":6696,"##ov":6697,"##ian":6698,"pr":6699,"are":6700,"##ment":6701,"##ell":6702,"##ial":6703,"not":6704,"##ost":6705,"sp":6706,"##nt":6707,"tr":6708,"##qu":6709,"##ia":6710,"##ord":6711,"##ust":6712,"##ary":6713,"##pt":6714,"##ther":6715,"##ine":6716,"##rit":6717,"le":6718,"##ical":6719,"##ave":6720,"rec":6721,"Ch":6722,"##ight":6723,"##pl":6724,"##ie":6725,"200":6726,"##out":6727,"##cc":6728,"inc":6729,"##fter":6730,"##ould":6731,"but":6732,"fir":6733,"##ish":6734,"##ous":6735,"##ions":6736,"##ff":6737,"int":6738,"cont":6739,"ar":6740,"whe":6741,"##so":6742,"##ure":6743,"her":6744,"##og":6745,"##ue":6746,"first":6747,"##ub":6748,"cl":6749,"##wo":6750,"##per":6751,"its":6752,"##ass":6753,"their":6754,"##ign":6755,"##ok":6756,"##ork":6757,"##orm":6758,"res":6759,"##ru":6760,"##ra":6761,"##oll":6762,"##ome":6763,"##ater":6764,"en":6765,"also":6766,"ab":6767,"##00":6768,"##ond":6769,"ad":6770,"##age":6771,"##ide":6772,"##ry":6773,"He":6774,"##mer":6775,"##hed":6776,"##ire":6777,"rel":6778,"##ans":6779,"##ime":6780,"per":6781,"un":6782,"Th":6783,"one":6784,"have":6785,"sc":6786,"##du":6787,"##end":6788,"##ally":6789,"##ence":6790,"##own":6791,"##ound":6792,"18":6793,"##ile":6794,"##ance":6795,"two":6796,"##ition":6797,"##ough":6798,"who":6799,"##iz":6800,"##ree":6801,"##uring":6802,"Al":6803,"been":6804,"bec":6805,"has":6806,"ag":6807,"##ely":6808,"app":6809,"##pr":6810,"201":6811,"all":6812,"dis":6813,"##act":6814,"ser":6815,"this":6816,"##lud":6817,"##ory":6818,"##ey":6819,"##ice":6820,"year":6821,"##ations":6822,"##ember":6823,"##ach":6824,"off":6825,"##ark":6826,"after":6827,"part":6828,"comp":6829,"It":6830,"play":6831,"des":6832,"over":6833,"##ace":6834,"##land":6835,"out":6836,"they":6837,"att":6838,"##ade":6839,"##ik":6840,"##eas":6841,"##ric":6842,"other":6843,"##ib":6844,"man":6845,"##ult":6846,"##ens":6847,"im":6848,"includ":6849,"##over":6850,"##ail":6851,"##ced":6852,"##ee":6853,"##urn":6854,"##wn":6855,"would":6856,"us":6857,"up":6858,"##ind":6859,"##ang":6860,"time":6861,"##man":6862,"into":6863,"pre":6864,"##ount":6865,"##oin":6866,"##ward":6867,"him":6868,"##ite":6869,"##oy":6870,"On":6871,"Un":6872,"##ates":6873,"she":6874,"##een":6875,"ev":6876,"##ng":6877,"##ilm":6878,"##able":6879,"##ited":6880,"##nder":6881,"##amp":6882,"##ever":6883,"##ied":6884,"##ction":6885,"comm":6886,"##ors":6887,"inter":6888,"##ose":6889,"##ents":6890,"##ons":6891,"##rough":6892,"##les":6893,"##ood":6894,"##aw":6895,"##ces":6896,"more":6897,"work":6898,"Ar":6899,"##old":6900,"##ock":6901,"Fr":6902,"##form":6903,"##ings":6904,"##one":6905,"##vel":6906,"##ick":6907,"##etw":6908,"##ild":6909,"new":6910,"##eat":6911,"sec":6912,"##ft":6913,"when":6914,"##inal":6915,"film":6916,"cons":6917,"##fer":6918,"##ious":6919,"##way":6920,"##ake":6921,"Mar":6922,"##iss":6923,"##aus":6924,"##att":6925,"##reat":6926,"##round":6927,"##eg":6928,"##rop":6929,"rem":6930,"##ict":6931,"##rib":6932,"##ved":6933,"##ob":6934,"##ss":6935,"dec":6936,"car":6937,"##gan":6938,"te":6939,"##ual":6940,"during":6941,"##orth":6942,"again":6943,"##port":6944,"##ubl":6945,"most":6946,"game":6947,"fl":6948,"char":6949,"##eld":6950,"##oth":6951,"them":6952,"199":6953,"##hip":6954,"only":6955,"##ason":6956,"##ix":6957,"ear":6958,"##etween":6959,"##ollow":6960,"than":6961,"##ered":6962,"##ep":6963,"##ational":6964,"##ev":6965,"New":6966,"about":6967,"produ":6968,"cent":6969,"##tern":6970,"ret":6971,"kn":6972,"##ug":6973,"song":6974,"can":6975,"##fore":6976,"##outh":6977,"between":6978,"later":6979,"##ted":6980,"under":6981,"##orn":6982,"##ters":6983,"##eb":6984,"three":6985,"##hn":6986,"##ank":6987,"##ook":6988,"##iew":6989,"##aid":6990,"##ath":6991,"through":6992,"##orld":6993,"releas":6994,"num":6995,"acc":6996,"while":6997,"end":6998,"##meric":6999,"Americ":7000,"act":7001,"##ral":7002,"pos":7003,"##ex":7004,"sub":7005,"##ph":7006,"so":7007,"##ular":7008,"ass":7009,"where":7010,"bu":7011,"day":7012,"reg":7013,"form":7014,"second":7015,"##ener":7016,"Com":7017,"##oun":7018,"made":7019,"##ames":7020,"##ision":7021,"##ived":7022,"##te":7023,"##ve":7024,"record":7025,"def":7026,"ac":7027,"000":7028,"##red":7029,"##bum":7030,"four":7031,"##als":7032,"follow":7033,"##ton":7034,"##ating":7035,"season":7036,"##ool":7037,"am":7038,"bas":7039,"ep":7040,"##son":7041,"some":7042,"such":7043,"ind":7044,"pe":7045,"##ished":7046,"mov":7047,"##ept":7048,"before":7049,"##ained":7050,"##hes":7051,"mus":7052,"As":7053,"there":7054,"writ":7055,"mon":7056,"10":7057,"##ics":7058,"Jo":7059,"spec":7060,"##io":7061,"sy":7062,"years":7063,"team":7064,"##ode":7065,"##ike":7066,"At":7067,"##ont":7068,"This":7069,"Sh":7070,"lar":7071,"##ning":7072,"gr":7073,"album":7074,"Sp":7075,"##ected":7076,"Pr":7077,"##ily":7078,"##owever":7079,"bl":7080,"el":7081,"used":7082,"call":7083,"supp":7084,"sur":7085,"##ific":7086,"##ery":7087,"##hen":7088,"high":7089,"##ury":7090,"publ":7091,"##ection":7092,"being":7093,"epis":7094,"##anc":7095,"##ll":7096,"then":7097,"##aj":7098,"##air":7099,"An":7100,"##velop":7101,"inv":7102,"do":7103,"me":7104,"loc":7105,"br":7106,"17":7107,"against":7108,"##other":7109,"##ement":7110,"qu":7111,"##au":7112,"##ten":7113,"##ife":7114,"pres":7115,"##ower":7116,"number":7117,"After":7118,"charac":7119,"sever":7120,"show":7121,"co":7122,"add":7123,"set":7124,"##ane":7125,"##ince":7126,"became":7127,"we":7128,"air":7129,"Brit":7130,"##ause":7131,"lead":7132,"perform":7133,"no":7134,"including":7135,"sing":7136,"##ron":7137,"##ines":7138,"found":7139,"United":7140,"##erm":7141,"well":7142,"Sc":7143,"12":7144,"back":7145,"##gr":7146,"15":7147,"##ale":7148,"##ised":7149,"both":7150,"pol":7151,"cap":7152,"198":7153,"series":7154,"##ier":7155,"str":7156,"rev":7157,"##ise":7158,"##ober":7159,"war":7160,"##uc":7161,"Br":7162,"##its":7163,"Wh":7164,"##pen":7165,"##ures":7166,"##itt":7167,"She":7168,"appear":7169,"##fl":7170,"##ivers":7171,"main":7172,"##are":7173,"194":7174,"min":7175,"##iet":7176,"dr":7177,"##overn":7178,"did":7179,"##oad":7180,"##ann":7181,"##ole":7182,"##az":7183,"##led":7184,"go":7185,"##olog":7186,"War":7187,"develop":7188,"Le":7189,"##roup":7190,"met":7191,"##elf":7192,"##ities":7193,"Eng":7194,"long":7195,"##ert":7196,"##any":7197,"##ross":7198,"em":7199,"##ird":7200,"mill":7201,"John":7202,"##ful":7203,"ship":7204,"episode":7205,"##ley":7206,"mat":7207,"##ield":7208,"dire":7209,"ext":7210,"said":7211,"stud":7212,"cre":7213,"Cl":7214,"##uch":7215,"many":7216,"16":7217,"bro":7218,"##ative":7219,"rece":7220,"could":7221,"##ash":7222,"orig":7223,"contin":7224,"several":7225,"American":7226,"##iver":7227,"##though":7228,"Ind":7229,"dif":7230,"##ase":7231,"##eng":7232,"##ah":7233,"##ather":7234,"inst":7235,"##ouse":7236,"pop":7237,"##emb":7238,"11":7239,"##sp":7240,"##oot":7241,"known":7242,"197":7243,"##der":7244,"##ins":7245,"196":7246,"##ually":7247,"Aust":7248,"conc":7249,"par":7250,"##eed":7251,"##up":7252,"feat":7253,"##iam":7254,"##ident":7255,"##erson":7256,"##ks":7257,"ob":7258,"##ued":7259,"sm":7260,"return":7261,"any":7262,"began":7263,"##hy":7264,"##row":7265,"prov":7266,"design":7267,"unt":7268,"near":7269,"compl":7270,"desc":7271,"sign":7272,"Bl":7273,"##chool":7274,"##ism":7275,"##ople":7276,"est":7277,"##ange":7278,"##aking":7279,"exp":7280,"trans":7281,"##ccess":7282,"##my":7283,"##ty":7284,"##ern":7285,"run":7286,"early":7287,"##ets":7288,"art":7289,"##enn":7290,"##ized":7291,"dist":7292,"music":7293,"own":7294,"you":7295,"released":7296,"##ided":7297,"until":7298,"called":7299,"eff":7300,"##imes":7301,"##rap":7302,"US":7303,"##ull":7304,"Con":7305,"bel":7306,"##els":7307,"##ists":7308,"resp":7309,"pass":7310,"##stem":7311,"##ured":7312,"For":7313,"##ars":7314,"fin":7315,"##une":7316,"##ially":7317,"May":7318,"##ution":7319,"prev":7320,"disc":7321,"crit":7322,"col":7323,"##osed":7324,"gener":7325,"##ium":7326,"direct":7327,"sl":7328,"along":7329,"Car":7330,"million":7331,"13":7332,"Ger":7333,"##ax":7334,"British":7335,"Tr":7336,"offic":7337,"group":7338,"fam":7339,"##ession":7340,"##ajor":7341,"these":7342,"mod":7343,"imp":7344,"may":7345,"##und":7346,"Ad":7347,"open":7348,"mil":7349,"poin":7350,"##ains":7351,"land":7352,"count":7353,"sim":7354,"hist":7355,"##ments":7356,"##ently":7357,"Aug":7358,"govern":7359,"Sept":7360,"success":7361,"September":7362,"August":7363,"##amed":7364,"World":7365,"States":7366,"##ues":7367,"##ible":7368,"oper":7369,"down":7370,"attack":7371,"use":7372,"same":7373,"##wards":7374,"describ":7375,"All":7376,"people":7377,"batt":7378,"##aced":7379,"character":7380,"because":7381,"14":7382,"##yp":7383,"serv":7384,"##aining":7385,"##cept":7386,"like":7387,"##ired":7388,"arr":7389,"Ju":7390,"Is":7391,"##ven":7392,"##ended":7393,"Col":7394,"Pl":7395,"##ner":7396,"around":7397,"dep":7398,"though":7399,"195":7400,"##aving":7401,"win":7402,"gu":7403,"km":7404,"const":7405,"took":7406,"occ":7407,"##erv":7408,"##ting":7409,"Austral":7410,"Oct":7411,"##por":7412,"German":7413,"ann":7414,"Gr":7415,"##ruct":7416,"id":7417,"Nov":7418,"wee":7419,"##ove":7420,"following":7421,"six":7422,"north":7423,"193":7424,"However":7425,"system":7426,"Pro":7427,"##uss":7428,"##gg":7429,"adv":7430,"final":7431,"class":7432,"received":7433,"October":7434,"##ects":7435,"head":7436,"##ives":7437,"prom":7438,"consid":7439,"##ility":7440,"complet":7441,"##ically":7442,"support":7443,"Dec":7444,"191":7445,"ever":7446,"state":7447,"##ink":7448,"each":7449,"##ison":7450,"##ret":7451,"##res":7452,"##raft":7453,"five":7454,"aut":7455,"build":7456,"York":7457,"century":7458,"var":7459,"will":7460,"area":7461,"They":7462,"##ina":7463,"##ately":7464,"##ox":7465,"small":7466,"##oss":7467,"partic":7468,"North":7469,"##iving":7470,"##ored":7471,"start":7472,"By":7473,"##ject":7474,"June":7475,"##ians":7476,"##ording":7477,"Chr":7478,"life":7479,"mar":7480,"Har":7481,"Jan":7482,"##inc":7483,"city":7484,"##sc":7485,"##ene":7486,"contro":7487,"major":7488,"King":7489,"public":7490,"July":7491,"##ission":7492,"band":7493,"vers":7494,"November":7495,"coll":7496,"##med":7497,"##omet":7498,"Can":7499,"##urch":7500,"Comm":7501,"##ble":7502,"Will":7503,"##cl":7504,"##ute":7505,"ent":7506,"world":7507,"med":7508,"since":7509,"##ean":7510,"single":7511,"Apr":7512,"rest":7513,"##oard":7514,"April":7515,"Mc":7516,"det":7517,"##lish":7518,"fe":7519,"March":7520,"##uary":7521,"just":7522,"result":7523,"red":7524,"30":7525,"##enc":7526,"##ural":7527,"##hest":7528,"Ed":7529,"##ried":7530,"##aim":7531,"##gin":7532,"##ively":7533,"differ":7534,"hel":7535,"allow":7536,"##ilt":7537,"##ants":7538,"Or":7539,"turn":7540,"##ext":7541,"last":7542,"##idge":7543,"left":7544,"##ague":7545,"##get":7546,"large":7547,"line":7548,"##ales":7549,"South":7550,"south":7551,"Bro":7552,"Ge":7553,"During":7554,"##ified":7555,"##ke":7556,"book":7557,"25":7558,"school":7559,"##avy":7560,"December":7561,"third":7562,"Ph":7563,"incre":7564,"##par":7565,"month":7566,"##ined":7567,"due":7568,"appro":7569,"Re":7570,"played":7571,"much":7572,"event":7573,"if":7574,"##rote":7575,"another":7576,"care":7577,"192":7578,"##ention":7579,"January":7580,"included":7581,"##ench":7582,"what":7583,"##by":7584,"##ograp":7585,"II":7586,"based":7587,"place":7588,"##aged":7589,"##ient":7590,"##ony":7591,"##ped":7592,"Eu":7593,"ph":7594,"expl":7595,"government":7596,"##side":7597,"person":7598,"##ling":7599,"Fl":7600,"wrote":7601,"When":7602,"track":7603,"cr":7604,"##apan":7605,"camp":7606,"tit":7607,"old":7608,"bre":7609,"##alf":7610,"##ott":7611,"name":7612,"##ages":7613,"death":7614,"prot":7615,"report":7616,"short":7617,"##ience":7618,"Japan":7619,"won":7620,"child":7621,"larg":7622,"kill":7623,"story":7624,"##ideo":7625,"power":7626,"##ody":7627,"##oman":7628,"review":7629,"vis":7630,"##ital":7631,"home":7632,"conv":7633,"##ats":7634,"led":7635,"Be":7636,"##ps":7637,"described":7638,"requ":7639,"previous":7640,"##ides":7641,"cour":7642,"family":7643,"gun":7644,"El":7645,"progr":7646,"De":7647,"##tain":7648,"way":7649,"eng":7650,"##urr":7651,"named":7652,"Mus":7653,"##urther":7654,"now":7655,"dem":7656,"##ister":7657,"del":7658,"Gu":7659,"rep":7660,"##iven":7661,"##ilar":7662,"even":7663,"men":7664,"make":7665,"##omin":7666,"##embers":7667,"100":7668,"##reen":7669,"##ress":7670,"port":7671,"##iod":7672,"##iversity":7673,"attem":7674,"##oute":7675,"##aff":7676,"##ested":7677,"##ior":7678,"##itions":7679,"repl":7680,"##ivision":7681,"opp":7682,"leg":7683,"games":7684,"##ached":7685,"term":7686,"command":7687,"hand":7688,"##ival":7689,"poss":7690,"And":7691,"belie":7692,"dam":7693,"very":7694,"##ren":7695,"His":7696,"those":7697,"best":7698,"Par":7699,"##ne":7700,"##ged":7701,"Feb":7702,"Europ":7703,"##ract":7704,"##mp":7705,"ele":7706,"Febru":7707,"February":7708,"iss":7709,"organ":7710,"still":7711,"po":7712,"top":7713,"next":7714,"species":7715,"Christ":7716,"sk":7717,"##ences":7718,"view":7719,"##hor":7720,"There":7721,"##ances":7722,"##aken":7723,"National":7724,"##akes":7725,"##oci":7726,"original":7727,"ed":7728,"Bar":7729,"##oyal":7730,"water":7731,"addition":7732,"join":7733,"Man":7734,"##ness":7735,"infl":7736,"list":7737,"##ature":7738,"##sh":7739,"Am":7740,"period":7741,"within":7742,"##rew":7743,"##ented":7744,"members":7745,"mark":7746,"ref":7747,"deb":7748,"held":7749,"built":7750,"French":7751,"exper":7752,"2010":7753,"release":7754,"21":7755,"##yl":7756,"##ched":7757,"##augh":7758,"Char":7759,"late":7760,"although":7761,"former":7762,"##oon":7763,"match":7764,"great":7765,"##ney":7766,"dest":7767,"sold":7768,"##ech":7769,"conf":7770,"##ared":7771,"av":7772,"video":7773,"West":7774,"caus":7775,"##ights":7776,"storm":7777,"##af":7778,"##omb":7779,"init":7780,"role":7781,"##ropical":7782,"tri":7783,"William":7784,"##ipp":7785,"##hel":7786,"##eal":7787,"came":7788,"estab":7789,"tw":7790,"days":7791,"mid":7792,"##ulation":7793,"Her":7794,"stand":7795,"Air":7796,"real":7797,"polit":7798,"##uted":7799,"##ham":7800,"##ead":7801,"##ple":7802,"my":7803,"24":7804,"however":7805,"Min":7806,"##itary":7807,"2008":7808,"##aster":7809,"##ices":7810,"prop":7811,"##line":7812,"2009":7813,"##ased":7814,"##atic":7815,"few":7816,"town":7817,"wind":7818,"Geor":7819,"##ung":7820,"side":7821,"##ball":7822,"continued":7823,"often":7824,"equ":7825,"post":7826,"Des":7827,"Ear":7828,"2011":7829,"tel":7830,"local":7831,"##eter":7832,"##ator":7833,"repr":7834,"among":7835,"say":7836,"similar":7837,"##ruction":7838,"Mich":7839,"sw":7840,"hum":7841,"##omen":7842,"No":7843,"claim":7844,"##urs":7845,"##estern":7846,"##alk":7847,"##pite":7848,"##elt":7849,"22":7850,"England":7851,"##ying":7852,"##orts":7853,"##gy":7854,"##read":7855,"##reet":7856,"different":7857,"further":7858,"##ense":7859,"##ops":7860,"Rec":7861,"beh":7862,"##ology":7863,"##ese":7864,"typ":7865,"sent":7866,"Dav":7867,"level":7868,"fre":7869,"##na":7870,"considered":7871,"take":7872,"law":7873,"2007":7874,"One":7875,"tot":7876,"career":7877,"##app":7878,"week":7879,"production":7880,"Ex":7881,"##press":7882,"##lex":7883,"ant":7884,"cover":7885,"##ards":7886,"Park":7887,"half":7888,"##ler":7889,"City":7890,"having":7891,"##ampions":7892,"##ves":7893,"##arm":7894,"##con":7895,"Acc":7896,"Ang":7897,"English":7898,"##ea":7899,"mag":7900,"cor":7901,"road":7902,"east":7903,"moved":7904,"##ittle":7905,"enter":7906,"every":7907,"without":7908,"west":7909,"Although":7910,"##rodu":7911,"Cal":7912,"Cent":7913,"plan":7914,"23":7915,"player":7916,"2012":7917,"position":7918,"become":7919,"##ones":7920,"history":7921,"version":7922,"##ford":7923,"##ondon":7924,"see":7925,"Count":7926,"elect":7927,"influ":7928,"arm":7929,"##ize":7930,"London":7931,"house":7932,"star":7933,"sound":7934,"Su":7935,"##yle":7936,"commun":7937,"Batt":7938,"##ck":7939,"club":7940,"sugg":7941,"##ests":7942,"cast":7943,"##atter":7944,"strong":7945,"invol":7946,"Sw":7947,"##self":7948,"190":7949,"##uck":7950,"##eder":7951,"written":7952,"attempt":7953,"tem":7954,"With":7955,"You":7956,"stat":7957,"less":7958,"##etter":7959,"announ":7960,"##me":7961,"River":7962,"##ai":7963,"foot":7964,"##ington":7965,"##iqu":7966,"##irc":7967,"##ising":7968,"order":7969,"##ript":7970,"refer":7971,"##ape":7972,"##isc":7973,"##iety":7974,"##ald":7975,"##craft":7976,"Canad":7977,"aff":7978,"prof":7979,"point":7980,"##sequ":7981,"produc":7982,"given":7983,"rad":7984,"low":7985,"trad":7986,"##int":7987,"hig":7988,"##aul":7989,"want":7990,"Gener":7991,"University":7992,"gave":7993,"Pol":7994,"##iend":7995,"pat":7996,"never":7997,"While":7998,"##ailed":7999,"chang":8000,"##ories":8001,"returned":8002,"soc":8003,"##ration":8004,"Dr":8005,"##aly":8006,"##ett":8007,"comb":8008,"repres":8009,"##urric":8010,"vict":8011,"total":8012,"##ches":8013,"fact":8014,"##ots":8015,"High":8016,"good":8017,"##roy":8018,"En":8019,"##aun":8020,"control":8021,"##amb":8022,"company":8023,"country":8024,"went":8025,"capt":8026,"friend":8027,"##ours":8028,"fire":8029,"import":8030,"##ges":8031,"published":8032,"Sm":8033,"##evision":8034,"Ab":8035,"produced":8036,"##ably":8037,"find":8038,"sol":8039,"reported":8040,"origin":8041,"young":8042,"2006":8043,"lost":8044,"stated":8045,"##aign":8046,"common":8047,"program":8048,"Co":8049,"particular":8050,"ord":8051,"##echn":8052,"Sy":8053,"##aur":8054,"adm":8055,"##ency":8056,"include":8057,"According":8058,"##oom":8059,"50":8060,"##hing":8061,"##aised":8062,"compet":8063,"27":8064,"recorded":8065,"##eth":8066,"##iter":8067,"##ief":8068,"##ama":8069,"building":8070,"28":8071,"press":8072,"##vers":8073,"need":8074,"bus":8075,"forces":8076,"##raw":8077,"##cess":8078,"nort":8079,"ships":8080,"should":8081,"using":8082,"##used":8083,"eight":8084,"gl":8085,"performance":8086,"##iment":8087,"##iness":8088,"popular":8089,"service":8090,"##ength":8091,"father":8092,"##ploy":8093,"These":8094,"times":8095,"##ef":8096,"making":8097,"##ned":8098,"ten":8099,"aircraft":8100,"himself":8101,"2013":8102,"fun":8103,"##osp":8104,"author":8105,"##atch":8106,"military":8107,"##lear":8108,"Australia":8109,"right":8110,"Sec":8111,"##earch":8112,"anim":8113,"Ass":8114,"##let":8115,"40":8116,"##ampionship":8117,"Jack":8118,"lim":8119,"##ae":8120,"songs":8121,"somet":8122,"read":8123,"##outher":8124,"##ither":8125,"26":8126,"Pres":8127,"##play":8128,"critic":8129,"##ensive":8130,"##ords":8131,"surv":8132,"development":8133,"##ional":8134,"how":8135,"Af":8136,"General":8137,"Cor":8138,"##itive":8139,"inf":8140,"##quad":8141,"State":8142,"cross":8143,"##outhern":8144,"James":8145,"189":8146,"ground":8147,"##acy":8148,"ft":8149,"ins":8150,"light":8151,"Gl":8152,"remained":8153,"##astern":8154,"characters":8155,"Army":8156,"national":8157,"ne":8158,"months":8159,"suff":8160,"present":8161,"get":8162,"gen":8163,"died":8164,"##oo":8165,"ter":8166,"##ublic":8167,"developed":8168,"title":8169,"sum":8170,"bar":8171,"##fic":8172,"##ille":8173,"##ument":8174,"campaign":8175,"##ries":8176,"##ream":8177,"##urricane":8178,"##ering":8179,"force":8180,"##utes":8181,"League":8182,"##ael":8183,"##alt":8184,"children":8185,"field":8186,"introdu":8187,"trav":8188,"tour":8189,"##itted":8190,"##isted":8191,"##field":8192,"son":8193,"##lands":8194,"signific":8195,"##eep":8196,"across":8197,"Mor":8198,"away":8199,"##hern":8200,"relations":8201,"Reg":8202,"##dom":8203,"histor":8204,"##yn":8205,"official":8206,"Division":8207,"We":8208,"fav":8209,"felt":8210,"effect":8211,"America":8212,"##ope":8213,"Comp":8214,"##lege":8215,"Sim":8216,"noted":8217,"fac":8218,"##rick":8219,"announced":8220,"reached":8221,"Russ":8222,"intern":8223,"promot":8224,"Mad":8225,"che":8226,"created":8227,"County":8228,"areas":8229,"destroy":8230,"battle":8231,"##ows":8232,"television":8233,"2005":8234,"Road":8235,"Japanese":8236,"Em":8237,"sit":8238,"station":8239,"29":8240,"successful":8241,"rock":8242,"##imately":8243,"val":8244,"super":8245,"various":8246,"political":8247,"Street":8248,"seen":8249,"followed":8250,"##ements":8251,"##iber":8252,"##duc":8253,"Mon":8254,"##iting":8255,"too":8256,"enc":8257,"rank":8258,"aver":8259,"performed":8260,"front":8261,"Rober":8262,"cult":8263,"##ization":8264,"East":8265,"##most":8266,"2014":8267,"served":8268,"players":8269,"George":8270,"cond":8271,"full":8272,"##reg":8273,"prim":8274,"decl":8275,"##elling":8276,"black":8277,"##ination":8278,"begin":8279,"put":8280,"Ser":8281,"earl":8282,"obs":8283,"##olution":8284,"Per":8285,"##abor":8286,"##ays":8287,"cost":8288,"mm":8289,"##idence":8290,"Phil":8291,"Hen":8292,"style":8293,"non":8294,"cy":8295,"bo":8296,"div":8297,"look":8298,"circ":8299,"vol":8300,"seven":8301,"aud":8302,"##ana":8303,"killed":8304,"sel":8305,"help":8306,"##lished":8307,"Bill":8308,"night":8309,"throughout":8310,"coun":8311,"taken":8312,"##urg":8313,"tropical":8314,"able":8315,"##enth":8316,"agre":8317,"##ecut":8318,"little":8319,"becom":8320,"fem":8321,"age":8322,"significant":8323,"meet":8324,"Sch":8325,"Thom":8326,"ident":8327,"##irl":8328,"##ways":8329,"techn":8330,"special":8331,"cop":8332,"##ius":8333,"##oice":8334,"writing":8335,"struct":8336,"##leet":8337,"thought":8338,"established":8339,"broad":8340,"body":8341,"##enced":8342,"David":8343,"##aval":8344,"appeared":8345,"process":8346,"does":8347,"ball":8348,"entire":8349,"Australian":8350,"##epend":8351,"##rict":8352,"points":8353,"miles":8354,"award":8355,"##ought":8356,"impro":8357,"Rich":8358,"route":8359,"member":8360,"##odes":8361,"Med":8362,"##ask":8363,"tro":8364,"##umb":8365,"women":8366,"activ":8367,"range":8368,"##blem":8369,"##ivil":8370,"Qu":8371,"caused":8372,"##hys":8373,"##iers":8374,"started":8375,"decided":8376,"features":8377,"general":8378,"My":8379,"Afric":8380,"##day":8381,"pain":8382,"Part":8383,"##aves":8384,"##idd":8385,"eventually":8386,"##ators":8387,"##ament":8388,"##iec":8389,"##cil":8390,"31":8391,"##conom":8392,"##ground":8393,"##cent":8394,"##ogn":8395,"##eated":8396,"Royal":8397,"arch":8398,"race":8399,"##emy":8400,"##itar":8401,"coast":8402,"Act":8403,"To":8404,"grow":8405,"##here":8406,"manag":8407,"feet":8408,"ve":8409,"Hist":8410,"##board":8411,"toget":8412,"together":8413,"added":8414,"House":8415,"tre":8416,"##alth":8417,"cut":8418,"##bert":8419,"188":8420,"hold":8421,"nov":8422,"##ivid":8423,"##arr":8424,"white":8425,"once":8426,"##ample":8427,"arg":8428,"formed":8429,"##men":8430,"located":8431,"stri":8432,"##reek":8433,"conn":8434,"modern":8435,"pri":8436,"curr":8437,"Black":8438,"##ades":8439,"##off":8440,"instead":8441,"##ush":8442,"spe":8443,"##head":8444,"fight":8445,"##rought":8446,"##omm":8447,"cert":8448,"##aces":8449,"round":8450,"esc":8451,"Hol":8452,"mix":8453,"##hic":8454,"Intern":8455,"Rep":8456,"important":8457,"##uk":8458,"crew":8459,"saw":8460,"##less":8461,"##ani":8462,"action":8463,"completed":8464,"##eam":8465,"Cr":8466,"playing":8467,"Indian":8468,"##ells":8469,"Other":8470,"##ara":8471,"2004":8472,"##ata":8473,"hon":8474,"##ring":8475,"inj":8476,"insp":8477,"##pression":8478,"mater":8479,"population":8480,"mot":8481,"Michael":8482,"voc":8483,"ask":8484,"rather":8485,"opened":8486,"stage":8487,"##aps":8488,"186":8489,"behind":8490,"others":8491,"fall":8492,"cas":8493,"guns":8494,"##ceed":8495,"brother":8496,"##ger":8497,"##igned":8498,"comment":8499,"lik":8500,"##wood":8501,"born":8502,"##stit":8503,"##lin":8504,"fif":8505,"2015":8506,"site":8507,"live":8508,"works":8509,"##rated":8510,"bomb":8511,"loss":8512,"France":8513,"worked":8514,"##ficult":8515,"heavy":8516,"hit":8517,"miss":8518,"pred":8519,"School":8520,"qual":8521,"##ster":8522,"discover":8523,"subsequ":8524,"lack":8525,"party":8526,"problem":8527,"##medi":8528,"difficult":8529,"close":8530,"Nor":8531,"##iol":8532,"Wash":8533,"construction":8534,"Some":8535,"##ending":8536,"##anch":8537,"relationship":8538,"##istic":8539,"host":8540,"weeks":8541,"project":8542,"far":8543,"originally":8544,"separ":8545,"##ky":8546,"reb":8547,"associ":8548,"upon":8549,"pract":8550,"Fir":8551,"##ica":8552,"Henry":8553,"##uel":8554,"leading":8555,"appoin":8556,"vill":8557,"almost":8558,"San":8559,"mer":8560,"Port":8561,"Robert":8562,"##duct":8563,"peak":8564,"damage":8565,"2000":8566,"##ming":8567,"Europe":8568,"scored":8569,"chart":8570,"fourth":8571,"##osition":8572,"inform":8573,"sett":8574,"500":8575,"Music":8576,"provided":8577,"##ividual":8578,"reve":8579,"Vir":8580,"Best":8581,"##yr":8582,"case":8583,"clos":8584,"interv":8585,"engine":8586,"Red":8587,"creat":8588,"dev":8589,"mi":8590,"invest":8591,"Paul":8592,"scene":8593,"##oring":8594,"human":8595,"##angu":8596,"##ological":8597,"brought":8598,"##ino":8599,"free":8600,"187":8601,"fell":8602,"Battle":8603,"mother":8604,"featured":8605,"Ag":8606,"vot":8607,"##ential":8608,"President":8609,"king":8610,"##ula":8611,"least":8612,"working":8613,"allowed":8614,"laun":8615,"##ened":8616,"##aut":8617,"##lement":8618,"average":8619,"Cap":8620,"mult":8621,"towards":8622,"wanted":8623,"Cour":8624,"Mil":8625,"indust":8626,"##unk":8627,"tradition":8628,"region":8629,"business":8630,"Washington":8631,"Que":8632,"##azine":8633,"quick":8634,"troops":8635,"placed":8636,"either":8637,"##ids":8638,"redu":8639,"respect":8640,"Res":8641,"office":8642,"critics":8643,"Play":8644,"avail":8645,"##cast":8646,"Bel":8647,"##antic":8648,"reach":8649,"example":8650,"material":8651,"runs":8652,"econom":8653,"recogn":8654,"##enes":8655,"Angel":8656,"sex":8657,"wife":8658,"sour":8659,"##chie":8660,"neg":8661,"##rey":8662,"estim":8663,"army":8664,"foc":8665,"##ule":8666,"##iction":8667,"Hall":8668,"Despite":8669,"35":8670,"2003":8671,"Rev":8672,"Pe":8673,"interest":8674,"Follow":8675,"##urb":8676,"generally":8677,"mass":8678,"Hill":8679,"joined":8680,"dou":8681,"rail":8682,"##quadron":8683,"proper":8684,"accept":8685,"##omp":8686,"bill":8687,"individual":8688,"##lt":8689,"Mal":8690,"##iff":8691,"##ourn":8692,"##iding":8693,"##ena":8694,"represent":8695,"events":8696,"believed":8697,"Ham":8698,"Game":8699,"##itch":8700,"particip":8701,"Cup":8702,"fig":8703,"Following":8704,"First":8705,"Mary":8706,"##inn":8707,"wid":8708,"Cro":8709,"##spec":8710,"##oor":8711,"Don":8712,"know":8713,"victory":8714,"replaced":8715,"Great":8716,"Lou":8717,"mph":8718,"##artment":8719,"##emor":8720,"designed":8721,"rul":8722,"mount":8723,"soon":8724,"nomin":8725,"##asing":8726,"island":8727,"fund":8728,"##erous":8729,"exc":8730,"##ving":8731,"hours":8732,"Two":8733,"European":8734,"employ":8735,"president":8736,"room":8737,"##ification":8738,"involved":8739,"##aper":8740,"ren":8741,"surf":8742,"finished":8743,"Ev":8744,"##merc":8745,"stru":8746,"Ant":8747,"Championship":8748,"##ki":8749,"##inist":8750,"##asion":8751,"##fall":8752,"Mart":8753,"##west":8754,"break":8755,"dro":8756,"##ico":8757,"Star":8758,"hor":8759,"##ago":8760,"saying":8761,"Roman":8762,"unc":8763,"court":8764,"shot":8765,"threat":8766,"##ander":8767,"opening":8768,"Ir":8769,"regular":8770,"##cher":8771,"##icated":8772,"Met":8773,"Me":8774,"director":8775,"length":8776,"Mac":8777,"##BC":8778,"ill":8779,"Scott":8780,"occur":8781,"largest":8782,"hom":8783,"contrib":8784,"possible":8785,"##ecutive":8786,"minutes":8787,"highway":8788,"Route":8789,"southern":8790,"##ishing":8791,"Ber":8792,"hy":8793,"highest":8794,"remov":8795,"2001":8796,"earlier":8797,"Rock":8798,"Atl":8799,"Sl":8800,"test":8801,"initially":8802,"Sing":8803,"personal":8804,"available":8805,"particularly":8806,"percent":8807,"hard":8808,"##antry":8809,"##anned":8810,"sequ":8811,"training":8812,"Republic":8813,"##to":8814,"##for":8815,"forced":8816,"must":8817,"exist":8818,"Wil":8819,"Mag":8820,"grad":8821,"##hib":8822,"Val":8823,"conduct":8824,"##co":8825,"##pts":8826,"Kingdom":8827,"Charles":8828,"Navy":8829,"##ography":8830,"##uit":8831,"park":8832,"wall":8833,"##uff":8834,"##ems":8835,"##ateg":8836,"From":8837,"quar":8838,"##anish":8839,"respons":8840,"ended":8841,"##go":8842,"##rian":8843,"McC":8844,"Bo":8845,"Off":8846,"##now":8847,"Thomas":8848,"##ises":8849,"turned":8850,"social":8851,"Ac":8852,"International":8853,"##ayed":8854,"##rupt":8855,"##mb":8856,"##uture":8857,"But":8858,"##ios":8859,"studio":8860,"##rest":8861,"goal":8862,"Pal":8863,"##iforn":8864,"contract":8865,"change":8866,"langu":8867,"##ocr":8868,"Virgin":8869,"praised":8870,"passed":8871,"priv":8872,"##atural":8873,"piec":8874,"increased":8875,"Brown":8876,"educ":8877,"hurricane":8878,"regard":8879,"##ze":8880,"northern":8881,"##ude":8882,"##iation":8883,"##heast":8884,"2002":8885,"##asy":8886,"phys":8887,"White":8888,"central":8889,"novel":8890,"##itor":8891,"Church":8892,"##bor":8893,"relig":8894,"Sen":8895,"Canada":8896,"speed":8897,"appearance":8898,"Californ":8899,"units":8900,"##ership":8901,"past":8902,"##anks":8903,"Bay":8904,"##rem":8905,"##ections":8906,"stop":8907,"church":8908,"immedi":8909,"##ston":8910,"##sel":8911,"##ship":8912,"Smith":8913,"disp":8914,"##ctor":8915,"meas":8916,"##aker":8917,"ordered":8918,"##aughter":8919,"##ville":8920,"##ilities":8921,"treat":8922,"prob":8923,"taking":8924,"Sam":8925,"##ference":8926,"Richard":8927,"##apt":8928,"##ittee":8929,"independ":8930,"Alex":8931,"##eption":8932,"love":8933,"signed":8934,"##anding":8935,"move":8936,"##den":8937,"##agon":8938,"##oul":8939,"##ique":8940,"California":8941,"achie":8942,"##oph":8943,"Mer":8944,"##etwork":8945,"better":8946,"##pped":8947,"pers":8948,"60":8949,"Union":8950,"##itz":8951,"Mill":8952,"##pper":8953,"God":8954,"lear":8955,"Govern":8956,"##ecess":8957,"##arily":8958,"winds":8959,"Island":8960,"commerc":8961,"Flor":8962,"enough":8963,"wat":8964,"##hem":8965,"positive":8966,"##nel":8967,"Court":8968,"##ears":8969,"45":8970,"inn":8971,"according":8972,"hous":8973,"spent":8974,"going":8975,"pot":8976,"Mo":8977,"reveal":8978,"above":8979,"outside":8980,"##ida":8981,"##essional":8982,"films":8983,"defeat":8984,"Vict":8985,"feel":8986,"Cong":8987,"clear":8988,"##uter":8989,"told":8990,"football":8991,"Award":8992,"ap":8993,"previously":8994,"##uation":8995,"states":8996,"quest":8997,"recording":8998,"1990":8999,"##elled":9000,"pur":9001,"mean":9002,"##berg":9003,"Associ":9004,"nine":9005,"Art":9006,"##mar":9007,"##ume":9008,"##het":9009,"##usion":9010,"failed":9011,"##ands":9012,"Ne":9013,"##atin":9014,"assist":9015,"contr":9016,"come":9017,"Company":9018,"required":9019,"##osing":9020,"elements":9021,"ey":9022,"##quare":9023,"##isl":9024,"viol":9025,"cru":9026,"Stud":9027,"India":9028,"Mark":9029,"Germany":9030,"lower":9031,"##alion":9032,"Mount":9033,"reviews":9034,"interview":9035,"phot":9036,"parts":9037,"Tom":9038,"Peter":9039,"Gold":9040,"pay":9041,"itself":9042,"Christian":9043,"##eck":9044,"sil":9045,"directed":9046,"base":9047,"express":9048,"ur":9049,"##ibility":9050,"despite":9051,"cred":9052,"185":9053,"32":9054,"NY":9055,"That":9056,"rain":9057,"debut":9058,"abs":9059,"Times":9060,"Pat":9061,"##oke":9062,"##erved":9063,"##ready":9064,"##jects":9065,"Up":9066,"##aint":9067,"Cast":9068,"keep":9069,"beginning":9070,"##ams":9071,"##ability":9072,"##ris":9073,"groups":9074,"College":9075,"##nes":9076,"##amer":9077,"cycl":9078,"##onna":9079,"UK":9080,"Sov":9081,"section":9082,"##oid":9083,"##hester":9084,"poor":9085,"whose":9086,"##airs":9087,"##ma":9088,"claimed":9089,"ly":9090,"rap":9091,"Western":9092,"international":9093,"cou":9094,"Mex":9095,"asked":9096,"lines":9097,"transfer":9098,"Dem":9099,"Soviet":9100,"screen":9101,"give":9102,"##onse":9103,"##rief":9104,"Frank":9105,"key":9106,"additional":9107,"##ania":9108,"Film":9109,"future":9110,"league":9111,"bi":9112,"whom":9113,"##edy":9114,"Hot":9115,"beg":9116,"La":9117,"op":9118,"fort":9119,"gold":9120,"##igan":9121,"Awards":9122,"##oles":9123,"Grand":9124,"introduced":9125,"travel":9126,"don":9127,"##ully":9128,"evidence":9129,"##val":9130,"prem":9131,"##gar":9132,"##ites":9133,"##urt":9134,"idea":9135,"quickly":9136,"##vir":9137,"sea":9138,"emb":9139,"##onst":9140,"##ump":9141,"Im":9142,"##atory":9143,"already":9144,"Soc":9145,"center":9146,"cal":9147,"Mont":9148,"bridge":9149,"Day":9150,"frequ":9151,"Force":9152,"##usp":9153,"Most":9154,"##unt":9155,"election":9156,"occup":9157,"pil":9158,"except":9159,"1970":9160,"Coun":9161,"##eum":9162,"deal":9163,"##ores":9164,"##anded":9165,"bur":9166,"usually":9167,"1980":9168,"musical":9169,"##specially":9170,"western":9171,"arrived":9172,"Rob":9173,"block":9174,"##back":9175,"score":9176,"radio":9177,"##ift":9178,"##asons":9179,"Britain":9180,"civil":9181,"##liam":9182,"##aring":9183,"appl":9184,"##ults":9185,"money":9186,"female":9187,"sometimes":9188,"##lying":9189,"study":9190,"food":9191,"Pac":9192,"response":9193,"decision":9194,"magazine":9195,"especially":9196,"access":9197,"issue":9198,"Du":9199,"Later":9200,"prepar":9201,"##liament":9202,"Victor":9203,"lab":9204,"Franc":9205,"surface":9206,"liter":9207,"flood":9208,"36":9209,"might":9210,"guitar":9211,"carried":9212,"shows":9213,"community":9214,"estimated":9215,"##ective":9216,"##tr":9217,"Ben":9218,"remain":9219,"think":9220,"Cont":9221,"##aries":9222,"1999":9223,"80":9224,"remaining":9225,"eastern":9226,"minor":9227,"defeated":9228,"determ":9229,"Super":9230,"##ha":9231,"##gen":9232,"Early":9233,"Virginia":9234,"approx":9235,"larger":9236,"becoming":9237,"##ulf":9238,"Over":9239,"wood":9240,"construct":9241,"complete":9242,"##ror":9243,"slow":9244,"##irth":9245,"tar":9246,"police":9247,"suggested":9248,"##porary":9249,"media":9250,"pressure":9251,"entered":9252,"Chic":9253,"##erve":9254,"Los":9255,"teams":9256,"##asc":9257,"##han":9258,"Just":9259,"commercial":9260,"pen":9261,"doc":9262,"##sy":9263,"latter":9264,"lyric":9265,"market":9266,"##NA":9267,"consider":9268,"students":9269,"surround":9270,"investig":9271,"##inent":9272,"brief":9273,"##bs":9274,"concern":9275,"Second":9276,"##irt":9277,"##enty":9278,"If":9279,"prison":9280,"acqu":9281,"discuss":9282,"Tex":9283,"Jackson":9284,"effects":9285,"hop":9286,"certain":9287,"appointed":9288,"75":9289,"##igg":9290,"##alled":9291,"der":9292,"summer":9293,"episodes":9294,"prior":9295,"##ederal":9296,"##incip":9297,"300":9298,"##acing":9299,"sat":9300,"##change":9301,"emer":9302,"staff":9303,"Oly":9304,"size":9305,"##ecting":9306,"Louis":9307,"changes":9308,"##ulated":9309,"commission":9310,"##ridge":9311,"##imate":9312,"winning":9313,"limited":9314,"scenes":9315,"Olymp":9316,"river":9317,"leaving":9318,"destroyed":9319,"fleet":9320,"##ector":9321,"draw":9322,"##viron":9323,"Club":9324,"Dep":9325,"den":9326,"##iser":9327,"board":9328,"Spanish":9329,"##oes":9330,"##iles":9331,"##ties":9332,"rights":9333,"##ournal":9334,"lo":9335,"provide":9336,"writer":9337,"##igade":9338,"33":9339,"Green":9340,"polic":9341,"##idents":9342,"fail":9343,"ste":9344,"##ension":9345,"date":9346,"trib":9347,"territ":9348,"Stev":9349,"girl":9350,"proposed":9351,"##eleb":9352,"influence":9353,"184":9354,"Party":9355,"##ein":9356,"overall":9357,"diss":9358,"tax":9359,"##inct":9360,"arrang":9361,"kil":9362,"1960":9363,"structure":9364,"react":9365,"Ter":9366,"di":9367,"division":9368,"self":9369,"##ication":9370,"##inese":9371,"Association":9372,"##iral":9373,"##ronic":9374,"anti":9375,"agreed":9376,"type":9377,"intended":9378,"jud":9379,"Pri":9380,"bow":9381,"Edward":9382,"running":9383,"##ease":9384,"Chicago":9385,"daughter":9386,"wide":9387,"##II":9388,"Ital":9389,"purch":9390,"nearly":9391,"supported":9392,"Many":9393,"deep":9394,"##che":9395,"##atives":9396,"##AF":9397,"Adm":9398,"##tained":9399,"research":9400,"##omer":9401,"##imum":9402,"establish":9403,"helped":9404,"married":9405,"nd":9406,"1998":9407,"movement":9408,"Chinese":9409,"awarded":9410,"##aded":9411,"multip":9412,"Song":9413,"lay":9414,"Council":9415,"Oper":9416,"##ys":9417,"##atively":9418,"create":9419,"favor":9420,"##que":9421,"intens":9422,"Do":9423,"##leg":9424,"display":9425,"bird":9426,"Enter":9427,"dark":9428,"susp":9429,"tex":9430,"##owers":9431,"##ari":9432,"##dle":9433,"Sal":9434,"stars":9435,"longer":9436,"Kn":9437,"language":9438,"##uing":9439,"higher":9440,"cat":9441,"##icted":9442,"planned":9443,"compared":9444,"captured":9445,"Serv":9446,"increasing":9447,"fans":9448,"70":9449,"conclud":9450,"course":9451,"changed":9452,"Johnson":9453,"Ot":9454,"##ounds":9455,"experience":9456,"approximately":9457,"related":9458,"##ees":9459,"##selves":9460,"feature":9461,"fifth":9462,"living":9463,"themselves":9464,"done":9465,"##abit":9466,"History":9467,"producer":9468,"##oms":9469,"tracks":9470,"##ault":9471,"##bers":9472,"temper":9473,"mostly":9474,"Pacific":9475,"App":9476,"##isions":9477,"withd":9478,"ens":9479,"Billboard":9480,"Inter":9481,"space":9482,"Back":9483,"imm":9484,"Not":9485,"##ij":9486,"##olic":9487,"##essed":9488,"37":9489,"thus":9490,"Kore":9491,"woman":9492,"dead":9493,"##umn":9494,"operations":9495,"Inf":9496,"remains":9497,"bring":9498,"quarter":9499,"##thing":9500,"##itting":9501,"natural":9502,"##oint":9503,"our":9504,"##imin":9505,"whether":9506,"opt":9507,"ult":9508,"let":9509,"##can":9510,"shoot":9511,"current":9512,"weap":9513,"Final":9514,"##bour":9515,"##hood":9516,"##andon":9517,"Scot":9518,"probably":9519,"##ergy":9520,"soldiers":9521,"Under":9522,"##raz":9523,"##hers":9524,"copies":9525,"Sun":9526,"##ny":9527,"buildings":9528,"leader":9529,"voice":9530,"1997":9531,"face":9532,"boy":9533,"extended":9534,"Since":9535,"lyrics":9536,"##rown":9537,"portr":9538,"forward":9539,"##ibr":9540,"complex":9541,"##gn":9542,"Str":9543,"Atlantic":9544,"battles":9545,"issued":9546,"chall":9547,"##riage":9548,"really":9549,"countries":9550,"heav":9551,"##ospital":9552,"##uth":9553,"suffered":9554,"cm":9555,"transport":9556,"Lake":9557,"##iant":9558,"goals":9559,"Florida":9560,"Fort":9561,"00":9562,"includes":9563,"attract":9564,"Sever":9565,"Love":9566,"immediately":9567,"deg":9568,"Both":9569,"cur":9570,"##oe":9571,"breed":9572,"capital":9573,"manager":9574,"mixed":9575,"private":9576,"Jim":9577,"cann":9578,"Jew":9579,"officers":9580,"broadcast":9581,"likely":9582,"Old":9583,"##etic":9584,"distrib":9585,"##hold":9586,"##ili":9587,"mach":9588,"##vert":9589,"Queen":9590,"##rol":9591,"removed":9592,"Texas":9593,"plant":9594,"##mpire":9595,"celeb":9596,"initial":9597,"##bury":9598,"increase":9599,"script":9600,"Sea":9601,"Mr":9602,"Town":9603,"health":9604,"subsequently":9605,"Dist":9606,"Tor":9607,"leave":9608,"plans":9609,"Law":9610,"always":9611,"focus":9612,"Ol":9613,"coin":9614,"network":9615,"##ros":9616,"##ria":9617,"services":9618,"via":9619,"status":9620,"compan":9621,"Trans":9622,"China":9623,"38":9624,"visit":9625,"location":9626,"##rial":9627,"##order":9628,"Another":9629,"##jected":9630,"##rison":9631,"##ette":9632,"flag":9633,"problems":9634,"Camp":9635,"Lord":9636,"##ka":9637,"depart":9638,"##ograph":9639,"How":9640,"##ously":9641,"uns":9642,"Earth":9643,"offered":9644,"instr":9645,"confl":9646,"90":9647,"canc":9648,"Gre":9649,"model":9650,"##aily":9651,"##tainment":9652,"norm":9653,"terms":9654,"Del":9655,"Const":9656,"colon":9657,"approach":9658,"mur":9659,"something":9660,"village":9661,"Carol":9662,"administ":9663,"tons":9664,"##burg":9665,"carry":9666,"Pet":9667,"Boy":9668,"Wood":9669,"##ills":9670,"tor":9671,"tow":9672,"majority":9673,"183":9674,"##vironment":9675,"professional":9676,"##orning":9677,"counter":9678,"Je":9679,"##uf":9680,"Canadian":9681,"34":9682,"Its":9683,"sch":9684,"##adium":9685,"Rail":9686,"Big":9687,"Step":9688,"got":9689,"Sir":9690,"Africa":9691,"consist":9692,"cause":9693,"##aches":9694,"##uries":9695,"inters":9696,"damaged":9697,"##hod":9698,"meeting":9699,"##anced":9700,"ran":9701,"job":9702,"##ging":9703,"appears":9704,"confir":9705,"adop":9706,"minute":9707,"##rate":9708,"ranked":9709,"III":9710,"Mel":9711,"Center":9712,"composed":9713,"revealed":9714,"Squadron":9715,"Highway":9716,"##ify":9717,"Bur":9718,"flight":9719,"attacks":9720,"##olk":9721,"Russian":9722,"##ends":9723,"##itect":9724,"##imb":9725,"plot":9726,"raised":9727,"discovered":9728,"Rel":9729,"Rad":9730,"##reak":9731,"##umed":9732,"##lor":9733,"##esh":9734,"financ":9735,"respectively":9736,"makes":9737,"Kent":9738,"Martin":9739,"contem":9740,"Central":9741,"Kr":9742,"##arch":9743,"numerous":9744,"1995":9745,"Lu":9746,"##aging":9747,"thr":9748,"associated":9749,"altern":9750,"takes":9751,"domin":9752,"Angeles":9753,"inspired":9754,"account":9755,"rout":9756,"Dis":9757,"needed":9758,"anc":9759,"lived":9760,"yet":9761,"launched":9762,"##ails":9763,"##aught":9764,"##ription":9765,"cand":9766,"amb":9767,"nature":9768,"coach":9769,"occurred":9770,"DV":9771,"contains":9772,"vehic":9773,"##estival":9774,"TV":9775,"Congress":9776,"shown":9777,"sales":9778,"attempted":9779,"hour":9780,"##cy":9781,"attacked":9782,"##uments":9783,"moving":9784,"Bu":9785,"Year":9786,"conditions":9787,"##aud":9788,"aw":9789,"##ken":9790,"##down":9791,"##iest":9792,"accomp":9793,"Miss":9794,"Tour":9795,"##joy":9796,"Group":9797,"2016":9798,"fore":9799,"ang":9800,"1996":9801,"##win":9802,"refl":9803,"issues":9804,"birth":9805,"1950":9806,"##mon":9807,"whole":9808,"Tur":9809,"exam":9810,"information":9811,"##izing":9812,"farm":9813,"yards":9814,"Empire":9815,"sal":9816,"slight":9817,"upper":9818,"Out":9819,"##cean":9820,"incor":9821,"box":9822,"subject":9823,"##urity":9824,"Kar":9825,"mom":9826,"referred":9827,"critical":9828,"##kin":9829,"##rect":9830,"prec":9831,"Rh":9832,"##enant":9833,"##reme":9834,"Penn":9835,"scient":9836,"numbers":9837,"finally":9838,"smaller":9839,"##ogue":9840,"##eather":9841,"elected":9842,"resulted":9843,"selected":9844,"##quar":9845,"##ellow":9846,"sen":9847,"Er":9848,"bad":9849,"Gar":9850,"grant":9851,"experi":9852,"Jose":9853,"cer":9854,"active":9855,"##zz":9856,"grand":9857,"princip":9858,"singer":9859,"Bow":9860,"standard":9861,"secret":9862,"##itation":9863,"##uated":9864,"Italian":9865,"mission":9866,"##ases":9867,"1994":9868,"industry":9869,"Tel":9870,"largely":9871,"##well":9872,"operation":9873,"##eek":9874,"sem":9875,"##ortun":9876,"assigned":9877,"saf":9878,"analy":9879,"Arm":9880,"##ality":9881,"##oud":9882,"web":9883,"##lo":9884,"legisl":9885,"earned":9886,"commented":9887,"Team":9888,"##itude":9889,"expected":9890,"DVD":9891,"Corps":9892,"listed":9893,"Cons":9894,"audience":9895,"suggest":9896,"pair":9897,"Crit":9898,"artic":9899,"covered":9900,"purp":9901,"So":9902,"##ider":9903,"hot":9904,"unable":9905,"gre":9906,"sched":9907,"indic":9908,"traditional":9909,"education":9910,"underst":9911,"trade":9912,"artist":9913,"friends":9914,"Viet":9915,"closed":9916,"attention":9917,"refused":9918,"plat":9919,"49":9920,"newsp":9921,"method":9922,"pit":9923,"##ounts":9924,"primary":9925,"double":9926,"##ighter":9927,"sister":9928,"kind":9929,"royal":9930,"prevent":9931,"Michigan":9932,"##aped":9933,"reason":9934,"letter":9935,"##ipped":9936,"male":9937,"officer":9938,"und":9939,"below":9940,"1940":9941,"Wales":9942,"dig":9943,"enjoy":9944,"##isk":9945,"ability":9946,"depression":9947,"meant":9948,"Mass":9949,"performances":9950,"##ims":9951,"declared":9952,"Nort":9953,"blood":9954,"##anes":9955,"##iled":9956,"41":9957,"Cath":9958,"giving":9959,"repor":9960,"180":9961,"concept":9962,"word":9963,"##undred":9964,"fighting":9965,"commander":9966,"religious":9967,"books":9968,"theat":9969,"max":9970,"middle":9971,"Pre":9972,"##ples":9973,"rate":9974,"##ady":9975,"Ox":9976,"Arch":9977,"amount":9978,"##ona":9979,"##com":9980,"Long":9981,"records":9982,"Acad":9983,"Democr":9984,"matches":9985,"mor":9986,"constit":9987,"##aine":9988,"names":9989,"##tered":9990,"Bec":9991,"##oses":9992,"Test":9993,"impact":9994,"produce":9995,"question":9996,"Fer":9997,"recover":9998,"Wal":9999,"##antasy":10000,"competition":10001,"unit":10002,"centre":10003,"##utch":10004,"serious":10005,"Sar":10006,"##ien":10007,"##odies":10008,"disapp":10009,"touch":10010,"vocals":10011,"Minister":10012,"Leg":10013,"Major":10014,"Several":10015,"Zeal":10016,"mention":10017,"1992":10018,"##ounded":10019,"##uct":10020,"Midd":10021,"Se":10022,"abandon":10023,"Matt":10024,"##road":10025,"rapid":10026,"energy":10027,"necess":10028,"text":10029,"##enge":10030,"##rid":10031,"Fox":10032,"##overs":10033,"har":10034,"##ening":10035,"train":10036,"Kenn":10037,"kilomet":10038,"##echan":10039,"dut":10040,"##ervation":10041,"constructed":10042,"traff":10043,"400":10044,"rd":10045,"##ban":10046,"theme":10047,"##use":10048,"55":10049,"##rier":10050,"##ado":10051,"Sum":10052,"Time":10053,"pick":10054,"##ishop":10055,"nearby":10056,"highly":10057,"Dar":10058,"separate":10059,"Zealand":10060,"sev":10061,"##ether":10062,"continue":10063,"annual":10064,"heart":10065,"##be":10066,"chief":10067,"drum":10068,"effort":10069,"presented":10070,"Mexico":10071,"Haw":10072,"##osh":10073,"##ender":10074,"positions":10075,"combat":10076,"African":10077,"reduced":10078,"##oper":10079,"##rug":10080,"##ibly":10081,"controvers":10082,"##ining":10083,"##ansion":10084,"directly":10085,"Four":10086,"Tre":10087,"##ieut":10088,"1930":10089,"##ingu":10090,"Chris":10091,"##work":10092,"levels":10093,"Wall":10094,"means":10095,"neigh":10096,"object":10097,"notes":10098,"attended":10099,"Ann":10100,"practice":10101,"tried":10102,"compos":10103,"##emorial":10104,"Hung":10105,"nuc":10106,"edition":10107,"fast":10108,"##ita":10109,"twenty":10110,"Bob":10111,"metal":10112,"1993":10113,"##vement":10114,"##onic":10115,"Madonna":10116,"39":10117,"accepted":10118,"watch":10119,"architect":10120,"stating":10121,"1991":10122,"movie":10123,"42":10124,"48":10125,"cle":10126,"##shire":10127,"##ires":10128,"##osen":10129,"candid":10130,"##isation":10131,"##lled":10132,"concert":10133,"##track":10134,"Kh":10135,"Scotland":10136,"179":10137,"##awn":10138,"##stitute":10139,"##house":10140,"Jones":10141,"##aph":10142,"direction":10143,"Tw":10144,"##ersey":10145,"seem":10146,"lif":10147,"dism":10148,"Their":10149,"schools":10150,"legal":10151,"rein":10152,"##eway":10153,"##ux":10154,"thick":10155,"Av":10156,"Manc":10157,"Cross":10158,"##icip":10159,"asp":10160,"horse":10161,"oil":10162,"recomm":10163,"marriage":10164,"##illery":10165,"Greek":10166,"Department":10167,"intell":10168,"efforts":10169,"managed":10170,"college":10171,"##ya":10172,"purs":10173,"draft":10174,"##eath":10175,"Dou":10176,"##wide":10177,"wing":10178,"##utions":10179,"ending":10180,"resulting":10181,"##irit":10182,"##ieutenant":10183,"182":10184,"Go":10185,"Arab":10186,"spl":10187,"Three":10188,"showed":10189,"##band":10190,"dropped":10191,"##ican":10192,"responsible":10193,"Post":10194,"overs":10195,"Infantry":10196,"##MS":10197,"##arian":10198,"nation":10199,"inside":10200,"##like":10201,"##illed":10202,"Coll":10203,"kept":10204,"##arrow":10205,"cases":10206,"Foot":10207,"cust":10208,"environment":10209,"Bost":10210,"culture":10211,"meaning":10212,"dom":10213,"cyclone":10214,"rat":10215,"incorpor":10216,"##olf":10217,"begins":10218,"##inem":10219,"variety":10220,"##sw":10221,"##ceeded":10222,"morning":10223,"##cing":10224,"subst":10225,"cerem":10226,"houses":10227,"product":10228,"forms":10229,"Stone":10230,"championship":10231,"Service":10232,"words":10233,"vo":10234,"##gl":10235,"yard":10236,"schol":10237,"##peror":10238,"perm":10239,"BC":10240,"##aise":10241,"Williams":10242,"Creek":10243,"Records":10244,"##ini":10245,"Secret":10246,"181":10247,"marked":10248,"##cend":10249,"inches":10250,"favour":10251,"du":10252,"Hel":10253,"continues":10254,"science":10255,"Che":10256,"symb":10257,"##ils":10258,"##iated":10259,"bank":10260,"Parliament":10261,"uses":10262,"economic":10263,"Sol":10264,"Games":10265,"##writ":10266,"source":10267,"Cle":10268,"##cle":10269,"##thel":10270,"##ylv":10271,"Stan":10272,"Tri":10273,"##sis":10274,"quality":10275,"##kn":10276,"##gypt":10277,"##ulations":10278,"47":10279,"hundred":10280,"##ols":10281,"starting":10282,"conducted":10283,"Book":10284,"##thur":10285,"specific":10286,"65":10287,"strugg":10288,"allowing":10289,"Egypt":10290,"##light":10291,"Society":10292,"Ro":10293,"beat":10294,"1942":10295,"Ap":10296,"##bed":10297,"presence":10298,"sides":10299,"Jer":10300,"viewers":10301,"##ada":10302,"Oh":10303,"##wh":10304,"Sur":10305,"Win":10306,"dance":10307,"##ait":10308,"metres":10309,"chap":10310,"##ications":10311,"##sych":10312,"univers":10313,"Sil":10314,"suppl":10315,"exhib":10316,"rule":10317,"Prince":10318,"Southern":10319,"distinct":10320,"Clark":10321,"Sat":10322,"transferred":10323,"Stephen":10324,"raid":10325,"potential":10326,"Fin":10327,"##teen":10328,"Committee":10329,"foreign":10330,"Georg":10331,"Beat":10332,"Latin":10333,"Oxford":10334,"##inet":10335,"##mark":10336,"peaked":10337,"Spec":10338,"##itiz":10339,"enemy":10340,"ple":10341,"your":10342,"mel":10343,"##of":10344,"Hal":10345,"captain":10346,"becomes":10347,"traffic":10348,"advance":10349,"owned":10350,"things":10351,"founded":10352,"Ver":10353,"greater":10354,"Bas":10355,"Joseph":10356,"Like":10357,"52":10358,"46":10359,"big":10360,"vocal":10361,"Admiral":10362,"attend":10363,"News":10364,"concluded":10365,"portion":10366,"64":10367,"Brad":10368,"##very":10369,"scoring":10370,"castle":10371,"43":10372,"respond":10373,"stories":10374,"property":10375,"##iance":10376,"attempts":10377,"Camb":10378,"encoun":10379,"Boston":10380,"ded":10381,"relatively":10382,"mess":10383,"Harrison":10384,"Chief":10385,"Manchester":10386,"appar":10387,"primarily":10388,"demonst":10389,"44":10390,"Jeff":10391,"federal":10392,"financial":10393,"Class":10394,"Form":10395,"##rawn":10396,"##fect":10397,"Because":10398,"actually":10399,"Before":10400,"animals":10401,"Captain":10402,"Swed":10403,"observed":10404,"Hurricane":10405,"tourn":10406,"collection":10407,"opportun":10408,"Dire":10409,"multiple":10410,"Vietn":10411,"titled":10412,"##udd":10413,"##istics":10414,"Tim":10415,"featuring":10416,"Sk":10417,"writers":10418,"contact":10419,"Bat":10420,"Dev":10421,"Pan":10422,"write":10423,"1944":10424,"ge":10425,"inch":10426,"journal":10427,"Bridge":10428,"strength":10429,"Def":10430,"wor":10431,"Ott":10432,"##stein":10433,"mechan":10434,"weaken":10435,"situation":10436,"##umber":10437,"spot":10438,"paid":10439,"##we":10440,"distance":10441,"premi":10442,"parents":10443,"Commission":10444,"Battalion":10445,"independent":10446,"Ke":10447,"Max":10448,"passeng":10449,"figure":10450,"##de":10451,"actor":10452,"acting":10453,"companies":10454,"tur":10455,"progress":10456,"Columb":10457,"divided":10458,"Carl":10459,"##ih":10460,"Paris":10461,"mind":10462,"onto":10463,"##mas":10464,"##iced":10465,"Van":10466,"collabor":10467,"link":10468,"Luc":10469,"##ental":10470,"##anna":10471,"target":10472,"slightly":10473,"function":10474,"piece":10475,"share":10476,"Series":10477,"Mod":10478,"reform":10479,"selling":10480,"##perial":10481,"##ricket":10482,"powerful":10483,"torped":10484,"concent":10485,"rating":10486,"innings":10487,"##chest":10488,"##rel":10489,"er":10490,"plays":10491,"##eball":10492,"Ma":10493,"##astic":10494,"era":10495,"BBC":10496,"##istry":10497,"lot":10498,"today":10499,"##osaur":10500,"broke":10501,"Pop":10502,"##uge":10503,"cho":10504,"##annel":10505,"##oration":10506,"walk":10507,"Croat":10508,"actions":10509,"waters":10510,"ultimately":10511,"##ply":10512,"rough":10513,"trial":10514,"Histor":10515,"##sen":10516,"maximum":10517,"Life":10518,"##aga":10519,"##acts":10520,"log":10521,"##venue":10522,"pilot":10523,"Hor":10524,"bound":10525,"Mic":10526,"Adv":10527,"##mond":10528,"completely":10529,"Academy":10530,"blue":10531,"sought":10532,"1920":10533,"policy":10534,"1945":10535,"scale":10536,"interp":10537,"society":10538,"Line":10539,"behav":10540,"Young":10541,"##illa":10542,"hus":10543,"Saint":10544,"##ota":10545,"Museum":10546,"150":10547,"mainly":10548,"ess":10549,"designated":10550,"1941":10551,"Den":10552,"Way":10553,"officials":10554,"struck":10555,"bene":10556,"transl":10557,"##hips":10558,"##king":10559,"influenced":10560,"suc":10561,"activity":10562,"combined":10563,"wear":10564,"square":10565,"##olved":10566,"corn":10567,"##iano":10568,"search":10569,"sn":10570,"Entertainment":10571,"Little":10572,"vess":10573,"Italy":10574,"##omy":10575,"thous":10576,"calling":10577,"contrast":10578,"alongside":10579,"elev":10580,"northeast":10581,"seconds":10582,"##AS":10583,"batter":10584,"Brigade":10585,"sout":10586,"Wind":10587,"##while":10588,"Americans":10589,"winter":10590,"Lee":10591,"sources":10592,"##right":10593,"Ell":10594,"seg":10595,"background":10596,"##adel":10597,"webs":10598,"More":10599,"ice":10600,"theory":10601,"##ube":10602,"Tod":10603,"recent":10604,"mem":10605,"crow":10606,"gained":10607,"nominated":10608,"##za":10609,"conver":10610,"platform":10611,"electric":10612,"##HL":10613,"Aut":10614,"Ire":10615,"artists":10616,"encour":10617,"Regiment":10618,"widely":10619,"naval":10620,"##quarters":10621,"Add":10622,"weather":10623,"systems":10624,"promoted":10625,"##TV":10626,"confirmed":10627,"51":10628,"Spr":10629,"results":10630,"Ireland":10631,"reaching":10632,"proved":10633,"Avenue":10634,"##edd":10635,"passing":10636,"##pson":10637,"##ibrary":10638,"albums":10639,"Good":10640,"Fleet":10641,"explained":10642,"subsequent":10643,"greatest":10644,"conflict":10645,"news":10646,"feed":10647,"wick":10648,"content":10649,"invasion":10650,"Ray":10651,"1989":10652,"coming":10653,"charge":10654,"peace":10655,"resist":10656,"##ips":10657,"sixth":10658,"compr":10659,"##ias":10660,"##ala":10661,"##aven":10662,"Bus":10663,"northwest":10664,"##essions":10665,"county":10666,"Orig":10667,"adj":10668,"1943":10669,"shortly":10670,"##iring":10671,"versions":10672,"path":10673,"serve":10674,"causing":10675,"says":10676,"sust":10677,"##ipment":10678,"expressed":10679,"reception":10680,"Ry":10681,"##iro":10682,"Victoria":10683,"Sant":10684,"##ero":10685,"##itness":10686,"##known":10687,"Work":10688,"Sub":10689,"Catholic":10690,"##itan":10691,"residents":10692,"emot":10693,"Norm":10694,"border":10695,"Charl":10696,"##ić":10697,"Tropical":10698,"deliv":10699,"soundtrack":10700,"chem":10701,"stay":10702,"Valley":10703,"cities":10704,"poll":10705,"Live":10706,"##ancy":10707,"##inson":10708,"seasons":10709,"green":10710,"talk":10711,"##bon":10712,"##arn":10713,"##ategory":10714,"appearances":10715,"sense":10716,"##ugh":10717,"sexual":10718,"Light":10719,"pun":10720,"##oof":10721,"##ufact":10722,"hospital":10723,"require":10724,"Di":10725,"physical":10726,"Dani":10727,"hands":10728,"identified":10729,"##AA":10730,"older":10731,"kg":10732,"##ighth":10733,"Roll":10734,"Ram":10735,"Though":10736,"Dun":10737,"document":10738,"true":10739,"tells":10740,"offer":10741,"Liber":10742,"##unction":10743,"Commun":10744,"iron":10745,"##arden":10746,"artillery":10747,"##ram":10748,"Conf":10749,"represented":10750,"Show":10751,"##ms":10752,"Vol":10753,"hors":10754,"##isher":10755,"weapons":10756,"Fre":10757,"gas":10758,"eas":10759,"Football":10760,"ahead":10761,"Through":10762,"##icient":10763,"negot":10764,"##ylvania":10765,"fle":10766,"Tay":10767,"Jul":10768,"Week":10769,"heavily":10770,"Bey":10771,"pal":10772,"laws":10773,"Upon":10774,"##och":10775,"##abeth":10776,"Hear":10777,"avoid":10778,"Dutch":10779,"Ill":10780,"defense":10781,"student":10782,"alone":10783,"image":10784,"spread":10785,"studies":10786,"officially":10787,"Eliz":10788,"husband":10789,"bit":10790,"compar":10791,"district":10792,"executive":10793,"Albert":10794,"instit":10795,"Tem":10796,"debuted":10797,"wild":10798,"entr":10799,"##emic":10800,"prominent":10801,"capture":10802,"pack":10803,"appeal":10804,"consisted":10805,"send":10806,"injury":10807,"Top":10808,"Bre":10809,"fired":10810,"Mat":10811,"##lers":10812,"organization":10813,"equipment":10814,"##load":10815,"Rog":10816,"resc":10817,"##ockey":10818,"stone":10819,"pattern":10820,"##pool":10821,"defend":10822,"instrument":10823,"argued":10824,"aired":10825,"figures":10826,"Bond":10827,"Gal":10828,"surpr":10829,"Dam":10830,"exped":10831,"eth":10832,"growth":10833,"Civil":10834,"##acity":10835,"##rical":10836,"Homer":10837,"pict":10838,"ring":10839,"doing":10840,"magn":10841,"returning":10842,"53":10843,"suit":10844,"600":10845,"tun":10846,"doub":10847,"contemporary":10848,"##ushed":10849,"85":10850,"poet":10851,"ox":10852,"weight":10853,"hers":10854,"##bur":10855,"##lam":10856,"habit":10857,"laid":10858,"step":10859,"##amber":10860,"earth":10861,"leaders":10862,"floor":10863,"affected":10864,"Northern":10865,"matter":10866,"Hard":10867,"pieces":10868,"##lines":10869,"##appen":10870,"##ayer":10871,"##hew":10872,"tal":10873,"propos":10874,"Storm":10875,"Jon":10876,"pan":10877,"maintained":10878,"here":10879,"rang":10880,"occasion":10881,"shell":10882,"##ifying":10883,"visited":10884,"##ym":10885,"hyd":10886,"Jud":10887,"termin":10888,"stra":10889,"comes":10890,"speech":10891,"crowd":10892,"##acher":10893,"criticized":10894,"chair":10895,"activities":10896,"hall":10897,"Carolina":10898,"##pass":10899,"exec":10900,"Conn":10901,"Rom":10902,"##acement":10903,"citiz":10904,"##duction":10905,"tournament":10906,"##ners":10907,"##rain":10908,"Ros":10909,"reign":10910,"Field":10911,"emph":10912,"toward":10913,"##ocked":10914,"singles":10915,"drug":10916,"##uls":10917,"##isco":10918,"Men":10919,"reference":10920,"##intend":10921,"Scottish":10922,"couple":10923,"senior":10924,"1987":10925,"formation":10926,"##elve":10927,"adapt":10928,"setting":10929,"Marsh":10930,"medical":10931,"##ivity":10932,"worldwide":10933,"System":10934,"bud":10935,"territory":10936,"trying":10937,"Government":10938,"1988":10939,"##stone":10940,"Holly":10941,"surre":10942,"trees":10943,"stations":10944,"dog":10945,"roll":10946,"Writ":10947,"birds":10948,"Fantasy":10949,"Colon":10950,"god":10951,"##amm":10952,"doll":10953,"Operation":10954,"Rod":10955,"Background":10956,"##eller":10957,"machine":10958,"Governor":10959,"murder":10960,"##embly":10961,"claims":10962,"56":10963,"District":10964,"##anger":10965,"##agn":10966,"cell":10967,"Home":10968,"guest":10969,"historian":10970,"Guard":10971,"risk":10972,"rainfall":10973,"##orne":10974,"accident":10975,"Penns":10976,"fully":10977,"load":10978,"##uled":10979,"value":10980,"##rie":10981,"therefore":10982,"Duke":10983,"##hlet":10984,"chosen":10985,"treatment":10986,"university":10987,"##rael":10988,"Short":10989,"##eman":10990,"##velopment":10991,"bott":10992,"sens":10993,"twice":10994,"Studios":10995,"##illy":10996,"frequently":10997,"Girl":10998,"##ote":10999,"ut":11000,"##tle":11001,"##omers":11002,"##aved":11003,"##ordin":11004,"Polish":11005,"Lew":11006,"54":11007,"reports":11008,"Castle":11009,"##stitution":11010,"leaves":11011,"governor":11012,"##irty":11013,"paper":11014,"remark":11015,"Senate":11016,"address":11017,"##uous":11018,"##ampion":11019,"dyn":11020,"##izes":11021,"Eastern":11022,"label":11023,"##ading":11024,"color":11025,"MD":11026,"faced":11027,"##ledge":11028,"opin":11029,"Hon":11030,"fear":11031,"walls":11032,"Corn":11033,"follows":11034,"billion":11035,"Sel":11036,"operated":11037,"##ici":11038,"grew":11039,"##antine":11040,"##ano":11041,"surrounding":11042,"95":11043,"Mean":11044,"planet":11045,"##ucky":11046,"Andrew":11047,"##azz":11048,"##antly":11049,"manufact":11050,"Bart":11051,"contained":11052,"##onents":11053,"condition":11054,"degree":11055,"observ":11056,"##resp":11057,"herself":11058,"##aming":11059,"Christmas":11060,"##ety":11061,"Mur":11062,"##ns":11063,"accompan":11064,"wounded":11065,"typically":11066,"##ager":11067,"visual":11068,"##bit":11069,"Allied":11070,"Os":11071,"impress":11072,"passes":11073,"challeng":11074,"master":11075,"simply":11076,"Wilson":11077,"fuel":11078,"brown":11079,"Night":11080,"escape":11081,"##isters":11082,"##utation":11083,"97":11084,"fair":11085,"railway":11086,"Inst":11087,"element":11088,"sle":11089,"Taylor":11090,"reinfor":11091,"editor":11092,"lives":11093,"phil":11094,"ir":11095,"1986":11096,"orders":11097,"##add":11098,"arms":11099,"Elizabeth":11100,"##fully":11101,"##pton":11102,"nothing":11103,"serving":11104,"Hum":11105,"mis":11106,"camer":11107,"Alexander":11108,"authority":11109,"chose":11110,"##ancing":11111,"opposed":11112,"workers":11113,"moment":11114,"vote":11115,"consecutive":11116,"cannot":11117,"##ricult":11118,"Each":11119,"Jac":11120,"newly":11121,"hun":11122,"##anda":11123,"##gend":11124,"fan":11125,"native":11126,"burn":11127,"unknown":11128,"Pers":11129,"Joe":11130,"participated":11131,"Far":11132,"growing":11133,"casual":11134,"website":11135,"Chart":11136,"Cy":11137,"emphas":11138,"psych":11139,"attrib":11140,"Of":11141,"bass":11142,"##war":11143,"producers":11144,"##andy":11145,"newspaper":11146,"extra":11147,"benef":11148,"Det":11149,"losing":11150,"Festival":11151,"advanced":11152,"adopted":11153,"##ilies":11154,"filming":11155,"##imens":11156,"coal":11157,"##ype":11158,"Sound":11159,"##St":11160,"heard":11161,"Ret":11162,"spirit":11163,"severe":11164,"Pennsylvania":11165,"offensive":11166,"177":11167,"opposition":11168,"fiction":11169,"##rich":11170,"What":11171,"Bru":11172,"##rong":11173,"lin":11174,"##ables":11175,"guard":11176,"##rane":11177,"##iot":11178,"capacity":11179,"##ola":11180,"basis":11181,"Islands":11182,"council":11183,"sequence":11184,"Pen":11185,"actors":11186,"Wat":11187,"Card":11188,"WW":11189,"Hy":11190,"Gall":11191,"ends":11192,"horses":11193,"ast":11194,"##room":11195,"Reception":11196,"Mike":11197,"weak":11198,"##cel":11199,"##TC":11200,"##orter":11201,"Blue":11202,"squadron":11203,"##isers":11204,"##eds":11205,"Middle":11206,"Land":11207,"prin":11208,"advant":11209,"Ocean":11210,"abandoned":11211,"##onc":11212,"SS":11213,"Irish":11214,"Further":11215,"Tech":11216,"rival":11217,"##under":11218,"Bab":11219,"kick":11220,"76":11221,"honor":11222,"##uses":11223,"syn":11224,"flying":11225,"steam":11226,"Alb":11227,"##min":11228,"##estic":11229,"##imet":11230,"Harry":11231,"bey":11232,"Fam":11233,"creating":11234,"##ocated":11235,"Jersey":11236,"##ura":11237,"##iel":11238,"sports":11239,"Spain":11240,"launch":11241,"filmed":11242,"Turk":11243,"Ly":11244,"61":11245,"regarded":11246,"happen":11247,"homes":11248,"normal":11249,"expansion":11250,"Us":11251,"criticism":11252,"individuals":11253,"##oma":11254,"178":11255,"##BA":11256,"beyond":11257,"##engt":11258,"agreement":11259,"Cat":11260,"##onn":11261,"incident":11262,"##ella":11263,"##apers":11264,"spect":11265,"sym":11266,"spring":11267,"failure":11268,"liber":11269,"##FA":11270,"##enture":11271,"Square":11272,"##la":11273,"shar":11274,"evac":11275,"deploy":11276,"dismiss":11277,"narr":11278,"CD":11279,"famous":11280,"Lind":11281,"sail":11282,"Coast":11283,"integ":11284,"measure":11285,"##igr":11286,"1939":11287,"eye":11288,"Are":11289,"possibly":11290,"boat":11291,"##etts":11292,"historical":11293,"negative":11294,"bodies":11295,"Wild":11296,"Mu":11297,"mob":11298,"achieved":11299,"parall":11300,"##ima":11301,"##ifications":11302,"believe":11303,"silver":11304,"Public":11305,"##rog":11306,"##inger":11307,"66":11308,"roles":11309,"End":11310,"Mul":11311,"narrow":11312,"Production":11313,"##iny":11314,"killing":11315,"##imal":11316,"retired":11317,"Broad":11318,"Dan":11319,"ideas":11320,"Israel":11321,"strike":11322,"fellow":11323,"Institute":11324,"rid":11325,"hair":11326,"##iana":11327,"supply":11328,"drive":11329,"##onent":11330,"disease":11331,"##mosp":11332,"Arthur":11333,"##more":11334,"torpedo":11335,"imag":11336,"Pu":11337,"diam":11338,"Mid":11339,"briefly":11340,"Revolution":11341,"##kins":11342,"1985":11343,"prompt":11344,"1968":11345,"task":11346,"Board":11347,"##aith":11348,"##gent":11349,"effective":11350,"armed":11351,"tree":11352,"Germ":11353,"Ash":11354,"tower":11355,"##edom":11356,"Cub":11357,"##amin":11358,"budget":11359,"receive":11360,"administration":11361,"repeated":11362,"granted":11363,"necessary":11364,"personnel":11365,"roads":11366,"pet":11367,"Mir":11368,"Meanwhile":11369,"rejected":11370,"##ocks":11371,"Sund":11372,"##asts":11373,"athlet":11374,"unf":11375,"perman":11376,"Person":11377,"twelve":11378,"conce":11379,"Republican":11380,"Due":11381,"Les":11382,"kilometres":11383,"inh":11384,"Doctor":11385,"gross":11386,"##ga":11387,"improved":11388,"Head":11389,"Album":11390,"leadership":11391,"column":11392,"interchange":11393,"##avalry":11394,"extensive":11395,"trou":11396,"data":11397,"Ohio":11398,"##iments":11399,"##ourney":11400,"turns":11401,"straight":11402,"lands":11403,"57":11404,"plants":11405,"infantry":11406,"purpose":11407,"interact":11408,"management":11409,"defin":11410,"Att":11411,"seat":11412,"landing":11413,"describes":11414,"split":11415,"expanded":11416,"Prot":11417,"Ep":11418,"yellow":11419,"##mit":11420,"Secretary":11421,"solo":11422,"franch":11423,"Braz":11424,"choice":11425,"successfully":11426,"Lar":11427,"mile":11428,"broken":11429,"##adelph":11430,"##lusion":11431,"Ni":11432,"Lo":11433,"RA":11434,"800":11435,"crossing":11436,"didn":11437,"animal":11438,"intellig":11439,"1984":11440,"surrender":11441,"##uate":11442,"explos":11443,"Philadelph":11444,"fought":11445,"chor":11446,"excl":11447,"convention":11448,"##stream":11449,"##iday":11450,"##oured":11451,"organized":11452,"caught":11453,"types":11454,"vehicles":11455,"commissioned":11456,"##iate":11457,"suggests":11458,"Harv":11459,"Sher":11460,"##oln":11461,"62":11462,"glob":11463,"Even":11464,"Liver":11465,"acquired":11466,"##haps":11467,"##erc":11468,"##etball":11469,"places":11470,"committee":11471,"IS":11472,"120":11473,"drama":11474,"Georgia":11475,"##isf":11476,"creation":11477,"Mov":11478,"SR":11479,"Cambridge":11480,"##akers":11481,"##appy":11482,"##inth":11483,"ancient":11484,"##set":11485,"Hit":11486,"gives":11487,"Philadelphia":11488,"article":11489,"comedy":11490,"##gress":11491,"seventh":11492,"prefer":11493,"nuclear":11494,"rom":11495,"soft":11496,"wave":11497,"##iable":11498,"##rot":11499,"##iations":11500,"##gu":11501,"authorities":11502,"roof":11503,"contain":11504,"headquarters":11505,"assault":11506,"Mah":11507,"Also":11508,"##ava":11509,"1967":11510,"centuries":11511,"commonly":11512,"determined":11513,"islands":11514,"genus":11515,"rear":11516,"Ur":11517,"Addition":11518,"mentioned":11519,"Russia":11520,"##ii":11521,"##umes":11522,"recently":11523,"looking":11524,"controlled":11525,"gather":11526,"beaut":11527,"Tra":11528,"Burn":11529,"##restling":11530,"Never":11531,"Common":11532,"Belg":11533,"sets":11534,"##ipl":11535,"families":11536,"Among":11537,"household":11538,"Sup":11539,"aim":11540,"##hol":11541,"security":11542,"experiment":11543,"Liverpool":11544,"upgr":11545,"##ping":11546,"convers":11547,"finds":11548,"street":11549,"advert":11550,"decre":11551,"Nintend":11552,"acad":11553,"standing":11554,"Linc":11555,"##acks":11556,"##ishes":11557,"##outs":11558,"illust":11559,"Nintendo":11560,"##cer":11561,"58":11562,"Chap":11563,"singing":11564,"Bor":11565,"withdraw":11566,"##fort":11567,"Earl":11568,"Hay":11569,"fish":11570,"bal":11571,"dial":11572,"74":11573,"battalion":11574,"Jenn":11575,"Prime":11576,"Columbia":11577,"unique":11578,"sac":11579,"##itled":11580,"##agement":11581,"##orship":11582,"containing":11583,"height":11584,"cultural":11585,"entirely":11586,"Pot":11587,"orchest":11588,"protect":11589,"mol":11590,"rob":11591,"finish":11592,"##ao":11593,"touchdown":11594,"mist":11595,"Asia":11596,"contributed":11597,"Singap":11598,"themes":11599,"Korean":11600,"Development":11601,"##agan":11602,"younger":11603,"provides":11604,"deck":11605,"Lieutenant":11606,"flooding":11607,"Brazil":11608,"1983":11609,"extr":11610,"Ven":11611,"72":11612,"atmosp":11613,"##iences":11614,"Child":11615,"awards":11616,"titles":11617,"##ulate":11618,"purchased":11619,"Kel":11620,"Jewish":11621,"powers":11622,"##inity":11623,"arrival":11624,"Dark":11625,"##eless":11626,"scheduled":11627,"defensive":11628,"Francisco":11629,"Bad":11630,"##respond":11631,"##icial":11632,"resemb":11633,"thing":11634,"accompanied":11635,"Singapore":11636,"ceremony":11637,"unus":11638,"quite":11639,"1964":11640,"Lincoln":11641,"worth":11642,"perfect":11643,"expedition":11644,"Six":11645,"formula":11646,"People":11647,"fat":11648,"wa":11649,"##zer":11650,"1969":11651,"##illing":11652,"locations":11653,"Wars":11654,"existing":11655,"##essor":11656,"try":11657,"advantage":11658,"performing":11659,"Carey":11660,"philos":11661,"Office":11662,"computer":11663,"dedicated":11664,"Lis":11665,"Gil":11666,"Disney":11667,"##water":11668,"extrem":11669,"##hens":11670,"request":11671,"##wall":11672,"Key":11673,"##laim":11674,"intensity":11675,"##Station":11676,"1914":11677,"occupied":11678,"59":11679,"1918":11680,"why":11681,"Mot":11682,"squad":11683,"PlayStation":11684,"Kir":11685,"fresh":11686,"##pe":11687,"HMS":11688,"Order":11689,"mounted":11690,"##usc":11691,"##iger":11692,"##ashion":11693,"nob":11694,"tail":11695,"cry":11696,"1982":11697,"Brook":11698,"##ker":11699,"##roll":11700,"fix":11701,"Turn":11702,"##ompl":11703,"1971":11704,"mouth":11705,"##fri":11706,"Balt":11707,"recru":11708,"cricket":11709,"99":11710,"firm":11711,"##yph":11712,"closely":11713,"Brian":11714,"consists":11715,"store":11716,"currently":11717,"Lewis":11718,"Miller":11719,"Steve":11720,"lic":11721,"session":11722,"1966":11723,"Norw":11724,"Byz":11725,"Anderson":11726,"mic":11727,"1972":11728,"##rons":11729,"Radio":11730,"Conference":11731,"##yles":11732,"tim":11733,"Press":11734,"1979":11735,"Ka":11736,"egg":11737,"industrial":11738,"Die":11739,"##mouth":11740,"elimin":11741,"Prov":11742,"simple":11743,"piano":11744,"Once":11745,"facilities":11746,"cold":11747,"##ilton":11748,"supporting":11749,"survey":11750,"drawn":11751,"Grant":11752,"##omot":11753,"alt":11754,"Olympic":11755,"Ball":11756,"Serb":11757,"rot":11758,"trains":11759,"##ega":11760,"rated":11761,"graph":11762,"belong":11763,"protection":11764,"boats":11765,"Gro":11766,"rise":11767,"Daniel":11768,"##mann":11769,"unsu":11770,"defined":11771,"selection":11772,"Var":11773,"harm":11774,"##ption":11775,"Barb":11776,"1965":11777,"Tam":11778,"regions":11779,"submar":11780,"protected":11781,"Railway":11782,"pros":11783,"calls":11784,"drop":11785,"NHL":11786,"##oster":11787,"Emperor":11788,"comic":11789,"motion":11790,"throw":11791,"trail":11792,"structures":11793,"##awa":11794,"##osa":11795,"aid":11796,"shark":11797,"lap":11798,"labor":11799,"##ware":11800,"focused":11801,"1975":11802,"opportunity":11803,"engaged":11804,"receiving":11805,"63":11806,"##iration":11807,"correspond":11808,"shooting":11809,"analysis":11810,"citizens":11811,"motor":11812,"##rom":11813,"Inc":11814,"strengt":11815,"Gulf":11816,"notable":11817,"adap":11818,"77":11819,"vert":11820,"eyes":11821,"Jr":11822,"Sev":11823,"Ob":11824,"##ctions":11825,"flow":11826,"##enue":11827,"Summer":11828,"Water":11829,"experienced":11830,"dry":11831,"Germans":11832,"Hollywood":11833,"##ua":11834,"mut":11835,"providing":11836,"##eet":11837,"conference":11838,"holding":11839,"Walter":11840,"##oh":11841,"Bell":11842,"73":11843,"mountain":11844,"1974":11845,"Only":11846,"resident":11847,"Davis":11848,"sport":11849,"southeast":11850,"hired":11851,"charts":11852,"Lab":11853,"##unior":11854,"##zen":11855,"viewed":11856,"merch":11857,"branch":11858,"##burgh":11859,"##heim":11860,"##ifically":11861,"##FL":11862,"##olt":11863,"rapidly":11864,"recognized":11865,"1973":11866,"volume":11867,"vac":11868,"la":11869,"transform":11870,"Gib":11871,"Democratic":11872,"hero":11873,"Review":11874,"scholars":11875,"sites":11876,"Fall":11877,"gain":11878,"Jean":11879,"##iat":11880,"Special":11881,"casualties":11882,"teach":11883,"Bul":11884,"hyp":11885,"shared":11886,"concer":11887,"UN":11888,"Between":11889,"digital":11890,"publication":11891,"##yer":11892,"cart":11893,"temperature":11894,"1976":11895,"moder":11896,"economy":11897,"Bank":11898,"Rome":11899,"developing":11900,"steel":11901,"reaction":11902,"edge":11903,"##ownt":11904,"##standing":11905,"Lady":11906,"Princ":11907,"cool":11908,"Hun":11909,"symbol":11910,"rare":11911,"intersection":11912,"67":11913,"rac":11914,"approved":11915,"##oncé":11916,"secondary":11917,"Te":11918,"chance":11919,"##ographic":11920,"Gord":11921,"Nap":11922,"von":11923,"Sand":11924,"250":11925,"##omew":11926,"losses":11927,"myth":11928,"contest":11929,"prepared":11930,"forest":11931,"belief":11932,"substant":11933,"Mas":11934,"Daily":11935,"##eral":11936,"enl":11937,"Musl":11938,"##iful":11939,"letters":11940,"##ologist":11941,"Women":11942,"significantly":11943,"witness":11944,"bands":11945,"sort":11946,"##rations":11947,"##onder":11948,"card":11949,"save":11950,"Naz":11951,"exact":11952,"##rif":11953,"Syd":11954,"knew":11955,"##avel":11956,"goes":11957,"literature":11958,"Beyoncé":11959,"Gen":11960,"unsuccess":11961,"portray":11962,"heads":11963,"Mos":11964,"##achus":11965,"southwest":11966,"actress":11967,"technology":11968,"##ador":11969,"descend":11970,"roughly":11971,"ver":11972,"##eel":11973,"##igation":11974,"##ographer":11975,"urban":11976,"##istan":11977,"##asty":11978,"lb":11979,"Sa":11980,"##ules":11981,"cab":11982,"IV":11983,"Command":11984,"semi":11985,"##vin":11986,"82":11987,"96":11988,"Fair":11989,"##theless":11990,"##worth":11991,"painting":11992,"adult":11993,"anything":11994,"pitch":11995,"87":11996,"##unte":11997,"projects":11998,"##sey":11999,"Indust":12000,"Colonel":12001,"68":12002,"Abb":12003,"brothers":12004,"gameplay":12005,"resistance":12006,"Point":12007,"shape":12008,"Bern":12009,"Nick":12010,"equal":12011,"##orters":12012,"unp":12013,"sand":12014,"storyline":12015,"cars":12016,"Supreme":12017,"##box":12018,"reasons":12019,"rules":12020,"Ten":12021,"tank":12022,"##iminal":12023,"employed":12024,"##ropri":12025,"##break":12026,"Kentucky":12027,"daily":12028,"Station":12029,"shall":12030,"1946":12031,"injured":12032,"##ete":12033,"franchise":12034,"watched":12035,"##aka":12036,"1981":12037,"agent":12038,"shaped":12039,"##onym":12040,"##ali":12041,"popularity":12042,"##oir":12043,"##ko":12044,"composition":12045,"Philipp":12046,"core":12047,"##icts":12048,"isol":12049,"perhaps":12050,"adding":12051,"enjoyed":12052,"renamed":12053,"opinion":12054,"##osl":12055,"Independ":12056,"getting":12057,"##omic":12058,"calc":12059,"dram":12060,"declined":12061,"##rec":12062,"Ross":12063,"##ato":12064,"Norway":12065,"lov":12066,"reputation":12067,"nor":12068,"##án":12069,"Main":12070,"##atures":12071,"Prem":12072,"##ients":12073,"Theat":12074,"1917":12075,"estate":12076,"connected":12077,"81":12078,"Gra":12079,"Ha":12080,"retire":12081,"undert":12082,"museum":12083,"drew":12084,"tend":12085,"poem":12086,"regarding":12087,"Olympics":12088,"views":12089,"stages":12090,"converted":12091,"##ulpt":12092,"##rett":12093,"##istol":12094,"Golden":12095,"Massachus":12096,"##onia":12097,"##inking":12098,"hydro":12099,"Ron":12100,"##iform":12101,"agricult":12102,"sun":12103,"##bound":12104,"allows":12105,"nick":12106,"distingu":12107,"alternative":12108,"Massachusetts":12109,"Elect":12110,"160":12111,"##rets":12112,"headed":12113,"journey":12114,"Sus":12115,"depth":12116,"Dream":12117,"missing":12118,"cited":12119,"increasingly":12120,"700":12121,"##osis":12122,"stadium":12123,"approached":12124,"##evin":12125,"turning":12126,"Airport":12127,"69":12128,"##kes":12129,"table":12130,"responded":12131,"exerc":12132,"planning":12133,"knowledge":12134,"91":12135,"1948":12136,"easily":12137,"ign":12138,"wealth":12139,"##ba":12140,"overl":12141,"cells":12142,"##ira":12143,"##ilding":12144,"parallel":12145,"Walk":12146,"fashion":12147,"escort":12148,"About":12149,"tall":12150,"collected":12151,"succeeded":12152,"##psons":12153,"constitution":12154,"Han":12155,"##erse":12156,"##ora":12157,"flu":12158,"instruct":12159,"Hart":12160,"Whit":12161,"safety":12162,"Ken":12163,"trip":12164,"rebu":12165,"existence":12166,"##itors":12167,"##unicip":12168,"Run":12169,"##put":12170,"introduction":12171,"##ignment":12172,"pul":12173,"Simpsons":12174,"occas":12175,"models":12176,"learned":12177,"##apped":12178,"auth":12179,"Init":12180,"sustained":12181,"##ader":12182,"78":12183,"promotion":12184,"operating":12185,"colle":12186,"rhy":12187,"##ati":12188,"alle":12189,"1978":12190,"##oted":12191,"##uration":12192,"##eased":12193,"##wise":12194,"baseball":12195,"McG":12196,"carrying":12197,"Cas":12198,"limit":12199,"appoint":12200,"Songs":12201,"exchange":12202,"showing":12203,"youth":12204,"Imperial":12205,"buried":12206,"Vietnam":12207,"Est":12208,"humans":12209,"##hr":12210,"defence":12211,"subm":12212,"credited":12213,"AD":12214,"##iling":12215,"##come":12216,"##iants":12217,"bed":12218,"##inary":12219,"##era":12220,"arranged":12221,"Ottoman":12222,"improve":12223,"impl":12224,"seems":12225,"94":12226,"Jay":12227,"weakened":12228,"1915":12229,"Cape":12230,"designs":12231,"bul":12232,"##entions":12233,"Shortly":12234,"joint":12235,"ton":12236,"##icks":12237,"paint":12238,"producing":12239,"proceed":12240,"Poland":12241,"Sydney":12242,"1977":12243,"freeway":12244,"Ut":12245,"earliest":12246,"Maryland":12247,"prote":12248,"flat":12249,"98":12250,"Who":12251,"landfall":12252,"lasted":12253,"Id":12254,"settlement":12255,"Pict":12256,"note":12257,"Roy":12258,"description":12259,"Bra":12260,"retained":12261,"acres":12262,"Stew":12263,"Moore":12264,"##oz":12265,"##aising":12266,"Rem":12267,"Naval":12268,"71":12269,"MTV":12270,"##ivalent":12271,"Int":12272,"genre":12273,"hol":12274,"programs":12275,"consc":12276,"assistant":12277,"##ources":12278,"playoff":12279,"replace":12280,"Ari":12281,"impr":12282,"install":12283,"Laur":12284,"reserve":12285,"##issance":12286,"Jes":12287,"synt":12288,"statement":12289,"virt":12290,"applied":12291,"catch":12292,"root":12293,"trust":12294,"1963":12295,"Spring":12296,"Pass":12297,"violence":12298,"Arts":12299,"neut":12300,"scientific":12301,"domestic":12302,"coastal":12303,"##othes":12304,"entrance":12305,"89":12306,"##iege":12307,"##insula":12308,"hits":12309,"Inv":12310,"##rell":12311,"maintain":12312,"consequ":12313,"Greg":12314,"unl":12315,"Bowl":12316,"exclus":12317,"sculpt":12318,"battery":12319,"items":12320,"##eler":12321,"candidate":12322,"##owntown":12323,"indicated":12324,"towns":12325,"1916":12326,"gradually":12327,"distribution":12328,"politics":12329,"Plan":12330,"delivered":12331,"##leton":12332,"##taining":12333,"stopped":12334,"filled":12335,"AC":12336,"independence":12337,"IG":12338,"tact":12339,"##izations":12340,"sections":12341,"details":12342,"Confeder":12343,"Mulder":12344,"van":12345,"thin":12346,"88":12347,"cinem":12348,"##eton":12349,"combination":12350,"##lan":12351,"supplies":12352,"ways":12353,"glass":12354,"eld":12355,"##emies":12356,"parties":12357,"1919":12358,"stream":12359,"engines":12360,"##math":12361,"##ushing":12362,"prisoners":12363,"camera":12364,"Gordon":12365,"Stadium":12366,"register":12367,"Rhodes":12368,"campus":12369,"##apes":12370,"1962":12371,"Well":12372,"##gency":12373,"##ario":12374,"79":12375,"acts":12376,"extremely":12377,"entitled":12378,"secure":12379,"##hi":12380,"Band":12381,"##reets":12382,"##time":12383,"pret":12384,"##greg":12385,"finding":12386,"##urring":12387,"##itage":12388,"Univers":12389,"##iques":12390,"online":12391,"decade":12392,"Bir":12393,"##ras":12394,"Staff":12395,"##ela":12396,"##poration":12397,"##inois":12398,"##ropol":12399,"Prof":12400,"##idden":12401,"Theatre":12402,"1938":12403,"Down":12404,"##acter":12405,"winner":12406,"arc":12407,"##iversary":12408,"repair":12409,"tick":12410,"evening":12411,"##AT":12412,"Cop":12413,"investigation":12414,"Kim":12415,"threatened":12416,"Here":12417,"bought":12418,"message":12419,"Vill":12420,"##okes":12421,"adapted":12422,"Bol":12423,"somew":12424,"survived":12425,"knots":12426,"et":12427,"consum":12428,"bask":12429,"Anth":12430,"studied":12431,"Iv":12432,"proposal":12433,"writes":12434,"##ashed":12435,"religion":12436,"deaths":12437,"Justice":12438,"##uzz":12439,"routes":12440,"Bon":12441,"regiment":12442,"Moon":12443,"download":12444,"ruled":12445,"Instead":12446,"relief":12447,"males":12448,"reduce":12449,"##ja":12450,"voted":12451,"##ighters":12452,"##ieval":12453,"revolution":12454,"Fire":12455,"spons":12456,"specifically":12457,"crown":12458,"##athan":12459,"92":12460,"##aked":12461,"phase":12462,"duty":12463,"Age":12464,"Bal":12465,"fict":12466,"kingdom":12467,"##ansas":12468,"##yphoon":12469,"recalled":12470,"Od":12471,"portrayed":12472,"soul":12473,"##BS":12474,"implement":12475,"Ast":12476,"Gill":12477,"##ealth":12478,"controversy":12479,"130":12480,"Memorial":12481,"##hat":12482,"##aug":12483,"##wick":12484,"causes":12485,"##bourne":12486,"Circ":12487,"##ervative":12488,"ble":12489,"##BN":12490,"everything":12491,"Tony":12492,"175":12493,"1956":12494,"breeding":12495,"ban":12496,"Nel":12497,"sell":12498,"references":12499,"stret":12500,"intention":12501,"ago":12502,"bottom":12503,"capable":12504,"wides":12505,"convin":12506,"importance":12507,"##opher":12508,"##aki":12509,"entry":12510,"meters":12511,"McK":12512,"Singles":12513,"offers":12514,"84":12515,"Kong":12516,"Pear":12517,"Power":12518,"tanks":12519,"##ads":12520,"##senal":12521,"Ok":12522,"il":12523,"Director":12524,"Seas":12525,"##entially":12526,"owner":12527,"internal":12528,"##ician":12529,"arrested":12530,"opera":12531,"Adams":12532,"admitted":12533,"bor":12534,"nomination":12535,"corner":12536,"emp":12537,"Jord":12538,"Alan":12539,"##encies":12540,"FA":12541,"1936":12542,"lit":12543,"##ront":12544,"##ipping":12545,"crossed":12546,"climb":12547,"products":12548,"Dougl":12549,"##eston":12550,"##after":12551,"Critical":12552,"installed":12553,"equipped":12554,"medal":12555,"Beach":12556,"IGN":12557,"##po":12558,"##know":12559,"preced":12560,"concerns":12561,"mort":12562,"Hamilton":12563,"Alf":12564,"Simon":12565,"invited":12566,"Maria":12567,"Engine":12568,"VII":12569,"din":12570,"acid":12571,"Adam":12572,"convoy":12573,"ones":12574,"conqu":12575,"interested":12576,"starts":12577,"fly":12578,"crime":12579,"principal":12580,"recommended":12581,"Your":12582,"tell":12583,"##eline":12584,"shel":12585,"##ranean":12586,"##ructure":12587,"##ek":12588,"remainder":12589,"Plot":12590,"Jane":12591,"##pread":12592,"shut":12593,"actual":12594,"Kennedy":12595,"Lev":12596,"UTC":12597,"##cement":12598,"retreat":12599,"stock":12600,"86":12601,"93":12602,"commit":12603,"charged":12604,"##chers":12605,"Bos":12606,"solid":12607,"apart":12608,"objects":12609,"funds":12610,"Cart":12611,"Fle":12612,"1961":12613,"Imp":12614,"door":12615,"##osaurus":12616,"gall":12617,"##ilation":12618,"composer":12619,"Sav":12620,"females":12621,"##hedral":12622,"consisting":12623,"Video":12624,"##owed":12625,"promote":12626,"Death":12627,"page":12628,"##har":12629,"##met":12630,"milit":12631,"##erted":12632,"price":12633,"NBA":12634,"Indones":12635,"considerable":12636,"Found":12637,"dates":12638,"pow":12639,"##ibb":12640,"1953":12641,"Nether":12642,"##ingly":12643,"snow":12644,"typical":12645,"Marc":12646,"grounds":12647,"skin":12648,"hear":12649,"Gun":12650,"Today":12651,"duties":12652,"extension":12653,"Eric":12654,"evolution":12655,"someone":12656,"##bro":12657,"Transport":12658,"##rete":12659,"rural":12660,"##esc":12661,"penal":12662,"Military":12663,"Sunday":12664,"eighth":12665,"##vements":12666,"##BI":12667,"spin":12668,"Indiana":12669,"Bry":12670,"hotel":12671,"Howard":12672,"decades":12673,"##osite":12674,"images":12675,"driving":12676,"reading":12677,"Norweg":12678,"Hou":12679,"identity":12680,"Pit":12681,"Scully":12682,"zone":12683,"##iller":12684,"##ubb":12685,"110":12686,"occurs":12687,"##hetic":12688,"manner":12689,"Hitler":12690,"##bar":12691,"subs":12692,"challenge":12693,"Leon":12694,"lane":12695,"remix":12696,"##icate":12697,"correct":12698,"aspects":12699,"permanent":12700,"frag":12701,"aer":12702,"brigade":12703,"1947":12704,"vir":12705,"ham":12706,"1937":12707,"volcan":12708,"dated":12709,"Cult":12710,"1958":12711,"Ele":12712,"Five":12713,"colour":12714,"Portug":12715,"Yank":12716,"noting":12717,"restaur":12718,"##icit":12719,"##iley":12720,"speak":12721,"Ryan":12722,"supporters":12723,"##ucks":12724,"WWE":12725,"slowly":12726,"clean":12727,"Nic":12728,"##ophy":12729,"1910":12730,"posted":12731,"##ensus":12732,"1957":12733,"##isis":12734,"##ivals":12735,"Science":12736,"describing":12737,"Research":12738,"##veland":12739,"involving":12740,"vessels":12741,"##ooth":12742,"##ione":12743,"entering":12744,"enemies":12745,"Hug":12746,"dress":12747,"Assembly":12748,"equivalent":12749,"classes":12750,"Argent":12751,"##aware":12752,"debate":12753,"settled":12754,"parliament":12755,"obtained":12756,"department":12757,"Constitution":12758,"##regon":12759,"accur":12760,"armor":12761,"Magazine":12762,"Rolling":12763,"Mountain":12764,"songwrit":12765,"basic":12766,"##erto":12767,"##agues":12768,"purchase":12769,"Kat":12770,"##ige":12771,"Disc":12772,"folk":12773,"##omatic":12774,"Rose":12775,"nest":12776,"patrol":12777,"oldest":12778,"Cleveland":12779,"faith":12780,"Lenn":12781,"concerned":12782,"departure":12783,"widespread":12784,"decline":12785,"formal":12786,"connection":12787,"Illinois":12788,"Pier":12789,"income":12790,"##iy":12791,"##alog":12792,"attached":12793,"disturb":12794,"Now":12795,"ll":12796,"Gram":12797,"recognition":12798,"##otic":12799,"Douglas":12800,"memorial":12801,"spr":12802,"certified":12803,"outer":12804,"Throughout":12805,"##heastern":12806,"accused":12807,"deleg":12808,"sequel":12809,"##orney":12810,"##iously":12811,"derived":12812,"Weekly":12813,"##err":12814,"decor":12815,"mode":12816,"Stand":12817,"Andy":12818,"Low":12819,"wearing":12820,"assumed":12821,"1959":12822,"##western":12823,"Jordan":12824,"Oregon":12825,"acknow":12826,"Stanley":12827,"torn":12828,"Freder":12829,"##ommod":12830,"Ca":12831,"Arsenal":12832,"acclaim":12833,"Feder":12834,"committed":12835,"foss":12836,"##ez":12837,"Media":12838,"##ertain":12839,"Forest":12840,"hosted":12841,"Third":12842,"Es":12843,"returns":12844,"##nic":12845,"valley":12846,"segment":12847,"Roger":12848,"sessions":12849,"populations":12850,"##agonist":12851,"fine":12852,"##ruption":12853,"denied":12854,"Mediter":12855,"Family":12856,"Treat":12857,"##wan":12858,"Recording":12859,"##rates":12860,"temple":12861,"Bet":12862,"champion":12863,"Beatles":12864,"##ta":12865,"flo":12866,"charges":12867,"Tenn":12868,"1954":12869,"literary":12870,"Bruce":12871,"Kevin":12872,"terminus":12873,"regional":12874,"thousands":12875,"Norwegian":12876,"demand":12877,"transition":12878,"1955":12879,"Project":12880,"Mediterranean":12881,"##achel":12882,"circum":12883,"supposed":12884,"Educ":12885,"##RA":12886,"##key":12887,"##iva":12888,"warm":12889,"Bristol":12890,"wickets":12891,"##emed":12892,"inher":12893,"##abb":12894,"Ira":12895,"shots":12896,"ISBN":12897,"Conc":12898,"Rain":12899,"hang":12900,"strongly":12901,"Philip":12902,"Ak":12903,"ec":12904,"Finn":12905,"circulation":12906,"intelligence":12907,"##heme":12908,"Ba":12909,"sailed":12910,"possibility":12911,"generation":12912,"passengers":12913,"hope":12914,"##IA":12915,"fictional":12916,"##ocal":12917,"##eph":12918,"animated":12919,"##oli":12920,"Az":12921,"##friend":12922,"thirty":12923,"##pres":12924,"##rophy":12925,"freedom":12926,"downtown":12927,"Channel":12928,"Mexican":12929,"answ":12930,"##lee":12931,"Federal":12932,"administr":12933,"83":12934,"##eget":12935,"Bush":12936,"hill":12937,"##ipe":12938,"Sky":12939,"rich":12940,"minister":12941,"behavior":12942,"cloud":12943,"##opes":12944,"Tar":12945,"##uan":12946,"brain":12947,"##mes":12948,"assistance":12949,"Let":12950,"replacement":12951,"begun":12952,"hip":12953,"fruit":12954,"commanded":12955,"Web":12956,"##CA":12957,"destruction":12958,"##atinum":12959,"moves":12960,"Dig":12961,"##onto":12962,"criminal":12963,"missed":12964,"missions":12965,"exception":12966,"costs":12967,"crash":12968,"##state":12969,"highlight":12970,"bringing":12971,"rar":12972,"Master":12973,"Pur":12974,"tied":12975,"Row":12976,"##isms":12977,"Ho":12978,"##anth":12979,"speaking":12980,"Korea":12981,"Within":12982,"feeling":12983,"##organ":12984,"##ategy":12985,"Bah":12986,"##ami":12987,"Space":12988,"##elsh":12989,"Additionally":12990,"unusual":12991,"Lisa":12992,"Fame":12993,"garr":12994,"finishing":12995,"alleged":12996,"demol":12997,"##urray":12998,"properties":12999,"incorporated":13000,"shop":13001,"stayed":13002,"opposite":13003,"attributed":13004,"1952":13005,"Phill":13006,"swim":13007,"volunte":13008,"recovered":13009,"##borne":13010,"Color":13011,"breaking":13012,"sons":13013,"emerged":13014,"serves":13015,"##roc":13016,"atmosphere":13017,"strateg":13018,"dipl":13019,"Morris":13020,"Norman":13021,"chorus":13022,"##enses":13023,"theatre":13024,"occasionally":13025,"driven":13026,"Sn":13027,"##umin":13028,"##othing":13029,"Scient":13030,"##ca":13031,"Robinson":13032,"Prior":13033,"dang":13034,"##riers":13035,"classic":13036,"##gers":13037,"ready":13038,"effectively":13039,"regularly":13040,"cavalry":13041,"##aza":13042,"Ow":13043,"establishment":13044,"prey":13045,"176":13046,"courts":13047,"methods":13048,"Raj":13049,"1933":13050,"sounds":13051,"vary":13052,"CE":13053,"Television":13054,"Hawai":13055,"divers":13056,"mo":13057,"Morgan":13058,"Similar":13059,"superv":13060,"Around":13061,"completion":13062,"strengthen":13063,"##oslav":13064,"ru":13065,"Unlike":13066,"materials":13067,"Rick":13068,"##uting":13069,"dream":13070,"Construction":13071,"Lanc":13072,"Ever":13073,"USA":13074,"responsibility":13075,"dissip":13076,"warning":13077,"accommod":13078,"heat":13079,"surviving":13080,"fields":13081,"attracted":13082,"province":13083,"persu":13084,"Nelson":13085,"Iron":13086,"##ersed":13087,"global":13088,"##nold":13089,"##va":13090,"##sew":13091,"##rupted":13092,"Nich":13093,"Francis":13094,"quant":13095,"classified":13096,"DE":13097,"differences":13098,"Premier":13099,"Budd":13100,"Mit":13101,"divisions":13102,"technical":13103,"Sweden":13104,"interpret":13105,"1935":13106,"Ford":13107,"Der":13108,"Techn":13109,"##don":13110,"cruiser":13111,"passage":13112,"##inton":13113,"##abled":13114,"aboard":13115,"PA":13116,"##uty":13117,"none":13118,"##oyd":13119,"Hell":13120,"Po":13121,"##aft":13122,"clubs":13123,"stood":13124,"association":13125,"##weight":13126,"Bou":13127,"intercept":13128,"ratings":13129,"eleven":13130,"neither":13131,"Patrick":13132,"collect":13133,"musicians":13134,"1949":13135,"1951":13136,"rooms":13137,"sam":13138,"desire":13139,"gal":13140,"Dor":13141,"Sports":13142,"separated":13143,"Toronto":13144,"Welsh":13145,"climate":13146,"##agle":13147,"ancest":13148,"Dog":13149,"Dick":13150,"Nations":13151,"shif":13152,"outbreak":13153,"classification":13154,"vehicle":13155,"Byzantine":13156,"reality":13157,"predecess":13158,"seemed":13159,"##idges":13160,"chemical":13161,"##burn":13162,"votes":13163,"picture":13164,"Cab":13165,"##pping":13166,"Allen":13167,"##teenth":13168,"battleships":13169,"rose":13170,"memory":13171,"##eness":13172,"##ogen":13173,"hoped":13174,"movements":13175,"Open":13176,"requested":13177,"##ji":13178,"Netherlands":13179,"Journal":13180,"Matthew":13181,"Every":13182,"raise":13183,"historians":13184,"basketball":13185,"nav":13186,"Ath":13187,"difficulty":13188,"illeg":13189,"##ito":13190,"##reck":13191,"Whe":13192,"##inder":13193,"expect":13194,"##sewhere":13195,"vide":13196,"##abil":13197,"##ón":13198,"communities":13199,"restored":13200,"Dean":13201,"##hire":13202,"##thm":13203,"teen":13204,"##uts":13205,"##ece":13206,"remember":13207,"obl":13208,"Gri":13209,"programme":13210,"kid":13211,"Jews":13212,"Conv":13213,"premiere":13214,"fal":13215,"delayed":13216,"##ds":13217,"Jacob":13218,"Ult":13219,"Sax":13220,"relative":13221,"inspiration":13222,"discovery":13223,"otherwise":13224,"Ts":13225,"##anny":13226,"greatly":13227,"USS":13228,"anniversary":13229,"injuries":13230,"Design":13231,"Again":13232,"neighbor":13233,"Temple":13234,"fit":13235,"accounts":13236,"satisf":13237,"1900":13238,"funding":13239,"surrounded":13240,"flank":13241,"Domin":13242,"praise":13243,"depict":13244,"penalty":13245,"spoke":13246,"Bull":13247,"batting":13248,"needs":13249,"Wy":13250,"inner":13251,"Iraq":13252,"dens":13253,"Gh":13254,"##ran":13255,"partner":13256,"crop":13257,"##ureau":13258,"massive":13259,"weapon":13260,"Marine":13261,"Oak":13262,"Bishop":13263,"claiming":13264,"suburb":13265,"assemb":13266,"astron":13267,"tries":13268,"forming":13269,"strategy":13270,"wrong":13271,"Front":13272,"Anne":13273,"lat":13274,"consult":13275,"##real":13276,"legend":13277,"accompl":13278,"documentary":13279,"06":13280,"Glob":13281,"##nings":13282,"Armen":13283,"fled":13284,"crosses":13285,"worst":13286,"architecture":13287,"Croatian":13288,"stands":13289,"##gets":13290,"Thompson":13291,"temporary":13292,"girls":13293,"determine":13294,"hal":13295,"Russell":13296,"dismissed":13297,"ash":13298,"Islam":13299,"involvement":13300,"Jam":13301,"Hop":13302,"category":13303,"bombard":13304,"Kelly":13305,"Trib":13306,"##rating":13307,"Last":13308,"plane":13309,"shr":13310,"Centre":13311,"Mars":13312,"remn":13313,"adaptation":13314,"##yard":13315,"NC":13316,"enth":13317,"ensure":13318,"convinced":13319,"##onds":13320,"NFL":13321,"Holy":13322,"Puerto":13323,"cul":13324,"resources":13325,"somewhat":13326,"reserv":13327,"Carter":13328,"pure":13329,"interests":13330,"Winter":13331,"turb":13332,"displ":13333,"##aya":13334,"scheme":13335,"medieval":13336,"immediate":13337,"sale":13338,"Hend":13339,"presidential":13340,"streets":13341,"##agre":13342,"Modern":13343,"library":13344,"carbon":13345,"absor":13346,"consp":13347,"Cooper":13348,"##body":13349,"die":13350,"##iggest":13351,"##itzer":13352,"ow":13353,"falling":13354,"ori":13355,"colonial":13356,"##ais":13357,"scrap":13358,"Along":13359,"ray":13360,"##ester":13361,"##icide":13362,"techniques":13363,"##going":13364,"##enz":13365,"classical":13366,"fighter":13367,"ninth":13368,"sed":13369,"Gard":13370,"appropri":13371,"throne":13372,"eggs":13373,"Brother":13374,"starred":13375,"Free":13376,"academic":13377,"Bang":13378,"Network":13379,"races":13380,"bright":13381,"Pak":13382,"##rig":13383,"adults":13384,"bull":13385,"commemor":13386,"##emet":13387,"photograph":13388,"passenger":13389,"##elsen":13390,"surviv":13391,"loyal":13392,"##action":13393,"Hungarian":13394,"Fore":13395,"Nob":13396,"meets":13397,"1913":13398,"lake":13399,"Meg":13400,"##dden":13401,"##uro":13402,"reviewer":13403,"##night":13404,"alien":13405,"Thus":13406,"premiered":13407,"submarine":13408,"##lyn":13409,"Labor":13410,"Wright":13411,"absence":13412,"##bell":13413,"##wealth":13414,"seeing":13415,"superior":13416,"renew":13417,"##edding":13418,"Cry":13419,"fitted":13420,"else":13421,"##osure":13422,"interior":13423,"credit":13424,"favorite":13425,"##acent":13426,"Parker":13427,"engineer":13428,"##arsh":13429,"dub":13430,"airport":13431,"Batman":13432,"Tok":13433,"partn":13434,"900":13435,"##uv":13436,"##PA":13437,"08":13438,"##oral":13439,"deemed":13440,"attacking":13441,"Harris":13442,"##aling":13443,"appearing":13444,"conclusion":13445,"Bi":13446,"visible":13447,"1926":13448,"dating":13449,"synthes":13450,"depend":13451,"##ivan":13452,"characteristics":13453,"romantic":13454,"leads":13455,"elections":13456,"rum":13457,"pin":13458,"operate":13459,"1927":13460,"facility":13461,"encouraged":13462,"municip":13463,"Heart":13464,"Library":13465,"afterwards":13466,"colony":13467,"retirement":13468,"DNA":13469,"landed":13470,"AI":13471,"Murray":13472,"convection":13473,"temperatures":13474,"1921":13475,"everyone":13476,"doct":13477,"suffering":13478,"1934":13479,"bat":13480,"sight":13481,"legislation":13482,"holds":13483,"fer":13484,"modified":13485,"lies":13486,"Education":13487,"Late":13488,"##iac":13489,"od":13490,"painted":13491,"controversial":13492,"wings":13493,"Li":13494,"##eor":13495,"Tal":13496,"##roit":13497,"gone":13498,"Knight":13499,"##ossible":13500,"Houston":13501,"san":13502,"believes":13503,"##ixon":13504,"distributed":13505,"##urches":13506,"##bo":13507,"##oen":13508,"Commander":13509,"attempting":13510,"Spe":13511,"Police":13512,"Berlin":13513,"Palace":13514,"Deb":13515,"standards":13516,"looked":13517,"rescue":13518,"authors":13519,"que":13520,"##book":13521,"secured":13522,"1912":13523,"##scape":13524,"FI":13525,"##chang":13526,"monarch":13527,"depicted":13528,"buy":13529,"dominated":13530,"##apping":13531,"##itable":13532,"##char":13533,"##uster":13534,"Ey":13535,"##agu":13536,"battleship":13537,"grass":13538,"habitat":13539,"09":13540,"anyone":13541,"Yug":13542,"##apse":13543,"continuing":13544,"##coming":13545,"judge":13546,"Hospital":13547,"longest":13548,"Story":13549,"Thor":13550,"Santa":13551,"gar":13552,"biggest":13553,"trained":13554,"union":13555,"Swedish":13556,"Commonwealth":13557,"unsuccessful":13558,"graphics":13559,"chairman":13560,"pound":13561,"neck":13562,"##atically":13563,"Simpson":13564,"Roberts":13565,"bet":13566,"wins":13567,"sudden":13568,"##aws":13569,"1932":13570,"##ultane":13571,"##inals":13572,"jump":13573,"arrangement":13574,"carrier":13575,"##aska":13576,"##owa":13577,"##rait":13578,"##prise":13579,"railroad":13580,"Indians":13581,"Get":13582,"##ache":13583,"acknowled":13584,"map":13585,"##igration":13586,"nickn":13587,"Mort":13588,"Seat":13589,"informed":13590,"measures":13591,"apparent":13592,"Cook":13593,"Silver":13594,"RAAF":13595,"##uther":13596,"belt":13597,"##bl":13598,"##eenth":13599,"representing":13600,"##emetery":13601,"Cru":13602,"releases":13603,"Corporation":13604,"achieve":13605,"Social":13606,"##ture":13607,"outl":13608,"Warner":13609,"NBC":13610,"##olph":13611,"##ternal":13612,"Merc":13613,"sees":13614,"garrison":13615,"Yugoslav":13616,"##rum":13617,"formerly":13618,"grade":13619,"Jason":13620,"generated":13621,"styles":13622,"closer":13623,"deployed":13624,"emergency":13625,"Anthony":13626,"cancer":13627,"bats":13628,"##li":13629,"alleg":13630,"##tenance":13631,"##elle":13632,"questions":13633,"moderate":13634,"Supp":13635,"historic":13636,"Nev":13637,"gets":13638,"veter":13639,"##fare":13640,"trials":13641,"festival":13642,"ster":13643,"cycle":13644,"molec":13645,"siege":13646,"influential":13647,"Obs":13648,"emotional":13649,"##aire":13650,"Croatia":13651,"Detroit":13652,"ha":13653,"##otype":13654,"##una":13655,"owners":13656,"novels":13657,"RAF":13658,"successor":13659,"influences":13660,"narrative":13661,"Gaga":13662,"Track":13663,"1911":13664,"1929":13665,"Dal":13666,"##aints":13667,"Chamber":13668,"stead":13669,"eat":13670,"##iens":13671,"mathem":13672,"journalist":13673,"Author":13674,"excess":13675,"assass":13676,"140":13677,"childhood":13678,"Gilbert":13679,"constant":13680,"experiences":13681,"##yo":13682,"enfor":13683,"veget":13684,"pregn":13685,"defended":13686,"discussed":13687,"Princess":13688,"Fri":13689,"apparently":13690,"alco":13691,"##mate":13692,"Samuel":13693,"instruments":13694,"Shar":13695,"Spears":13696,"victims":13697,"treated":13698,"PC":13699,"##ois":13700,"Lyn":13701,"giant":13702,"render":13703,"##using":13704,"environmental":13705,"##isen":13706,"executed":13707,"##mun":13708,"##arked":13709,"Asian":13710,"1931":13711,"detail":13712,"1922":13713,"coins":13714,"##imore":13715,"Dom":13716,"depos":13717,"squ":13718,"offices":13719,"Sull":13720,"##aled":13721,"factors":13722,"bes":13723,"mine":13724,"legs":13725,"Jesus":13726,"bab":13727,"bear":13728,"##usted":13729,"05":13730,"##eeper":13731,"row":13732,"enters":13733,"##achment":13734,"hunting":13735,"Somers":13736,"wooden":13737,"Melbourne":13738,"settle":13739,"Evans":13740,"Atlant":13741,"Nielsen":13742,"channel":13743,"##obi":13744,"Pope":13745,"##noon":13746,"Anton":13747,"##ching":13748,"ride":13749,"hundreds":13750,"Vice":13751,"resigned":13752,"##iliar":13753,"ocean":13754,"Guy":13755,"Xbox":13756,"gay":13757,"Clinton":13758,"uniform":13759,"##itter":13760,"##ods":13761,"skills":13762,"##alo":13763,"Express":13764,"Nar":13765,"reveals":13766,"##br":13767,"##aste":13768,"Nevertheless":13769,"chapter":13770,"Category":13771,"pointed":13772,"ridge":13773,"bon":13774,"clim":13775,"##rence":13776,"##orous":13777,"Wing":13778,"##ES":13779,"watching":13780,"Stewart":13781,"Ku":13782,"prevented":13783,"##utt":13784,"Mun":13785,"Organ":13786,"Muslim":13787,"pull":13788,"preferred":13789,"pushed":13790,"##lie":13791,"##rees":13792,"Real":13793,"##icians":13794,"locomot":13795,"Hin":13796,"Ru":13797,"footage":13798,"languages":13799,"flew":13800,"Heavy":13801,"difference":13802,"opponents":13803,"disappear":13804,"happened":13805,"Tower":13806,"formally":13807,"thereafter":13808,"check":13809,"drums":13810,"Bulgar":13811,"reportedly":13812,"Benn":13813,"##isp":13814,"facing":13815,"Origin":13816,"resign":13817,"relationships":13818,"deliver":13819,"chain":13820,"intense":13821,"thousand":13822,"Turkish":13823,"handed":13824,"theor":13825,"##onies":13826,"device":13827,"notably":13828,"##oto":13829,"animation":13830,"Sarah":13831,"lem":13832,"Aud":13833,"Rey":13834,"##ogether":13835,"firing":13836,"170":13837,"Lennon":13838,"vision":13839,"inhabit":13840,"##rad":13841,"##wich":13842,"existed":13843,"visitors":13844,"Bird":13845,"employees":13846,"learn":13847,"Greece":13848,"Baltimore":13849,"Bed":13850,"Austria":13851,"accompany":13852,"Queens":13853,"boil":13854,"Albums":13855,"##MA":13856,"Hans":13857,"Ark":13858,"departed":13859,"linked":13860,"##mad":13861,"##stic":13862,"hearing":13863,"exposed":13864,"participate":13865,"##ares":13866,"poetry":13867,"dialogue":13868,"##hatt":13869,"fil":13870,"##ila":13871,"Stock":13872,"format":13873,"extent":13874,"archae":13875,"##usic":13876,"Cam":13877,"detailed":13878,"arrest":13879,"Colorado":13880,"##aria":13881,"substantial":13882,"Raw":13883,"learning":13884,"beach":13885,"audio":13886,"instance":13887,"Edd":13888,"universe":13889,"Cz":13890,"##phy":13891,"##ropolitan":13892,"rebell":13893,"cruisers":13894,"residential":13895,"##aver":13896,"##igen":13897,"##unes":13898,"Writing":13899,"impressed":13900,"##jo":13901,"##entures":13902,"Malays":13903,"##oys":13904,"Marshall":13905,"vul":13906,"##bridge":13907,"##atus":13908,"##endment":13909,"periods":13910,"Initially":13911,"##orage":13912,"subt":13913,"Foundation":13914,"huge":13915,"mart":13916,"shore":13917,"util":13918,"Lane":13919,"DS":13920,"avo":13921,"Sullivan":13922,"Dave":13923,"easy":13924,"taught":13925,"Beg":13926,"Fal":13927,"Chronic":13928,"afternoon":13929,"tempor":13930,"##ologists":13931,"stem":13932,"Frederick":13933,"Horn":13934,"##anz":13935,"territories":13936,"erect":13937,"fur":13938,"driver":13939,"testing":13940,"reviewers":13941,"Ern":13942,"imprison":13943,"enthus":13944,"##ribed":13945,"videos":13946,"hat":13947,"1928":13948,"Wrestling":13949,"##orial":13950,"##opter":13951,"happy":13952,"upd":13953,"Sab":13954,"tests":13955,"Banks":13956,"Having":13957,"##iami":13958,"stable":13959,"Horse":13960,"##ectic":13961,"teeth":13962,"liqu":13963,"feud":13964,"reprodu":13965,"understand":13966,"sympt":13967,"Anna":13968,"diameter":13969,"isolated":13970,"##ogan":13971,"surg":13972,"negotiations":13973,"vessel":13974,"Somerset":13975,"Mario":13976,"agents":13977,"sleep":13978,"picked":13979,"Jess":13980,"##rant":13981,"1925":13982,"07":13983,"bridges":13984,"goods":13985,"encountered":13986,"##otes":13987,"dangerous":13988,"junior":13989,"withdrew":13990,"Release":13991,"diagn":13992,"##present":13993,"lob":13994,"simultane":13995,"##asure":13996,"aged":13997,"founder":13998,"code":13999,"Call":14000,"Lim":14001,"Ty":14002,"reun":14003,"Desc":14004,"Anglo":14005,"behavi":14006,"factor":14007,"normally":14008,"upgraded":14009,"Giants":14010,"##igs":14011,"transm":14012,"keeping":14013,"tie":14014,"Ban":14015,"Miami":14016,"specimens":14017,"pounds":14018,"1890":14019,"##etime":14020,"##idae":14021,"Seattle":14022,"medium":14023,"satell":14024,"relie":14025,"frequent":14026,"Lin":14027,"1924":14028,"##olis":14029,"sure":14030,"collaps":14031,"ethnic":14032,"diet":14033,"mir":14034,"toll":14035,"partly":14036,"Player":14037,"Championships":14038,"##sea":14039,"lowest":14040,"##borough":14041,"prohib":14042,"##olas":14043,"resear":14044,"crisis":14045,"window":14046,"engineering":14047,"Trek":14048,"##eu":14049,"apprec":14050,"Soon":14051,"vic":14052,"Alab":14053,"traveled":14054,"Op":14055,"##col":14056,"ax":14057,"##icine":14058,"whereas":14059,"organizations":14060,"ped":14061,"proced":14062,"prep":14063,"Human":14064,"##away":14065,"designer":14066,"##helm":14067,"01":14068,"Athlet":14069,"##zy":14070,"rarely":14071,"lose":14072,"tone":14073,"refers":14074,"##amese":14075,"Bri":14076,"doesn":14077,"turrets":14078,"##ygen":14079,"##ée":14080,"technique":14081,"##iece":14082,"insc":14083,"weekend":14084,"Treaty":14085,"Iowa":14086,"Ext":14087,"vice":14088,"orb":14089,"Margar":14090,"spending":14091,"finale":14092,"underw":14093,"criticised":14094,"Hand":14095,"advice":14096,"permission":14097,"maintenance":14098,"ML":14099,"##tar":14100,"platinum":14101,"##ennis":14102,"persp":14103,"difficulties":14104,"partially":14105,"restric":14106,"policies":14107,"Alabama":14108,"phen":14109,"plate":14110,"bypass":14111,"personality":14112,"Then":14113,"agree":14114,"mainstream":14115,"verse":14116,"##adow":14117,"##oked":14118,"Forces":14119,"compete":14120,"ranking":14121,"indicate":14122,"excell":14123,"##ibbean":14124,"proport":14125,"recordings":14126,"##inction":14127,"##ilst":14128,"Caribbean":14129,"comments":14130,"seek":14131,"##gressive":14132,"remove":14133,"##raph":14134,"anticip":14135,"finals":14136,"Napole":14137,"mamm":14138,"##FC":14139,"##gram":14140,"refuge":14141,"Tro":14142,"Buff":14143,"Lawrence":14144,"Mississ":14145,"##urance":14146,"##lev":14147,"##uda":14148,"chronic":14149,"##attered":14150,"concerts":14151,"1923":14152,"windows":14153,"bron":14154,"Canal":14155,"strip":14156,"jur":14157,"seats":14158,"restrict":14159,"moral":14160,"Charlie":14161,"monument":14162,"symp":14163,"##chell":14164,"Buck":14165,"rates":14166,"extreme":14167,"honour":14168,"falls":14169,"fighters":14170,"Minnes":14171,"Mach":14172,"Nat":14173,"unn":14174,"pitched":14175,"Reb":14176,"##icy":14177,"phr":14178,"##isd":14179,"representative":14180,"covers":14181,"divor":14182,"Crown":14183,"alter":14184,"McD":14185,"Senator":14186,"##iner":14187,"brand":14188,"tenth":14189,"MP":14190,"Bros":14191,"Ah":14192,"CR":14193,"Holl":14194,"truth":14195,"prompted":14196,"Burg":14197,"##power":14198,"forcing":14199,"describe":14200,"protest":14201,"hockey":14202,"Ian":14203,"##ses":14204,"tub":14205,"Ministry":14206,"sufficient":14207,"Ll":14208,"cod":14209,"##mates":14210,"##udes":14211,"reconst":14212,"shear":14213,"destroyers":14214,"minimum":14215,"##esses":14216,"Cur":14217,"Garden":14218,"Township":14219,"hull":14220,"churches":14221,"friendly":14222,"boys":14223,"neighborhood":14224,"USD":14225,"Grammy":14226,"bases":14227,"examples":14228,"Hungary":14229,"##anium":14230,"Health":14231,"Blood":14232,"Lock":14233,"drawing":14234,"Country":14235,"##usal":14236,"Polit":14237,"Nazi":14238,"Kal":14239,"travelled":14240,"Benj":14241,"bombers":14242,"inaug":14243,"doctor":14244,"Shakes":14245,"dynasty":14246,"Dance":14247,"adjacent":14248,"mand":14249,"approval":14250,"housing":14251,"displayed":14252,"Hamp":14253,"Return":14254,"rej":14255,"Michel":14256,"perce":14257,"Australians":14258,"##encing":14259,"Belgium":14260,"creator":14261,"credits":14262,"forec":14263,"##oken":14264,"grown":14265,"collapse":14266,"joining":14267,"listing":14268,"copy":14269,"tribute":14270,"aware":14271,"Diego":14272,"partnership":14273,"protagonist":14274,"Shakesp":14275,"Cold":14276,"fung":14277,"Event":14278,"Rand":14279,"##ogy":14280,"explo":14281,"Medal":14282,"Shakespear":14283,"DC":14284,"moments":14285,"acted":14286,"Christopher":14287,"changing":14288,"creative":14289,"##alions":14290,"##aser":14291,"designation":14292,"##ski":14293,"powered":14294,"##ugby":14295,"instrumental":14296,"Camer":14297,"Hu":14298,"Much":14299,"##velt":14300,"refere":14301,"trend":14302,"##onnaissance":14303,"asks":14304,"03":14305,"Dead":14306,"arts":14307,"##ecraft":14308,"micro":14309,"radar":14310,"Children":14311,"canal":14312,"sky":14313,"uncertain":14314,"storms":14315,"1908":14316,"villages":14317,"Hud":14318,"##sex":14319,"1905":14320,"Cred":14321,"possession":14322,"appointment":14323,"advis":14324,"dollars":14325,"##imeter":14326,"1909":14327,"treaty":14328,"scientists":14329,"Nik":14330,"##ounced":14331,"rounds":14332,"Khan":14333,"##chen":14334,"##otten":14335,"wheel":14336,"Record":14337,"Guardian":14338,"Represent":14339,"victories":14340,"survive":14341,"Dur":14342,"##sk":14343,"grav":14344,"Legacy":14345,"eliminated":14346,"paintings":14347,"Benjamin":14348,"##pan":14349,"covering":14350,"minimal":14351,"precip":14352,"##raf":14353,"Roose":14354,"Hockey":14355,"elsewhere":14356,"Vietnamese":14357,"04":14358,"telling":14359,"Hills":14360,"105":14361,"newspapers":14362,"innov":14363,"surprise":14364,"AR":14365,"loan":14366,"##ivated":14367,"##active":14368,"seeking":14369,"arriving":14370,"125":14371,"helping":14372,"occupation":14373,"rhythm":14374,"suicide":14375,"Minnesota":14376,"##ouri":14377,"purposes":14378,"Alfred":14379,"##eted":14380,"unlike":14381,"values":14382,"dispute":14383,"##eing":14384,"##iders":14385,"twin":14386,"occasions":14387,"gard":14388,"##rim":14389,"smooth":14390,"Hind":14391,"pool":14392,"tomb":14393,"Div":14394,"Manhatt":14395,"Son":14396,"Tun":14397,"benefit":14398,"Born":14399,"##rm":14400,"##roid":14401,"option":14402,"Manhattan":14403,"Kurt":14404,"manusc":14405,"Si":14406,"soil":14407,"##ographical":14408,"Aff":14409,"Franklin":14410,"fishing":14411,"Interstate":14412,"struggle":14413,"Walker":14414,"Om":14415,"marry":14416,"cryst":14417,"poly":14418,"##rod":14419,"##uman":14420,"murd":14421,"Roosevelt":14422,"balance":14423,"Administ":14424,"Anim":14425,"degrees":14426,"teacher":14427,"preserved":14428,"Trust":14429,"##TA":14430,"schedule":14431,"Gab":14432,"flash":14433,"1907":14434,"Perform":14435,"Comb":14436,"helic":14437,"categ":14438,"Flight":14439,"cooper":14440,"164":14441,"circumst":14442,"Shel":14443,"publicly":14444,"spiritual":14445,"##fire":14446,"Peninsula":14447,"neutral":14448,"##ascar":14449,"Beck":14450,"##atherine":14451,"Hong":14452,"Ren":14453,"violent":14454,"candidates":14455,"resumed":14456,"##orph":14457,"emperor":14458,"Kansas":14459,"wedding":14460,"competed":14461,"pilots":14462,"Bh":14463,"Fried":14464,"survivors":14465,"02":14466,"##incial":14467,"##munition":14468,"Rang":14469,"dies":14470,"abilities":14471,"Industry":14472,"procl":14473,"discip":14474,"Nash":14475,"##eland":14476,"##acle":14477,"Dw":14478,"deter":14479,"cook":14480,"##ulating":14481,"Ra":14482,"Satur":14483,"##nik":14484,"##icity":14485,"beautiful":14486,"Lith":14487,"##oking":14488,"Mississipp":14489,"impossible":14490,"Portland":14491,"coordin":14492,"intensified":14493,"Know":14494,"alignment":14495,"##agen":14496,"165":14497,"multi":14498,"teaching":14499,"advoc":14500,"argument":14501,"custom":14502,"grey":14503,"assisted":14504,"poison":14505,"defeating":14506,"simpl":14507,"electronic":14508,"##obile":14509,"concrete":14510,"lists":14511,"prosp":14512,"Hotel":14513,"Brun":14514,"Cyr":14515,"nations":14516,"##ls":14517,"##sters":14518,"overt":14519,"serial":14520,"Digital":14521,"rivers":14522,"##ensions":14523,"absol":14524,"Building":14525,"Ward":14526,"Wolf":14527,"VI":14528,"##uits":14529,"##ika":14530,"assists":14531,"elabor":14532,"foundation":14533,"danc":14534,"opponent":14535,"interesting":14536,"agricultural":14537,"101":14538,"businesses":14539,"Ice":14540,"Kl":14541,"Nag":14542,"backing":14543,"concurr":14544,"oxygen":14545,"1880":14546,"suitable":14547,"multipl":14548,"mines":14549,"signing":14550,"Rap":14551,"fifteen":14552,"tunnel":14553,"submitted":14554,"Lad":14555,"understanding":14556,"scholar":14557,"Cob":14558,"encounter":14559,"symptoms":14560,"Blues":14561,"##iveness":14562,"##itated":14563,"citing":14564,"waves":14565,"##odore":14566,"behalf":14567,"Alexand":14568,"Halo":14569,"orbit":14570,"Wol":14571,"sank":14572,"sunk":14573,"percentage":14574,"Native":14575,"##icer":14576,"parish":14577,"Hem":14578,"##ilty":14579,"forests":14580,"Area":14581,"Hindu":14582,"Sym":14583,"Tenness":14584,"ninet":14585,"forty":14586,"##elli":14587,"situated":14588,"##ifer":14589,"signs":14590,"##dale":14591,"closing":14592,"subjects":14593,"Campbell":14594,"Vinc":14595,"##onymous":14596,"ammunition":14597,"voiced":14598,"Kings":14599,"nom":14600,"usual":14601,"illness":14602,"##gate":14603,"autom":14604,"Tag":14605,"tra":14606,"repairs":14607,"Hero":14608,"affair":14609,"##alities":14610,"resolution":14611,"corpor":14612,"Box":14613,"Ple":14614,"##ships":14615,"Steven":14616,"360":14617,"Lucas":14618,"##sky":14619,"##osm":14620,"imperial":14621,"Dest":14622,"wrest":14623,"asking":14624,"Non":14625,"disaster":14626,"##enson":14627,"functions":14628,"collaboration":14629,"Vis":14630,"attendance":14631,"restaurant":14632,"controll":14633,"evil":14634,"Apple":14635,"lieutenant":14636,"Egyptian":14637,"Margaret":14638,"audiences":14639,"feelings":14640,"underground":14641,"##adi":14642,"deliber":14643,"junction":14644,"flights":14645,"##amic":14646,"Surv":14647,"Joh":14648,"affairs":14649,"suspended":14650,"skull":14651,"Tennessee":14652,"##reation":14653,"exit":14654,"Mississippi":14655,"Jos":14656,"Josh":14657,"##odge":14658,"pron":14659,"##amps":14660,"willing":14661,"##asters":14662,"targets":14663,"Louisiana":14664,"cargo":14665,"earthqu":14666,"Race":14667,"1906":14668,"Mack":14669,"##lah":14670,"funeral":14671,"Montreal":14672,"##rix":14673,"prol":14674,"Micro":14675,"abol":14676,"operational":14677,"McL":14678,"##estone":14679,"##ques":14680,"##unc":14681,"##ante":14682,"Labour":14683,"lect":14684,"Fred":14685,"1904":14686,"poorly":14687,"measured":14688,"##lec":14689,"##SP":14690,"compilation":14691,"Palest":14692,"documents":14693,"Historic":14694,"string":14695,"professor":14696,"mountains":14697,"Missouri":14698,"filed":14699,"aimed":14700,"registered":14701,"##uable":14702,"adopt":14703,"anch":14704,"circuit":14705,"1870":14706,"Sin":14707,"##atics":14708,"Depression":14709,"initi":14710,"Dragon":14711,"Philippines":14712,"##emen":14713,"statue":14714,"##ocking":14715,"favorable":14716,"##ishment":14717,"elder":14718,"liked":14719,"##andal":14720,"Mitchell":14721,"##mers":14722,"##father":14723,"##inea":14724,"recognised":14725,"explosion":14726,"Billy":14727,"jazz":14728,"##ateur":14729,"entertainment":14730,"represents":14731,"Harvey":14732,"Lov":14733,"##agg":14734,"##rac":14735,"temporarily":14736,"wet":14737,"##cho":14738,"Cher":14739,"sector":14740,"##CC":14741,"Magn":14742,"Kirk":14743,"Cow":14744,"delay":14745,"Small":14746,"sequences":14747,"Critics":14748,"replacing":14749,"fifty":14750,"##idel":14751,"Lam":14752,"##bec":14753,"##overe":14754,"offering":14755,"overw":14756,"shells":14757,"115":14758,"cyl":14759,"margin":14760,"artwork":14761,"Ring":14762,"Independent":14763,"Graham":14764,"wore":14765,"residence":14766,"preparation":14767,"interpre":14768,"Grey":14769,"##species":14770,"Business":14771,"##vis":14772,"Warren":14773,"Czech":14774,"Near":14775,"##face":14776,"##issions":14777,"restoration":14778,"reflected":14779,"nucle":14780,"##equ":14781,"##orders":14782,"##ception":14783,"##orer":14784,"prime":14785,"reluct":14786,"alliance":14787,"directors":14788,"Care":14789,"##ctic":14790,"expensive":14791,"Fem":14792,"##irteen":14793,"##unch":14794,"##ello":14795,"terror":14796,"Mes":14797,"UE":14798,"##ori":14799,"touring":14800,"meat":14801,"##ylan":14802,"##inental":14803,"alcohol":14804,"completing":14805,"amongst":14806,"thinking":14807,"Mess":14808,"##ancell":14809,"infr":14810,"suggesting":14811,"bay":14812,"##artney":14813,"horror":14814,"Ariz":14815,"Maur":14816,"banks":14817,"assess":14818,"dimens":14819,"##bishop":14820,"ing":14821,"cancelled":14822,"Seven":14823,"gang":14824,"##rine":14825,"rebuilt":14826,"coverage":14827,"tribes":14828,"recommend":14829,"Snow":14830,"Cuba":14831,"pulled":14832,"decides":14833,"escaped":14834,"mal":14835,"span":14836,"Guide":14837,"wasn":14838,"amounts":14839,"##iary":14840,"##DS":14841,"Chand":14842,"Mik":14843,"cous":14844,"Ped":14845,"lacked":14846,"craft":14847,"racing":14848,"##rous":14849,"##ova":14850,"dramatic":14851,"##rage":14852,"##quir":14853,"##athy":14854,"familiar":14855,"Phoen":14856,"communication":14857,"clearly":14858,"Tamil":14859,"Files":14860,"garden":14861,"##ele":14862,"predomin":14863,"patterns":14864,"##urally":14865,"engagement":14866,"rit":14867,"ownership":14868,"ide":14869,"argues":14870,"wel":14871,"frig":14872,"##enues":14873,"marks":14874,"Persian":14875,"173":14876,"safe":14877,"tru":14878,"Arizona":14879,"saved":14880,"Indies":14881,"armored":14882,"perspective":14883,"Sony":14884,"colonies":14885,"wicket":14886,"drove":14887,"Saturday":14888,"contributions":14889,"merchant":14890,"solution":14891,"print":14892,"Bureau":14893,"Dylan":14894,"net":14895,"fastest":14896,"Cycl":14897,"playoffs":14898,"sup":14899,"artistic":14900,"administrative":14901,"seed":14902,"remnants":14903,"Scout":14904,"##ieties":14905,"keyboard":14906,"tag":14907,"execut":14908,"characterized":14909,"false":14910,"See":14911,"##idency":14912,"Marie":14913,"boundary":14914,"##ucing":14915,"rising":14916,"militia":14917,"kings":14918,"Edge":14919,"##orious":14920,"severely":14921,"ben":14922,"armament":14923,"crews":14924,"institutions":14925,"ca":14926,"obv":14927,"disappoin":14928,"badly":14929,"EP":14930,"retail":14931,"depending":14932,"ideal":14933,"Confederate":14934,"earning":14935,"174":14936,"bulk":14937,"##enger":14938,"genetic":14939,"distinctive":14940,"##oga":14941,"bowling":14942,"##rome":14943,"##inces":14944,"recip":14945,"explains":14946,"notice":14947,"##omber":14948,"fallen":14949,"excav":14950,"Oklah":14951,"restricted":14952,"bronze":14953,"##olid":14954,"##ripts":14955,"ranks":14956,"spend":14957,"context":14958,"frust":14959,"comparison":14960,"threw":14961,"Liz":14962,"demonstrated":14963,"explain":14964,"condem":14965,"ranging":14966,"quiet":14967,"##cements":14968,"##uations":14969,"inland":14970,"poems":14971,"controls":14972,"err":14973,"inhabitants":14974,"arrive":14975,"Switzer":14976,"Wilhelm":14977,"kW":14978,"flagship":14979,"Murphy":14980,"riders":14981,"Amy":14982,"sisters":14983,"##fish":14984,"plus":14985,"##life":14986,"##roke":14987,"##anches":14988,"practices":14989,"loop":14990,"mental":14991,"wants":14992,"Mrs":14993,"Such":14994,"vel":14995,"155":14996,"electron":14997,"ABC":14998,"Econom":14999,"faster":15000,"##hu":15001,"conservative":15002,"Broadway":15003,"##ivia":15004,"##phony":15005,"wider":15006,"Switzerland":15007,"shield":15008,"maneu":15009,"synd":15010,"revol":15011,"gap":15012,"##oven":15013,"##formation":15014,"Barry":15015,"surge":15016,"exclud":15017,"spotted":15018,"##otton":15019,"stores":15020,"confront":15021,"acceler":15022,"1901":15023,"vulner":15024,"reaches":15025,"distinguished":15026,"northward":15027,"evolved":15028,"application":15029,"exhibition":15030,"Rat":15031,"##inian":15032,"##anton":15033,"earn":15034,"##Ar":15035,"##erk":15036,"##acc":15037,"##acon":15038,"gate":15039,"Oklahoma":15040,"##pet":15041,"millimet":15042,"Austrian":15043,"##EC":15044,"quarterback":15045,"nominations":15046,"pace":15047,"agency":15048,"##roph":15049,"##pha":15050,"protein":15051,"subspecies":15052,"Federation":15053,"frame":15054,"##rik":15055,"satellite":15056,"kit":15057,"##uma":15058,"Original":15059,"##lings":15060,"##exp":15061,"autobi":15062,"##upp":15063,"dominant":15064,"households":15065,"prepare":15066,"##inations":15067,"##eled":15068,"1903":15069,"predicted":15070,"palace":15071,"scr":15072,"Delaware":15073,"wreck":15074,"1902":15075,"##SA":15076,"storage":15077,"slaves":15078,"Bomb":15079,"##urer":15080,"##acked":15081,"##sequently":15082,"obtain":15083,"Shakespeare":15084,"abund":15085,"vs":15086,"thor":15087,"##storm":15088,"##etta":15089,"intellect":15090,"Pil":15091,"articles":15092,"printed":15093,"vast":15094,"carriers":15095,"##bre":15096,"attained":15097,"Perry":15098,"repeatedly":15099,"Lex":15100,"pup":15101,"##azing":15102,"fixed":15103,"predecessor":15104,"##agh":15105,"allies":15106,"Leslie":15107,"vertical":15108,"surgery":15109,"strict":15110,"signal":15111,"Baby":15112,"peaking":15113,"##imen":15114,"philosophy":15115,"rub":15116,"yield":15117,"phenomen":15118,"adventure":15119,"blocks":15120,"excellent":15121,"boss":15122,"##lus":15123,"##uki":15124,"Originally":15125,"disagre":15126,"striking":15127,"Rih":15128,"##oned":15129,"parent":15130,"Karl":15131,"pretty":15132,"illegal":15133,"Ald":15134,"##abs":15135,"##riptions":15136,"bombs":15137,"Tokyo":15138,"##iph":15139,"perceived":15140,"Less":15141,"Mother":15142,"172":15143,"seriously":15144,"choose":15145,"##tha":15146,"Denmark":15147,"Rico":15148,"##isons":15149,"comfort":15150,"apartment":15151,"Jonathan":15152,"remarked":15153,"Pow":15154,"tight":15155,"##oa":15156,"Program":15157,"westward":15158,"useful":15159,"waiting":15160,"##shore":15161,"circumstances":15162,"Chel":15163,"##aughters":15164,"Players":15165,"Baseball":15166,"Bernard":15167,"##lecru":15168,"Atlanta":15169,"Rihanna":15170,"Ont":15171,"icon":15172,"sket":15173,"coinc":15174,"meetings":15175,"drugs":15176,"Ridge":15177,"battalions":15178,"sick":15179,"dollar":15180,"##yler":15181,"Hann":15182,"152":15183,"Johnny":15184,"168":15185,"Abbey":15186,"institution":15187,"Nixon":15188,"##eley":15189,"phone":15190,"breat":15191,"##rose":15192,"civilian":15193,"layer":15194,"Wor":15195,"##AR":15196,"Brig":15197,"Territ":15198,"##rist":15199,"armour":15200,"readers":15201,"Hur":15202,"whilst":15203,"Inn":15204,"Ay":15205,"gust":15206,"Ton":15207,"##rift":15208,"chamber":15209,"matters":15210,"casting":15211,"tiss":15212,"##apolis":15213,"Juan":15214,"strengthened":15215,"visiting":15216,"planets":15217,"horn":15218,"Campaign":15219,"reconnaissance":15220,"Lang":15221,"##onomy":15222,"Cra":15223,"retain":15224,"similarly":15225,"Pitts":15226,"##ports":15227,"Edwards":15228,"simultaneously":15229,"##oons":15230,"legacy":15231,"##mingham":15232,"Arnold":15233,"##low":15234,"alternate":15235,"Maj":15236,"clock":15237,"demanded":15238,"typhoon":15239,"##LC":15240,"Opp":15241,"ju":15242,"empt":15243,"Ral":15244,"justice":15245,"##din":15246,"enlisted":15247,"alive":15248,"insisted":15249,"Railroad":15250,"##TW":15251,"##rity":15252,"##reated":15253,"McM":15254,"Jimmy":15255,"backed":15256,"hook":15257,"##rov":15258,"##estyle":15259,"shipping":15260,"Madag":15261,"Keith":15262,"subsid":15263,"Rub":15264,"##hyl":15265,"tack":15266,"##aro":15267,"##attle":15268,"revenue":15269,"promised":15270,"bombing":15271,"extend":15272,"demands":15273,"Sem":15274,"om":15275,"##entle":15276,"Shaw":15277,"Prize":15278,"##jan":15279,"##atern":15280,"Internet":15281,"personally":15282,"lanes":15283,"forg":15284,"neighb":15285,"athletes":15286,"Rachel":15287,"console":15288,"propag":15289,"definition":15290,"109":15291,"mainland":15292,"drivers":15293,"struggled":15294,"looks":15295,"conscious":15296,"portions":15297,"Pars":15298,"pione":15299,"166":15300,"continu":15301,"audition":15302,"orchestra":15303,"behaviour":15304,"Cost":15305,"sung":15306,"##ugg":15307,"roots":15308,"##ghan":15309,"democr":15310,"Bach":15311,"diver":15312,"Gray":15313,"##lain":15314,"##acre":15315,"artific":15316,"guilty":15317,"guitarist":15318,"Yankees":15319,"##otyp":15320,"blow":15321,"select":15322,"##rin":15323,"Tracy":15324,"jobs":15325,"ritual":15326,"Fel":15327,"marketing":15328,"armies":15329,"##da":15330,"##odox":15331,"surpass":15332,"Birmingham":15333,"demolished":15334,"Fat":15335,"Lost":15336,"dancing":15337,"##ray":15338,"##bird":15339,"##pent":15340,"##yt":15341,"starring":15342,"Furthermore":15343,"Mans":15344,"ruling":15345,"Vik":15346,"##inding":15347,"feels":15348,"panel":15349,"Obama":15350,"Nine":15351,"Steel":15352,"Hugh":15353,"##aks":15354,"compens":15355,"##azines":15356,"increases":15357,"profile":15358,"factory":15359,"Constant":15360,"Eventually":15361,"##avery":15362,"##inning":15363,"essential":15364,"ports":15365,"163":15366,"mining":15367,"heading":15368,"Canter":15369,"triple":15370,"Universal":15371,"theater":15372,"counties":15373,"organisation":15374,"pages":15375,"expression":15376,"obst":15377,"Enterprise":15378,"##ouver":15379,"Stat":15380,"McCartney":15381,"pursue":15382,"bonus":15383,"discont":15384,"believing":15385,"##folk":15386,"discovers":15387,"affect":15388,"##arant":15389,"patron":15390,"delivery":15391,"##ti":15392,"##umps":15393,"Buddh":15394,"Baker":15395,"upr":15396,"Phoenix":15397,"salt":15398,"aggreg":15399,"clothing":15400,"Publ":15401,"stick":15402,"heir":15403,"succeed":15404,"Hudson":15405,"Wag":15406,"mobile":15407,"punk":15408,"rif":15409,"orn":15410,"Bobby":15411,"Wayne":15412,"elevation":15413,"acou":15414,"kiss":15415,"sq":15416,"Iran":15417,"Todd":15418,"Girls":15419,"##cles":15420,"Connectic":15421,"Impact":15422,"Patt":15423,"##ultan":15424,"Pearl":15425,"horiz":15426,"secretary":15427,"doubt":15428,"Madagascar":15429,"accum":15430,"Na":15431,"engage":15432,"##opol":15433,"Works":15434,"Connecticut":15435,"Peace":15436,"Sak":15437,"##arth":15438,"chest":15439,"##annon":15440,"Bosn":15441,"bid":15442,"mayor":15443,"altered":15444,"Morrison":15445,"overseas":15446,"Rights":15447,"baby":15448,"Hold":15449,"deterior":15450,"Jup":15451,"listen":15452,"Ontario":15453,"expand":15454,"##fe":15455,"defences":15456,"##aux":15457,"Tol":15458,"renov":15459,"Potter":15460,"erected":15461,"Sig":15462,"##warf":15463,"Diam":15464,"voy":15465,"##irts":15466,"compounds":15467,"Friday":15468,"settlers":15469,"Canterbury":15470,"cup":15471,"musician":15472,"Tit":15473,"##wa":15474,"##pert":15475,"Goth":15476,"Farm":15477,"Vi":15478,"legislature":15479,"##AC":15480,"Spart":15481,"Leonard":15482,"pale":15483,"objective":15484,"Community":15485,"raising":15486,"##OS":15487,"##osy":15488,"decisions":15489,"highways":15490,"aerial":15491,"liquid":15492,"disl":15493,"conversion":15494,"Allies":15495,"solar":15496,"aftermath":15497,"Defence":15498,"concentration":15499,"##aration":15500,"##ensively":15501,"campaigns":15502,"Mol":15503,"sitting":15504,"scen":15505,"indicating":15506,"conspir":15507,"Fe":15508,"happ":15509,"##ulous":15510,"##ifies":15511,"exactly":15512,"NAS":15513,"hidden":15514,"prove":15515,"Foreign":15516,"##stan":15517,"organised":15518,"wealthy":15519,"acknowledged":15520,"danger":15521,"##aments":15522,"Pruss":15523,"permitted":15524,"wrestling":15525,"##mund":15526,"radical":15527,"Napoleon":15528,"ski":15529,"improvements":15530,"dissipated":15531,"Griff":15532,"##opp":15533,"realized":15534,"graduated":15535,"dressed":15536,"Windows":15537,"Amb":15538,"Boys":15539,"appropriate":15540,"anth":15541,"soldier":15542,"Pok":15543,"pm":15544,"execution":15545,"##atropical":15546,"Stein":15547,"meter":15548,"UEFA":15549,"##itis":15550,"observations":15551,"mac":15552,"raids":15553,"Jar":15554,"Legend":15555,"##uese":15556,"profit":15557,"Outstanding":15558,"encl":15559,"removal":15560,"interpretation":15561,"fewer":15562,"travels":15563,"Bath":15564,"Unt":15565,"venue":15566,"celebrated":15567,"Gary":15568,"Vanc":15569,"aggressive":15570,"publications":15571,"initiated":15572,"sharp":15573,"brick":15574,"turret":15575,"##hous":15576,"##inister":15577,"theatrical":15578,"chapel":15579,"Dall":15580,"##Sp":15581,"publishing":15582,"requires":15583,"Season":15584,"Lat":15585,"##ocation":15586,"evacuated":15587,"jurisd":15588,"Lion":15589,"##ivation":15590,"Vancouver":15591,"##itudes":15592,"104":15593,"debt":15594,"Mint":15595,"founding":15596,"origins":15597,"originated":15598,"##amental":15599,"tort":15600,"##itals":15601,"##town":15602,"Abd":15603,"stationed":15604,"cannon":15605,"##enna":15606,"explan":15607,"111":15608,"connect":15609,"brill":15610,"Edin":15611,"Jupiter":15612,"defending":15613,"Drive":15614,"establishing":15615,"retro":15616,"Tan":15617,"mush":15618,"considering":15619,"rebellion":15620,"Mem":15621,"##adier":15622,"##irm":15623,"##ags":15624,"shorter":15625,"announcement":15626,"350":15627,"arrangements":15628,"bones":15629,"##osex":15630,"Pakistan":15631,"##urd":15632,"Champions":15633,"cutting":15634,"Mountains":15635,"steps":15636,"fantasy":15637,"guarant":15638,"Lor":15639,"##uction":15640,"##itively":15641,"comed":15642,"Soul":15643,"TNA":15644,"##asm":15645,"##ista":15646,"magic":15647,"##autical":15648,"aspect":15649,"##icle":15650,"##aja":15651,"magazines":15652,"connecting":15653,"Cov":15654,"Gate":15655,"##hard":15656,"Champion":15657,"approaching":15658,"memor":15659,"Æthel":15660,"##OT":15661,"hosts":15662,"donated":15663,"Bradman":15664,"walking":15665,"extratropical":15666,"Our":15667,"##eto":15668,"placing":15669,"##ennium":15670,"strategic":15671,"spac":15672,"insects":15673,"Portuguese":15674,"lying":15675,"##ioc":15676,"Administration":15677,"##osexual":15678,"##DI":15679,"##asa":15680,"##pled":15681,"ongoing":15682,"##otte":15683,"discussion":15684,"##grad":15685,"##hears":15686,"gray":15687,"##rows":15688,"funny":15689,"talent":15690,"colleagues":15691,"cub":15692,"edited":15693,"youngest":15694,"##idal":15695,"glac":15696,"Alice":15697,"predict":15698,"closest":15699,"qualified":15700,"gathered":15701,"hypothes":15702,"forth":15703,"battlecru":15704,"tubes":15705,"Trophy":15706,"decide":15707,"1860":15708,"Tak":15709,"volumes":15710,"##ecution":15711,"putting":15712,"supplied":15713,"##adal":15714,"landscape":15715,"rede":15716,"coup":15717,"indicates":15718,"watershed":15719,"switch":15720,"strongest":15721,"1893":15722,"neighbour":15723,"withdrawal":15724,"Dwight":15725,"##anner":15726,"angle":15727,"caps":15728,"rig":15729,"Marvel":15730,"Anc":15731,"markets":15732,"identify":15733,"Lib":15734,"circle":15735,"les":15736,"##bow":15737,"tox":15738,"exposure":15739,"1896":15740,"Roc":15741,"fill":15742,"merely":15743,"trouble":15744,"Fleming":15745,"##arc":15746,"##imented":15747,"desert":15748,"specimen":15749,"collapsed":15750,"171":15751,"Joy":15752,"Len":15753,"Pap":15754,"partial":15755,"challenged":15756,"Convention":15757,"Stu":15758,"Reserve":15759,"Pa":15760,"Honor":15761,"Ches":15762,"##uz":15763,"beam":15764,"density":15765,"Base":15766,"Say":15767,"Hampshire":15768,"cock":15769,"##angel":15770,"NCAA":15771,"Mission":15772,"Triple":15773,"Edinburgh":15774,"Dod":15775,"shift":15776,"Stri":15777,"visits":15778,"limits":15779,"hydrogen":15780,"dubbed":15781,"Da":15782,"##case":15783,"affili":15784,"Oliver":15785,"feeding":15786,"Isa":15787,"provision":15788,"Bak":15789,"##mi":15790,"Those":15791,"Las":15792,"clin":15793,"Meteor":15794,"educational":15795,"Celt":15796,"Mick":15797,"Neg":15798,"##lock":15799,"##angle":15800,"Afghan":15801,"Flying":15802,"Somet":15803,"sad":15804,"seized":15805,"duo":15806,"Dub":15807,"Ko":15808,"Years":15809,"bearing":15810,"##ensis":15811,"Scar":15812,"annually":15813,"Tob":15814,"gro":15815,"topped":15816,"##iper":15817,"corps":15818,"concentrated":15819,"##otal":15820,"exha":15821,"membership":15822,"Mosc":15823,"champions":15824,"attending":15825,"1898":15826,"assembly":15827,"parody":15828,"reflect":15829,"List":15830,"bacter":15831,"##irates":15832,"endors":15833,"Charts":15834,"ranges":15835,"conventional":15836,"Ax":15837,"dogs":15838,"plain":15839,"Natural":15840,"Type":15841,"offense":15842,"navy":15843,"Gor":15844,"Pink":15845,"furn":15846,"Princip":15847,"emphasis":15848,"Rab":15849,"##ür":15850,"##aders":15851,"162":15852,"##igenous":15853,"sole":15854,"weekly":15855,"##imm":15856,"cruc":15857,"productions":15858,"exercise":15859,"tab":15860,"unless":15861,"161":15862,"legit":15863,"talking":15864,"127":15865,"##ieth":15866,"investigate":15867,"##igible":15868,"trough":15869,"anime":15870,"basin":15871,"grave":15872,"Finally":15873,"Ralph":15874,"Prop":15875,"promotional":15876,"Jun":15877,"bond":15878,"##olve":15879,"##terior":15880,"Victorian":15881,"Bron":15882,"bone":15883,"Personal":15884,"prize":15885,"Democrats":15886,"fortress":15887,"Beng":15888,"jury":15889,"portrayal":15890,"ceased":15891,"Yorkshire":15892,"flooded":15893,"AS":15894,"Mand":15895,"##owski":15896,"advertising":15897,"regime":15898,"Argentina":15899,"conservation":15900,"uncle":15901,"birthday":15902,"ticket":15903,"Lloyd":15904,"Kap":15905,"##onica":15906,"coff":15907,"employment":15908,"persons":15909,"Neil":15910,"output":15911,"queen":15912,"Where":15913,"##iffs":15914,"Christianity":15915,"sending":15916,"Deep":15917,"attitude":15918,"experimental":15919,"Village":15920,"photographs":15921,"CO":15922,"bishop":15923,"##boy":15924,"eval":15925,"software":15926,"##hl":15927,"Brothers":15928,"hitting":15929,"questioned":15930,"Haz":15931,"Lt":15932,"##fers":15933,"ballad":15934,"Jerry":15935,"##rolled":15936,"##ović":15937,"108":15938,"brig":15939,"guide":15940,"Overall":15941,"Shak":15942,"provincial":15943,"Chronicle":15944,"scattered":15945,"drinking":15946,"translation":15947,"outd":15948,"unclear":15949,"underwent":15950,"##roying":15951,"mature":15952,"Fund":15953,"##hammad":15954,"1899":15955,"overwhel":15956,"Sud":15957,"replied":15958,"Andre":15959,"assembled":15960,"##feld":15961,"cousin":15962,"Ent":15963,"##pler":15964,"Collins":15965,"Books":15966,"Apoll":15967,"Mong":15968,"cens":15969,"papers":15970,"##és":15971,"representatives":15972,"liberal":15973,"NO":15974,"coat":15975,"lawyer":15976,"swimming":15977,"Craig":15978,"Ale":15979,"cad":15980,"##ashes":15981,"Marge":15982,"Prim":15983,"Ta":15984,"bell":15985,"thirteen":15986,"external":15987,"commentary":15988,"##ologies":15989,"proclaim":15990,"Finland":15991,"imagery":15992,"empire":15993,"Kam":15994,"wire":15995,"##oming":15996,"stere":15997,"monaster":15998,"Maya":15999,"wait":16000,"##ayan":16001,"##assador":16002,"comprom":16003,"loved":16004,"vent":16005,"Ye":16006,"terrain":16007,"exclusive":16008,"acoustic":16009,"Sex":16010,"drag":16011,"slave":16012,"pictures":16013,"duration":16014,"electricity":16015,"##bn":16016,"streak":16017,"daughters":16018,"movies":16019,"Carn":16020,"Turner":16021,"Eug":16022,"sang":16023,"##race":16024,"169":16025,"devast":16026,"Wii":16027,"expert":16028,"accompanying":16029,"branches":16030,"friendship":16031,"surrendered":16032,"Pam":16033,"arrives":16034,"tenure":16035,"##atever":16036,"##ensed":16037,"stronger":16038,"identical":16039,"burial":16040,"Hardy":16041,"##soft":16042,"succession":16043,"Howe":16044,"Similarly":16045,"dread":16046,"beats":16047,"##riors":16048,"Norfolk":16049,"Queensland":16050,"components":16051,"charter":16052,"reverse":16053,"Protest":16054,"Jama":16055,"##amas":16056,"Heritage":16057,"Professor":16058,"prices":16059,"reducing":16060,"Boat":16061,"Sign":16062,"##ellation":16063,"reinforcements":16064,"##place":16065,"Burton":16066,"Hawaii":16067,"Pin":16068,"##iar":16069,"trading":16070,"penet":16071,"Belgian":16072,"Nicholas":16073,"puzz":16074,"##esty":16075,"##illes":16076,"spaces":16077,"destroying":16078,"failing":16079,"mechanical":16080,"Beaut":16081,"competing":16082,"isot":16083,"recall":16084,"113":16085,"exclusively":16086,"Bennett":16087,"repeat":16088,"1850":16089,"Communist":16090,"Dyn":16091,"publisher":16092,"##erg":16093,"component":16094,"quad":16095,"Glen":16096,"stops":16097,"atomic":16098,"Rangers":16099,"worship":16100,"myst":16101,"Cricket":16102,"rend":16103,"##eyer":16104,"##olen":16105,"unw":16106,"Services":16107,"slavery":16108,"Emmy":16109,"precipitation":16110,"Gw":16111,"dict":16112,"##riev":16113,"##oca":16114,"Thunder":16115,"developers":16116,"##igrants":16117,"Vincent":16118,"Dak":16119,"##ricts":16120,"106":16121,"devices":16122,"fossil":16123,"##ibilities":16124,"polar":16125,"governments":16126,"traded":16127,"##hell":16128,"##onian":16129,"Credits":16130,"Catherine":16131,"Living":16132,"reward":16133,"Swift":16134,"consistent":16135,"Liberal":16136,"Local":16137,"banned":16138,"##ye":16139,"##uras":16140,"centers":16141,"Medical":16142,"Ul":16143,"wish":16144,"##haw":16145,"obsc":16146,"varied":16147,"Rud":16148,"tip":16149,"flowers":16150,"artificial":16151,"Curt":16152,"Lem":16153,"Yellow":16154,"push":16155,"##atched":16156,"virus":16157,"Malt":16158,"tube":16159,"102":16160,"extract":16161,"radiation":16162,"Hughes":16163,"Hob":16164,"considers":16165,"redes":16166,"platforms":16167,"1897":16168,"Transportation":16169,"AM":16170,"Look":16171,"Din":16172,"Davies":16173,"Donald":16174,"contribution":16175,"##car":16176,"thunder":16177,"disb":16178,"electrical":16179,"earthquake":16180,"Tax":16181,"##ethel":16182,"Training":16183,"Guitar":16184,"##itarian":16185,"##astructure":16186,"skel":16187,"lyr":16188,"ment":16189,"##egas":16190,"burned":16191,"Must":16192,"Sle":16193,"Prix":16194,"humor":16195,"architectural":16196,"talks":16197,"songwriter":16198,"reviewed":16199,"ecc":16200,"fourteen":16201,"Next":16202,"bath":16203,"##acles":16204,"proceeded":16205,"profession":16206,"Peters":16207,"boilers":16208,"advised":16209,"understood":16210,"##onald":16211,
[...]
